[PAD]
[UNK]
[CLS]
[SEP]
[MASK]
!
"
$
%
&
'
(
)
*
+
,
-
.
/
0
1
2
3
4
5
6
7
8
9
:
;
=
?
@
A
B
C
D
E
F
G
H
I
J
K
L
M
N
O
P
Q
R
S
T
U
V
W
X
Y
Z
[
]
`
a
b
c
d
e
f
g
h
i
j
k
l
m
n
o
p
q
r
s
t
u
v
w
x
y
z
##h
##i
##l
##e
##A
##N
##t
##n
##g
##j
##a
##u
##p
##o
##r
##s
##b
##1
##5
##k
##I
##S
##m
##d
##v
##c
##2
##z
##f
##y
##0
##4
##C
##3
##9
##T
##D
##P
##M
##R
##B
##E
##7
##L
##x
##q
##W
##V
##Y
##U
##F
##H
##w
##8
##O
##K
##6
##G
##Z
##J
##Q
##X
##er
##he
##in
##an
##on
the
##ed
##en
##es
##or
##ar
##at
##al
in
##is
##ing
##nd
of
##it
##as
##ou
##ic
to
##id
##ion
##om
##il
##ay
##el
##ent
and
##re
##st
on
##et
##ad
##ec
##ur
##ol
##am
##ut
th
##ot
sa
for
##ir
said
##ter
##ro
##th
be
##ac
##le
19
##ig
st
##ers
##ill
##ve
##ts
##and
199
##os
##ul
The
##ra
##im
##us
re
##ver
##ow
wh
##ce
##day
was
at
##ly
##ation
##ia
##ld
##ch
1996
##em
##est
##ain
##ith
##ew
##ri
08
##ak
with
an
##00
##ear
##ere
##un
##rom
##ag
con
##ian
is
##ap
##ist
##op
##igh
that
as
##our
from
he
##oc
by
##um
##ate
##ep
##art
##ust
com
pl
##ect
al
##ON
##ment
##ast
##ort
le
##ess
pro
##man
##iv
sh
ch
##ab
##ond
St
##ave
go
not
se
pr
Th
year
ex
ag
##ice
had
it
##ould
has
off
##ies
##ich
##ial
##AN
##rou
10
his
##all
af
were
##ore
we
##ost
##end
##pp
##ug
##if
##ber
de
per
##ight
Fr
have
##ct
after
Ch
fir
##od
##ub
##esday
##ES
sp
##ud
##ue
##wo
##ell
##ions
##ive
##ER
##ok
##ack
sec
who
In
Br
##oun
new
##ity
##ish
##ard
##ov
pol
will
first
##ant
##OR
are
##ark
out
##land
##ank
##ek
##ie
un
##ang
tr
two
but
##av
##ong
##ome
##illion
up
##gh
##ary
comp
12
##che
##amp
been
15
over
##se
rep
11
##IN
##ip
##ther
It
beat
##ime
##ord
##cent
their
##ound
000
or
##ree
##ance
##ry
##ine
##ign
would
percent
ab
which
##mer
second
##ail
res
##IS
exp
##ated
##urs
min
its
##ning
##uc
##ff
##out
##ton
##vern
they
Le
##mp
play
##ident
qu
##ork
##uss
28
ad
cl
##und
##ace
##ick
##ire
##AL
##hen
He
ac
##oin
##ass
one
New
##her
govern
offic
last
22
##res
##ence
Thurs
Thursday
##ral
this
pe
##qu
million
##oll
ar
##ans
##arl
##ng
Al
##up
cont
again
ne
Mon
##ier
##age
week
government
##iss
##ous
Wed
Wedn
me
##eld
Wednesday
##ke
13
##ose
lead
25
20
##ame
three
14
mat
##to
Ger
mon
##ft
##ational
part
##old
Aust
##ix
day
rec
##wn
all
##ors
##anc
##ade
##nder
##so
21
27
26
official
against
su
##ition
##ement
Brit
##ne
fin
man
##act
German
dis
mark
##ase
29
##ST
Sp
##ure
24
##own
news
win
##are
##ision
##ge
police
At
##ina
16
##ations
Russ
when
##ister
##tern
##ount
23
##IC
##ens
##AR
##ock
##we
pre
##ev
##iday
Is
el
also
Tu
Un
under
##ally
##oy
##EN
Tuesday
##ib
##lic
##og
##AT
##ric
##als
inc
##ide
Mar
##lin
sc
op
say
##alk
##ach
##ake
##ted
##med
told
50
Ind
##ates
##outh
##ah
four
##ople
Min
##erv
Monday
Austral
run
##oh
30
Ar
dec
grou
no
##els
17
##ash
AT
market
her
##ik
##ected
We
##ied
##ob
inv
month
do
Friday
acc
end
##any
##ited
about
ind
##enc
Eng
##ely
##ven
##ince
people
Af
poin
##aw
##ile
##orld
##aly
##ublic
##ss
##arg
##ings
comm
18
##AG
##aus
##UL
##ough
some
##uct
elect
##air
bet
##ult
att
##ope
champ
Re
cent
##OC
##ical
##urn
##rough
An
rel
set
time
won
##ION
##ults
pres
Sund
cap
six
But
bl
round
into
##ames
def
##ING
meet
app
##oss
##les
DI
Sw
imp
##EL
##hed
add
cr
##AS
Sunday
co
##fore
conf
group
hal
more
en
##ind
##able
report
bec
str
##ept
##TS
##ament
before
##ember
##aj
##ite
##ital
ref
70
##one
##ild
than
minut
Jul
te
##ath
##ict
##ird
##ters
plan
Com
##err
could
Germany
she
##atur
##ason
##ax
Sh
so
##ET
##AND
Eur
mil
##xt
##ory
##itt
state
Aug
five
nor
##ij
##ission
##ween
kill
other
##ved
spok
points
##cer
##erm
reg
##ague
cons
Australia
between
00
SOC
back
him
##io
##pt
##CER
##istan
##ause
work
years
SOCCER
Bel
Res
since
##its
##reat
##room
##ower
Britain
Ira
Pr
met
inter
##ities
##ull
Iraq
Ir
NE
ear
##IT
##eral
##rael
Israel
40
down
##orts
France
England
Net
South
##ield
played
match
31
##iz
##ey
##UR
##ech
##row
company
##ches
Satur
bo
ret
##onn
##enn
##ares
Saturday
##ium
##vent
only
Europe
spokes
Rep
count
dem
##az
##CH
officials
75
RES
Sc
##ex
##urd
Jap
##ress
##ased
##ices
there
stat
Minister
Afric
Pres
fl
gu
old
##hip
##ai
##ets
third
Japan
Sept
##gan
##aul
##ered
##ised
##OND
Col
just
through
supp
high
president
38
69
Pol
##ott
any
54
dra
tri
##ious
##ef
##rat
##ced
##orp
##urr
half
call
talk
##way
prof
##thern
100
32
71
div
tra
tak
##AD
##ood
inning
seed
##ency
because
RESUL
##vel
##ading
##lem
home
vis
##let
##son
##IR
##ces
##ise
contr
Russian
team
Comm
President
Am
act
war
##ady
Spain
Che
them
##orm
##ole
former
next
NEW
96
ST
made
world
##AM
##ese
##osed
Ser
vs
##lud
##eal
##ink
##other
##app
expected
United
Belg
Mos
Nor
##con
##ica
##oth
statement
Co
Sl
did
games
opp
sl
##OL
##omen
##owed
deal
spokesman
Republic
66
Joh
tour
##arter
33
53
60
sur
vot
##ove
##eng
##uring
##une
DIV
July
45
68
Amer
##led
where
prod
##ternational
Pak
lost
##ees
##omb
start
August
And
serv
##ery
##arm
##ating
ann
September
Pakistan
air
##oman
season
35
sign
##ph
##orn
##alif
China
champions
RESULTS
bu
if
soc
##ling
shares
agre
##ORK
Italy
##uck
News
British
Pal
Paul
YORK
vict
##ham
##ron
##ya
##att
42
44
Ara
Dut
##ease
##ared
reb
polit
Cup
can
##tain
##OT
##OU
##ange
##ISION
invest
reported
CH
Clin
Fin
near
sing
##owing
DIVISION
June
LOND
Pet
game
stri
##osition
iss
##round
ord
##arlier
includ
Clinton
LONDON
billion
lo
##ty
##ram
##ican
while
ass
seconds
##conom
Dem
IN
Op
PR
am
det
num
us
##ged
##vers
##ret
##ley
##EST
matches
67
##eg
##OS
Swed
Dav
bank
##hire
##uch
##ED
##ons
##ists
They
##ondon
peace
64
London
May
bus
##rest
##ures
##ched
Russia
division
65
Ber
LE
Sec
York
del
##AY
##ner
##pr
##bur
##IA
##ench
##uth
party
47
85
held
kn
pass
##co
##uters
being
still
##riv
meeting
added
##ajor
European
56
73
Bra
West
car
earlier
most
own
##ying
##arr
##ater
##ales
##ster
rem
milit
Results
46
55
Mal
econom
now
tonn
well
##port
##IL
fore
##lear
##aper
##ief
scor
metres
visit
John
gen
inf
##ents
##rew
##ross
should
Inc
talks
Democ
34
43
Sa
Sy
take
##ned
##UE
##ward
##iff
##ALL
killed
tonnes
61
Bank
Can
National
SE
hand
loc
long
##AK
##per
##bed
##urity
##osn
##emb
left
Sweden
52
72
cour
during
post
##iet
seven
final
open
India
capital
demand
Gu
Mark
fe
##ober
##ru
##OM
##ians
Reuters
soccer
foreign
48
Wh
around
bel
foll
##AC
inj
##istry
head
French
##uction
profit
curr
dr
##tend
##aq
##cess
##ana
league
prob
prov
good
##lands
elections
74
Mart
des
est
ser
tel
whe
want
international
took
##reak
##estin
manag
Mc
found
main
##ee
##ins
##ants
prot
##ible
attack
minutes
early
innings
announ
number
Democrat
59
Ph
Tr
due
sub
##lam
top
days
saying
Open
200
Corp
den
term
##ior
##ike
##lish
##ting
##ael
##aug
##ban
##dam
##LE
##ale
ins
##lex
##ova
results
contin
return
support
36
Bosn
She
dep
vi
##bs
##rem
newsp
minute
political
Con
Cro
FR
hel
hour
you
town
##andings
1995
##ung
##ights
arm
Belgium
OF
put
##ual
##ecut
share
trad
minister
##arli
##AGUE
Nether
country
American
Newsroom
Palestin
victory
63
95
AN
Cz
Jan
Par
net
##iver
##ool
##by
##ington
##ics
##ries
Netherlands
As
eight
med
##ured
leg
##ollar
arrest
record
champion
##arliament
Kurd
bro
law
our
sus
##au
##ONT
quarter
LEAGUE
##uthor
##augh
49
500
Ak
av
major
sent
test
##loy
##rand
##rist
##zil
##eration
##ising
##ments
##abul
leaders
says
Africa
Slov
Brazil
Czech
90
Ex
Pl
World
hit
im
##ather
##amed
##ution
beh
##ows
CR
dollar
hold
same
##over
##ene
##ison
##ained
Iran
championship
susp
51
62
Bar
eff
hom
lower
very
##ipp
##ls
##til
##erence
##ush
cond
short
ago
leader
called
local
57
Kh
Part
bond
fail
fact
get
prom
##ger
##ria
##alth
##ently
##reg
##uman
States
spe
##ney
##ought
Canad
loss
may
national
##get
##ble
int
##elf
##oted
what
chief
##ending
trade
close
newsroom
Ad
Ed
Gra
Men
On
Sch
Tur
parliament
sm
##iam
##lom
##ked
##mb
##ful
##ones
then
##ished
##imb
##irect
##ICAG
CHICAG
CHICAGO
Bo
both
km
rate
race
##shire
##ka
##iness
##ayed
stock
##rib
charg
goals
prices
##ife
##ICK
singles
military
newspaper
help
41
77
Alex
Mich
TO
camp
grow
land
mid
sold
##ll
##eb
##gy
##uel
##oot
##cow
##field
##ORE
runs
strong
refug
Moscow
58
FIR
Sal
direct
fight
make
pct
##nament
##af
##ues
##IM
##MT
##ering
There
disc
cents
tournament
Dutch
Ab
Kong
Mor
Oly
Per
ban
fell
gave
overs
##ued
##ford
##UT
##inc
##veral
place
ext
months
Prime
taking
Commission
opposition
rebels
issue
##burg
Phil
viol
behind
FIRST
Olymp
Bl
For
Hong
San
Women
cut
city
dro
ro
tabul
vol
##ler
##UG
##head
##orters
##itions
##ury
198
##istr
spec
League
ended
##ennis
Michael
39
Ah
Cost
EN
War
based
wick
##iation
##ris
##ided
##aker
complet
weekend
##ftime
prev
Australian
##alyst
election
north
northern
Iraqi
Israeli
Serb
##attle
David
Ag
Ang
Med
author
diff
giv
late
my
pound
poss
rul
rest
right
##ny
##uk
##ker
##estern
##ories
##outhern
##amil
##ander
##osp
prop
child
press
price
security
until
Attend
agreed
37
Kar
fut
oil
tro
##lor
##less
##ness
##ren
##min
##CT
form
going
agency
deb
players
decl
accus
African
drawn
court
belie
Attendance
Carl
Gen
Lank
Roman
Se
Sri
TH
Will
led
night
##lav
##uan
##be
##ened
##ouse
##omp
another
##ops
##ified
polic
##iplom
need
incre
miles
North
economic
Democratic
refugees
##ospital
80
No
SAN
ahead
dou
men
power
sales
##iat
##gent
##yst
##ico
##ett
##ection
office
##INN
adv
##errill
##ijack
look
general
telev
Palestinian
arrested
CRICK
##iplomat
CRICKET
76
Ben
GMT
Yel
clear
par
public
way
##US
##ani
those
1997
##ivers
##ific
Inter
trans
quoted
All
allowed
Islam
central
business
Slovak
Party
Ahmed
previous
Fore
Jord
Mil
Sud
dist
emb
pay
women
##rd
##ring
##bour
##ID
##zer
##ald
##ides
##omin
##ready
1994
##imes
already
prog
##ives
several
many
train
including
problem
Martin
Foreign
82
BR
Cl
Zeal
ball
break
few
hear
hijack
mor
##ns
##fat
##CE
##LAND
beg
##tsin
##ular
analyst
##unic
##ago
neg
rece
##STON
##STER
indust
Arafat
following
estim
hours
television
Yeltsin
05
Ass
Dole
Oct
diplomat
later
southern
##ras
##TA
##EX
##ines
##ility
##urch
##otor
forces
##ains
##aking
##ivil
##ender
Christ
Union
enter
higher
passeng
drug
authorities
Sudan
Zealand
300
Apr
Be
El
Fer
Gre
Uk
cost
came
emp
join
like
nine
priv
turn
walk
##lo
##napp
##ule
##ox
##sc
##EM
##UK
##eland
think
##ots
##leg
##iger
##imin
##change
##ived
##udget
reporters
resp
weeks
Marc
invol
##vention
guerrill
strike
##retary
whether
announced
troops
Jordan
87
AM
Li
Wash
big
equ
even
fig
farm
much
rank
sell
squ
##CO
##ative
##icago
tot
##omas
##str
##acy
rev
##verage
Chicago
closed
Argent
English
appear
control
agreement
investig
Finland
81
BAS
Cent
Jer
away
budget
col
fall
sour
side
terr
ve
went
##iew
##eep
##aign
##aff
##ony
##eds
##ests
##ects
began
##eph
plans
##ival
This
##aving
qualif
March
oper
decision
index
##INGS
draw
Moslem
Andre
Ukra
BO
Gl
Man
Rober
free
gir
past
val
##aid
##TR
##BALL
##wan
##ane
##enal
threat
stra
##rian
asked
##epend
##ifth
##berg
trading
ministry
Lebed
quest
prem
sett
countries
Police
STAND
##embers
army
immed
campaign
morning
Washington
400
79
Air
Egy
Ge
best
che
cust
fr
fifth
hits
let
move
ph
rights
##ball
##dney
##cc
##RE
##ati
##itted
##ille
##olog
##ute
##anding
##ume
##ugg
organ
leading
money
Austria
##ancial
winning
Atl
accord
taken
seeded
Sydney
Canada
fighting
Olympic
William
April
Egypt
Bor
COL
East
Mid
NAT
bat
bas
coll
cease
dri
hol
tax
wr
wor
##ners
##ped
##sp
##cil
##fire
##UN
##ara
requ
##cept
concer
devel
##ISH
club
such
fourth
confir
##ittle
region
Scor
Colomb
produc
signed
scored
current
ENG
STANDINGS
94
Je
Ne
Nic
Niger
Pro
Two
doc
ever
how
members
pers
red
treat
##lad
##ait
##oor
##ki
##ves
##for
##form
##DP
##arge
##oup
step
##ages
Standings
aff
area
##anged
##ailable
Mont
rele
defe
appro
import
##ITY
White
growth
total
Ukraine
Atlant
develop
78
800
La
PS
Port
SP
average
bomb
cash
civil
hospital
##ject
##ks
##TH
##TON
##alian
##stit
##ama
##ota
##epar
##ONG
##ody
recent
find
working
order
manager
small
road
accused
Lanka
##ystem
BASE
97
Bro
Calif
De
Ken
PCT
Rich
Youn
died
ed
fil
gun
human
sk
##iers
##AP
##night
##uce
##rad
##UM
##eri
##ined
these
##ote
forec
##ired
stop
##anda
without
shot
Ste
goal
seen
execut
agg
##roux
##aily
##ances
pref
##ENN
##rought
plane
Ireland
trip
activ
Republican
vote
buy
Arab
detail
Paris
Akram
available
discuss
future
negot
BASEBALL
02
09
98
Aj
Bill
Dep
Go
Hal
Ham
Qu
bord
case
care
eas
give
great
hard
kid
keep
little
might
pos
sw
sched
separ
##iod
##ta
##aun
##pl
##pite
##rid
##IAN
##me
##UST
##hes
##ators
##idence
##ston
##ado
stud
##riend
##earch
##ortun
period
##udi
##ffic
##uper
does
conference
book
contract
Dutroux
Peter
failed
wickets
embass
ceasefire
released
City
Pe
Pat
fre
fur
fund
miss
rule
system
##ha
##side
##ma
##UP
##hel
##arn
##atest
##ask
##eles
##eter
##ached
##osing
##chn
##umm
least
level
see
prime
compet
repl
Italian
expl
disease
independ
coach
interest
Amster
production
started
service
build
Kurdish
embassy
Amsterdam
83
IS
Kore
PAR
Sen
Tai
US
Was
bill
fed
fire
lik
larg
mission
rain
sol
tennis
##IF
##za
##RO
##BO
##EC
##alem
##ism
##omet
##urt
##amb
##lement
stories
##ulation
##artment
comment
prison
Thomas
##ANC
death
##ESS
##ipal
Leading
across
suff
Indones
ground
point
##airman
##IONS
planned
Chechn
airport
Bosnia
Bosnian
Croat
Costa
October
squad
question
Ajax
Taiwan
Wasim
Chechnya
93
Ban
BAL
FOR
Ju
SC
Sim
Soc
Vol
cop
low
must
ris
rad
rup
rose
sch
yet
##ient
##ti
##BUR
##atch
##isc
##ayer
##ador
##olf
##aced
##ims
##imed
seek
##ouncil
##ards
##anger
expect
##nings
##key
Ministry
commun
attem
known
carry
bonds
Black
given
children
declared
General
Romania
Slovakia
AUG
Bur
CITY
Fir
Gaz
Hung
If
Lt
Or
One
Sm
Ter
coup
face
murd
penal
sim
suc
south
tit
woman
##anies
##reet
##ira
ste
standings
##usalem
health
plant
##ession
State
firm
trying
reports
##icket
##resent
markets
impro
consid
series
##regate
tabulate
possible
Jerusalem
Geor
holiday
further
04
86
900
AG
Cra
Div
Jon
Jim
Mo
Mic
Mex
Tor
Tom
TENN
Yug
bid
brought
date
eng
far
il
id
lim
ob
rates
sen
tie
use
##eed
##RA
##GH
##ari
##ata
##isation
##ita
##ste
##ola
##amm
##uty
##otal
forced
star
##oslav
##ourn
come
resign
result
##ogra
opt
Indian
captain
##ized
Poland
##ways
Cheche
used
##ESTER
opening
charges
program
##unicipal
received
industry
employ
private
guerrillas
Robert
custom
Nigeria
Kenya
Ltd
TENNIS
BE
Bob
Cub
Gr
Gro
Grand
Mush
Ro
br
full
ra
sect
vill
yen
##nes
##IP
##aries
##atist
##ingham
##ociation
lev
process
showed
That
dead
companies
Alger
better
##ittee
Scott
deliver
##wards
injured
despite
effect
Turkey
##istration
##iately
estimated
passengers
Argentina
straight
immediately
details
border
PARIS
likely
school
Yugoslav
illeg
84
Bu
Cy
Dec
Fre
Gold
Ma
Moh
Nations
OS
OP
PL
So
Wimb
cer
daily
each
event
field
friend
got
jail
lif
line
latest
mess
named
pull
##hing
##ever
##nic
##uary
##rup
##DAY
##LING
##oned
##ena
##inger
##itive
##though
##akes
chairman
sex
Frank
##IST
##uclear
Alban
212
financial
groups
##tershire
soon
workers
Japanese
action
##AMP
##ledon
##ornia
rebel
know
policy
doub
##napped
figures
Atlanta
California
forecast
negoti
Wimbledon
01
600
Bal
Coll
Flor
Gil
King
Mull
Ol
Sur
Serv
Te
TOR
Wil
Waq
gold
laun
mov
making
nuclear
position
rise
times
##hold
##lished
##ten
##taq
##na
##uf
##ux
##pted
##red
##mark
##val
##cl
##cu
##ys
##TIM
##BA
##BI
##que
##ino
##inal
##ars
##itzer
##ases
##oud
##icult
##ece
##otes
force
##ros
staff
##ands
##uled
##rain
##aged
convention
Stock
##roup
##elled
unless
##ghan
##chester
represent
exports
admin
arri
recover
##ocked
Univers
##airs
halftime
earnings
seeding
Belgian
##OTA
##OUN
protest
Croft
FRANC
January
##ONTO
difficult
believed
begin
analysts
PSV
Younis
BALTIM
success
Mushtaq
TORONTO
Waqar
BALTIMORE
Du
En
Har
Hel
MAN
Ori
PUK
Que
Rev
Total
UN
WIN
ap
aut
bad
eth
food
gr
host
jud
job
mod
ton
##NE
##te
##gar
##uj
##ually
##vest
##ze
##DAM
##inese
##ator
today
##ays
##aces
197
1992
##rix
within
##ateg
coming
ship
##ANS
##udd
International
##ava
##ampton
playing
meas
##ahu
Afghan
##argo
centre
black
consum
nearly
Security
brok
Exchange
violence
ranked
Central
confirmed
every
scheduled
independence
First
title
levels
700
91
99
Bag
Cour
EU
JO
Mother
MONT
Nep
Rang
Sam
Western
boy
fear
less
member
nation
poor
wound
##go
##put
##rin
##self
##mond
##va
##TLE
##LAN
##erve
##ini
##inth
##ats
##icit
##tered
stage
##vey
reached
##vert
island
##ump
change
##ably
weap
Franc
##odd
poll
track
percentage
disapp
prep
504
171
sixth
Switzer
struck
Netany
542
tried
services
single
PRESS
Saudi
estab
homer
Khan
Turk
charged
Moroc
Philipp
completed
##STERDAM
AMSTERDAM
Richard
Halftime
senior
illegal
OPEN
message
Mullally
ethnic
Nepal
Switzerland
03
06
Cor
Cap
Des
Group
Jose
MA
Mel
Mun
Rub
emer
fav
here
hope
house
kept
lb
motor
municipal
port
ver
wife
youn
##ius
##iate
##sw
##sis
##mitted
##ving
##ck
##cri
##zny
##EE
##onto
##ily
##ilar
1991
1990
##usse
##ither
heav
weak
##pped
##bert
Charl
Chinese
areas
outside
able
acqu
parties
##eva
After
Swiss
##ELS
##ASH
##itting
##ijk
##ressed
flight
trial
326
course
opened
feed
wheat
attacks
continue
ANG
conditions
director
Association
franc
letter
according
aggregate
prefix
ISS
radio
Division
Mexico
Grozny
OSCE
arrived
Netanyahu
92
AF
Cong
Er
Fed
How
HOU
House
LOS
MIL
MINN
Nov
Red
dam
ev
fast
foot
famil
list
link
paper
sit
veter
##view
##cra
##yn
##yc
##TER
##OV
##GEST
##itor
##oul
too
##elt
##aded
##ural
##oles
194
196
##estic
##ighth
##ighbour
leave
##abin
offer
Fred
##ude
truck
##ISCO
##uced
cla
neighbour
winner
ATLAN
appeal
DIGEST
coop
himself
Result
Petr
economy
Johnson
announce
denied
denotes
returned
##enez
Iranian
##fielder
complete
needed
Liber
source
BOSTON
Williams
Midd
NATO
Nicar
treaty
penalty
similar
village
FRANCISCO
Turkish
Bul
Council
Dh
Don
Den
Feb
Hans
Jew
KANS
Lin
Lloy
Mas
Old
PH
Rod
Rica
Sov
Some
Tex
Van
bri
danger
having
li
lot
non
nomin
occ
pit
pop
sem
##hd
##AST
##no
##vic
##MAN
##RI
##EG
##ero
##ont
##ona
##esa
##ouch
##omestic
saw
##rop
##ulf
reason
whose
##emen
##iance
##umb
##arta
##ively
Thai
##ially
Brady
##ORAD
unit
union
compl
compared
##idents
armed
never
mater
##ATTLE
Arm
declin
decided
account
##sson
coal
reform
##echn
guild
Polish
controll
investors
striker
amb
determ
owned
SEATTLE
wanted
continued
broke
avo
Played
Alexander
pounds
Sudanese
terror
COLORAD
Scorers
Steve
executive
Indonesia
Social
carrying
Chechen
sector
Baghd
young
HOUSTON
Nicarag
KANSAS
Lloyd
brief
COLORADO
Baghdad
89
Bayer
Car
CAL
EP
Hond
Il
Ian
Lou
Lew
More
MAT
NOT
Oak
Samp
Soh
Ta
Tamil
Venez
Well
When
Wood
caus
eighth
grand
life
mom
mill
ninth
pain
pub
purch
ri
rid
tw
targ
western
##ei
##tor
##uw
##racy
##sang
##SE
##20
##WA
##work
##hem
##eda
##arian
##isl
##ically
##rey
##rod
stay
##illa
These
alle
##ONN
##iving
chance
##aba
##alled
perfor
##ESOTA
##elli
##oke
secretary
##ORN
120
player
quiet
##ension
##rict
ATH
committee
deficit
cricket
killing
##rowd
banks
infl
postp
province
AND
##aughter
tabulated
volume
special
Angeles
increase
distrib
problems
turned
equal
girl
premier
phot
Colombia
Jean
defeat
important
federal
copper
AUGUST
Hungary
##ournal
##ograph
tonne
Francis
Morocco
MINNESOTA
ATLANTA
Texas
material
Lewis
Sohail
Av
Bas
Bang
Both
BONN
CLE
Do
His
Kenn
Met
Pra
Rw
Rad
Sant
Todd
bar
barr
crowd
der
domestic
hist
happ
lap
light
obs
sum
tight
##hi
##lig
##tim
##oil
##secut
##DS
##west
##ware
##KY
##era
##inn
##ann
##ano
##ening
##atives
##ashed
##ida
##ayne
##urance
##urities
##olution
##amir
##otland
##thing
##igr
##oses
really
##owers
##owling
##abor
##abour
Street
seized
##allen
##ended
spot
150
accept
Newc
##ousands
##anced
##itional
##aseball
scient
##ences
commission
relations
defence
##ELES
crit
##ETRO
norm
Scotland
profits
slight
dealers
survey
Paulo
ordered
Second
Secretary
859
injury
serious
traders
##aught
Brazilian
Board
stocks
debt
THE
double
hijackers
drugs
value
settlement
ENGLAND
docum
Department
eastern
risk
Teresa
murder
steady
negotiations
Court
##craft
##abinet
PHIL
Soviet
guilders
Venezuel
88
AL
BU
Cal
Count
CUP
Del
DETRO
Es
FC
GB
Her
Iv
KDP
Los
Lanc
Mill
Major
PAK
Rot
To
TV
Tel
Vic
Wat
cand
cross
fle
fly
mar
mass
marg
name
##hr
##ui
##uing
##och
##bers
##IES
##mber
##miss
##down
##DA
##BC
##EV
##LA
##LISH
##VEL
##war
##eno
##oral
##arp
##atis
init
forward
##acing
real
##ried
##iana
##apers
along
always
pred
10th
##ugby
##elling
##ellow
overall
quick
##hens
arriv
##ouses
##ixed
disp
wind
##ENS
accomp
sets
capt
become
##vedev
box
democ
##cestershire
Series
votes
cann
CHAMP
strik
included
##prus
##bury
feel
##ruary
currency
management
Palestinians
legal
condition
Canadian
dropped
Medvedev
ruled
Islamic
costs
involved
territ
girls
movement
products
attempt
couple
Toronto
Cyprus
##ISTAN
##holders
weapons
ANGELES
February
coalition
Honda
alleged
CLEVEL
summer
DETROIT
PAKISTAN
candid
CLEVELAND
AS
Aamir
Bir
BEL
Card
Fl
FL
Imp
Jones
Mad
Motor
Meri
Nove
Oval
Park
Sar
SUM
Summ
Tak
WOR
WASH
YR
Zimb
bought
cle
canc
caught
key
ll
mer
mag
pes
pack
paid
rail
rout
rival
sides
somet
trou
tender
water
wait
your
##hic
##iated
##NES
##ties
##ging
##aire
##uation
##uber
##oel
##off
##rick
##ming
##mouth
##cel
##fax
##yl
##PH
##ert
##ense
##orado
##aring
##ature
##itors
##urg
##amin
##terdam
##mann
shut
shoot
charge
##abwe
offered
##ANK
##enders
Chile
Chris
Brad
##chez
overnight
research
##outhe
Leices
##assador
governor
##ansas
allowing
manuf
##ENT
##aha
Arch
##elson
indic
electoral
release
blood
##INGTON
Comp
interview
boost
##orpe
traffic
teams
America
product
##ront
issues
orders
remained
Sao
teleph
McC
arms
traded
introd
midfielder
Sanchez
increased
##USS
Interfax
##IDA
farmers
vehic
Manchester
worth
ENGLISH
career
##ridge
books
competition
largest
##IFORN
rupees
improve
options
December
Munich
verified
francs
Congress
declined
CALIFORN
Louis
moment
performan
Rotterdam
CHAMPIONS
November
SUMM
WASHINGTON
Zimbabwe
manufact
CALIFORNIA
CIN
Day
Def
Dani
Fall
Fortun
GOL
Hen
HONG
Just
LOU
Mag
Mass
SCH
Tim
Turn
Val
With
Wall
Yass
bott
battle
drew
hot
mount
pick
ren
range
sale
techn
ul
ur
van
vir
vers
##hov
##AB
##pool
##10
##kova
##30
##EF
##73
##LD
##LY
##YC
##HAN
##wick
##inary
##inals
##ored
##ala
inst
##iser
##isers
##itness
##aying
##elo
##elimin
##ente
##ential
##read
thought
##thy
##acher
stab
stated
##andra
##usion
##iah
##ems
##eman
##rik
##rial
##aka
##uster
##ective
proper
prosecut
Stan
Stef
exchange
unc
125
##sea
repe
abus
export
minor
##ffield
Leban
##ussia
##ointed
officer
officers
partic
finals
operation
##obo
doing
accur
common
bln
rounds
defender
DIEG
board
presidential
Serbs
dealer
voting
aircraft
Davis
delayed
remain
Malays
Saeed
SEC
probably
Democrats
Kurdistan
Exp
soldiers
Morris
wicket
differ
propos
believe
heart
Christie
evening
appeared
sources
##REAL
Borussia
positive
separatist
freed
building
suffered
Croatia
George
Yugoslavia
certain
Florida
Service
MONTREAL
Rangers
MAJ
Rubin
damage
Bulgar
Denmark
Francisco
Venezuela
territory
WORLD
SUMMAR
Fortuna
LOUIS
DIEGO
Bi
CN
Cork
Cors
CEN
Cath
COM
Dan
Die
Em
Ext
Jac
Juan
KONG
Mach
MOS
Post
PIT
Rab
Rost
Roy
Sing
Sier
Under
Work
Wind
WESTER
Wayne
bour
coun
cabinet
dest
esc
gl
gains
hus
hurd
ir
kil
losing
pat
pair
##lan
##tors
##gest
##je
##ault
##ua
##su
##band
##IG
##most
##PE
##LET
##woman
##KS
##alke
##itis
##oming
##rec
once
##uries
##uter
##roy
##thers
##thlet
##acts
states
1993
##changed
although
leaving
##essed
church
Stich
sevent
prelimin
107
106
deals
Invest
polls
##ORIDA
output
Lev
##undi
##oussis
suit
Russell
Anwar
blamed
##ELPH
adding
coast
conflic
strateg
##TSBUR
##ijing
register
boat
spokeswoman
Colorado
##ADELPH
visited
annual
investment
among
Berlin
Securities
##embly
demanding
goods
terms
deputy
imm
##ipped
Graf
landed
extra
Former
drove
rules
Carlos
Seattle
looked
progress
BRUSS
Beijing
##COW
qualifier
concern
person
development
Portug
People
Korea
Senate
Burundi
Gaza
engine
resignation
BEAT
Cuba
PLO
Albanian
University
Philippoussis
favour
##cribed
family
Oakland
twice
PHILADELPH
County
BELG
FLORIDA
telephone
##YCLING
Diego
MOSCOW
PITTSBUR
WESTERN
husband
seventh
BRUSSELS
PHILADELPHIA
PITTSBURGH
Bost
Bowling
Baseball
CL
Dr
Det
EA
Ferr
Gab
GER
GAM
Greg
Han
Hut
Ij
Jack
Kra
Last
Mick
Nott
Oh
Ron
Sak
Tw
Tre
Tig
body
cargo
fish
felt
hun
hop
mult
nec
rally
super
vouch
wing
west
yr
##ien
##ea
##tr
##uz
##oist
##sch
##bor
##men
##zen
##ye
##CINN
##BY
##HIP
##eren
##inen
##onwe
##enue
##esh
##organ
##arest
##ises
often
##iting
##ila
##ention
##sted
##uten
things
##iro
##aco
##illed
##andal
##osh
##ulk
reven
whole
##emp
##emic
##ewart
##rien
##apore
##astle
show
Step
Stewart
##ends
##ction
Chang
##wood
##ERS
secret
Brun
Bruss
##sex
##seille
112
##inez
admitted
recently
finish
finished
Atlet
##ARD
##ATI
Maria
Marseille
running
##ika
##ULE
Ann
cover
env
Commonwe
Norway
surg
voters
Anders
social
IND
##EDULE
scores
gener
SEP
Martinez
maintain
Sheffield
view
media
medical
majority
Barcel
speak
losses
Northampton
##STERN
diplomatic
entered
passenger
walked
respons
biggest
##TRAL
basis
driver
Jeff
Hamburg
positions
Korean
SCOR
community
Organ
##stein
programme
Algeria
##rupt
Baltim
Queens
apart
measures
heavy
situation
cooperation
avoid
Sampras
caused
target
##allenge
Essex
magaz
CHAMPIONSHIP
CINCINN
Daniel
GOLF
SCHEDULE
##itnesses
accuracy
MAJOR
CENTRAL
Extras
Singapore
Windows
preliminary
Boston
EASTERN
GERMAN
Tigers
Brussels
Atletico
Commonwealth
Barcelona
Baltimore
CINCINNATI
07
Bund
Bah
Buch
Da
Date
Diana
Ever
Fey
Gore
Gron
Gulf
Ha
Hill
Jak
Kim
Lens
Law
Mike
ON
Ot
OAK
Ri
Rob
Ross
RUG
RBI
Sil
Sad
Sun
Super
Tra
Tennis
TEX
Vi
Year
Yellow
auction
bal
bit
corp
crew
diss
east
either
fisc
front
houses
ill
journal
king
large
others
purs
pact
rans
rugby
sn
sought
tre
vice
##hai
##li
##ez
##een
##NS
##nik
##gen
##rade
##sh
##bo
##bank
##kn
##ky
##IX
##SA
##mission
##der
##dom
##ca
##21
##yp
##yle
##EAR
##wich
##60
##QU
##int
##enz
##orf
##atal
##aster
towards
##ional
##omm
##omy
##standing
##oli
##amo
##utt
##uted
though
##iron
##iring
195
stake
white
anim
##isted
alleg
##ortion
##esse
nothing
exc
##ANG
108
Champ
sprin
Inform
##ishi
##anks
##anghai
##chem
11th
orig
aband
Leeds
Alan
contact
##ftware
##ancy
dismiss
##ARA
##ibility
Weiz
invited
accident
##enced
command
commander
presence
address
ent
Shanghai
##itten
interim
Irish
supply
travel
RESULT
Amman
slow
Johan
politic
mostly
scoring
inform
handed
followed
currently
provide
described
McL
McG
protests
2000
network
championships
efforts
conduct
TOKY
Peres
giving
proposed
futures
looking
##bourne
Fern
joined
##UKEE
Marcelo
figure
colle
premium
film
kidnapped
starts
administration
beginning
consumer
wounded
establish
emerg
MILWA
Jewish
published
observ
critic
slightly
##enoord
shooting
performance
property
Cathol
Ijaz
Nottingham
Ohio
Bucharest
Feyenoord
OAKLAND
RUGBY
TEXAS
Champions
Information
Weizman
TOKYO
MILWAUKEE
AC
AD
Acc
Ball
Curr
CYCLING
Dam
Dra
Dist
Dub
DAY
DUT
Eind
EUR
Gar
Gian
Games
Hap
Hav
Human
II
Jason
Jama
Java
Karl
Kev
Krem
Lu
Mat
Most
Muster
Ru
RE
Ray
Rap
Raf
ROUN
Sox
Tour
Toy
Yank
Zaire
ach
aimed
ben
born
bring
cor
cases
done
data
daughter
gross
gather
grain
kph
live
lack
mad
ple
pri
rap
role
san
session
snapped
##here
##ias
##ln
##line
##eas
##AV
##gun
##oe
##oo
##rang
##11
##IV
##den
##dos
##dra
##cut
##fe
##fin
##yo
##yr
##UB
##wa
##OD
##KK
##erts
##arters
##ario
##ateral
##iter
##aya
##ela
##rech
##eth
##ada
##ami
##ires
##road
stor
stand
streak
##ulated
##usc
##ushed
reach
##riot
anti
cong
##iant
##aps
##usted
almost
prosp
##ivid
shr
Steph
noted
weather
##ify
##ctions
Intern
##ovic
uns
unf
unrest
unchanged
truce
abd
abroad
art
contrib
Austrian
##action
Spe
winners
##ICAN
prevent
##ENCH
incomp
Arn
ending
##awa
1800
relig
##IONAL
block
appar
impact
imposed
cred
crime
confidence
enough
sheep
408
312
##ize
##CHESTER
anything
Chel
starting
buying
victims
Bern
Malta
Syria
hands
##OMBO
##reme
Conf
shareholders
ministers
legisl
lawy
hitter
suspected
homes
shortly
factions
Graham
parliamentary
Abd
banned
Milan
industrial
Greece
##look
guerrilla
Argentine
qualifying
Andrea
threatened
check
Boris
COLOMBO
request
approved
##stitute
Brown
filed
activity
students
##fficial
missing
explos
rupiah
##BURG
seeking
Craig
##ammad
Mohammad
pulled
launched
MANCHESTER
##uddin
broken
veteran
announcement
Middle
semif
controlled
EPS
MATCH
NOTE
Banglad
Motorola
introduced
##hoven
Stansted
Lebanon
Malaysia
different
counter
GAMES
Mickelson
surgery
SCORES
fiscal
Fernand
emergency
DUTCH
Eindhoven
Hapoel
ROUND
Toyota
achie
Bh
Bail
Cle
CON
Camp
Cinc
CAP
Data
Erik
Ful
Fair
Gor
Gary
Genc
Home
Hamp
Hash
Hospital
Jud
JER
Kab
Lok
Mak
Moin
Mits
Muj
Not
Nick
OM
OUT
Ped
Pit
Pop
Prix
Ra
Rec
RALL
Sub
SER
Tan
TEST
UK
Vit
Wor
Zh
Zen
bird
barter
cattle
domin
fun
fix
father
jump
kick
lines
mot
mixed
nb
nil
pot
rising
sy
swe
tim
tough
var
wants
##had
##hman
##harn
##lies
##gi
##aver
##oz
##ran
##set
##bach
##ko
##cial
##ME
##wau
##81
##heid
##inion
##inchem
##anish
##enia
##orate
##aren
##ato
##ately
##atory
##attered
##ali
##alf
##aled
intend
##iti
##itation
##asing
##ashes
##oura
##ilt
##iled
##iling
##ental
##etinchem
##ades
##aders
##ura
##oline
thousands
##oto
##rown
##acity
stre
station
stages
##veen
1998
read
##cepted
##eston
##aining
##aga
conc
convic
##isting
##istol
##oured
comb
sharp
cho
chang
changed
Thorpe
weaker
##ppe
fired
##odies
##oks
Brug
unq
unable
computer
110
##inea
abs
above
##mercial
clos
##ALEM
Health
Heeren
##oint
##kee
149
partners
210
finally
Spring
Spanish
wins
##ICE
##ensive
##ogs
##ricult
score
##ashire
Reg
Anton
imports
crash
shel
NEC
##ization
demon
##IRO
Coast
Slam
oppon
surpr
Andrew
signific
Pauli
issued
include
assault
numbers
Yorkshire
473
remov
Malik
injuries
newspapers
FRENCH
trader
speed
##elfare
Schalke
helped
growing
stronger
Salim
cuts
drop
Wars
Medical
ruling
pressure
debate
##USALEM
Milwau
##unications
entering
Greek
joint
##struct
revised
investigators
written
Scores
defeated
Lauck
##stitution
Arabia
Govern
kidnapp
USDA
Banharn
Craw
Jonath
Michel
ident
limited
customs
raised
delivery
Surrey
Orioles
Afghanistan
Melbourne
AFTER
However
Freder
claimed
dangerous
liqu
pitch
Socialist
Nicaraguan
purchase
Doetinchem
##innati
normal
Lancashire
##atisf
democracy
picked
Sierra
bourse
escap
hurdles
##LETIC
conflict
Ronald
Treas
necess
Stephen
responsible
apartheid
ransom
information
McLaren
Catholic
Yankees
sanctions
religious
Cincinnati
Gencor
Hampshire
JERUSALEM
RALLY
convicted
Heerenveen
significant
Milwaukee
Az
Are
Author
AUST
Ba
Barr
BSE
CAR
Cons
Dur
Duc
Dobo
Eston
FIN
Ford
Foot
Fox
GR
Gal
Gas
Hing
Has
High
Haq
Huber
IV
Kn
Ko
Ly
LG
Lind
Me
MAR
Mission
Nij
Naz
Ok
OB
Our
Over
Ols
Pi
Pri
Pier
Ports
PKK
Ros
Rose
Rog
RTR
Su
Sk
Sales
Sale
SUP
Seles
Tut
Tsang
Vir
Waugh
You
Yam
cas
cir
cow
driv
fer
fra
fans
fair
har
hur
lun
mut
pra
rall
rob
rather
sel
soy
site
sugg
southe
satisf
wid
wild
welfare
yield
##ga
##ja
##aur
##ports
##bl
##back
##50
##my
##des
##cing
##zam
##0s
##TT
##qv
##UAL
##wer
##wen
##wijk
##OF
##erc
##inch
##isis
##isions
##itz
##asc
##oum
##iche
##icial
##oms
##ilities
##elph
##reen
##stant
##etton
##adelph
##urb
##urst
thing
##oting
##roit
##igan
storm
##andan
##imum
whom
##ceed
##istic
ask
##umn
##umin
##artoum
##orting
seat
109
##enda
##uge
##ift
afterno
spending
Inzam
unl
##ailed
resume
express
##uca
Leon
class
offices
Although
Monaco
weekly
marks
Spec
Sparta
##ureau
Athens
160
##ATE
income
incident
Marin
opinion
Minnes
attend
related
defending
crisis
ens
strugg
teen
software
##ermen
conserv
##ITH
retail
##enna
draft
Americ
##ombe
Pakistani
353
Finance
Financial
deleg
passed
longer
What
While
##ACK
managed
insp
inside
##ecutive
Asif
lawsu
leadership
suspended
Khartoum
soldier
Philip
Philadelph
##uki
debut
Benetton
transport
Islamist
hijacked
diplomats
Christian
Elect
involving
Andrei
threatening
immediate
##ology
##spec
confirm
941
Prod
Montp
Patrick
funds
questioned
Juvent
employees
Algerian
##rupted
launch
moved
recovery
JOHAN
evidence
Dhaka
ambassador
Bayern
millions
ATHLETIC
history
Calcut
quickly
candidate
Madrid
Summary
something
##NESBURG
Yasser
bottom
minority
Bulgaria
kilomet
Levy
strategic
Detroit
allegations
abandoned
dismissed
Championship
benef
Chelsea
Bangladesh
Pedro
Government
Crawley
AUSTR
Doboj
Portsmouth
RTRS
Yamaha
##desk
afternoon
Inzamam
Minnesota
Philadelphia
JOHANNESBURG
ATHLETICS
Calcutta
Ale
Ather
Auck
Aux
By
Bed
Bet
Bud
CA
CD
Cel
Cru
COUN
Dort
Dev
Deal
Ecu
Gov
Gough
Gaj
HK
Hou
IM
Jay
James
Kal
Kabul
Kansas
Lan
Mr
MON
Miss
Max
Mask
Nant
Note
Other
Official
Pen
Ram
Roc
Rating
Reds
SY
SH
Sor
Sid
Sion
Sup
Six
Soy
Singer
SQU
Tir
Till
Tass
Tony
Ut
Vo
Wer
Win
Zur
athlet
bow
bull
bodies
cre
cement
dict
faces
gained
hund
kg
living
mand
mother
mln
rated
send
self
search
table
tests
##hu
##hart
##iy
##iya
##iece
##eau
##gia
##gian
##gart
##gue
##pa
##pid
##oa
##rich
##ruct
##sid
##bus
##burn
##body
##kus
##IJ
##IER
##mund
##come
##cott
##DER
##DNE
##RAD
##EAT
##xa
##HI
##well
##OUL
##KE
##ern
##erre
##erate
##init
##incess
##anis
##ania
##onse
##ester
##ariti
##ingen
##asts
##astern
##outs
##oucestershire
##icop
##idel
##idend
##oma
##ilty
##ilateral
##real
##reira
##strom
##etary
##olm
##amer
##ammed
##utel
beef
##aca
##ulate
##iment
##imoto
##used
##verkus
##aki
##una
##agan
##aging
##apie
##istrat
pled
plus
lei
project
challenge
Stud
Stutt
Three
Thail
exact
existing
##odz
##ubishi
spent
##ounce
##arding
##antage
##antxa
univers
trick
128
115
116
abortion
reserve
residents
experi
expressed
Leverkus
adop
clashes
##ques
means
##keep
251
monitors
alloc
alliance
suic
164
##even
elected
##ogne
scandal
opens
Indust
Indians
301
Ark
Arantxa
176
individ
180
Ant
present
appointed
Shares
spoke
registration
consecutive
worked
Prince
Preston
interests
retired
county
status
Cologne
trav
takes
warned
Chester
Coop
opposed
opportun
surge
surpl
450
servants
airports
built
includes
loan
assets
using
Mayf
LEAD
##arren
militants
SEOUL
posted
feet
below
drink
serve
##inski
protection
subject
continues
helicop
towns
Plc
Irani
suspect
faction
prompt
promised
speech
speaker
Adrian
##fully
extrem
extrad
violations
Warwick
Angel
##beat
advantage
previously
training
heard
estimates
Ferreira
respect
Jordanian
Centre
operating
Gloucestershire
##ological
organisers
drive
require
doctors
however
Montreal
Simon
Blackburn
improved
considered
Scottish
effective
Maur
friendly
Wilson
Queen
Revenue
hostage
judge
##vertising
Desk
##ycling
neighbouring
Hansa
nomination
determine
riots
inflation
distribution
photograph
Rwandan
Santos
barley
Boardman
document
Vicario
flew
margin
cannot
Bradford
McCar
repeated
Rostock
registered
fishermen
Organisation
Groningen
Jakarta
EURO
Jamaica
Kremlin
Ruutel
lawyer
Abdul
counterp
Bailey
Hashimoto
Kabariti
Mitsubishi
##hadov
streets
Warsaw
Jonathan
liquid
Treasury
Barrick
IVAC
suggest
Atherton
Auckland
Auxerre
CDU
Dortmund
Dealers
Maskhadov
Nantes
SYDNE
Zurich
##initely
Stuttgart
Thailand
university
Leverkusen
surplus
Warwickshire
SYDNEY
Ac
AB
AK
Aff
Bat
Bol
Bond
Bonn
Brem
Brien
Cr
CS
CV
Cash
Camb
Der
Dow
Eth
Esc
Four
Five
Fior
FORE
GEN
Glam
GDP
Hum
Jav
Kl
Ke
Kan
Kent
Kam
Kos
Kash
Lar
Lat
Lott
Lyn
MS
Mir
Mig
Mus
Map
MOT
NA
Na
Nice
Names
Neal
NAC
Os
Ob
Off
PA
PM
Pad
Power
PAY
RAC
SAL
Sitt
Ssang
Test
Tend
Vf
Ver
Vac
Vlad
Wis
WAR
WEL
Wigan
WITH
Yemen
award
base
bilateral
cel
cause
catch
council
epid
foc
gas
hurt
hitting
huge
jun
lending
labour
po
pts
powers
ran
row
riv
ties
typ
und
vent
witnesses
##ho
##iop
##AX
##taba
##ges
##jamin
##pts
##prom
##rig
##rated
##sen
##sel
##ba
##br
##bie
##bang
##break
##bridge
##15
##ken
##IGH
##mir
##mere
##meg
##ding
##vet
##cins
##CAST
##wor
##wha
##OW
##OK
##65
##eron
##erap
##erating
##hest
##inz
##onia
##esc
##oration
##arc
##arus
##aty
##atists
##atility
##itre
##icer
##idad
##idge
##idency
##omot
##entina
##stan
##eta
##etts
##adh
##adium
threw
##rose
##roph
##acter
##lements
190
standing
style
##osit
##ula
##using
##usetts
reve
ready
why
##chi
##ewhere
##ewoo
##rie
##rip
##akers
answ
conn
conv
##umped
plac
placed
##ecting
##mans
chip
##abi
##abs
Star
pray
pract
extend
except
aged
##ANCE
101
##allah
##endam
dev
Chor
spir
spons
spring
##wool
##ells
##ellier
Breda
Bristol
##ardo
##ORD
##anked
republic
beaten
resc
residence
##ucation
Lee
quite
advertising
clash
closing
clocked
##ALIAN
##quir
##quarters
arch
Alber
leads
250
202
##ancing
##nee
displ
##ibe
##ibet
##lines
scattered
##alker
##achusetts
##erves
decide
heroin
##iko
##obank
ends
committed
century
relief
additional
crude
crashed
confident
regular
Belarus
intervention
310
Score
flights
guilty
Colin
calls
325
##veland
Commun
Norman
Coet
Cofin
##armament
victim
loaded
PREM
Berlex
delay
##burgh
850
cars
owns
##arrington
##AKAR
521
Whitt
belong
headquarters
provinc
design
Trans
Traders
496
5000
sentenced
Slovenia
suspects
effort
##regular
##gether
Add
Oncins
fellow
Olympics
room
speculation
Serbia
Serbian
THIR
policemen
##ette
Benjamin
clearly
Interior
Allen
begun
##strong
investigation
investigating
operations
organised
wrote
worst
Colombo
Laur
Deputy
Quarter
Qualif
separatists
study
Peace
billions
suffering
Indonesian
9373
Volendam
Gazprom
considering
##stead
employee
customers
jailed
lifted
Albania
Collin
administrat
WINS
grade
jobs
fears
established
Federal
##itorial
Liberia
Middles
Armstrong
ATHENS
Rwanda
barrels
Newcastle
documents
cancelled
peso
trouble
waiting
Leicester
vehicles
manufactur
Massachusetts
Turnover
hotel
Stefan
particip
SECOND
proposal
SUMMARY
Corser
Machado
Rabobank
irregular
immigr
Hanwha
##ulkar
generally
Queensland
Bundes
Daewoo
Saddam
Vienna
##known
sprint
District
Raymond
Rafter
congress
semifinal
Cleveland
Mujtaba
Vitesse
Zenith
potential
necessary
Estonia
GRAND
Nijmeg
SUPER
circ
driving
fraud
Mariners
Montpellier
Ecuador
Gajdos
Houston
Officials
Supreme
create
##eaux
##RADE
suicide
Mayfair
Bremen
Ethiop
Fiorentina
Glamorgan
Kashmir
Lotte
Miguel
Sittard
Ssangbang
Tendulkar
celeb
epidemic
rivals
Cofinec
provincial
Nijmegen
Ethiopia
Ssangbangwool
AA
AP
Bistr
Ca
CO
Coc
CAN
CONT
DE
Did
Dim
Dun
Dah
DEM
EX
Fil
Foll
Glor
Golf
H1
Hy
Hend
Hait
Husse
Haga
Jens
Kr
Ker
Kat
Koc
Kaw
Lib
Liver
Linc
Lille
LAST
MF
Marl
Mount
Mood
Matt
Ni
Ny
Nas
Nik
Nob
Nancy
Ox
Ow
PO
Pin
Public
Ry
Rome
Rally
ROM
Rene
REC
SW
SK
Som
Sir
Sand
Sab
Tal
Til
Tok
Tale
Tibet
UP
UEF
Vin
Vik
Vale
Wa
Wo
Wol
WED
aid
bed
bound
bread
ca
corn
cycling
dark
espec
figh
fine
fought
fuel
gone
hect
jet
lang
lose
love
lived
mine
makes
nun
nort
pun
pict
rat
rating
rural
son
sup
surr
wat
wel
watch
yuan
##lon
##nan
##nest
##gn
##gged
##aud
##po
##ract
##reds
##sin
##sru
##sung
##bb
##bra
##bak
##bell
##bled
##17
##kov
##IAL
##main
##mingham
##via
##can
##zy
##fl
##fall
##furt
##40
##TY
##RON
##BER
##LIN
##HER
##OUR
##KC
##ining
##ination
##anie
##enos
##orse
##aru
##arch
##arity
##arily
##isban
##isbury
##ingamp
##ites
##itarian
##asaki
together
##elly
onto
##ety
##oln
##olid
##uta
##utions
saf
##iri
##terling
##roso
##rovers
##ache
##acom
##acement
##aches
stable
##ills
##tson
##tsburgh
##osa
##osen
Their
##rap
reop
##lying
##emony
##aine
##ithar
withdra
anc
##oph
comes
proj
shown
chall
Sten
Stol
Start
sees
Third
examp
weight
permission
Chon
Cham
spend
##ERE
##oki
Bridge
Brisban
##ounced
##overs
##antino
##ORT
outstanding
##ankan
unions
try
trillion
##aves
12th
119
##INE
##ipment
##ording
resol
resum
resolution
qual
280
adj
clim
Head
##ointing
##assi
225
220
226
Alk
contest
controvers
mean
##eldorf
143
Germain
partner
finance
markka
Spani
242
162
Island
underst
##END
##iba
##iburg
##ogo
##ogen
##lind
runner
175
170
##iki
dozen
commit
commanding
##AGE
someone
Reagan
Any
Anne
capped
blast
meetings
applic
##ossible
implement
addition
crimin
refund
##athy
planning
##erred
Shar
kills
registr
backed
##ption
earned
406
##rowing
750
guards
Colchester
throughout
supplies
highl
##efeld
##rators
##urred
profession
##consin
334
531
surv
served
serving
Final
nearby
assoc
assembly
PRO
PRIX
amount
detained
Davies
knew
Braves
carried
remark
visiting
Syst
demanded
Guinea
Guingamp
headed
mainly
subsid
insurance
department
medal
##owski
dollars
holding
suspic
homered
failure
prompted
maybe
Graaf
midnight
##OREBO
Salisbury
Abb
About
Perot
1989
Costas
Agassi
Angels
Lankan
##etta
Islamists
##bourg
ballot
receiving
Christop
privat
response
selling
##struction
review
values
custody
NATIONAL
bases
collided
Nicol
reduce
reduced
stepped
finding
stopped
executed
aggress
fundament
replace
replacement
federation
largely
missionaries
solution
Juppe
SCOREBO
rises
expectations
Hungarian
Smicer
consider
BEIJ
delivered
Freiburg
friends
##LINGTON
Frankfurt
doubles
##clus
representatives
successful
Duis
Duess
Enqv
Helens
grant
shipment
shipments
consumers
Samsung
disappointing
prepared
preparing
##swijk
acquis
Eritre
Petrole
Oldham
liber
population
reasons
complain
determined
terrorism
Nicaragua
Taibe
Woodbridge
postponed
Basque
Kenneth
Metz
histor
##liga
scientific
Delhi
captured
boxes
allegedly
Birmingham
Cardiff
Sarah
Takeda
cleared
##ylum
researchers
Leicestershire
Company
vehicle
mountain
virus
version
Biogen
Royal
Workers
patr
Portugal
BELGRADE
##schap
##borough
Brunswijk
Rios
balance
corporate
##nikov
##board
politicians
college
Nottinghamshire
ACC
According
Karlsru
##recht
Internet
Speaker
Arnhem
Campbell
Makinen
Pittsburgh
Worcestershire
sweep
opponents
Authority
Hingis
Olsza
Roger
casual
ferry
southeast
conservative
delegates
lawsuit
Celica
Tillstrom
##keeper
individual
travelling
opportunity
counterpart
Affairs
FORECAST
Lynch
Wisconsin
WELLINGTON
junior
THIRD
Qualifier
Bundesliga
Bistrita
Following
Gloria
Hussein
Kocinski
Kawasaki
Liverpool
Lincoln
MFS
Moody
Oxford
Owens
Tokyo
Taleban
UEFA
especially
northe
challeng
example
Brisbane
registrations
Graafschap
SCOREBOARD
BEIJING
Enqvist
Karlsruhe
AZ
Aber
Act
Aoki
Bon
Bus
Best
Bour
Bast
Bord
Bout
BAR
Baker
Brian
BANG
Ce
CB
Ces
Cre
Cry
Cels
CALL
Civil
Dm
Din
Dis
Dere
Doc
Daily
DRA
Dyn
Darren
EC
End
Eight
Econom
Els
Ens
Fe
Fa
Fle
Fax
Faul
Gi
God
GKS
Hur
Hold
Hope
Hudd
IT
Ill
JC
Jos
Jian
Kon
Kank
Knight
Kelly
Lor
Lam
Lance
Luc
Lakes
Labour
MO
Mold
MDS
Mika
NZ
Nat
Now
Nath
ONE
Prom
Pav
Poll
Penn
POL
Prem
Parliament
Rand
Rav
Rip
Rock
RKC
SV
Sus
Sain
Squ
Sach
Sven
Susse
Svet
Tun
Top
TOS
TIM
Times
Tapie
Whe
Wolf
YEAR
Zag
Zab
aim
bir
bra
bab
bah
brand
cal
cit
cot
cup
dig
dated
dyst
er
em
era
eating
fest
fob
gain
gets
gren
golf
hat
hair
iron
knee
lic
lia
lives
mach
musc
nurs
nerv
names
none
ousted
pen
porn
rand
roll
rare
river
sal
sil
sad
sear
sound
shed
task
tension
vo
via
vide
wo
wall
wage
wrist
youth
##han
##hop
##hoff
##holm
##iary
##ique
##lers
##lana
##eeva
##gu
##gom
##ping
##pected
##ook
##ration
##run
##rate
##rants
##bara
##5M
##kow
##deen
##vanced
##fts
##fia
##45
##47
##DAP
##PI
##PS
##EK
##VER
##UES
##wide
##KARA
##GAR
##inia
##anied
##onomy
##enche
##enport
##aro
##arak
##alie
inch
intern
inches
##isations
##asur
##oug
##iced
##eless
##elefeld
##olan
##utto
thr
thin
##irates
##terkova
##ths
##acc
##igence
stro
stood
street
##ulp
##uly
##ulted
##rab
##ima
##imon
##chum
##rier
##aked
##unce
construction
##iano
##istant
asylum
##ours
##oco
##ument
##umacher
comments
plat
places
##mant
showing
shows
##abad
##onde
sea
sever
Thomp
Thousands
exile
agents
offers
##iescu
##bertson
Front
##odg
##odities
spl
##ella
##elligence
##ERICAN
Brent
##ishop
##arded
##ovan
outlook
unp
unknown
##anging
compens
123
##chell
##seed
111
117
##ipa
##iple
plays
##orkian
##undai
##icks
Heath
accepted
##quipa
arg
arrang
##arlic
##nglad
Ali
Monica
130
206
monitor
recon
recog
215
266
manage
290
Spot
24th
winter
167
230
##ensus
pret
##evan
##evic
##ibor
##ibly
Marco
scene
##achi
Armin
decree
noise
##ikh
invent
monthly
##vene
1860
Anth
relie
presidency
capacity
blow
definitely
confisc
confessed
became
refl
refer
Julie
Shr
consist
consult
backing
Price
interior
Iraqis
##izen
##URE
##onna
fled
flood
543
54th
trib
##ratic
calling
talking
divor
seedings
Russians
Committee
Amb
Amount
Amoco
active
Northern
##others
Slight
slipped
538
voted
##engo
produce
Andy
##arma
Palace
##ronic
425
Pete
INTER
##OSE
Davenport
650
##cover
remove
militia
Maleeva
infusion
Democracy
handling
##AKES
Guj
fever
##OMB
follow
serie
Trade
Corporation
OFF
ANKARA
Aslan
records
broad
broker
Barbara
homers
##ipping
speaking
intent
Advanced
Edberg
Schumacher
smugg
Bochum
landing
Perry
violent
volatility
specific
Agricult
Medic
possibility
restaur
Karim
Karachi
formal
Several
##bean
increasing
advanced
parts
transf
distance
Club
hijacking
begins
negative
Assembly
Greens
AMERICAN
colon
falling
BOJ
Aires
Airways
phys
Midwest
required
concerned
concerns
produced
Nigerian
treatment
##force
affected
Atlantic
SPLA
edged
gunman
skull
goalkeeper
activities
keeping
swim
schedule
systems
##maar
Croatian
Simitis
communist
Smith
firms
Moenche
Microso
idea
object
oblig
Chechens
Buenos
Goldman
Sofia
ceremony
lift
doubt
Gilbert
Gilbertson
Team
Willem
moving
recovered
difficulties
UNION
autom
autonomy
judicial
Capital
emerged
Charles
Charlton
AFR
veterinary
neighbours
Linz
Masterkova
occup
popular
Army
controllers
Iliescu
Wellman
materials
Prair
Prague
happened
flee
margins
initially
predict
arrives
striking
candidates
Cardinals
merger
route
renew
prosecutors
abuse
particular
proposals
SUMMARIES
Bielefeld
COMM
Jacques
##PEAN
BELGIAN
Ferrari
Gabri
Sakai
revenue
envoy
Northamptonshire
magazine
magazines
Everton
Ott
snap
treated
##ironment
animal
origin
McGr
conducted
establishment
observers
Kevorkian
gathering
prior
stores
reaching
prospects
apparently
Conference
Fernando
achieve
Bhutto
CAPS
dominated
symp
changes
absence
Antonio
demonstr
removed
Arequipa
Durham
Ducati
FINAL
Nazi
Virg
lunch
rallied
struggle
Americans
Juventus
kilometre
Jayasur
Lanusse
Soyoil
SQUAD
Utrecht
Werder
mandate
Arkansas
LEADING
extremely
extradition
Maurit
McCarthy
repeatedly
EUROPEAN
CVG
Javier
MOTOR
RACING
venture
##erapy
answer
connection
rescued
Scoreboard
Coetzer
Collinelli
Dimit
Hyundai
Haitai
Marlins
Tilburg
Waal
langu
withdraw
Alkmaar
Duesseldorf
acquisition
Petroleum
casualties
Aberdeen
Business
Bourlet
Bastia
Bordeaux
Celsius
Derek
DRAW
Faulding
Nathalie
Sussex
Svetlana
Wheat
birth
baht
cotton
dystroph
Thompson
arrangement
##ngladbach
recogn
Arminia
Moenchengladbach
Microsoft
Jayasuriya
AR
Ast
Adam
Bec
Bart
Bab
Banc
Balk
BOND
Bomb
Ced
Cop
Cair
DH
Das
Dund
Dick
Deb
ED
Earlier
Evert
Far
Fel
Fur
Fab
Fors
Fitz
Ging
GOV
Ho
HE
Hid
Hak
Hear
Huss
Hass
Hous
Haw
Haj
Habs
Ip
IR
Its
Ibra
JY
Jun
Journal
JAKAR
Kand
Kub
Kuc
Koh
Lis
Lud
LIS
LAT
Liam
Larn
My
Mit
Mut
Moy
Mah
Maj
MEX
Match
ND
Nil
Nam
Near
Nag
NET
Of
Oce
Opp
Ord
Pa
Ply
PUL
PDS
PTT
Pirates
RA
Roh
Renn
Ruch
Rights
RUN
SA
SL
Seg
Southern
SBC
Southe
TR
Tay
Treat
Vill
Verm
W1
Wid
Wre
Weld
Wales
Wald
Walker
Yi
Yosh
batt
cur
cam
card
cant
cold
cult
crop
diver
ey
fac
faced
facing
glo
green
hy
hig
hog
jew
mort
marr
migr
moist
makers
nar
nations
pan
pil
pur
pip
prix
pinch
rou
rif
rub
rock
rains
raid
sle
size
sterling
ter
tag
tied
yester
##hn
##him
##hard
##haps
##iV
##iot
##las
##lah
##eve
##AH
##AZ
##NA
##tin
##giers
##joy
##uy
##uit
##uff
##pson
##of
##oon
##oft
##ray
##rison
##sk
##say
##ski
##bel
##bles
##kes
##kun
##kins
##IO
##IOU
##IEC
##SB
##SDAY
##mi
##mes
##mos
##daq
##var
##com
##cast
##zi
##zma
##fort
##yan
##yth
##ych
##TB
##75
##WE
##VAS
##FIR
##wt
##win
##87
##KA
##KI
##KET
##KOK
##hew
##iner
##inted
##inson
##inces
##inidad
##anmere
theft
##enham
##oria
##ormed
##arant
##atche
inquir
instead
##aska
##ouard
tom
toss
##ider
##iding
##omo
##omson
##ili
##stal
##etable
##urning
##urches
##olt
##olen
##olis
##olly
##olio
##amas
forest
##irt
##irin
##irut
##terol
##rost
193
##igake
store
stance
stayed
staged
stadium
##erset
##ersfield
##osure
waste
##emer
##emed
##estor
##unt
##unn
##unk
##agers
##aganda
concent
constitution
##umer
##umber
commercial
##essment
proced
proceed
##ivier
shots
choles
##abl
##ability
Stras
Thomson
exclus
age
agenda
items
##ichi
105
102
##endum
##pping
##ugini
perf
firing
##odes
##udova
##eller
secured
Brand
Brush
##ishon
##ardi
##ardt
##arden
##ovo
##ovs
##antic
##antly
##arked
outbreak
unn
unbeat
true
truth
compat
comprom
##chel
156
15th
##sequ
113
##INA
reserves
##ISS
##fford
Lehman
284
closes
##asshop
Algiers
Alaska
contain
138
205
147
273
278
disarmament
246
newsdesk
##arez
##gei
236
##evo
else
elimin
Unita
##ENTS
##ricane
scrap
Index
Independ
decisions
178
marketing
##ikawa
Weaver
##obal
##away
##uctions
attending
attrib
attended
Reeve
Analyst
##ossi
imprison
addressed
crack
##ASS
enjoy
##inda
streng
70th
plants
Shab
Euro
regions
regime
regarding
Press
Princess
318
##URSDAY
##onnel
demol
flo
flow
flown
Columb
Colonna
justice
anyone
contracts
actions
warrants
Chem
Sergi
Cozma
slam
slaughter
339
3311
surround
350
359
signs
signing
##ornik
Arabs
politics
##OTAL
Petra
assemb
assessment
ING
amid
bush
##chede
Bert
47th
owner
owners
MaliV
343
434
##perform
##osnam
leftist
##iety
foreigners
provision
founded
attacked
Trinidad
Tranmere
subpo
2001
insist
insurg
continuing
depart
deposit
Convention
putting
Jane
Kurds
quarterly
Aki
sentence
90th
Playing
holders
Barns
Khal
failing
factors
Edouard
School
kms
Alexand
TOUR
refugee
Salv
Abu
Peru
overseas
Commissioner
1986
Agency
possibly
propaganda
formally
Romanian
THURSDAY
policies
##etti
transition
embargo
Class
balls
hearing
entertain
Beirut
involve
strikeouts
equipment
ranking
controls
column
fallen
Moslems
Glen
threats
settled
Airbus
organisations
Egyptian
holes
Colombian
Prov
doctor
personnel
affair
affairs
approach
Porto
smaller
Brooke
editorial
humanitarian
activists
discussions
Billy
Gooch
Hamas
greatest
Patriot
freight
missed
solo
solid
Simpson
Soccer
Volkova
copies
##imsby
attempts
Terry
AGO
obtain
customer
Grasshop
Grimsby
Roe
Cyp
Maoist
Mohamed
lifting
Teuten
##tenberg
representative
successive
Helibor
MANAG
Revolution
brokers
everything
boycott
wounds
disappear
disappointed
favor
lbw
motorc
Charlero
Federation
linking
##ycle
claims
Roda
Rodrig
occurred
reforms
avoided
Carib
NOTES
postpone
equaliser
Botham
happen
Newcombe
Ivanis
TVM
flying
massac
##EVA
accompanied
democratic
strikers
clean
packed
railway
troubled
##NESDAY
improvement
Dayton
Defence
Henri
Magn
Turner
reneg
technical
versus
install
installed
stabbed
prosecutor
abuses
certainly
CNIEC
Investors
personal
Kraj
Krakow
Sakigake
Twente
hunt
hopes
revenues
##employ
environment
Every
Rosset
Trafford
illness
journalists
kingdom
##SAW
original
entire
Havre
Luis
rapid
artic
Bernard
explosives
Eriksson
Judith
Popov
timetable
various
##812
conclud
choice
Brugge
surprise
kidnapping
identified
escape
RALLYING
Football
Hasina
Koerts
Lyon
Lindsay
Oklah
Pioline
harvest
##werp
ensure
benefit
Aleks
CAIRO
COUNTY
Ramallah
bullish
dictator
hundreds
pledged
allocated
Antwerp
helicopter
liquidity
AKRON
GENEVA
WARSAW
reveal
prayers
Alberto
PREMIER
Niugini
Nasdaq
Nobel
RECORD
Somerset
Woosnam
WEDNESDAY
Stenning
Stoltenberg
quality
criminal
refunds
professional
suspicion
privatization
Duisburg
Eritrea
Boutros
BANGKOK
Crystal
Enschede
Holdings
Huddersfield
Jiang
Kankkun
Pollock
Ripken
Squad
festival
grenades
nervous
pornograph
internal
pretty
Anthony
Ambassador
Medicare
restaurant
McGrath
Virginia
Waalwijk
language
Cedric
Dundee
Gingrich
Hakk
Hussain
Habsudova
Ibrahim
JYVAS
JAKARTA
Larnaca
Mitchell
Namib
Plymouth
Rennes
Taylor
Treaty
Yoshikawa
highest
jewel
moisture
narrow
yesterday
##IOUS
cholesterol
Strasbourg
3311812
MaliVai
Barnsley
Patriotic
Teutenberg
Charleroi
Ivanisevic
Oklahoma
Kankkunen
App
Ander
AIR
AOL
ABC
Athlet
BN
BP
Bak
Brom
Bally
Boy
Boh
BAG
Battle
Batist
Bureau
CZ
Cam
Cast
Call
CAC
Coup
CPI
Dal
Dave
Dennis
Damm
DATE
Dacom
Dodg
Ek
Ev
EL
Ear
Est
Emp
Equ
Ess
Eef
ETA
Fis
Flem
FDP
GT
GL
GO
Gat
Gul
Gri
Gast
Gross
Hu
Hor
Hus
Here
Hart
Hinc
HELS
Im
IC
IOC
Ieng
Istan
Ja
Jo
Jal
Jans
Joy
Jana
Ka
Kw
Kap
Kum
Kord
Korn
KORE
Kaf
Kuw
LA
Lig
Long
Lik
Lope
Latest
Luf
Lux
Labor
LANK
LME
Lodz
MT
MG
Mer
Mub
Mary
Mide
Mik
MOND
Municipal
Mats
Moura
Nec
NOR
Nestor
Om
OJ
Pot
Pac
Palk
PUN
Parma
Ret
Rif
Rio
Rican
Rovers
Si
Sie
SOU
Sask
Sandra
Seven
Ten
Tang
TIT
TOTAL
Ug
Va
Vas
Veld
Veg
Vaugh
Villa
Wy
Warrington
Zast
amp
auctions
bp
bre
barg
burn
boss
bron
brain
bureau
bacter
cast
dn
dies
die
drought
erupted
fat
fatal
faster
gest
gear
garlic
hide
je
ker
kuna
lit
liv
log
lob
loud
mm
mal
mis
mth
mem
mist
mate
maj
max
maker
page
parr
push
pushed
piece
pulp
ring
rac
rice
tin
telling
vowed
wa
wish
word
ware
wides
wages
yards
##ht
##has
##hand
##hampton
##iw
##iel
##luca
##AI
##AE
##ACH
##nb
##nid
##gal
##gus
##gage
##gered
##gregate
##jan
##uana
##uera
##pers
##pest
##pass
##pread
##point
##ois
##rimin
##bul
##52
##kos
##kind
##krade
##IE
##mal
##more
##dan
##dal
##dle
##ville
##cked
##25
##zow
##zens
##zamb
##fica
##yond
##95
##DAD
##BON
##Ewen
##70
##LO
##UBA
##HDAD
##wr
##wing
##wise
##erland
##heless
##ints
##instein
##edy
##enne
##esters
##espa
##ora
##orro
##orrow
##arra
##aration
##aria
##araj
##atic
##atel
##atively
##atically
##isad
##isive
##itate
##oui
##oux
##ication
toward
##omar
##ayan
##eline
##enty
##ented
##rehens
##stone
##stances
##strop
##etball
##ecomm
##urian
##olated
##utes
##utation
therapy
formed
forcing
##thur
##thorpe
beyond
##leph
##igation
starter
stret
##andro
1999
##osis
##ules
##rak
##rav
##imir
rej
reel
reign
revers
reward
reorgan
##verhampton
##owa
##owice
atmos
##chler
##chita
##chinger
##emper
##emura
##estock
##unthorpe
##ager
##agement
##apest
##istance
##ourg
##ocide
##uma
##umph
##arty
##artak
##ections
##ectors
alone
##ivity
shared
chains
chances
churches
##ablo
##abaya
Str
Stoke
Stevan
note
seemed
princ
exam
offset
##ANA
##ANE
##allist
##ostal
##berra
perform
##ighted
Fran
Chg
Chap
Chern
space
sports
sparked
##uez
##oko
##oked
secure
Ing
Ins
Brann
Bratis
newly
##ishing
outperform
##ekom
##iev
unw
united
units
unex
unemploy
trends
##avy
upg
compar
124
129
reply
reputation
##INKI
##ipei
Itar
beating
##ordin
resort
resulted
expects
mind
mining
minimum
itself
##ffick
quit
clot
clock
Hees
Heading
##rests
arr
arrests
##ansson
Also
neither
governments
##issa
meant
##kei
13th
##osevel
209
208
145
142
140
146
recomm
allow
218
275
277
269
26th
disqu
disput
Sporting
Spartak
248
161
1610
1650
##ICH
##ICO
##ensions
##AREST
##wegian
prec
Ischinger
elabor
understanding
##oyal
##ibas
##ATH
##ricia
incidents
##liner
##ahar
30th
Armed
Arthur
##ashi
##ikova
##obi
invitation
181
attention
attract
Ref
Reading
##OCK
Anke
relay
reluct
releg
relatively
caps
blue
blame
Swind
impossible
##ELL
##ASIL
cool
halt
enc
becoming
struct
##ajevo
refined
##onex
Commercial
##errero
Shimon
##ijuana
killer
consc
consolid
consensus
Research
Reserve
##izan
##URT
##rows
retain
retire
##CHAREST
flag
guarant
Colle
supposed
supporters
highly
highway
389
388
dragged
triumph
323
traffick
##ADIAN
Amr
acting
themsel
worldwide
##apped
Belgrade
Norwich
Norwegian
oppose
dealing
Republicans
Johansson
tourist
33rd
455
457
airliner
signal
##phere
##ucky
Palme
447
##OTT
##OTH
Finn
Operating
PRICE
amnest
##version
##rete
##egal
64th
Maybe
Berk
Berger
85th
569
56th
remote
461
462
469
466
555
Johnny
Income
Sauber
Syrian
Cannes
Canberra
handgun
located
##AKA
##embourg
Guerrero
follows
##ACT
heads
header
Frenchman
probe
provinces
McEwen
protesters
59th
Phill
Trent
substant
##bani
supporting
deposed
Contin
Conchita
FROM
tradition
Parana
medic
medallist
Akam
sentiment
behalf
suspension
512
Barn
Partizan
fails
factor
getting
promoted
mayor
nationalist
Edd
Edwards
Edgar
775
midday
middle
58th
Salang
directed
##afia
1980
1987
1988
1980s
specified
Costantino
Warburg
northwest
Aggregate
difference
restruct
Karina
decline
accuses
believes
Geneva
##lava
80th
Benfica
publicly
##ification
BRASIL
Clay
##LANDS
receive
estimate
Election
Fergus
turnover
Marcus
involves
Liu
equival
square
appears
colony
qualified
operate
operator
Globo
Roberto
questions
phase
accords
NATIONS
taxes
##ciliation
Neill
persu
affect
developed
SPD
bombing
civilians
roads
Dean
Young
edge
education
forecasts
Steff
negotiat
easy
##place
##ortunate
frequ
explain
explained
Senegal
larger
rainfall
grounds
Banespa
Banisad
Juha
radical
attempted
Blacks
simp
Georgia
86th
Dividend
Mozamb
Mexican
Torr
Tommi
bids
limit
limits
option
Cubs
Cuban
Roosevel
raising
events
Collstrop
Giles
Kingdom
Surin
Surabaya
Tehr
Universe
Duff
hostages
modem
##ategui
brokered
weapon
Nepali
Capiot
Despite
Melissa
portf
##swich
heavily
acquired
Erbak
fastest
families
listed
1948
Liberation
Linford
Linhart
pitched
##umbent
complained
terrorist
briefing
briefly
EPR
Taipei
Wells
Wellington
publish
rider
targets
influ
Avonex
Basuki
Metro
Radio
barrel
scientist
scientists
critics
seriously
BUDAP
BUCHAREST
Miller
predic
arriving
Sarajevo
Summaries
Takemura
sometimes
boosted
Justin
Yassin
bottle
virt
repeat
Corsica
Emnid
Rabbani
destroy
global
engineering
CLASS
Hutu
cargoes
hunting
hoped
multi
multiple
superb
Anderson
##ruption
Bahamas
Kimiko
Lawrie
dissidents
pursuit
animals
politician
Ballanger
Current
Damon
Dubn
Dublin
Giants
Kevin
Mostostal
Rapid
bringing
pleased
##ODY
prospect
Stephane
Stephanie
unfortunate
abduction
contribute
credit
legislature
Fairbr
Lokomot
Subaru
Zhirin
birds
function
motion
intended
concrete
sharply
Bruguera
partnership
Regulation
kidnappers
Michelle
Fredericks
Prize
Pierre
Rosati
satisfied
##blum
##uminum
retailer
Produc
Budapest
Rocca
Tirana
Winners
athletes
experience
Industry
Cooperation
Bonds
CSU
Derby
Latvia
MSV
Mapei
Office
Padres
VfB
Vladimir
##IGHT
placings
extended
Chorzow
sponsored
displayed
Community
Whittall
Transport
administrative
manufacturers
irregularities
Caen
CANADIAN
Kerkrade
Matthew
Nikkei
Viktor
Wolverhampton
fighters
picture
ratio
surrender
safety
reopened
ancient
Startup
Chamorro
climbed
controversial
Spaniard
Sharif
Systems
Nicolas
fundamental
patrol
northeast
Dynamo
Fleurian
ITALIAN
MOODY
Moldova
Promodes
TIMES
citizen
platform
split
compensation
##seeded
Heathrow
monitoring
inventories
reliever
confiscated
Gujral
Agriculture
renewed
Dimitris
Astros
Ipswich
Kubo
LISBON
LATEST
Mutola
MEXICO
Nagy
Ocean
Southend
Vermont
pilot
##unnel
##ovsky
unnamed
compatriot
Analysts
Columbia
Classic
Cyprien
Revolutionary
Rodriguez
renegade
article
jewelry
Athletics
Bromwich
BAGHDAD
Batistuta
Dodgers
Eefje
Fischler
HELSINKI
ICAC
Istanbul
Korda
Kornblum
KOREAN
Kuwait
Ligier
Lopez
Luxembourg
Mubarak
Mideast
Mikael
Pacific
PUNR
SOUTH
TITLE
Uganda
Zastava
bpd
bronze
livestock
majors
maximum
wareh
widespread
atmosphere
Stevanin
Bratislava
unexpected
Headingley
recommend
Swindon
themselves
amnesty
BRASILIA
Ferguson
equivalent
Banisadr
Tehran
Erbakan
BUDAPEST
Fairbrother
Lokomotiv
Zhirinovsky
Aa
Ay
Aw
AMT
ACT
ARA
Bj
BY
BER
Bog
Burn
Brew
Bogra
Bamer
Blind
BOMB
Bossi
Cas
Cur
Cim
Cow
Cond
Core
Cov
Chen
Carter
Cea
Castle
Dre
Down
DEL
Drew
Domin
Doming
DUBA
Eke
Even
Eco
Eales
Ell
Erd
Esp
FF
Fat
Fow
From
Fast
Free
Fog
Field
Form
Farm
Flam
Foe
FOUR
GP
Gill
Gav
Gib
Garr
Geph
GTR
HR
Hat
Hit
Hom
Hers
Hog
HAM
Hamil
IP
Jor
Jet
JOSE
Ky
KV
Kad
Kot
Kry
Klin
Key
Konto
Kiev
KATH
Led
Lith
Lub
Lie
Lock
Lah
Laus
Lamb
Lamm
LTT
LAKES
Mu
MI
MP
Mia
Mok
Mans
Mous
Many
MET
MAD
Move
Miam
Merrill
Mox
Maced
Mural
Monde
Mafia
NB
Nelson
Natal
Od
Oz
Out
Osc
ORI
OLY
Odra
Pon
Puch
Priv
Pires
Poz
Pesc
PORT
Q2
Ran
Rel
Rain
Rud
Rick
Ried
Raj
River
Rugby
Sel
Sut
Sep
Sok
Swe
SAT
Since
Sey
Suk
SRI
Suw
SIG
SOF
Sosa
TE
Tou
Town
Tott
TIR
Tau
Tomas
Techn
Tosh
Tyr
Tankan
Togo
TUES
Up
Uli
UAE
Vat
Vad
Vice
Vall
WA
WS
Wro
Wang
WAT
Wals
Wij
WINN
Yr
ZIM
Zinz
aver
aide
audi
aims
bon
band
bag
brib
bowling
baseball
bulk
bounce
coc
crown
da
dil
dog
eld
eye
fan
fill
fier
fulf
fixed
filled
frost
grew
giant
garden
hon
ham
hum
hover
jour
lions
lows
labor
mix
mob
mile
mild
nom
ounce
pa
pal
pace
pool
pending
pati
pump
pension
pills
rich
racing
som
sun
sug
sending
sidel
tend
tell
tack
tree
touch
tense
tanks
tunnel
vac
vast
venue
wors
wide
yellow
##hs
##har
##hod
##hto
##hib
##hival
##hye
##iest
##la
##lot
##lech
##lars
##AIN
##NU
##NAT
##time
##nis
##nov
##gl
##ground
##ae
##uve
##uated
##uations
##uese
##uelled
##pet
##pol
##pile
##oen
##oard
##rast
##rell
##rze
##si
##sman
##ska
##senal
##smann
##sewhere
##bon
##bun
##brough
##kou
##kok
##kamp
##IEND
##Soft
##mit
##mas
##mad
##mun
##mail
##mett
##drew
##dale
##cy
##cor
##car
##caster
##24
##zman
##ziat
##far
##fit
##friend
##yal
##yman
##CEL
##DING
##PEX
##MP
##MED
##Rs
##RID
##BWE
##EI
##EY
##EES
##EAK
##LSB
##VS
##FURT
##western
##80
##GE
##GOTA
##erie
##erals
##hell
##inho
##ansea
##oni
##onement
##edoph
##esi
##esus
##oring
##orian
##aram
##atung
##alova
instruct
##itas
##itary
##itute
##aser
##asion
##aseron
##icia
toler
##iden
##omon
##omir
##ilm
##ele
##elin
##elnikov
##reb
##stra
##strators
##etas
##adler
##ecured
##urbs
##olation
##amous
##uts
##uting
##uties
##utable
thanks
thrown
throwing
##otna
sav
save
forfe
##irl
##irk
##irling
##irty
##tering
##rob
##rof
##acco
19th
##igar
##igato
stg
stun
stick
stations
stole
##erse
##iller
##illery
##oser
##osene
##uls
##imary
##imistic
##usan
rever
reimb
reject
reiter
whales
##chat
##emy
withdrew
analy
##agn
##agen
##agre
conced
concl
isolated
##istics
##oped
##opard
##opoul
##opathy
heir
heading
##ategy
plast
##ONA
##orton
##orted
##essor
proc
##manent
shock
showers
shift
##abis
Strang
Stadler
Stirling
seems
sealed
prayer
printed
exha
exiled
exerc
agree
agricult
##icek
offering
##oster
##endar
##ugged
##iform
perhaps
perpet
Frances
Chong
Chief
Chairman
Challenge
Charity
##ode
##ubl
span
spect
sport
spying
spinal
##ellent
##ERT
Institute
Bras
Brig
Bright
willing
##ORS
##ORIA
outcome
##ieves
unident
unseeded
trend
##avi
##aval
upd
upst
complex
122
##chet
157
overth
##INT
##INTON
##iplin
##inee
aboard
##ails
explor
experts
##ursement
mines
Legia
quake
282
28th
clause
climb
##under
##ickman
##ALAND
##ALIA
Healy
Heinz
acts
acres
228
##resp
peas
Alain
Albert
Alami
Alesi
contents
contacts
containing
neo
meal
131
137
204
20th
144
matter
Gerhard
partly
recalled
allied
##ancell
21st
263
sure
suits
Briton
fined
discover
297
Sport
Ata
16th
238
##ICIAL
##enses
elsewhere
undert
##oyama
##ENOS
##ogue
incumbent
Marsh
fours
Art
Arsenal
decisive
noon
179
17th
dozens
access
endors
endorse
indices
##encies
##awi
##iley
##alya
communications
18th
##ucted
Reef
Reiff
Reform
Rehman
Anto
setting
blown
blocked
defenders
defends
meets
appl
Swansea
impress
cru
##ASON
coordin
ener
##inding
##indus
strategy
7095
##ilding
text
##iction
planes
sheet
##atures
Shi
Share
Shah
Shane
Sharp
otherwise
##certain
consulate
metal
method
interf
intercepted
Irina
earth
407
Neths
Southampton
##izz
##URN
##URES
boats
returning
RESEAR
flat
floor
##etsch
38th
696
Polonia
##otti
tries
##rating
dividend
taka
Command
Commander
Commodities
Among
Amanda
warning
960
STAGE
Slough
##OLA
532
534
60th
voter
##armas
annivers
seasons
355
357
35th
Newsdesk
Palmans
4221
446
44th
investments
Peters
Petros
ordering
ordinary
load
loans
association
assistant
deter
detective
usual
##rett
Swedish
##uchatel
bushel
Bernd
470
474
852
8520
Brag
Weston
465
wells
##ILA
scorer
scoreless
gene
genocide
infrast
435
430
525
527
posts
demands
Guzman
Market
profitable
drach
provided
McN
mainland
595
599
598
Phan
deny
##LEY
insur
insisted
returns
supported
Contr
Construct
FRANK
FRIEND
traditional
Ash
Asked
medals
legs
recorded
laws
Akron
aviation
sentences
tested
##ristina
Export
holds
##eneuve
##isoning
519
Barry
effects
##ushing
574
57th
Khmer
factory
promin
##umann
intensive
Admin
Only
Schne
Schult
Boer
stockpile
416
camps
strongly
Salomon
directly
discl
##UTT
extr
violation
Blake
cutting
390
398
END
Angolan
gives
restored
##keren
375
Karol
accusing
Genoa
Seoul
##uania
##beans
advice
parent
parents
Interpol
businessman
payments
##aldo
trained
BRAZ
Close
breaking
fewer
Elena
Ferenc
walks
walking
walkover
##load
respond
8720
8787
farms
rankings
appearance
investigations
BASKET
falls
Andreas
BOGOTA
Gluten
settle
settlements
letters
##RECT
##ologies
batter
batsman
collision
drivers
taxi
producer
producers
Neil
Neuchatel
membership
Montgom
imported
importance
developments
PSG
civilian
finds
Brooks
Broadh
Richmond
edition
skilled
##UMP
preferred
buyers
Hamlet
student
Patricia
replaced
independent
834
83rd
USA
missionary
##ROW
##BOUR
commentary
prisoners
BALANCE
SCOTT
Blackpool
Gazeta
penalties
titles
plantation
Jimmy
Tommy
Bobby
Grant
Grobb
bright
sectors
##nesburg
effectively
Buff
Freeman
Mohammed
PLAY
eventually
fields
pullout
sexual
sexually
Frankie
negotiated
Colling
Florence
Oliver
Olivier
##holder
##claw
##ysz
##BABWE
representing
Harald
apiece
autumn
badly
model
everyone
MONTH
Rangaraj
##vertheless
tracks
5040
MASTER
hopeful
weakening
acquire
Howard
MILAN
Novotna
evac
football
links
1949
1947
Donovan
Doncaster
nominated
Tamils
paint
painted
painful
riyal
riding
riders
##uwithar
postponement
Bangkok
Kenny
Kennedy
barred
crowds
laps
##KYLA
normally
ALERT
BUENOS
Herbert
Ivorian
Telekom
crossing
marijuana
##hrach
##missions
##LAV
initiated
realised
dispos
dispute
winds
window
boxcar
cannabis
strikes
Flower
merely
pesetas
routine
shutdown
Henman
Henry
Magdal
technology
ultim
##ABAD
stabil
Stefano
unclear
Expos
freedom
Bulgarian
Postal
destitute
glass
Portuguese
Ferrigato
Gabon
Twins
covered
INDIC
maintained
Haar
Silva
pursue
##geny
##enzo
excellent
Johannesburg
films
criticised
ADRs
Damasc
Gianluca
JavaSoft
corre
gathered
##IVE
##elaar
artillery
incompet
Arnold
Fernandez
CONFIR
Goran
Notts
Raith
Raiche
SERIES
fixt
intends
combat
changing
closely
shelling
demonstrators
Frederic
escaped
Azhar
CARLSB
Missionaries
Tutsi
fairly
mutual
praised
robber
selected
soybeans
widely
asking
Specter
AUSTRALIA
Bedie
Betaseron
IMED
Kaluwithar
bowled
##giannis
##HIBA
adopt
adopted
Chesterfield
surgeon
photographs
Bolton
Cambod
Cambridge
Escort
Humenne
Larry
Naoko
SALE
Vacek
##worth
##worthy
spirit
belonging
Allenby
Middlesex
Middlesbrough
semifinalist
Cocu
Filip
Hendrix
Libya
Nyva
Pinas
Vinny
welcom
##HERLANDS
projects
Chonan
Headley
commitment
Anyang
applications
highlights
associated
remarkable
subsidiary
Christopher
aggressive
liberal
sweeping
Bonilla
Dinamo
Doctors
Hurricane
Joseph
Natalya
Premier
Sachs
Tunis
TOSHIBA
Zabrze
aiming
baby
err
emot
muscle
nurses
searched
##rabacher
##mantle
referendum
INTERNAT
OFFICIAL
swimming
AFRICAN
particularly
Mauritius
arrangements
Adams
Bombay
Cairo
DHAKA
Hearts
Hassan
Kandahar
Kucera
Kohl
Nilis
Nearly
NETHERLANDS
Opposition
PULPEX
Rohrabacher
Villeneuve
Yihye
diverted
purp
pipes
roubles
rubber
sleep
##atchewan
inquiry
procedure
exclusive
perfect
Brandes
unbeaten
compromise
container
attributable
imprisonment
crackdown
strengt
Chemlon
surrounded
subpoena
insistence
Grasshoppers
Caribbean
Magnus
Krajicek
Hakkinen
JYVASKYLA
Namibia
AIRES
Ballybun
Bohdan
Gatwick
Joyce
Kafelnikov
LANKA
MONDAY
Necmett
NORTH
Palkhival
Rifkind
Saskatchewan
Veldman
diesel
gestures
jeopard
kerosene
mistakes
stretch
reigning
Insurance
Heeswijk
disqualif
reluctant
trafficking
Phillies
substantial
medicine
Eddie
negotiator
Mozambique
Roosevelt
portfolio
destroyed
CLASSIC
ACTUAL
Brewers
Bamerindus
DUBAI
Ekeus
Fowler
Fastest
Fogarty
GPG
Gephardt
HRW
Hatoyama
Hogg
Hamilton
Jorge
Klinsmann
Kontogiannis
Leduc
Lithuania
LTTE
MPs
MADRID
Movement
Miami
Moxon
NBH
OLYMP
Puchon
Suwon
SOFIA
Tottenham
TIRANA
Tauziat
Toshiba
Tyrrell
TUESDAY
Ulihrach
Vatican
Vaduz
Valletta
Wroclaw
ZIMBABWE
Zinzan
audience
bonus
elder
journey
nominee
paedoph
palace
##hello
##atunga
instructions
reimbursement
##opoulos
##iplinary
Reiffel
Sharpe
RESEARCH
anniversary
infrastruct
FRANKFURT
FRIENDLY
BRAZIL
BASKETBALL
Montgomerie
Broadhurst
SCOTTISH
Grobbelaar
Rangarajan
Magdalena
Damascus
CONFIRMED
Raichev
Azharuddin
CARLSBAD
Kaluwitharana
INTERNATIONAL
Ballybunion
Necmettin
Palkhivala
paedophile
2nd
4th
5th
8th
Ai
AJ
Aar
Aax
Azer
Aston
AEK
BL
Bes
Bay
Bos
Bov
Bold
BAT
Bach
BAD
Bury
BUS
Bald
Bask
Bourn
Cad
Cand
Cul
Cly
COR
Care
Carg
Cross
Cred
Cargo
Coul
Celt
Cabinet
CME
Cerc
Ciller
DO
DK
Dou
Dost
Dek
Darl
DOC
During
Diet
Diplomat
DEC
DEF
DNS
DUB
DAX
Dirk
Ec
Ez
Ey
EM
Eel
Eug
Eric
Etr
Eastern
Ekeren
FI
FK
Fac
Fig
Fine
FIS
FUL
FTS
Frow
Fuel
FEAT
Gon
Gur
Gly
Gust
Gang
Goy
Great
Gater
Gru
GRE
Gallen
Hed
Hot
Hich
Hall
Hub
Hek
Herr
Hull
HOL
Halif
Harr
HOM
Hodd
IF
Ji
Jam
Jers
Jarm
JUN
Jays
Jesse
Jiri
Kis
Kir
Kek
Kild
Kath
Kuch
KEE
KUAL
Les
Las
Lut
Lill
Lap
Loc
Lue
Lamp
Lup
LAG
Lech
Lenn
Laz
Love
Life
LIM
Lomas
Little
LIST
Lenz
LUMP
ML
MQ
Ment
Mur
Mot
Mul
MAL
MEL
Mets
MAY
Mlad
Miron
Macc
Molen
NC
NT
NO
Nom
Nad
Nac
Nap
Nix
NIC
Nair
NOV
OR
Ond
Pay
Pre
Pell
PER
Pors
Poh
Pemb
Piet
PUT
Penal
Phel
Pasc
Panis
Pantic
Pyman
Pusan
Qian
Ren
Rou
Rom
Rem
Rice
Rue
Rous
Rash
Ronn
RAM
Rother
RED
Ruth
Rolf
RBA
Rui
Riche
Riley
Sr
SR
SB
Sol
Sig
Sem
Sary
Sob
SING
SOL
Seb
SIM
SUN
Srin
SHAN
SARA
TM
Tar
Tat
Ting
Tort
Tav
Tong
TEL
Tax
Torp
TUE
TALL
Tru
Tries
Terence
TUN
TWA
Troy
Taty
Tikh
Tych
Ud
Uls
VI
Vy
VM
VW
Var
Viv
Vial
Vict
VALL
Vitor
WH
Wal
Wies
Wah
Wels
Wits
Wron
Woud
Wyc
Witnesses
Wodz
XI
Xin
Yed
Yast
Yev
Zv
ZE
Zan
Zver
Zem
Zamb
aw
ara
aides
aware
bol
ble
bans
bone
bench
bru
burst
blind
cm
cat
cord
cens
cited
creat
citing
cwt
cigar
ded
dates
dishon
duties
et
eve
elements
eleph
fa
fal
fate
fres
fence
fake
fram
faded
gra
gap
grad
hole
hanged
hogs
hanging
ign
jit
jav
jars
kind
ling
lag
lock
lady
leng
lung
lamb
lira
locked
mol
mos
mph
mumm
mental
nur
nov
natur
pard
pork
pence
pitting
papers
rom
rack
ride
ranging
royal
sand
sust
sens
summ
sitting
tap
tub
tamp
tact
tying
ticket
temp
tankan
temper
ump
wet
wear
wart
wave
wood
zinc
##hina
##hael
##hny
##hua
##iber
##ioth
##lis
##lice
##AW
##Air
##AAR
##AIL
##turn
##tole
##telligence
##trak
##nos
##nost
##nie
##niew
##gra
##gov
##glish
##girl
##ji
##jov
##aos
##uid
##uir
##uous
##uardo
##pas
##oach
##ooth
##rent
##rus
##rith
##right
##rine
##sa
##ses
##sol
##sbury
##syl
##bott
##born
##brand
##buk
##bishop
##bacco
##58
##kal
##kle
##kila
##IB
##ITS
##SH
##mash
##mese
##meal
##mila
##maty
##da
##dd
##din
##don
##vious
##viet
##vania
##cities
##cano
##coming
##22
##zon
##zew
##zhem
##fr
##fter
##feld
##feed
##yi
##ym
##yed
##yard
##yton
##yadh
##06
##44
##48
##Com
##33
##92
##TM
##DF
##PR
##MAND
##MINTON
##RL
##RES
##ETS
##xim
##xham
##WAR
##UZ
##HNS
##wed
##went
##will
##wall
##whel
##wagen
##OG
##61
##64
##Gard
##GOW
##JEV
##erted
##erness
##erico
##erative
##ergen
##hele
##inqu
##inery
##inwa
##inville
##anic
##anion
##anne
##edo
##eson
##orets
##orney
##arb
##arence
##armed
##arova
##aracter
##arborough
##atas
##atible
##alopathy
ing
##iso
##isk
##isle
##inga
##ingitis
##itar
##iters
##itious
##itude
##itiba
##asad
##asategui
##asniew
##ouc
tower
tobacco
##idy
##idis
##idden
##omorets
##iles
##elch
##elop
##elong
##enter
##entry
##entzen
##rets
##reading
##reza
##sten
##storm
##ete
##adi
##adis
##eck
##ecall
##ecoach
##uran
##urry
##olera
##aman
##amount
##utaro
##otted
saving
safe
fort
##irmed
##roke
##rocities
##tha
##thus
##thard
##thorn
beach
##acle
##acem
##lepool
191
##igen
##igible
story
steal
stiff
##illiant
##veill
##anded
##oshi
##raz
##imal
##imate
##imony
##use
rein
reass
reading
##owles
##owled
whist
whale
##ceph
washed
atrocities
##iage
##iakos
##ldogs
##chle
##chge
##cheri
##chdale
##emouth
##emichi
##ainst
##ainable
##ework
##rika
0800
##akow
anx
ankle
##unge
##unction
##agi
##agar
##agle
##agues
##agecoach
conce
conqu
convene
##ape
##apt
##apse
##apolis
asks
##ources
heat
bypass
##umes
##umstances
##epers
##usty
##usting
comics
comfort
##ector
alive
alarm
##ortium
leaves
##essing
##essions
##essels
prostitute
prohib
##manuel
##iven
##ivors
##ivotal
##ivatives
shout
shirt
chain
chair
chronic
chaos
character
##ables
##abani
##onduct
Stat
Still
Stra
Strom
Stall
Stank
Streak
Staff
Statist
Strick
Stagecoach
goes
notes
notice
sequ
seize
princess
Thiel
exit
exch
examin
offenders
##ANST
##endt
##endon
##ppen
permanent
Frentzen
Chi
Chonn
Church
Chiate
fires
##oded
##odity
##ubbed
spell
spite
spots
spoil
spreading
##uda
##ellers
##ERN
##EREN
##okes
##oking
##acks
securities
secrets
Infl
Intelligence
Brund
##ovann
##ORROW
outd
##eki
unite
uncertain
##ango
##aved
##avit
##avia
##ongs
##ongiform
upset
computers
127
153
1500
overh
overcome
overwhel
repairs
118
##INCH
##ipt
##ordinary
abn
resistance
expans
##ucial
##ucnost
Legal
Leyton
quart
quarters
285
286
cler
##icki
##hent
Heb
acre
ackn
##assination
Newbury
229
peak
##quay
##quate
Alb
Alec
contained
##ousing
meat
##osevic
255
254
203
141
14th
##tois
monetary
monarch
##ftbank
##anca
##anco
##soil
211
265
260
officially
financing
##acting
disch
disrupted
disgu
dismal
disagre
marked
295
29th
2410
166
1673
232
##ICA
##ICT
##enson
##ensen
##ensbach
##ARE
Issu
underwent
##oya
##ograd
##ATORS
##ricity
##richello
Mario
Marble
scam
scale
scler
screen
##achment
Mind
Mining
Minerals
##ervation
304
309
Arna
Arrows
decre
decade
##ashnikov
ATP
##ikely
Weather
Weinstein
##obod
inval
##awati
##awarra
185
187
188
##AGES
attorney
centred
Another
relatives
Sunderland
sixes
blank
blaz
##amese
apprec
crimes
crucial
##ASGOW
coached
confron
enthus
reporting
string
stranded
reference
refusing
refuelled
Julian
teach
##erring
Shrew
soil
softer
##ETTA
##ETORIA
##ANDA
##ijan
killers
killings
##ermark
regul
regained
regulation
consortium
Belchat
Prasad
metre
interbank
NEG
earn
##ITED
409
##URITY
##URDAY
retiring
Represent
Repsol
##azon
75th
Sci
Scunthorpe
Scarborough
statistics
Africans
Prescott
flows
fluid
olds
thirds
justified
suppl
385
382
383
548
5452
trio
1000
32nd
trail
seeds
##cester
Communications
Ames
Amica
Amtrak
Amazon
actually
warm
STAT
STUTT
STANST
##AMI
Sergei
##lude
Coal
Slask
opposes
##OLES
330
535
530
53rd
surged
456
680
684
servic
servant
##eryll
356
##phy
Palmer
##atta
421
42nd
##OUP
singer
singled
issuing
loose
##ramatta
assassination
Demel
INA
PRETORIA
ammun
uses
Swede
bankrupt
busy
buses
Berasategui
delays
477
knows
passing
passport
560
568
730
73rd
carrier
remains
militant
460
467
Malawi
economist
visitors
generation
infected
informed
shoulder
341
342
340
431
432
439
617
SEA
handover
handful
longest
523
529
528
725
##ieties
Guy
Guine
Markov
Markets
##ruit
##ruet
##OMS
injunction
drun
provides
providing
goodwill
746
Martina
desc
McK
##eeuw
protect
Trust
Trading
subsc
submitted
substitute
suburb
subsequ
##lamation
tops
topsoil
denounced
362
Bosnians
Shell
Sheikh
depend
##bsky
Conte
Crohn
FRID
##ungle
armoured
OFK
shareholder
trades
63rd
Parent
Paribas
Parramatta
Asian
medium
Akbel
testing
testimony
Slovan
907
Exeter
Play
WorldCom
holder
515
51st
Barrichello
575
promot
promise
promising
promises
nationals
nationalists
intra
intelligence
Adel
Adela
Education
Eduardo
Graz
smoke
smooth
helping
412
TOP
landless
##fielders
582
Salah
direction
directors
##afsson
disciplinary
Abuj
Morinville
banning
##forde
Olympiakos
Blue
Forest
volley
volunt
volcano
1984
1983
speculated
391
Warner
northwestern
Against
Angola
Media
authority
restrict
propri
pressed
37th
Karen
Karak
forma
forms
formula
Carling
Carlton
Carlsen
Carlisle
Lankans
Sea
THU
Willie
##beek
##omposed
policeman
meningitis
powerful
##icoff
advance
adviser
looks
Benin
clearing
paraly
ways
transl
Allan
Alliance
Allensbach
Islamabad
Milti
Milosevic
district
paying
payment
##rdin
##IDERE
820
BRIT
BREAK
Clarence
breakaway
056
Assoc
Before
Greer
Green
empty
emphas
privately
##oxin
##scray
thinking
respir
870
AMMAN
equity
ranks
sells
totalled
revolt
Marchal
operated
Manly
valid
##aneous
795
Airport
Airlines
Geelong
chest
checked
fraction
##ologist
##ologists
organising
EgyptAir
Midfielders
batters
basic
collective
collapse
drift
worry
worries
requiring
concerning
Neither
Neumann
Nicole
reduction
approve
approval
SPA
SPOT
hospitalised
##kswagen
##stitutes
findings
Death
Deuts
guns
gunmen
skies
##APORE
##raded
##UMENT
stopping
shotgun
##ENNA
triple
activist
discussed
discussing
Goalke
Goosen
borders
greater
swept
##atorship
studies
Peterborough
funded
seeing
competitive
replied
exploded
coaching
Senior
bills
Juergen
Volkswagen
communists
Burmese
Orviet
murdered
murdering
southwest
steel
healthy
planting
9000
AGAIN
Jonzon
Moore
Moada
Michele
Torquay
engines
engaged
farmer
##GHAI
resigned
##ograp
optimistic
programmes
employer
Road
Rochdale
brother
brilliant
raises
schools
schoolgirl
illegally
845
84th
Buy
Freed
Fremantle
OSLO
Softbank
fielder
##AMPS
##AMPTON
doubts
doubled
Balt
Balance
Services
moves
##marked
##cuit
Stockport
Universitate
Helmer
MANILA
Orii
Orient
Oriente
UNDER
UNITED
1974
measles
Courtois
JOURN
JOHNS
feared
##going
##monds
##umping
Moroccan
Philippe
Philippine
Captain
Rubens
motorist
##cript
weakness
weakened
ANGOLA
ISSUE
Congo
Federico
damaged
sites
##OVER
1967
1968
1966
trucks
claim
cooperate
Liberal
Bulldogs
Dharmas
Donald
Hanson
Masl
Masood
semi
reasonable
compliance
accounting
terrorists
Moreau
MATURITY
Samper
Woodforde
causing
grandson
riot
##works
##islaw
distributed
equalised
photos
photograp
Aviation
Praha
derailed
happy
##ligation
Newcrest
surveyed
Lancer
Mills
Millns
Millwall
Today
Telecomm
Vicente
Watford
march
married
massive
##hrs
initial
capture
feeling
ASK
Impl
Impreza
cancell
pesos
package
shutout
Archbishop
indication
Companion
McCurry
performances
manufacture
Defenders
Justice
Valer
mounted
mountains
urge
stability
Stanley
exported
Lebanese
Malaysian
Expected
COMP
COMEX
Danish
Danny
Jacob
Royals
Workington
##rects
##recks
Investment
suitable
coastal
conflicts
strategist
registering
extraordinary
Hutnik
Jackson
fishing
##andalidis
Bruno
finishing
Announce
Andersson
INDIA
views
Organisers
Bahia
Gronholm
Haas
Jakob
Riyadh
Robbie
Robinson
SunGard
Trax
balances
dissol
##omyrdin
exclude
sprinter
entry
slowly
networks
premiums
observed
ADV
Garang
Raphael
corruption
storage
standard
abducted
incompatible
apparent
creditors
Confed
checking
explosive
semifinals
achieving
Fulton
Fulham
Judge
Loko
Suburbs
Worcester
choose
closer
Springb
opponent
##stitutional
Ronaldo
Ducruet
Footscray
Knup
Skandalidis
Tutu
harass
lunches
rallies
robbers
wilderness
unlisted
unlikely
Leonard
Special
teenagers
Americast
Juventude
launching
kilometres
Championships
AUSTRALIAN
Bedou
Buducnost
Develop
Kalashnikov
Mrs
Penrose
Penrith
Soren
Sorensen
Sidhu
Voinea
dictatorship
hundred
exactly
experienced
Industrial
helicopters
respectively
requirements
suggested
suggesting
Cricket
CSKA
Escrav
Keane
Kosice
Kosovo
Museeuw
Obligation
PAUL
Testud
VfL
awarded
focus
focused
poisoning
type
##baijan
##bruck
##omotive
chips
exception
Communist
designed
Laurent
Laurence
administrator
manufacturer
participation
participants
immigration
circumstances
COACH
CONTENTS
EXER
Katowice
Mountain
Ryutaro
ROME
ROMAN
Reneberg
Sandrine
Talbott
Talabani
Tibetan
hectare
hectares
punish
waters
watched
watching
##acheslav
##itharan
Chonbuk
resuming
adjusted
understand
application
implementation
survivors
associate
remarks
Abbey
Christophe
friendship
granted
complaint
complaints
historic
BARCEL
CBOT
Crewe
Faure
Giovann
Illawarra
Pennsyl
Ravan
Rockies
Saint
Sainz
digital
liab
machine
silver
##GART
strokes
severe
Brentford
unpaid
argument
consistent
tribute
divorced
brokerage
Prairies
Prairie
fleeing
COMMACK
Gabriel
Ottawa
originally
birthday
dystrophy
dystrophin
ARC
Balkan
BONDS
Daschle
EDT
Fitzroy
GOVT
Hidemichi
Housecall
Hawthorn
IRNA
Ludmila
Moyer
Mahala
Majoli
Order
Widzew
Wrexham
Waldorf
batting
camera
canteen
eyes
gloom
mortgage
marriage
migration
panel
rifles
rocks
raids
##varos
tomato
##chelles
2843
Independent
demolition
assemblies
Bertram
insurgents
involvement
Provision
MANAGER
favorable
concluded
Aleksandra
nervousness
pornographic
Anderlech
BNP
Boys
Castilla
Dalglish
Essendon
Flemming
GLASGOW
Gastel
Hereford
Hartlepool
Jalal
Kwasniew
Lufth
Retief
Sieg
Vaughan
barges
burned
bacteria
litigation
lobby
malaria
parrots
tiny
##rehensive
reverse
reorganization
Franz
Chapman
Chernomyrdin
elaborate
relegated
conscious
guaranteed
College
Barnet
restructuring
Clayton
persuade
Steffi
frequent
Duffy
publishing
influence
virtually
Dubnicoff
Transportation
Viktoria
patrols
warehouses
unexpectedly
BERLIN
Burnley
BOMBAY
Corey
Coventry
Castleford
DELHI
Formula
Gillingham
Gavin
Gibbs
Garrity
Hitler
HAMLET
Kytole
Kadian
Kotlars
KATHMAND
Liege
Lockhart
Lahore
Lambrecks
MIAMI
Mokhoff
Mansfield
Muralitharan
Natalia
Odnos
Ozers
Oscar
ORIOLES
Ponting
Poznan
Ranatunga
Relations
Sokol
Swebus
SATURDAY
Seychelles
Toure
WSRL
Walsall
bribes
sugar
##omirov
savings
reverts
analysis
conceded
conclusion
exercise
perpetrators
Francesco
Brighton
unidentified
overthrow
peasants
##ancellor
undertaking
Antoine
coordinator
Petrosani
insurer
Constructor
prominent
Administration
Schultz
Blakey
Ferencvaros
##RECTED
##BOURNE
Buffett
Collingwood
INDICATORS
robbery
Cambodia
welcomed
strengthen
NORTHAMPTON
elderly
infrastructure
Aaxis
Azerbaijan
BADMINTON
Basketball
Bournemouth
Clyd
CORRECTED
Cargill
Credit
Coulthard
Celtic
Cercle
DKBA
Dostum
Dekker
Darlington
DOCUMENT
Diplomats
DUBLIN
Ezinwa
Eelam
FTSE
Frowick
Glyn
Gustafsson
Goydos
Gatera
Gruppen
Hicham
Hekmaty
Halifax
Hoddle
Jiul
Jersey
Jarmo
JUNE
Kispest
Kekkila
Kilda
Kuchma
KEEPS
KUALA
Luton
Local
Luehrs
Lupu
LAGOS
Lennart
LISTING
Lenzing
LUMPUR
MLN
MQM
Mentmore
MELBOURNE
Mladost
Maccabi
Molenbeek
NCB
Nixon
Nairobi
Porsche
Pohang
Penalties
Rouge
Ruehe
Rashid
Rotherham
Richey
SINGAPORE
SOLIDERE
Sebast
SIMEX
SUNDAY
SHANGHAI
SARAJEV
Tarango
Tortelli
Torpedo
TALLINN
Tatyana
Tikhomirov
Tychy
Ulsan
VIENNA
Vyacheslav
VMIG
VALLETTA
WHEAT
Wiesner
Witschge
Wronki
Wouden
Wycombe
Wodzislaw
Xinhua
Yedioth
Yevgeny
Zvornik
ZEALAND
Zvereva
arable
blew
fresh
framework
javelin
mosque
nurse
##zhembsky
##cephalopathy
Stallone
Statistics
Stricker
Chonnam
Brundle
expansion
acknowled
Issuer
sclerosis
Shrewsbury
Belchatow
Representatives
STUTTGART
STANSTED
##eryllium
ammunition
FRIDAY
Adelaide
Abuja
voluntarily
Miltiadis
BREAKS
Deutsche
Goalkeepers
Orvieto
Universitatea
JOURNAL
JOHNSON
Dharmasena
Announcement
Development
Escravos
BARCELONA
Giovanni
Pennsylvania
Anderlecht
Kwasniewski
Kytolehto
Kotlarska
KATHMANDU
Odnosum
Hekmatyar
SARAJEVO
1st
1nb
2w
3rd
6m
7th
Ap
A3
Ax
Aal
Ari
Ato
Around
Aeg
Aper
Audi
BB
Bou
Bid
Bot
Bess
BAN
Bug
Bell
Bek
Buc
Bors
Bott
BOL
Beng
Batt
Beg
BAY
Byst
BID
Bots
Banda
Bunce
Brett
Bapt
BORROW
Cit
Cou
Cec
Cag
Cust
Cave
CIS
Case
Cough
Cron
Cler
Cuk
Clav
Curt
CBI
Catal
Camer
CTB
Cristina
COUP
Di
Dn
Dew
Dak
Dop
DIS
DEN
Derr
Dech
Dai
Direct
Dalian
Dari
Drey
Darc
Doug
Drob
Et
Eam
Ele
Each
Elet
Ener
EEC
Eva
EVER
Fut
Fund
Fah
Full
Fury
FIF
FBI
Fuj
FIX
Fidel
Funk
Foster
Faldo
Gh
Gc
Gis
Got
Gag
Gum
Gall
Goun
Gord
Gup
Gog
GAK
Grem
Gmb
Gras
Gama
Ginn
Gente
Gaud
Golan
Gornik
Ghent
H2
Hon
Had
Hig
Hand
Hun
Hag
Hop
HOR
Hick
Held
HAR
Hock
Hels
HEL
Hijack
Herve
Hoch
Harding
HIGH
Harrington
Hlas
Hints
HAAR
Himal
Ik
Iva
IPE
Iowa
Jr
Jab
Jade
Jah
Jenn
Jorn
Jared
Jaff
Joel
Jaha
Joa
JANE
Jesus
Ki
Kor
Kit
Kas
Kid
Kle
Kiv
Kost
Kock
Kik
Kij
Kaz
Komb
Kler
Kris
Kurt
KSE
Kemp
KARA
Komar
KTM
Lj
Lo
LU
Lel
Lec
Land
Lim
Lear
Lab
Lug
Lath
Later
Liet
Lane
LDP
LKS
Lomm
Lima
Mi
M2
M4
MC
ME
Mou
Mec
Mand
Mear
Mant
Mong
Mine
Mare
Mob
Moss
Matur
MIT
Murr
Meg
MED
MID
Members
MUN
Morton
Nu
NS
NV
Nit
Nain
Nast
Nab
Name
None
Niz
Numan
NINE
Numer
Navy
Oy
OT
Oil
Ove
Ong
Opt
Obs
Olo
Pu
Po
Pf
Pun
Pess
Pug
Pud
Pue
Pass
Pure
Pric
POS
Pool
Push
Pablo
PVS
Pivotal
Q1
QU
Qid
QUAL
Rh
Ric
Rut
Rig
Rim
Rate
Rah
Rik
Ruper
Rux
Rabin
REF
Ryo
Roma
RIO
Rishon
Rules
Renzo
Rakow
Sj
Sz
Sat
Set
Sug
SOR
Sav
Saw
Sull
Siam
Somet
Sabour
Semic
Sint
TY
Tol
Tod
Tans
Tog
Talk
Take
Tob
Tany
Telf
Tiger
TRA
TRI
Taha
TAX
Trip
Uj
Ur
UES
Ural
Ven
Vor
Vos
Vanc
Vog
Vide
Valk
Viet
VNU
WW
Wes
Wit
Wim
Wack
Wong
Wake
Wink
Water
WOM
Wising
Wisl
Xhel
Ying
Yay
Yek
Yone
Zic
Zion
Zil
Zel
Zad
Zap
ZUR
Zyl
arose
bul
biz
burd
bowed
bales
bike
bones
bars
bishop
beryllium
cul
cri
cell
cav
cry
coin
cities
cull
carm
di
dial
dry
dign
dating
dying
diet
distr
dimin
dressed
dipped
dogs
dwt
dirty
dubbed
eat
ease
ess
eased
eco
emissions
ful
fib
foul
foil
famous
gang
grip
hin
hor
hall
hang
harm
hung
hired
hailed
horse
hidden
ice
jumped
joked
jungle
karb
lor
lat
lay
lib
lament
lone
luck
lying
loses
liner
lumber
ment
mir
mouth
mood
male
nice
nature
naval
owing
ps
ped
pet
pour
pod
park
pure
pits
penn
patch
pairs
pistol
pensions
que
rh
rhe
rent
rum
rib
rough
sew
sight
sank
sick
scept
sudd
sessions
tb
ten
tal
tas
tir
tank
tier
tiss
trem
tells
toug
tabl
tablo
upp
util
vic
vom
vig
veg
vault
wre
weld
wield
yard
yarn
zlot
##hat
##hir
##hun
##hile
##hatt
##hner
##hury
##hane
##hurst
##halova
##iors
##lat
##lain
##like
##lengo
##ein
##eor
##eers
##eum
##equate
##NI
##NEX
##tart
##try
##tail
##tens
##nj
##nas
##noc
##nard
##nered
##naid
##gor
##gang
##gone
##gio
##jes
##jab
##jah
##jected
##jana
##jka
##juna
##ais
##uin
##uay
##uals
##pe
##ps
##pan
##pat
##pak
##park
##page
##papers
##pective
##oing
##official
##rot
##rary
##roll
##sg
##sy
##ship
##bar
##bas
##bow
##bah
##bone
##blom
##buddin
##51
##55
##54
##kl
##kin
##kaz
##kara
##kowski
##kinson
##IY
##IZ
##IOD
##SIAN
##mar
##mut
##mand
##mous
##mits
##mons
##mira
##dain
##dict
##dink
##vin
##vation
##vine
##cia
##cany
##cron
##cks
##cza
##colm
##zan
##zty
##zburg
##zysz
##fer
##fus
##fast
##face
##fare
##fred
##finals
##yant
##CF
##CIL
##CYCLING
##31
##TI
##TURES
##DV
##PA
##PU
##RS
##RY
##RAN
##RIST
##BS
##BUT
##EP
##EO
##EER
##EEN
##ECH
##77
##LT
##LAM
##Landing
##qlain
##WN
##VIA
##YE
##YAR
##UA
##UC
##UF
##FE
##FER
##HAR
##wl
##wig
##wana
##while
##OP
##KOS
##68
##eres
##inar
##inos
##inian
##inum
##inced
##inova
##anation
##anning
##anama
##anamo
##anovic
##onut
##onts
##onian
##onents
##onova
##onounced
##onciliation
##enas
##enian
##enza
##enko
##enikova
##enyi
##ores
##orter
##orary
##orous
##arat
##aray
##arel
##arre
##arts
##arina
##arations
##arani
##atad
##atol
##atri
##atum
##atini
##alo
##alin
##alon
##alat
##aland
##alia
##alek
inh
inel
incent
inaug
instit
##isa
##isy
##itan
##itch
##itect
##itical
##itating
##itling
##itelli
##ouver
##ouche
##ouare
##oufl
##icz
##icate
##icated
##icchi
topp
tomb
toll
##idance
##idrun
##iones
##omes
##omil
##omark
##omach
##ilia
##aye
##elia
##entin
##entions
##entti
##entially
##reced
##reau
##stop
##stapp
##string
ones
##etreau
##ads
##adab
##adga
##eches
##uri
##urm
##urers
##uriated
##olute
##olcany
##amar
##amber
##amara
##utin
##utte
thanked
##oton
sauce
##irm
##iris
##iras
##irnov
##rog
##thod
beer
##acas
##acional
##lebie
192
##igley
##igators
##iggered
stem
stub
stup
steep
stalled
strict
stored
stagn
stomach
##erson
##illi
##illing
##illers
##illard
##tserr
##tsya
##andard
##oso
##ulia
##ulist
Then
##raig
##imi
##imov
##imuta
##usz
##uscript
reint
reaction
reaches
wholly
wasting
##iable
##cher
##emics
##estone
##estrian
##estoch
##estyle
##ewa
##riff
##aken
##akov
anger
anony
angered
##unar
##unity
##unged
##rome
##agal
##agher
conver
constant
conversion
islands
##oper
##opje
##ighter
##ocated
##ockey
##umi
##umul
##umara
##atever
##ustion
plot
plunged
alight
altered
aluminum
##essors
##essandro
proved
proport
prostitutes
##ivan
shall
shore
shattered
shook
chosen
cholera
chamber
chilli
##abe
##abal
##abled
Stu
Stark
Stork
Stru
Steven
Stadium
Strip
Stomil
Sturm
Standard
gover
goall
seats
proud
praying
print
priced
primary
pronounced
Those
excess
exchanged
existed
offence
offences
##iesz
##ichard
##ichmann
##ANY
103
1021
##aller
aflat
##endit
##endra
##endous
##endered
##pply
##uger
##ugees
##ught
##ifo
##ifer
##ifed
##ifinals
##berly
deg
deep
permits
Frana
Fraser
afterwards
Cher
Chad
Chand
Child
Chuck
Choud
Chandra
Chili
Chancellor
firmer
##odge
##ubal
spy
spin
splin
##ellion
##iveira
##ERY
##ERIS
##oka
##oken
##okhalova
secession
whoever
Invern
Inns
Instead
Bron
Brenda
Brothers
Bryant
##ouncing
##arde
##ovich
pole
polling
##anted
##antanamo
##ORCH
outsc
outfielder
outfit
##eke
unh
unt
una
unspec
unload
unofficial
##anges
tran
trim
trust
tramp
trln
triggered
##avkaz
compound
composer
126
##chen
151
152
154
159
overc
overlook
##sey
repaid
##INES
##INESS
##ips
##imex
abst
ability
##ailing
resident
##ISLAV
expand
expels
expanding
expired
expelled
expires
expensive
exposure
expuls
expenses
expendit
##uccess
##ffels
Lez
Lead
Leone
Leje
quell
quotes
quitting
quoting
281
283
289
288
advers
adequate
clin
clinch
##icken
##ALS
##ALK
##henburg
Heavy
Heidrun
acad
222
22nd
pegged
##quist
##quake
##qualand
##olled
##ollah
arc
arth
arson
##ansa
Alph
Almost
Almere
Alomar
Aluminum
Alessandro
Monter
Monetary
Montserr
##iero
135
134
133
139
252
258
201
##tof
Gerard
partial
partition
recomposed
219
217
274
27th
##neapolis
manuscript
##actory
disg
disrupt
291
292
293
298
Spitz
##urea
240
244
Atria
Atagi
169
Russo
231
239
##week
preced
preca
pregn
Islands
Ismail
Unit
Until
underp
underlying
undergone
##ENC
##ibring
##lices
##licit
##oga
##ogans
##ATISLAV
##ricts
##ideen
Marx
Marion
Marina
Marrin
Mariano
Maruy
##liners
##linois
scr
scar
opium
502
50th
5017
Indra
Indies
Individ
##ahl
##ahari
##ahideen
Minardi
Minneapolis
##erved
307
Arb
Aron
Arjuna
decades
##elsmann
174
##asha
##ashing
ATAG
hero
##ikavkaz
Weiss
Weibring
invading
indef
indiff
indeed
##encia
Engquist
##vened
##venous
##awed
commodities
commodity
##ULF
somebody
##uctuations
electronic
electricity
##ulti
Real
Reuter
centers
##OCKE
Anna
Ankara
Anatol
relinqu
setback
Butch
blames
blanked
rounder
defin
defensive
apply
appoint
##ossens
DIYAR
impe
importers
coer
coff
coverage
confusing
enters
enforce
##embering
refused
Julia
##athon
##athing
Shaun
Shayne
##ETO
Euromark
milk
##ija
registry
consolation
003
background
backbone
works
workforce
Prol
Prichard
metals
interp
interrog
##ullah
Ironi
Irvine
earmarked
##ITIONS
Israelis
317
31st
##echan
boge
retained
Republ
Reppas
##azz
##azir
##azabal
##CHI
754
756
7565
Scifo
flash
flared
flowing
fluctuations
guide
guided
guidel
guitar
guidance
##aulo
Colon
Coltart
highs
384
386
69th
Political
541
trials
##eful
profile
320
715
719
##velaine
visas
visits
##lete
##IRUT
actor
wars
##ormals
NEWS
961
STRA
STRI
STOCK
##luding
##inki
##inko
##inkel
Noriy
Cox
Cook
Slobod
slated
slugg
slogans
dealt
331
333
337
539
537
536
surging
surveill
surface
##enga
45th
681
##ledge
serves
airlines
seasonal
358
signalled
Newspapers
Paulus
victories
##hammad
##ronoth
##ronics
##atti
##attled
420
429
426
442
Arazi
rebound
rebellion
reportedly
CHIL
CHRIST
Finals
Finley
Petro
ordeal
assign
assessed
INT
PRAGUE
PREV
PRAH
detention
numer
##retja
6700
##egg
##egration
##OSS
banking
##EDS
Theybers
peaceful
Maynard
658
65th
Berg
Bergen
delaying
##AYSIAN
##prise
##IAKOS
478
passer
passage
565
563
Braga
Westner
Westwood
carries
remind
remembering
464
Malcolm
economists
##ILLE
visitor
Johnstone
infect
infection
infuriated
345
344
Said
Saqlain
Syl
Symonds
##iffe
##ALLAH
610
Nationalist
SEES
SEASON
location
locally
locomotive
524
728
posting
opener
Guiv
Guard
Guilla
Guarani
Guantanamo
feels
feature
##ruff
##OMOG
482
487
48th
belted
##ACAS
injuring
injection
profitability
74th
Marty
Martens
desk
desire
telec
wheelch
internationals
manages
McA
founding
mainten
announces
announcing
594
593
substit
submit
2002
2009
Corps
##LECT
insider
continuous
361
Shel
depending
Concer
Conroy
Constant
Conversion
632
637
950
ANSA
ANNEX
Czestoch
Parry
Paramount
##ivery
Asa
lawm
492
Akashi
testify
##loyment
Slovenian
902
Plat
Planning
image
CRR
516
lowered
##ipper
##tiliser
576
Khalf
Khadga
Partners
bonded
speeches
intestin
intention
Admira
Edward
Edison
Editorial
Grain
Grabb
Gravelaine
Online
Schalk
Schutte
##lomerate
##mbol
Book
Boetsch
##ribers
helps
413
777
778
7717
7706
Alexei
TOWN
campus
lands
midweek
Salo
Salou
Salzburg
##afogo
##uesa
discount
discrimin
tournaments
Dutchman
Ababa
Peron
##UTER
extortion
extreme
Sanath
drown
roof
volumes
##UGUES
1981
specify
395
39th
Ahronoth
Costain
ENAP
ENDS
restore
##uku
proposes
371
373
Karin
troop
trophy
##minton
formation
debris
declare
declares
declaring
declaration
Carlo
Carlsson
Sean
Seiki
THRE
##iative
##ettes
advised
advances
advancing
767
76th
7658
Benes
Benazir
publication
##aniya
Interest
Interbank
Interacc
transit
transitional
transmission
Jordi
Miles
disturb
districts
##IDS
##ominantly
828
82nd
BRAV
BRATISLAV
ballots
breaker
breakdown
hijackings
##TAIN
Christine
3000
Beach
Eli
empire
joining
turns
Marcos
875
87th
Lierse
farming
revive
appearances
investigate
investigated
8100
Jerry
Jeroen
budgeted
##iewicz
qualify
draws
Ukrainian
Glenn
Glickman
Management
Manhatt
Roberts
valued
##TRY
strained
chem
frust
movements
organise
organisation
battered
basement
baseman
collect
collaps
wrong
write
writing
##spoken
concert
Scorer
Nevertheless
Neagle
Prosecut
persons
perspective
##aiting
##forced
steps
affects
Montana
releases
defeating
approached
approxim
developing
785
786
Portland
SPR
roadbl
##ystems
Deby
Dejan
Richter
skin
skills
skirm
##iership
stoppage
prefer
detailed
020
Goias
Goossens
Quigley
carefully
easing
easier
easily
hardline
hardship
kidn
kidney
swing
swap
swift
separate
Peiris
funding
##arna
##ummond
compete
competing
competitors
replaces
replacing
explanation
independently
interested
builds
ISLAM
firearm
solvent
##IFFE
##ANCIAL
deaths
suffers
Taiwanese
FORCE
Simmons
Volume
copy
expecting
Burma
Burhan
Firestone
Smets
Smyth
Smirnov
coups
murders
succeed
Georgi
holidays
867
Jonas
Micros
Tomorrow
farce
ide
ideal
ideas
sense
tiebreak
##steop
starvation
Indiana
employed
BEIRUT
Bobic
Grande
brings
brothers
##IPP
deadl
deliveries
840
Building
Buhner
Golden
OPT
Soir
Software
fielded
knowledge
017
Gilford
Kingston
Oliveira
Olazabal
Servette
##naoui
##cliffe
Stockholm
represented
administer
arrive
recovering
protested
FRANCORCH
difficulty
successor
Harper
Harvey
Hariri
Helena
Helmut
Revised
badminton
hostility
judg
judges
modest
##teen
##zeiro
1972
1979
1976
1970s
measure
measuring
blacks
everybody
911
JOIN
Motherwell
Rangoon
Samokhalova
boys
wounding
##inthians
##atsu
preparation
Richardson
Corini
Coritiba
Corrects
Corretja
Corinthians
Ruben
motorway
municipality
verdict
heavier
acquiring
Ernie
MILL
Novak
Novye
linked
##crafts
##OVS
1940
cooperating
Petrol
Dhabi
Jews
Jewell
Linzer
Masters
Rodham
Rodney
VanLanding
nominations
pitches
populist
##ropaulo
complaining
Armenia
declines
accounted
accountant
ambitions
Socialists
896
89th
Carre
Caracas
Ilott
Illinois
Taument
Woodruff
moments
millfeed
purchases
specialist
girlfriend
##ography
Aviv
Botha
Doorn
Metal
Radules
Santa
crowded
tighten
tightened
spotted
acceptance
relationship
norms
PHILIPP
Venezuelan
884
ALL
Delivery
Esnaid
Ivan
Ivory
Watts
Watson
Wataru
marched
massing
##hrtens
initiative
forwarded
alongside
predec
predominantly
arrival
arrivals
accompany
accomplished
accomplices
attempting
Birendra
Fla
Flight
Impossible
Takuma
cleans
merch
packers
##mingly
Chilean
Archer
Archae
indicate
indicated
indicates
indicating
bloody
interviews
productive
introduction
momentum
manufacturing
Deficit
Magali
Massoud
Valero
urged
viral
uncapped
abusing
remaining
Exports
differences
CNN
CNR
CNB
Jacqu
Machines
bourses
irr
patent
pattern
Investigators
Levenson
suitc
immune
progressing
Portuguesa
engineers
favoured
favourite
CLUB
CLOSE
Drug
Drummond
Hutus
Hutton
Jackie
superst
##borcza
showdown
Annett
covering
socialist
socialists
generated
responsibility
targeted
Daoud
Hillary
Kimberly
Otto
Robson
Sadiki
Suneson
Superc
Viol
corpor
dissolution
pursuing
##liari
##enzi
excited
##ANGE
abandon
contacted
commanders
commandos
McGriff
colleague
colleagues
criticism
Ballester
Currin
Curran
Dragom
Garcia
Havel
III
Karlsson
Matth
Matahari
REUTER
Rafael
corresp
prize
rapist
standards
##uscan
Internacional
unsure
unsecured
unsuccess
unfair
contribution
incomplete
legislative
lawyers
requested
Clean
CONS
CONC
CAPE
Fulcheri
Gorre
Lokeren
Mujahideen
Popular
Raoux
Record
Recife
Reconciliation
Tanaka
birdie
dominant
fixing
motive
symbol
timing
##ozn
combines
combined
Springer
crashing
##IROBI
surprised
Andrews
removing
##structing
normalisation
Area
Authorities
Baath
CARACAS
Consult
FINANCIAL
Galatas
Hasan
Knowles
Mehrtens
MARKE
Missionary
Nazism
Okuda
Overall
Olszty
Prior
Skopje
Saleh
Tutsis
fertiliser
mutil
mutton
southeastern
satisfactory
wider
##qvarna
##ascar
##uminium
ensuring
teenager
conservation
inspection
inspired
inspectors
lawsuits
transportation
Elections
confirmation
Production
benefits
AUSTRIA
Byron
Betar
Cruz
Cruzeiro
COUNCIL
Devers
MONEY
Ramon
Roca
Sorrent
SQUASH
Tirol
Voie
athletics
bowel
searching
##iyama
pledge
Students
Studenikova
trickle
allocation
1646
Cooperative
drinks
drinking
extremist
extradite
marginally
McCarron
Acre
Acad
Dowman
Fourth
Klas
Kamio
Larsson
Latin
Museum
NAIROBI
Naish
PAO
PMC
Padraig
SALES
Verona
Verstapp
Vladikavkaz
gasoline
poised
typical
##baum
1909
revealed
conviction
convinced
practical
device
devices
spirits
sponsors
architect
Alberta
displaced
regularly
Whittier
belongs
Addis
Quarterly
Quarterfinals
immigrant
immigrants
congressional
celebration
celebrate
APT
Coceres
Duncan
Dahl
Dahman
Filipp
Jensen
Krzysz
Kruger
Katarina
Libyan
POST
Pinto
SWED
SWISS
Sabatini
Vincent
corner
fighter
loveb
nuns
pictures
ratings
superv
surrendered
##405
resolved
resumed
controversy
Spaniards
commitments
survived
System
replacements
historical
mountainous
ferrying
northeastern
challenger
challenged
Cejka
CBSA
Cesar
Dmit
Diniz
Disarmament
Doctor
ECOMOG
Endt
Economic
Konan
Loren
Lamonts
Natasha
Pavin
Pavel
POLISH
Parliamentary
Susan
Sachin
Topolcany
TOSS
Wolfgang
Zagreb
Zaglebie
brawl
babies
branded
calendar
emigr
hairy
licens
liaison
muscular
nursing
silence
voices
voiced
video
videos
##GARY
throne
stroke
severely
##ovanets
unpreced
reconciliation
reflected
reflecting
consistently
consulting
flooded
divorce
broadcast
smugglers
transfer
transferred
physical
objections
objective
obliged
Teams
automatically
AFRICA
occupation
predictions
Gabriela
Ottey
priority
sympath
demonstration
MOTORCYCLING
withdrawal
recognition
Because
Becanovic
Bartoli
Banco
Balkans
Copper
Felix
Felicia
Further
Furlan
Faber
Forsbrand
Fitzpat
Hooper
Hiddink
Housing
Ludwig
Moya
SAO
Seguy
W145
Widness
Wreh
Waldbaum
camoufl
culture
facility
facilities
gloomy
hyper
marred
rifle
terri
tagged
##ythm
##emerink
concentrate
constitutional
proceeding
##chelle
Shabwa
floating
Bertelsmann
insurgency
departure
Janeiro
Khalq
Alexandre
Salvation
Salvador
entertaining
entertainment
obtained
MANAGUA
motorcycle
massacre
massacres
environmental
rapidly
pornography
Bakker
CZK
CZECH
Coupon
Couples
Evans
Earth
Estates
Equitas
GT2
Griqualand
Husqvarna
Hincapie
Kapoor
Kumble
Likud
Omar
Siemerink
Vasco
Vega
Wyborcza
amput
ample
logged
logging
memor
pageant
racial
##iwand
##iwara
reeling
rewarded
principal
examine
examined
Ingwe
unemployed
comparative
clothes
arrange
disputed
disputes
precise
Refugees
structure
retirement
Palmeiro
Palmeiras
Finnish
Berkrot
Continental
traditionally
Paranaense
simple
simply
Surinam
predicted
Derbyshire
Nagyatad
recommendation
Aynaoui
Awami
Bjorn
Bogota
Cimicchi
Cowan
Conditions
Dream
Downer
Domingos
Ellwood
Erdei
Espinho
FFK
Flamengo
FOURTH
Herschelle
Kryv
Lubin
Muhammad
Mouscron
METRES
Macedonia
Pescara
PORTUGUES
Rainier
Ricky
Selection
Sutton
Sukova
SIGN
Wijffels
averages
dilution
fierce
fulfilled
honours
hamstring
humans
laboratory
patients
somewhere
sidelined
tackling
worsened
##glia
tolerance
forfeited
stunning
reiterated
plastic
exhaustion
agricultural
spectators
Brasilia
updated
upstaged
exploration
##understorm
discovered
Marshall
cruised
methods
Commandments
Petersburg
4746
Bragantino
drachmas
McNamara
Schneiter
responding
834405
PLAYERS
MASTERS
hopefuls
evacuated
ultimatum
stabilise
Haarlem
correct
incompetent
fixture
spiritual
Filipovic
Vinnytsya
Tunisia
emotional
purposes
perfectly
disqualification
OLYMPIAKOS
AJAX
BLACK
Boskal
Boldon
BUSINESS
Culhane
FULL
FEATURE
Ganguly
Hedblom
Herron
HOME
Jamie
Kathmand
Lapentti
Lazar
Murat
Motors
Mulder
MALAYSIAN
Nomura
NOVYE
Pelletreau
PERIOD
Pembroke
Ronnie
RAMALLAH
SBPU
Semifinals
Srinath
Tavarez
Tonga
Truiden
TUNIS
Vialle
Vitoria
Zambia
awaiting
creating
cigarettes
dishonest
elephant
faults
jitters
novel
pardoned
romantic
racket
sandwich
sensitive
temporary
umpires
wartime
wooden
##lisi
##IBOR
##acemaker
whistle
concealed
comfortable
##iveness
shouted
chaired
##onductor
Stankowski
sequel
exchanges
examination
Inflation
uncertainty
overhaul
overwhelmingly
abnormals
quartet
cleric
Hebron
Albion
discharge
disguised
Arnaud
invalid
blaze
confronted
teachers
regulatory
STATEM
servicemen
bankruptcy
Guinean
drunks
subscribers
subsequently
intravenous
smoothly
proprietary
BRITISH
respirator
87030
fractionally
AGAINST
Freedom
Maslova
Implats
cancellation
dissolve
ADVANCE
Confederation
Springboks
Bedouin
PAULO
Ravanelli
liabilities
Provisional
Lufthansa
Constructorul
Sebastien
acknowledged
Axworthy
Aalst
Aegon
Botafogo
Bessemer
Bugno
Bucaram
Borsuk
Botswana
Baptist
BORROWER
Courier
Cagliari
Customs
Caveglia
Casey
Coughlan
Clavet
Curtis
Catalan
Camerlengo
CTBT
COUPON
Dnip
Derrick
Director
Dreyfus
Darcy
Drobnj
Eamonn
Eletropaulo
Energy
Furyk
Fujiwara
FIXTURES
Ghali
Gcalek
Gisenyi
Gothenburg
Gumy
Gallagher
Gounon
Gupta
Gogele
Gremio
GmbH
Gaudenzi
Higashi
HORSE
Helsinki
Hijacked
Hlasek
Hintsa
Himalayan
Ikimi
Jadeja
Jahan
Jennifer
Jornada
Joao
JANEIRO
Kivu
Kijimuta
Kombouare
Klerk
KARACHI
Komarica
Lelouche
Lecce
Lathwell
Lietti
Lommel
Meara
Mantilla
Mineiro
Murray
Megawati
Numerous
Pfd
Punjab
Pessina
Puglisi
Prices
POSITIONS
Pushpak
Qidra
Ricardo
Rikl
Rupert
Ruxandra
Rabinovich
Satoshi
Setubal
Sugiyama
Sullivan
Sabourin
Semiconductor
TYPE
Tansu
Takeishi
Tanya
Telfer
Urug
Voronova
Vancouver
Vogts
Videoton
Vietn
Wacker
Wakefield
Winkler
WOMEN
Wisinga
Wisla
Xhelili
Yingkou
Yayuk
Yekater
Zicot
Zadar
ZURICH
bizarre
burden
cripp
coinc
carmaker
dialogue
fully
karbovanets
lorries
library
lamented
psych
podium
rhythm
roughly
sudden
tbf
tasks
tissue
tremendous
toughest
tablets
tabloid
upper
vicious
veget
wreck
welded
wielding
##nocent
##IYA
ineligible
institutions
##thodox
stubborn
anonymous
proportion
Struver
goalless
aflatoxin
Choudhury
splinter
Inverness
Innsbruck
unspecified
overlooked
Lejeune
Montserrat
pregnant
Marriner
Maruyama
ATAGI
indefinitely
indifference
##OCKEY
Republika
756525
guidelines
STRAIGHT
Noriyuki
sluggish
surveillance
CHRISTIE
PREVIOUS
PRAHA
Guillaume
wheelchair
maintenance
substituted
Czestochowa
Khalfallah
discrimination
Interacciones
BRAVES
BRATISLAVA
Manhattan
collapsed
approximately
roadblock
ISLAMABAD
Burhanuddin
Microsystems
FRANCORCHAMPS
VanLandingham
Radulescu
Esnaider
Ballesteros
Dragomir
correspond
unsuccessful
Galatasaray
MARKETS
Olsztyn
Sorrento
Verstappen
Krzysztof
unprecedented
Fitzpatrick
PORTUGUESE
Boskalis
Kathmandu
SBPUs
Drobnjak
Gcaleka
Pushpakumara
1ST
2p
2nb
3w
9th
A1
Aq
AW
AH
AO
Ary
Aird
Auch
Aides
AEX
Average
Action
Ayr
Appe
AEI
AIDS
BA
BS
BJ
Bil
Bre
Bac
Bun
Boc
Bod
Bark
Bong
BIS
Bans
Bier
Bose
BUL
Bair
Barter
Bench
Bents
BALL
Bush
Buk
Budget
BUN
Bece
Bude
BBC
BANK
Bsch
Brech
BME
Bodies
BACK
Bevan
BOTH
BVS
Barde
Cs
CY
CF
CJ
Cer
Cet
Cir
CES
Cres
Cement
CAT
Cric
Cult
Cause
CUR
Crow
Cott
Clem
Cuth
Crem
Cau
Cald
Carn
CBO
Ceva
CUB
Cosen
Conde
CEO
CTRY
Dj
DB
DL
Dar
Dion
Dac
Dos
Dore
Dug
Due
DIN
Dier
Dne
Dally
Denn
Dise
DOU
DAC
Dollar
Duk
Domestic
Dumb
DAV
DOD
DAKAR
DTB
DAIL
DDF
Ej
ES
Eal
Ere
Eus
Eld
Ender
EAR
Ewe
Eau
Ebe
Ezer
Eks
ERA
Eighth
Eleph
Emanuel
Eichmann
ELECT
FA
F1
FO
Fon
Fen
Fal
Fus
Fear
Fif
FER
Fish
Fire
Foin
Feld
FAR
Falk
FOC
FIT
Food
FALL
Father
Fife
FUT
Flav
FDA
Fried
Faction
Fagan
F40
Frost
FEES
Fraz
Funar
GM
Gig
Gim
Gun
Gop
GAN
Gine
Gail
Gates
Gild
Genn
Gress
Gya
Gober
GAC
Gael
Gene
Gaid
Gane
GRO
Gius
Goul
Giro
GEAR
Gwen
Garlic
GETS
GULF
Hr
Hil
Hent
Hol
Hir
Hem
Hab
Hue
Hout
Hund
Hiss
HAS
Herm
Happ
Heng
Hosn
Hrist
Haf
HUN
Hrad
Hurt
Hoff
Henders
HAV
HIV
Hwa
Hinch
Huge
Hodg
Holly
Harden
HINA
Hiber
HITS
HCF
HOCKEY
Ic
IH
Iber
Inder
IRA
JD
JV
Jing
Jail
JUL
JAS
Jets
Jamm
Jumb
JORN
Joe
Jongs
KI
KE
Kin
Kom
Kay
Kre
Kol
Kig
Kall
Kov
Kass
Kral
Kier
Kors
Kne
Kah
Kind
KIR
Krist
Kuper
Kamb
Kourn
Kros
Kaba
KAB
Ksch
Kathy
Keller
KNU
Kilm
Kristina
Kipt
Kulti
Kinkel
Ll
LP
LB
Let
List
Lum
Lov
Lang
Lord
Lans
LAR
LAND
Lomb
LOT
Like
Lows
Lox
LUN
Langer
Lars
Living
Lada
Laca
Look
Lenham
Lozn
LIBOR
M3
MW
MX
Mis
Mac
Main
Must
Mess
Mug
MOR
MIN
Moll
Made
Murd
Muth
MAK
MTH
Muz
Mami
Miy
MUZ
NL
NY
Non
Ned
Ning
Nir
Nich
NIS
Nure
Nev
Naw
NAS
Natur
NAM
Noth
Nana
NBA
NBC
NIDA
NICE
Narc
NWE
Nomo
Nunthorpe
Nibas
Norton
OW
Oas
Ore
Omer
Overn
Overs
Olom
OCE
Oks
Others
Ogun
Owen
OHI
OVER
Ostra
ODV
Pv
PT
PD
PG
Pas
Pec
Pam
Put
Pia
Pere
Pap
Pend
Pod
Pub
Pang
Pip
Pry
PEN
Pach
Path
Perr
Perm
Patt
Pret
PAC
Puk
Piat
Pines
PAP
PEC
PAST
PAGE
PAGES
Q4
Q3
Qas
Rat
Ris
Rest
Rew
Right
RAT
Rames
REL
RET
Ritt
ROL
Rush
RMT
Rotor
Rox
Raff
Rudi
Rita
REV
RUSS
RAB
Rosh
Rivier
Rizz
Rysz
Rusty
ROVER
Rdain
SN
Sit
Sic
Sac
Sia
Sum
Siv
Sell
Sek
Sche
Sound
Shen
Ske
Same
Sister
Sev
Sally
Sake
Sult
SET
Sio
Such
Sons
Sued
SUG
Sny
Separ
Samm
Sui
SDA
Suz
Sky
SIX
Sfe
Szy
Sterling
SELL
Sreb
Schet
Sewa
TA
Ty
TB
Tad
Tac
Tul
Trom
Tep
Tab
Tek
Tors
Tina
Tik
Tarm
Teg
TAK
Trem
Teb
TEM
Tille
Tension
Towers
TAB
Tami
Temper
TALK
UM
Uwe
UAG
Vt
Vid
Vel
Vot
Vers
Vart
VAN
Vav
Vass
Vier
Vors
Vince
Vair
Ville
Veri
Voting
VERE
VICT
Wi
W2
Wan
Wel
Wag
Wish
Word
Wally
Wild
Weng
Wool
WICK
Wisc
WEE
Wien
WEAT
Widad
Wickman
Wessels
Xh
Xav
Ye
Yu
Yas
Yig
Yates
YUG
YANK
Zy
ZT
Zor
Zir
Zia
Zub
Zard
Zie
Zick
ZAG
Ziz
ZIF
Zhem
Zwing
ZDF
Zaman
aven
aston
auster
ailing
bi
bor
bur
bac
bug
bov
bang
bail
balk
bowing
barge
bridge
bumped
baked
binding
burea
ce
ced
cra
cem
cart
core
cod
cock
clem
collar
cush
curt
cocked
calf
curb
camer
cells
covers
census
cumul
du
don
dre
dur
dim
dow
dear
damp
dip
dull
dram
destin
duty
dye
dwell
della
dirt
dyed
dunge
ech
earli
eject
erad
element
eval
ft
fo
fel
fem
fug
fant
fated
file
furn
fict
fool
famed
fitted
fiance
fitness
fias
fruit
ge
gar
gro
gri
grat
gram
glad
greet
grab
gendar
ho
hed
hamp
hry
hind
haul
hosp
hyp
hinted
housing
jack
joy
joke
jammed
ke
keen
la
las
lent
lear
loun
lov
lord
lists
lbs
lots
lane
lugg
lux
lamin
laying
loyal
lucky
loser
mas
mic
mun
mice
mail
maid
mention
mothers
mechan
nit
nam
nep
nud
nabs
naked
ori
oust
ours
omitted
owed
ought
osteop
pion
pel
pill
pell
pity
phen
pne
path
pots
pitted
pages
pumped
poking
rar
rig
rop
ramp
rational
raw
rings
romp
rivers
ranged
raced
raged
races
rushed
rammed
sq
sic
sid
sul
sort
swo
song
sche
sister
stern
sorts
sink
suck
sowing
sights
section
snapp
sque
schem
soph
ty
tou
tent
tear
tort
tall
tens
tech
tons
tales
tents
tired
taun
taught
turning
tensions
tidy
umb
vel
vet
vital
vows
vessels
ward
wine
wished
winger
wrap
waved
yes
yog
##hy
##hin
##hor
##hol
##hill
##hav
##hance
##hous
##hood
##hya
##hiser
##hstan
##htha
##iar
##iast
##iqu
##iations
##iova
##iently
##iaries
##iology
##iotti
##len
##lim
##lus
##lak
##light
##lake
##lected
##lij
##losed
##lene
##lovic
##longs
##ean
##eing
##egh
##eign
##eering
##eases
##AF
##AEC
##NY
##NO
##tic
##take
##thed
##tex
##tled
##teb
##tific
##tura
##toms
##teful
##ni
##nar
##nom
##nak
##nian
##nop
##nberg
##nara
##nava
##nagar
##nicki
##niesz
##git
##gow
##gry
##gence
##gaw
##gado
##guj
##gograd
##jv
##jug
##jection
##jandro
##jlovic
##ao
##a1
##aut
##aac
##aimed
##auty
##aude
##uv
##uet
##uate
##uable
##uizen
##uchet
##uilding
##upply
##uoka
##par
##pot
##pac
##pun
##power
##prem
##poned
##pinger
##pars
##paco
##paty
##pija
##oed
##oes
##oich
##oiest
##rol
##rice
##rant
##rors
##rates
##rading
##ruction
##rising
##ritis
##racts
##rella
##rzhembsky
##sv
##sed
##sos
##saba
##secured
##ben
##bing
##bic
##bet
##bag
##bens
##box
##bacher
##butt
##barren
##bowski
##bouc
##beke
##100
##59
##kir
##kers
##kary
##kase
##kley
##karp
##ketball
##kla
##koya
##IEL
##IOS
##IUM
##Sign
##SEX
##mo
##mid
##mation
##mine
##mates
##mberg
##mont
##du
##dz
##dy
##ded
##dit
##dro
##ders
##dim
##dank
##dick
##dog
##duk
##drop
##doria
##vi
##vis
##vit
##vid
##vart
##vina
##vens
##vah
##vath
##vio
##vna
##vinda
##cos
##cose
##care
##coh
##cote
##cycle
##23
##zo
##zed
##zing
##zalk
##zik
##zee
##zale
##zani
##zza
##zania
##zhny
##zfeld
##zuku
##fre
##fok
##fev
##ferm
##fsson
##fried
##fety
##firmed
##yff
##yford
##yali
##41
##CC
##CD
##Cal
##CIS
##COM
##CUT
##CUP
##35
##39
##97
##TIC
##TEN
##TING
##DY
##DO
##DG
##DES
##DERS
##DATE
##DEEN
##PEL
##PANS
##PLY
##MA
##MEX
##MENT
##MERE
##MENTS
##RD
##RAM
##RACT
##Rae
##RENC
##ROSS
##BE
##BL
##BIT
##BLE
##EAST
##LIC
##LAD
##LIM
##LOCK
##xual
##qipt
##WICK
##WIJ
##VES
##VILLE
##UU
##FT
##Free
##FAR
##FIEL
##HRAN
##where
##wendt
##OA
##On
##KD
##KLAND
##KOV
##KLY
##69
##67
##GENT
##ZZ
##JE
##JAN
##Jesus
##erl
##erman
##erto
##erne
##erates
##erty
##erences
##heim
##hement
##inct
##inated
##inley
##inburg
##inness
##inha
##initis
##inrich
##anes
##anand
##anch
##anium
##anwhile
##onal
##onite
##onese
##onica
##onians
thefts
##edan
##eding
##eders
##edros
##enb
##enes
##eneg
##enched
##enbor
##enheim
##eshi
##orad
##orce
##ormer
##oriz
##orossi
##orosis
##arabad
##aricki
##atne
##atched
##atories
##atrix
##attering
##alt
##alm
##alaj
inade
inev
institutional
innocent
inmates
##isina
##isite
##isons
##islav
##ingency
##ingper
##itew
##itud
##itable
##itution
##itories
##itively
##itomo
##itimate
##asers
##asible
##ici
##icain
##ician
##icals
##icits
##icians
##icism
##iciary
tow
tool
towed
##idza
##idjan
##idavit
##ionally
##omic
##ometti
##iler
##ilan
##ilor
##ilat
##ilic
##ilion
##ilation
##ilment
##ilub
##ilance
##ilio
##ilsh
##ayama
##ayeva
##elul
##elect
##elight
##elier
##elux
##elstein
##elbeke
##entine
##entesc
##reement
##replace
##rezhembsky
##stand
##start
##stod
##stys
##stairs
##stilsh
online
onlook
ongoing
##eton
##etal
##etic
##etch
##etov
##etto
##ader
##adin
##adas
##adow
##adows
##adily
##adcast
##adalaj
##echen
##ecretary
##eciel
##uria
##olo
##oly
##olar
##olas
##olent
##olitan
##amt
##amics
##amanca
##amatsu
##ametal
##utu
##uto
##utal
##utri
##utral
##utious
##utzfeld
thus
thous
therm
throw
thieves
thunderstorm
##otic
##otov
##othes
##otape
##otzik
saved
sack
sacri
sailing
sacked
forb
forens
forget
forints
##irou
##irel
##irle
##irely
##iraz
##tero
##terland
##terio
##rov
##roch
##roath
##rova
##rovia
##tharo
##thuizen
behead
##acan
##acek
##acup
##acio
##acru
##acino
##acenza
##leep
##leens
##levens
1930
1915
##igs
##igy
##ighed
##igeki
stir
stone
stalem
stakes
staging
stalker
stolen
##ersecretary
##illo
##illan
##illus
##vez
##tseva
##ando
##andri
##andum
##osite
##ositions
##osolid
##ulance
##ulous
##ulaire
##ulsen
##ulanand
Theod
##rae
##raer
##raid
##rage
##raham
##imt
##imis
##imid
##imap
##import
##imental
##imarily
##imakov
##impija
##usive
##usement
##usev
##usinha
react
reins
##vereaux
##vereign
wholes
whites
whatever
whitew
##ceeds
##cegov
wasteful
ate
##lya
##iago
##cha
##champ
##chik
##church
##chini
##chuz
##charova
##eme
##emn
##ema
##emies
##empt
##emuir
##esti
##esty
##ested
##estrom
##estors
##ainted
##aincl
##eway
##ewell
##ewitnesses
##ewhat
##rios
##riant
##rians
##riev
##ript
##riarch
##akim
##akarm
##akova
##akwen
##akht
##akowice
##akhstan
withering
anch
anne
angry
##earthed
##eree
##erequ
##erezhny
##unal
##unte
##uniya
##agger
##agued
##agna
##agascar
convent
concess
concept
convert
consequ
##iani
##ianne
##apha
##apacity
##iste
##istair
##istically
##opan
##opic
##opold
##oples
##opulated
##opkeep
##opoly
##oputri
asleep
##ource
##ourdit
heels
##ocol
##ocross
##umet
##umulated
##umonia
##atep
##ateful
##epel
##eport
##epke
##eppe
##arton
##arten
comeb
plate
plight
placing
planks
ploug
plenty
plugged
plaincl
plagued
##ectations
alter
alert
alien
alerted
aluminium
##asty
##ortly
##essler
pros
prove
prostitution
##mane
##mance
##ivation
##ivated
##ivka
##ivisation
shy
shop
shake
shower
shield
shops
shaking
shocked
sharing
shuff
shacks
shaken
shoes
shattering
charter
chann
charity
chipping
chicken
##abo
##abel
##onda
##onditions
Sturr
Stee
Stakes
Stred
Staba
Stano
Strik
Stran
Stalin
Stoich
godd
notew
notified
notably
notionally
prun
pride
prisons
primarily
prerequ
Thon
Thir
Thome
Thier
Through
Therap
Therapy
Thirty
Thieves
Thuet
exagger
agencies
##icevic
offal
offsh
##ANISH
##roud
104
10no
##allel
weigh
weighed
##pport
##ugill
##ifa
##ifts
##iful
##berto
dehy
##ighting
Frenz
Chan
Char
Chat
Chir
Chia
Chind
Chorn
Chann
Chua
Chiron
Chisina
Chilub
##odel
##odina
##odset
##odrome
##ubei
##ESWIJ
spr
spate
spare
spared
spino
spont
spread
sporting
spongiform
sporad
spleens
##uder
##udis
##udone
##ellin
##elles
##ERLING
##ackets
Ines
Inez
Brother
Brno
##ovec
##ante
##anto
##anting
##ORY
##ORENT
outs
outline
outgoing
outspoken
##lando
##anka
##eks
unr
unle
unve
unity
unav
uncon
unease
uneven
unworthy
unarmed
unimport
unearthed
##anga
##angle
tract
##avska
##ongprem
##omext
ups
upon
upward
upside
upright
upcoming
uphill
uprising
##arya
compass
complic
compares
compartment
comprehensive
components
1230
##chelor
##chebarren
##amped
158
overd
overre
overst
overran
overrun
overturn
overtake
overpower
repair
reposition
reprie
replying
114
1100
##INO
##INEN
##INTS
##INEC
##INSB
##ipe
Itamar
##order
##ordination
000s
0003
orthodox
##igne
abated
abilities
##merce
##merie
secondary
reserv
resorts
resemb
reshu
resources
##ISED
exper
expert
expense
explicit
mins
miner
minim
minus
##ucas
##ucrat
##ucuk
##ffle
Left
Leander
Leaders
Lebouc
Lefev
Leopold
quote
##orkman
287
28TH
adult
advent
clar
client
cloud
clashed
##undo
##ALE
Hever
Heiko
Heinrich
acct
##oined
##oints
##asson
Newt
Newell
Newark
lasting
221
2230
peacemaker
peoples
##quia
arising
argue
##ngraded
Alt
Ala
Ally
Along
Alley
Alius
Alba
Alvar
Alicia
Alfred
Alaniya
Alistair
contests
contamin
contenders
contention
contingency
nevertheless
neutral
Mons
Money
Months
Monrovia
megaw
##eldorado
132
1381
##osexual
253
259
257
256
25th
25TH
20s
207
2060
148
matters
monopoly
parted
partially
recall
recru
receding
allies
alloy
##soever
213
216
2130
2173
271
279
27TH
264
26TH
sued
suffic
##nea
##neev
financed
manner
manual
mannered
##acted
##actions
##actured
Germans
disarmed
disabled
diseases
disorder
294
29TH
##STA
Spiring
Spongiform
Spirle
##ureen
241
245
24TH
2470
newspr
Att
Athe
Attor
165
168
1600
1687
1631
234
23rd
##ICI
##ARI
##ART
##ARED
##ARIO
##ocking
##weiler
##evac
##evision
##evidza
##evolent
Iscor
Isaac
elite
elusive
Unity
Unknown
Unlike
Unsecured
underage
underway
undercover
underground
undermine
##oyant
##ENDER
##ibo
##ibels
##ibullah
##ogert
##ogym
##ATO
##rica
Maru
Marial
Marino
Margar
Maronite
##lined
scre
scant
scare
scared
scram
scuff
scenes
script
##media
501
5080
##ahran
Mines
##ervative
##ervatory
Australians
runway
305
306
3024
Arce
Arum
Arges
Arendt
Arulanand
decibels
noble
noisy
172
173
1700
marketplace
herbic
Web
Week
invaded
door
doors
accred
accumulated
endurance
##anyi
indec
indisc
indigen
##elyn
##elyan
pointing
##awan
##alymp
committ
communic
182
189
186
1820
1873
1844
electronics
##airy
##ultimate
attache
attracts
Reb
Reyn
Refin
centres
centrist
centuries
##OCH
##OCKS
##OCIOS
##OCROSS
Anza
Anti
relive
preserved
capable
defied
defiance
deficits
DIES
DIAS
DIARIO
Swift
Swardt
impunity
##ELI
##ELNA
addiction
crushed
crushing
coaches
confront
confused
conferences
grouping
halted
enable
enquir
encephalopathy
enhance
enemies
##indra
becomes
stress
stressed
##ajska
##itehn
refin
refuel
reformed
refinery
refuse
reformer
referee
Julio
Juliet
teet
teak
teacup
##ictions
##tersby
##asonen
Sham
Showers
Shuz
Shining
Shipping
Shumer
Shadab
Shkir
Shqipt
Shiraz
Shigeki
Shimap
Shakht
Shopkeep
Shortly
Shubei
sober
soft
soared
sovereign
##ETA
##ETING
##ETIT
##ETINCH
##ijlevens
##ermo
regard
regulate
regiment
regarded
consent
consulted
005
002
006
backs
backward
##ioquia
worker
Belim
Belmond
Belometti
Resources
Resalat
Primed
Primary
Prinos
Predros
Primakov
meteor
interval
interrupted
intervene
##ulla
##ullough
Iron
ears
earning
earns
##ITA
##ITE
downt
downwards
downstairs
Southland
313
##izes
##izing
##izens
##izares
##izons
##izinga
##eyer
##echten
boards
retal
##enness
spokesmen
##azdin
##CHE
##CHAT
##CHELL
752
759
758
RESIG
Scorp
##ressing
Presov
flour
flames
guest
guys
guarded
older
Colo
supplement
supporter
380
387
699
Pole
Politehn
##ottweiler
anybody
anywhere
545
547
##efy
##efer
##eforce
##ratically
callers
professor
1003
324
711
710
718
71st
traw
trapped
trailed
visible
viscose
##leton
##sons
##IRE
contrary
Presidential
Amy
actress
warring
warnings
warfare
Ches
Cheung
Check
theme
962
96F
STE
STATE
STOCKS
##AMA
##eseed
Serge
Sergio
##inklij
Belga
Mosier
Norris
##icaid
statements
Coers
Slater
Slavia
opposing
slid
slain
slum
slice
slaugh
slashed
slammed
slumped
slipping
slumber
slumping
slips
##OLI
##OLIS
662
660
663
667
668
666
66th
tourists
tourism
332
336
533
602
surpass
##engers
454
453
682
683
startup
Andria
annum
airsp
seasonally
351
354
3548
signals
signature
##phur
##phries
##lingworth
##ucker
Pauline
##attya
422
424
423
427
441
443
448
Aravinda
Dutra
rebuff
rebuilding
politically
canal
##taine
investor
investing
Finns
Petah
##rams
assail
assure
assured
assert
assisted
Demirel
Opens
Opava
PRES
PREC
PROD
PROF
PRACT
PROVS
PRAEC
amaz
amusement
detain
detect
users
##leys
##leyman
673
67th
##egrated
##OSIA
##OSLAV
##uchaus
peacefully
643
Mayock
busiest
Berri
Berry
Berwick
LEEDS
delight
delighted
471
853
857
858
knot
knife
knifed
passes
passion
passers
##cox
561
731
732
738
Westlake
##arracino
militar
468
551
552
558
556
55th
Malu
Malone
Malley
Malbak
Malakwen
nowhere
tonnage
##portfin
##ILDING
forever
forehand
scoreline
info
inflam
infring
infighting
Including
349
34th
436
Safety
Saudis
Syrians
takeover
##iffer
611
615
613
618
Banking
Canonica
Canizares
hander
handing
handle
locations
longitud
##AKRY
##perts
##perate
##perty
522
520
526
52nd
727
courts
finalists
capitalisation
capitalization
Guill
Guus
Guern
Guinness
Guadalaj
Markus
Markgra
Markvart
fee
feasible
##ruppe
481
480
483
486
Whitling
belief
followers
inject
headache
drilled
drunk
drenched
probing
probable
provisions
745
deserves
desperate
estate
serial
telecomm
internationally
managing
McP
McM
McRae
founder
##eeing
protected
protects
protein
protocol
attackers
Phys
Phnom
Truth
Tracy
Trnava
Trulsen
subtr
substances
submissions
##lami
Corporate
denies
denial
dense
denote
denounce
##LEM
insight
insult
insisting
365
36C
369
367
366
Sheu
Sheet
Sheep
Shehu
depth
depressed
deported
##bska
Constitutional
Crookes
FRN
FRE
FRONT
puts
countryside
630
6364
6368
951
959
956
ANWAR
Paralymp
Parsons
Asia
Asanka
mediated
legend
legitimate
suscept
##aua
##uthorised
##aughters
499
500cc
majorities
testoster
901
90M
Exc
Except
Experts
Plains
Plzen
Ploiest
immin
##atherstone
behavi
CRS
CRP
CRASH
holdings
625
623
627
628
626
6221
Barros
Barzani
effigy
homeland
##ushi
shortened
shortfall
shortstop
571
570
573
579
578
Partick
bondholders
promote
promoting
##rego
Statesman
nationality
##getic
intens
intense
intimid
integrated
whatsoever
chiefs
Adri
Adolf
Adelt
Adkins
AdOn
Edwin
Grabowski
Graeme
Once
Onyali
Schaller
Turabi
smashed
smiling
##iamond
Bohem
Boje
Books
Boeing
Boogert
charging
goalscor
411
419
41st
Alexandra
Michigan
grows
landmark
##llina
##llister
##ebank
##ebrows
##ueled
##fields
strongest
580
583
586
Salamanca
discus
Abidjan
Kongsv
Morgan
Moreno
Morelia
Perhaps
Perkins
Perelstein
banners
oversh
oversold
##UTH
##incing
placebo
extract
violating
Block
Blair
Blanco
Blijlevens
Forces
Forget
Forwards
Forfar
Foreldorado
dropping
vols
volunte
1985
1982
##istrates
392
Ahmad
Costis
completely
prevailed
prevailing
Davids
Davidson
Agr
Agius
Aguir
Agniesz
Agreement
Medellin
Medicaid
myth
possession
rulers
restric
restrain
restitution
##ukink
##keratne
propose
proposing
pressing
374
Karem
Karsten
Karpaty
Karbacher
Karvina
##renica
Genk
Romano
Seat
Seve
THOMS
##beath
needs
increases
Northfield
Northcote
804
806
No1
Noel
Noce
##ettled
advise
advising
advocated
televised
Benelux
Yelena
clearance
paramil
parallel
publicist
transmitted
transmit
transactions
Allied
Alloa
Islami
businesses
Milk
Milinko
Miladin
distill
distinct
embattled
pays
payable
payroll
##IDJAN
trainer
Claus
Cluj
Claire
Claver
Claude
balloting
balloon
breaks
breakfast
hearts
moral
neglected
industries
050
Assn
Assistant
##TAWA
Christchurch
Zealands
Beit
Beaver
Beograd
Beatrix
Ferha
Ferdin
Grech
Ukyo
costly
##loaded
##EMBER
thinks
Marcin
Marcel
AMR
AMRO
Lien
Liechen
Liechten
equities
seller
revisions
819
Center
Jerome
Jeremy
colour
coloured
vehement
##affarabad
qualifiers
operates
operators
BOARD
Glimt
Manuel
freezer
valley
valuing
##TRITA
strain
##bergen
premature
premiership
settlers
STANDARD
campaigned
4000
79th
7975
Aircraft
Geoff
cheer
cheap
cheques
checks
frame
fractured
##REB
##READ
##ologised
organist
Atlas
accordance
Borac
Boraine
Borrego
Midfielder
batted
batches
batons
baseline
basketball
collected
collabor
collateral
collecting
collections
dried
writer
writers
wrangle
worse
requires
clubs
regional
producing
940
947
Next
Neza
Neiwand
Neamt
Proj
Profit
Property
persist
treating
##formance
stepping
affecting
affidavit
Monte
Montolio
Monteneg
approves
importing
Whitehurst
Atlante
developers
784
78th
Laasonen
PSA
SPE
SPANISH
SPREAD
bombs
bombers
bombard
bombings
bombarded
hospitalized
##ksworth
orderly
Brokers
Broadcast
DeJesus
Devereaux
Richards
Younes
educ
editor
files
filmed
filming
gunned
gunfire
gunsh
gunpoint
skipper
sketch
##UMACH
Stein
Steel
Steaua
execution
aggreg
preference
actively
buys
buyer
buyback
Arabic
detailing
negotiation
0900
980
989
Haladas
Quarracino
bordering
hardly
hardest
hardware
hardliners
swings
separation
##aunted
##played
##meh
##meat
studying
contracted
contracting
Peat
Patrice
Patriarch
freestyle
furlongs
missions
missile
missiles
systematically
##helen
##arnock
##arnoputri
##umming
replay
builders
ISO
billet
likened
solitary
##IFIC
##IFIER
##ROVIA
commentators
suffer
squads
934
Banik
FORT
Simian
Society
Volatility
Volkov
Volgograd
lowers
risen
scholar
##atching
##isclosed
communities
communism
Burillo
Ort
Orr
Orlando
Smolt
Ternop
coupon
steered
steadily
healthcare
planted
Georges
Georgal
040
0400
869
9002
AGENT
Crafar
Craiova
Jonk
Jimy
Jimenez
Moeller
Tomasson
bidders
engage
limelight
obstructing
useful
starved
resulting
Boby
Grits
Granic
Mushota
Roest
brighter
branch
brutal
raft
raise
raided
villa
villages
villagers
##IPEG
##IPEI
##IPOLI
deadly
Algerians
Bui
Buzuku
Freund
Freeport
Goldstein
Maarten
Maureen
PLG
Soon
Sochi
SoCal
certific
eventual
fielding
lineup
messages
Franklin
Albanians
2123
doubted
doubling
negotiate
011
015
6000
Collins
Collective
Florencia
Gilardi
Muller
Olaf
Olhov
Olga
Olimpija
Survey
Teen
Wilander
launches
movies
movie
##yshin
##BIKE
##arsh
Stocks
##roupolis
##OUNT
Duffield
Enn
Env
Encephalopathy
Enzo
Ennea
Haringa
Harelbeke
MANAMA
Revs
UND
UNAM
apartment
apologised
autobi
grateful
judiciary
models
modern
moderate
tonight
1975
1970
1973
1977
1978
##ategic
ships
shipyard
blackmail
consumption
7000
918
999
MONTPEL
Sammer
Samson
Samuel
Samara
fearing
Franco
tracking
disappoint
prepare
prepares
Richardt
032
036
0330
060
Corre
Corrig
Cape
Desmond
Melanie
Meligen
Munton
Munakarm
hopefully
verteb
younger
##iusz
##cription
1990s
weakens
Charleston
feeder
feedlot
ISSU
929
9221
AFL
Ernest
Howell
Novgor
Novorossi
Redgra
damaging
evasion
situations
veterans
1945
1965
1969
trucked
ATLANTIC
appealed
Petrimex
Petrzalk
Liberec
Dhahran
Denis
Hansen
Hansma
Maso
Sovetov
nominate
occur
occurs
occasion
seminar
##eroon
##ropolitan
reformist
guilder
ambushed
ambulance
determining
Lloyds
891
894
Carol
Carbon
CALCUT
EPA
Ilie
Illingworth
Louise
Sampdoria
causes
grandpar
mills
millfe
purchased
purchasers
ridic
ridden
twist
##toric
staying
allege
performed
influx
specialists
distribute
distributing
photo
materialise
Avaz
Basic
Basle
Radical
Radka
Radstrom
Radnicki
Santiago
derails
derivatives
lightning
observe
obsessed
accepting
acceptable
commissioner
ALMERE
BUILDING
Caltex
Country
Delgado
Herman
Hernan
Hercegov
KDPI
Lancien
TVX
Television
Vicorp
Watan
Watkinson
crossed
marathon
##downs
##DAQ
##waram
dispens
winding
windows
##ENSUS
accomplice
capturing
captivity
cannon
cannons
territories
ASIA
ASUU
Birch
Birnberg
Cardoso
Flour
Flach
Flumin
Flushing
Imports
Imphold
Impala
Madh
Madagascar
Motorcycle
cancer
cancel
packaging
routed
routing
yourself
##offs
##celi
Archives
indications
bloods
Companies
Comprehensive
interviewed
productivity
McCoist
McCullough
introduce
bookseller
Congressman
CINCO
Fallah
GOLD
SCHUMACH
Timiso
Valle
Value
Valley
Valentin
renomin
technologies
urgent
versions
##hovtseva
##EFFIEL
instantly
properties
125cc
Expectations
heartbeat
Cathy
Emon
Emmanuel
Emilio
Jacek
Machnee
Postponed
Rostov
Rostsel
Sierd
Sierakowice
Underwr
Working
destruction
escorted
gluten
hurdle
irresp
irreplace
kilos
##IGN
##IGAL
##recen
##reciation
Investigation
boatman
engineer
favourites
CLOS
Drnov
Detective
Ferris
Gabrich
GAME
Gregory
Kraguj
Ronan
Twenty
Twyford
bodygu
hoping
neck
rallying
superior
##borne
Stephens
Mariaan
Annabel
surgical
INDEX
generals
SEPT
maintains
speaks
Jeffrey
SCORERS
074
Bunds
Bahn
Bahrain
Haegg
Haessler
Haifa
Otelul
Riel
Silver
Silke
Silpa
Silvio
Superman
Trailing
Viacom
balanced
bitter
journalist
journalism
sniffer
trees
##liatti
##shour
##books
1952
1958
1950s
alleging
##anksy
dismissal
accidental
addressing
entirely
McGinley
networking
conducting
establishing
criticising
criticized
Catholics
Draw
Draper
Drakes
Dravid
Distillers
DAYS
Garry
Garhi
Gianni
Haven
Humanitarian
Jamaican
Kremin
Luo
Luke
Matos
Matagal
REOF
REASON
Raphan
Rapeseed
Zairean
pleas
please
priest
raped
##iasm
##112
##IVES
##denbeath
##recha
stormed
congrat
conglomerate
shrub
shrink
shrugged
weathered
unsettled
contributed
contributions
Speak
Speaking
prevented
incomprehens
blockb
blocking
sheepmeat
Chelny
Bernini
Bernhard
legislation
legislators
explosion
MATCHES
Bangladeshi
achieved
Bhav
Bhatt
CONAKRY
Campana
CAPTAIN
Fairview
Fairmont
Gorroch
Hashan
Kabir
Nicky
Nicklas
Pitkowski
Pitesti
Populaire
SERIOUS
Tanui
Tanjug
Tanzania
Vitoux
Zhang
Zhilan
Zenit
birdied
jumps
kicked
kickoff
motocross
potentially
synd
sweat
variety
variable
##815
##ourage
##ouraged
##ourable
stream
stationed
stationery
readily
combination
absolute
closures
2103
shelter
shelled
Slams
surprising
4734
removal
speeding
jointly
Jonathon
identities
identify
Frederick
liquor
pitcher
Treasuries
necessarily
Azad
Azul
Baeron
Baa1
Baudone
CAREER
Consulate
Consumer
Conservation
Conservative
Durum
Estonian
Galo
Galina
Galati
Gasoline
Highs
Higher
Koech
Koepke
Lyman
Linda
Meanwhile
Meadows
MARKET
MARINO
Nijmeh
Piotti
Piacenza
Prievidza
Pierina
Rosado
Rosenbor
Suarez
Suvit
Support
Suleyman
Skhir
SUPPLY
Viral
casino
circuit
drives
hurts
hurry
hurled
hurricane
praise
praising
praises
robbing
select
selectors
soyoil
soybean
soymeal
satisfying
widow
widened
yields
yielded
yielding
##aurants
##bla
storming
##isticated
unlucky
expresses
expressing
Speculation
struggled
struggling
teenaged
delegation
inspections
confirms
Prodi
Montpelier
Alejandro
Byas
Between
CAF
Cruise
Cruyff
Devon
IMF
Kalining
Lanner
MONROVIA
Penh
Roche
SHAR
SHORT
SHEFFIEL
Sidor
Sidot
Soymeal
Tirgov
Utomo
Voica
Vojv
Werner
Winner
bowler
bullet
##huis
Studies
Studentesc
tricks
1642
1803
Antioquia
opportunities
drinkers
promptly
requirement
photographers
counterparts
liquids
liquidated
ABN
ABIDJAN
Batumi
Batchelor
Battersby
Boland
Bolger
Bondholders
Bonnet
CVRD
Derivatives
GENOA
Humberto
Humphries
Klaus
Klimis
Klongprem
Keith
Kantharo
Kentucky
Kamaz
Kamoga
Kamyshin
Kosgei
MSK
Miriam
Mirren
Mirhun
Muslim
Maputo
Mapourdit
MOTOCROSS
NAHAR
Oslo
Osmond
Osaka
Osborne
Obree
Obvious
Obilic
Offers
PAIS
PAYDATE
Veracru
Vaclav
WARWICK
catcher
focusing
labourers
typically
undisclosed
ventilation
##OWN
##escsaba
##rieonians
answers
connected
convictions
convincing
placards
##manski
practice
practices
devoted
archa
confidential
Coetzee
PREMIUM
designer
designated
Transkary
congressmen
SUPERCUP
SUPERBIKE
circle
circles
circulation
celebrated
Caes
CANBER
CONTRACT
Dunferm
Dunajska
Dahshour
EXPANS
Hendrika
Krpaco
Kerametal
Katayama
Mountains
Nyman
Nasr
Ryan
Ryder
SWP
Siraj
Sirnak
Sandon
Sandstod
Sabine
UPST
Viking
Woj
Wolk
boundary
cautious
fueled
punch
punches
suprem
supermark
welcoming
watchdog
##lonec
##audited
reopening
ancestors
projected
projection
Stenhous
Stolle
weighted
Chaminda
resolve
resolving
resumption
qualities
adjust
Headlines
contesting
2423
understands
implemented
criminals
refunding
Sharjah
highlight
highlighted
amounted
subsidies
Abbott
Abbaye
reviews
aggression
fundamentals
Duisberg
Eritrean
viruses
patrolled
challenging
Actor
Activ
BARLEY
Ceahl
CeBIT
Ceske
Cesena
Creutzfeld
CALLS
Disney
Ended
Economy
Elsewhere
Feinstein
Feugill
Featherstone
Faust
Fleuchaus
Huracan
Hopefully
Illness
Konrad
Koninklij
Lorenzo
Loretto
Lamy
Lambert
Luciano
Lucerne
Molde
POLICE
POLLOCK
Randy
Randall
Randriant
Ravindra
Rocky
Suspected
Susanto
TIME
Zabel
brains
citizens
digging
erratically
gainers
haired
licences
machinery
penet
penultimate
rolls
rolled
salary
saline
salaries
sadistic
searches
sheds
videotape
walls
youthful
thrust
thrusting
platinum
argued
2067
reconvene
2151
2158
relieved
reflects
Shrs
flooding
tribal
INTEREST
broader
intentions
smuggle
smuggling
Agricultural
increasingly
colonel
colonies
colonial
physically
##forcements
swimmer
oblige
obligations
automation
automatic
occupy
occupied
prediction
COMMAND
achievement
sympathy
symptoms
demonstrated
demonstrations
Mauritania
Dimitrios
Petroleums
DRAWS
Wheaton
recognised
ARGENT
Barton
Bancomext
Coppinger
Cairns
DHA
Dickson
Debbie
Debbah
Debrecen
EDGE
Farul
Faroe
Fabien
Forsa
HEAD
HEESWIJ
Heart
Hawksworth
Hajduk
IRISH
Juniors
Kucan
Lisa
Lisbon
Mahanama
Majesty
Oppenheim
Paes
Paola
PULL
RAF
RUNS
SAFIR
SLAM
Seguin
TRIPOLI
curtain
cantonal
cultures
eyebrows
hydro
migrants
rouble
slept
termed
##skaya
##skiy
##fortune
inquiries
tomorrow
tossed
1935
concentrated
concentrating
procedures
proceedings
##ablanca
perfected
Brandi
unbeatable
2361
elimination
eliminated
eliminating
scrapie
Independence
attributed
imprisoned
enjoyed
strength
Shabana
demolished
floors
Chemical
surrounding
bushland
ownership
3432
provisional
subpoenas
departments
Khaleda
Alexandrou
Alexandroupolis
Glenwood
Province
approaching
solidify
obtaining
Grasshopper
boycotting
disappears
disappeared
disappearance
Caribs
cleaning
Henrique
Henrietta
Krajina
Everyone
concluding
harvested
Aleksander
dictatorial
Jiangling
Hakkari
JYVASKLY
Namibian
Apple
Apparel
Anderton
BNZ
Cameroon
Callens
Davey
Ekimov
Evelyn
Earnings
Estim
Empire
Empoli
Essilor
Fleming
GTE
Gulbuddin
Guldim
Griff
Gaston
Grossman
Huizinga
Horst
Horvath
Horizons
Hinckley
Imm
Imran
Jaime
Joost
Joakim
Jansher
Kaucuk
Kumara
LAW
Likhovtseva
Laboratories
MTK
MGT
MGR
Merlene
Matsuoka
Vaas
Vasas
Vaughn
breathing
breeders
bargain
bacterial
fatig
gearbox
littered
misfortune
memory
ringing
racist
waivers
##hasa
##IEW
##written
##arraga
rejected
rejoined
reelection
reversed
reorganisation
Strategic
Stranksy
principle
performing
Franny
Chernomorets
Ingrid
unwinding
unwanted
unemployment
upgrade
upgraded
comparison
arranged
meantime
2091
2183
2778
preconditions
elaborating
attracted
Refined
relegation
encoun
structured
consci
consolidation
consolidated
flags
guarantee
supposedly
triumphal
Amrollah
Berkshire
restructure
Claydon
persuaded
Steffen
frequently
Senegalese
Torrence
Torrens
Surinamese
virtual
superbike
Dubnica
functioning
Producer
Producers
Products
Matthews
fundamentalist
Nagyova
recommendations
Lokomotiva
Aa2
Aa3
Ayres
Awdank
Bjorkman
Casino
Casablanca
Curuchet
Ciments
Cowdenbeath
Dreek
Dominic
Dominion
Domingo
Eveningper
Erdmann
FFT
Fatima
Fatkou
Farmers
Homeland
Homme
Hershiser
Jetty
Krylya
Lausberg
Lausanne
Moussa
METALS
Macedonian
Privat
Privalova
Pescosolid
PORTO
Rudar
Rudolf
Rajavi
Sutjes
Sukarnoputri
SIGNS
TEHRAN
Technologies
Technogym
WAIT
WATAN
WATER
Wijaya
WINNERS
WINNIPEG
bags
coconut
fiery
hovercrafts
mobile
patient
pumps
pensioner
somewhat
sidelines
tendinitis
vacation
vacancy
##rofilm
##rofuran
rejecting
reiterates
heirs
plastics
procure
proclamation
shockw
shocking
exhausted
agriculture
##ubljana
Brasov
Brigade
Brigita
update
upstairs
1578
2288
discovery
Sportul
2385
Artur
Artmedia
1791
endorsed
endorsement
applied
impression
impressive
energy
energetic
textbooks
Shareholders
interfere
interferon
earthquake
deterior
Bragg
drachma
Control
Schneider
disclosed
disclosure
extrusion
extraction
responded
MONTHS
MASTERKOV
evacuate
disposal
disposable
ultimate
Haarhuis
incompetence
fixtures
combatants
adoptive
Tunisian
error
errors
purpose
sleeping
subpoenaed
OLYMPIC
BRAZILIAN
Aaron
Aarau
Bovine
Bachirou
Baldato
Baldwin
Caddick
Candy
Candiotti
Career
DOETINCH
Double
Dieter
DECL
DEFLT
Ecus
Eyles
Eugen
Eugene
Etruscan
Etruria
FIORENT
Facilities
Figures
Gonzale
Goncharova
Gurion
Gurusinha
Hubner
HOLDING
Harris
Harrison
IFK
Lilly
Lillestrom
Lampitt
LIMITS
Mironivka
Nadu
Nacar
Naphtha
NICOSIA
Onda
Ondrus
Pieters
Phelan
Phelps
Pascal
Renk
Romesh
Rousse
Srbska
SRC
Sigma
Sobota
Tatran
Udinese
Variety
Varazdin
Vivit
Vivien
Victor
Victoria
Walton
Welsh
Welspun
Yastrzhembsky
Yastrezhembsky
Zanoli
Zemin
Zemun
bolster
benchmark
bruised
bruises
catches
cords
censors
gradual
ignoring
lingers
lagged
lagging
lengthy
lengths
molotov
mummies
mummification
natural
sustainable
summit
tube
tubes
tamper
tampering
tactics
temperature
temperatures
wearing
##jovice
##SHIRE
##frame
##3377
ingot
1912
stealing
reinforcements
anxious
anxieties
conquest
prohibited
Statoil
Strait
Straits
Stromme
Stromsg
Stafford
spoiling
##ERENCE
outdueled
acreage
peaks
disagreed
disagreement
decrees
decrease
appreciation
appreciate
enthusiast
enthusiasm
NEGOCIOS
Sciences
Sciandri
fluids
suppliers
warmup
Coalition
56851
6179
descend
describ
dependent
promoter
Salahuddin
restrictions
paralysed
translator
Greenock
emphasis
drifted
worrying
84561
Buyers
Buyoya
Baltika
photographer
photographed
Telecommunications
Valerio
Valerenga
COMPANY
COMPETIT
Jacobs
harassed
AUSTRALIANS
EXERCIS
ROMANIA
ROMANIAN
punishment
tomatoes
Clyde
Clydebank
6mth
Apache
A310
Apertura
BBB
Bids
Bekescsaba
Botta
Bengal
Batting
Begum
BAYERIS
Bystrica
Citterio
Cecil
Cronulla
Cukaricki
Dewulf
Dakota
Dopfer
DENOMS
Dechy
Dariusz
Etchebarren
EVEREN
Future
FIFTH
Fidelis
Gagne
Gordon
Honved
Helder
HARARE
HELENS
HAARLEM
Jablonec
Jaffray
Kiely
Korneev
Kaspars
Kleiner
Kikinda
Kazakhstan
Ljubljana
LUANDA
Leary
Labat
Lugano
Mieciel
MEETING
Mouly
Mechelen
Mandela
Mongia
Mobutu
Maturity
MIDEAST
MUNDO
Nuour
NSDAP
Nitra
Naina
Nastase
Naberezhny
Nizhny
OTTAWA
Observatory
Olofsson
Puerto
Pudvah
Puebla
Passengers
Purepac
QUALIFIER
Rutter
Riga
Rimavska
Rahman
REFERENCE
Sjeng
Szonn
Savicevic
Sawamatsu
Sometimes
Toluca
Todt
Togliatti
Talks
Tobago
TRAIN
Tripoli
Ujpest
Uralmash
Voskamp
Valkov
Westhuizen
Zilina
Zaporiz
Zylstra
bulld
culmin
cavorting
dignity
essential
hinterland
horrors
halls
hungry
latter
layoffs
mentor
miracle
pedestrian
patchy
queen
rhetoric
rumours
sewing
scepticism
talent
tirade
utility
vomiting
vigilance
zlotys
##nasia
##klau
##atriate
inhuman
incentives
inaugur
topple
stupid
stagnates
##uliai
reintegration
convergence
Stuart
goverment
excessive
degree
Cherbourg
Children
spinner
outscored
unhurt
unauthorised
tranches
trampled
overcame
abstentions
expulsion
expenditures
Lezion
clinched
academics
arthritis
Alpha
Monterrey
Spitzbergen
precedence
precautions
Unitog
Marxist
scrutin
scarce
Individual
Arbroath
Aronkase
Anatolian
relinquished
setbacks
definitive
impeachment
coerced
coffee
enforcement
Proleter
interpret
interrogated
bogeyed
flashpoint
Colonel
STRIKE
Sloboda
Petrovic
numerous
Bergkamp
infectious
Guivarch
telecoms
McAllister
Shelbourne
Concern
Constanta
lawmakers
intestines
Schalken
drowned
THREE
chemical
frustrated
Prosecutor
SPRINT
skirmish
kidnap
succeeded
Georgiopoulos
tiebreaker
deadlocked
OPTIONS
administered
judgment
JOINS
Petrolul
Carretero
Metalurg
PHILIPPINE
predecessor
cleansing
merchants
Archaeological
Jacqueline
suitcases
superstores
Ottoz
Supercup
Violeta
corporations
Matthias
CONSENSUS
Consultancy
mutilated
Academy
Filippini
SWEDISH
lovebites
supervise
Dmitry
licensed
camouflage
terrif
amputated
memorandum
Kryvbas
Muratovic
novelist
STATEMENT
Dnipro
Uruguay
Vietnamese
Yekaterinburg
crippled
vegetables
wreckage
Airdrieonians
Appeals
BSM
Breukink
Bacau
Bunol
Boca
Bodo
Bongo
BISTRITA
Banska
Bierhoff
Baird
Bentsen
Bukovec
Becej
Budejovice
Bscher
Brechin
BVSC
Bardejov
Csepel
CJD
Cetes
Circuit
Crescent
Cultural
CURRENC
Crowley
Cottey
Clemens
Cuthbert
Cremonese
Carnival
CBOE
Cevaer
CUBS
Cosenza
DBRS
Darry
Dionne
Dacia
Dugmore
DINAM
Dnevi
Denny
Disease
DOUBLE
Dukla
Dumbarton
DAILY
Ejup
ESSEX
Ealham
Eldred
Enderle
Eksportfin
Emanuele
FOB
Fontaine
Falilat
Fusai
Foindu
Feldhoff
FOCUS
FITCH
FUTURE
Flavin
Friedick
Frazier
Gimnasia
Gopal
Ginebra
Gildea
Gennadi
Gyaicain
Gobert
GACETA
Gaelle
Gaidano
Giuseppe
Goulnara
GEARING
Hriday
Hentgen
Habibullah
Hueite
Houteman
Hundreds
Hissou
Hermawan
Hosni
Hristo
HUNGARY
Hradec
Hurte
Henderson
Hinchcliffe
Hodgson
Hollywood
Hibernian
HCFA
Iceland
IHC
IRAQ
JULY
Jetsi
Jammu
Jumbish
JORNAL
Jongsma
KIEV
Kinross
Komala
Kigali
Kallis
Kassala
Kralove
Kneipp
Kristie
Kuperman
Kambli
Kournikova
Kroslak
Kschwendt
Kilmarnock
Lovell
Langrova
Lansana
LANDS
Lombardi
Loxley
LUNCH
Livingston
Looking
Loznica
Misael
Mustapha
Murdoch
Muthiah
MAKINEN
Muzaffarabad
Mamiit
MUZAF
NYMEX
Nederland
Nirmal
Nicholas
Nuremberg
Nawaz
NASDAQ
Natural
Narciso
OWENS
Oasis
Oremans
Overnight
Overseas
Olomouc
OCEI
Oksana
Ogunkoya
OHIO
Ostrava
PDI
PGA
Pecs
Piazza
Pereira
Pendleton
Publish
Piper
Prykarp
Pachuca
Perrin
Pretoria
PACIFIC
Pukstys
Piatra
Restaurants
Rewe
RATES
Rameswaram
Rittner
Roxbury
Rafferty
Roshan
Riviera
Rizzitelli
Ryszard
ROVERETO
Rdainah
Sitanyi
Siauliai
Sumitomo
Sivas
Sellberg
Schein
Skeid
Sameh
Sultan
SETTLE
Siofok
Suedwest
SUGO
Snyman
Sammy
Suzuki
Sfeir
Szymanski
Srebrenica
Schett
TAIPEI
TBN
Tacis
Tulio
Tromso
Teplice
Tabarez
Tekstilsh
Tikva
Tarmac
TAKE
Tremila
Tebbutt
Tillekeratne
Temperatures
UML
Varteks
Vavuniya
Vierklau
Vorskla
Vairelles
VeriSign
VEREINSB
VICTORY
Wagner
Wishart
Wengert
Woolmer
WICKETS
WEATHER
Xhosa
Xavier
Yasushi
Yigang
YUGOSLAV
YANKEES
Zyrecha
ZTE
Zirka
Zubair
Zardari
Zickler
ZAGREB
Zizkov
ZIFA
Zhemchuz
Zwingmann
avenged
austerity
borrowing
bacillus
buggy
bovine
ceiling
crazy
coden
cocktail
clemency
cushion
cumulative
downgraded
destined
dungeon
earliest
felons
fugitive
furnace
fictitious
fiancee
fiasco
groin
gripping
grammes
gendarmerie
hampered
hryvna
jackpot
keenness
lasagna
lounge
lords
luggage
luxury
masked
microfilm
muni
nitrofuran
oriented
osteoporosis
pellets
pneumonia
rarely
sulphur
scheme
snapping
sophisticated
tentative
technic
umbrella
velodrome
yogic
##horst
##autiful
##uvre
##cohol
##freight
##FARABAD
##electric
onlookers
thousand
thermal
sacrif
forensic
##acekeep
1930s
stalemate
annex
concessions
consequences
comeback
ploughed
plainclothes
showering
Sturrup
Steeb
Streda
Stabaek
Stanojlovic
Strikers
Stranraer
Stoichkov
goddess
prerequisite
Thierry
Therapies
offshore
dehyd
Chindia
Chornomorets
Channel
Chisinau
Chiluba
spinoff
spontaneous
sporadic
unimported
compassion
overturned
overpowered
reprieve
reshuffle
Lefevre
Alleyne
Aliuska
Alvarado
contaminated
sufficiently
Spirlea
newsprint
Attorney
Margaret
5080815
Arulanandam
herbicides
indiscrimin
indigenous
committees
Refining
enquiries
Shuzo
Shkirko
Shqiptare
Shimaponda
Shakhtar
Shopkeepers
sovereignty
backwardation
Belmondo
Primedia
Prinosil
Predrosa
RESIGNS
Scorpion
supplementary
Politehnica
CheckFree
slaughtered
airspace
assertions
PRECIOUS
PROFIT
PRACTICE
PRAECIP
inflammation
infringement
longitudinal
Guernsey
Guadalajara
Markgraaff
Whitlinger
telecommunications
Physicians
testosterone
Exceptional
Ploiesti
imminent
behaviour
Bohemians
goalscorers
Kongsvinger
volunteers
Aguirre
Agnieszka
THOMSON
transmitter
Claverie
Ferhaoui
Ferdinand
Liechenstein
Liechtenstein
BOARDMAN
collaborators
Broadcasting
Smoltz
Ternopil
Georgalis
Olhovskiy
autobiography
MONTPELIER
Corrigendum
Meligeni
Munakarmi
vertebrae
Novgorod
Novorossiisk
Redgrave
Petrzalka
Carbonell
CALCUTTA
grandparents
millfeeds
Hercegovina
Fluminense
SCHUMACHER
Timisoara
Rostselmash
irreplaceable
Drnovice
Kragujevac
Haeggman
Matagalpa
REOFFER
REASONS
Raphanel
incomprehensible
Gorrochategui
Rosenborg
Skhirat
Kaliningrad
SHEFFIELD
Tirgoviste
Vojvodina
Kantharoopan
Mirhunisa
Obviously
Veracruz
WARWICKSHIRE
Transkaryotic
CANBERRA
Dunfermline
EXPANSION
Stenhousemuir
Ceahlaul
Creutzfeldt
Koninklijke
Randriantefy
ARGENTINE
HEESWIJK
Oppenheimer
hydroelectric
JYVASKLYA
Guldimann
Awdankiewicz
Eveningperformance
Fatkoullina
Pescosolido
Sutjeska
MASTERKOVA
DOETINCHEM
FIORENTINA
Gonzalez
Ondruska
Stromsgodset
5685192
EXERCISE
BAYERISCHE
Naberezhnye
Zaporizhya
Aronkasei
CURRENCIES
Eksportfinans
MUZAFFARABAD
Prykarpattya
VEREINSBANK
Zhemchuzhina
0yr
1b
1w
1ama
1yr
1mo
2N
2R
2yr
3M
3R
3O
3nb
3mo
4m
4x
4X
4yr
4mos
5p
5yr
8p
A0
A7
AV
AU
Aer
Ain
Ait
Aid
Aut
Aus
Ald
Aish
Aime
Auss
Auth
Award
Auction
ALE
Abs
Aby
Agy
Astr
ARE
Aval
ABA
AVER
AVIA
AUC
AUTH
Bd
BC
Band
Bow
Bian
Bould
Back
Bish
Bie
Bav
Bound
Bork
Bence
Boll
Biss
Base
Bare
Bib
Baj
Bild
Bath
Bax
Berm
Bio
Brow
Benn
Bares
BCH
Based
Baul
Born
BIL
Break
Blam
Bau
BUT
BUG
Bened
Bolog
BBI
Boud
BANS
Budd
BLAN
Bodd
Boul
Boles
BAB
Bread
Bosh
Beth
Bada
Biche
Breen
Bilateral
Bells
BLIN
Bishop
Bode
Betsch
Barmas
BAIL
Badi
Bowles
Bunge
Benson
Bumping
Beryllium
Biesz
Burea
BOSS
CP
CG
Cut
Cac
Cos
Cun
Cart
Cab
Cell
Cie
Come
Cip
Cord
Cout
Cass
Cage
Cib
Cany
COC
Cind
Caj
Cull
COND
CAM
Cty
CED
Criv
Carr
Clear
Crist
Cather
CUS
CONG
CAMP
CNE
Categ
CASH
Crowd
Camin
CAB
Citing
COF
Cvet
Ciri
Culp
CUBA
Code
Cables
Cascar
CKD
Codel
DN
DT
DJ
Dhe
Dil
Dro
Dig
Dul
Dia
Dear
Dust
Dond
Dall
DES
Dark
Dary
Dated
DAL
Dres
Doll
Diss
Dame
Doh
Dely
Donn
DUE
DALL
DAK
Dana
Destin
DUST
Dred
DNE
Dijk
Dressed
Drop
DSE
DLA
Drech
Dogs
Dmy
Diy
DANCE
Dfl
Donna
Dolly
Duma
Dusan
DAW
DRES
Dadab
Dillard
Dianne
Dante
Daughters
Diamond
Eg
Ef
ER
EV
Ew
EO
Eas
Eil
Eve
Ech
Eman
Emer
Earl
Etern
EAS
Eij
Elish
EMT
ETH
Eti
Eijk
EQU
Epid
Eager
Eiden
Eji
FS
FT
FM
Fes
Fas
Fion
Fay
Fol
Fort
Fond
Fok
Fant
Fie
Fav
Fong
Found
Fans
Fame
FAT
Fash
Fied
Faj
Flet
Feng
Farr
FIL
FAC
Fung
FINN
Flo
Fifth
FUN
Friend
Fisc
Freet
Fita
Fourn
Fann
Facing
Fixed
FIG
FSA
Faster
FIGH
FOW
Fanie
Fook
Fcast
Famous
FAIL
Ffr
FEREN
Fighter
Gj
Ga
Gd
Gy
GD
GU
Gw
Ghe
Gin
Gut
Gir
Gle
Gos
Gow
Gain
Gart
Gould
Grou
Gong
Gome
Gund
GAL
Goin
Gase
Gina
Gev
GAT
Gide
GAS
Gorn
Gatt
Gram
Grest
GIL
Gale
Gipp
Gush
Geb
Gains
Grad
Grid
GIAN
Gado
GRA
Goud
Gump
Gyn
GRI
Gont
Gabor
GAB
Gala
Guten
Gusc
Gift
Goma
Garrington
Guly
GAZ
GOTH
Ghib
GROW
GIVE
GIB
Ganic
Given
GIVES
HS
HM
Hw
HO
HQ
Hul
Hew
Hist
Hess
HAN
Host
Hug
Hod
Hud
Hack
Hang
Hry
Hail
HIS
Holl
Hame
Hanc
Hina
HAT
Hide
Hough
Hind
Hath
HAND
HIT
Heral
Hiz
Henn
HOND
Hott
Hove
Harm
HOS
Hench
Hana
Haug
Hover
Hald
Hines
HEM
Hots
Having
Hari
HIST
Hands
Huw
Hoil
Hann
HARD
Hint
HUB
Hodz
HISS
Hector
HINCH
HUF
HOP
Hockey
Ih
IA
Id
IB
IL
Ion
Ist
Ile
Ily
Iain
Ivern
IST
ICE
Iwan
IBC
IKS
Ign
Iacom
IAE
Idal
IART
Jy
JP
JB
Jed
Jen
Jom
Jad
Jec
Jol
Jill
Jia
Jem
JON
Jess
JAN
Jug
Jod
Jard
JOR
Join
Job
Jone
JAY
JAC
Jody
JAP
JUM
Jeter
Jari
Joul
Jamir
Josh
Jyr
Jailed
JORD
Jomo
JPR
Jungle
Jockey
JOCKEY
Jumet
KN
Ku
Kp
KS
KP
KM
KB
Khe
Kou
Kri
Krom
Kop
Kate
Kud
Kell
KER
Kish
Kamp
KIN
Kip
Kund
Kens
Kib
KEL
Kapp
Komen
Kron
Kared
KOM
Kee
Kins
KICK
KIM
Kuk
Kox
Keep
Kota
KENN
Keter
Kred
Kei
Koel
KANK
Kuz
Kyle
Kami
Kran
Kalf
Kern
Kibet
Kengo
KOMB
Kunt
Kfar
Kacem
KHAR
Kunar
KLAD
KIGAL
LI
Lv
LM
LO
LJ
Ler
Lon
Len
Lal
Lit
Lid
Lion
Lom
Lil
Lus
Lia
Lak
Lop
Late
Less
Lich
Lions
Lark
Lav
Lome
LIN
Line
Lix
Lare
Loy
Log
Lach
Lake
Loh
Lob
LAS
Laj
Lax
LIT
Lady
Leng
Latt
LOM
LUS
Lago
LUK
Landing
Lara
Lama
LONG
LIF
LIONS
Lira
Lands
Leno
LENS
Lacher
Llan
Lye
Lila
Loo
Lumin
Luca
LATE
LOW
Liano
LOMB
Lof
Loft
Lumber
LIGHT
Lodge
LIFFE
Lhasa
Mh
Mj
Mp
Mb
M1
MB
Mol
Mem
Mest
Moc
Mum
Mate
Mort
Mab
Mall
Mend
Mud
Mack
Mov
Mek
Mang
Mord
Mister
MEN
Make
Mates
Mash
MUL
MING
Math
Merr
Mason
Maz
Mered
Moth
Meng
Mater
Mather
Mamed
MICK
Mistr
Myst
MUS
Mani
Munic
MAP
Misc
Mands
MOUN
MRI
Melli
MORN
METRO
Mixed
Myp
Mutt
Meas
Musc
Mental
MOF
Merc
Mette
Maine
MORT
MPS
MEES
Mavit
Multi
Mazz
Mundo
Nt
Nj
Ns
Nk
Nd
NF
Nin
Nar
Nis
Nou
Nut
Nig
Nun
Noc
Nial
NAN
Nue
Nav
NIN
Nord
Nail
Nurs
Nass
Niss
Nors
Nade
Nalk
Nach
NAG
Nept
NUR
Norm
Nham
Named
Neb
Nani
NUN
Nanda
Nuclear
Ninth
Nano
Nature
NAB
NYC
Nyr
Noured
NTB
Nabl
Nayan
Nahar
Nele
Nieves
Naval
Nanne
Ninova
Nuku
Og
Ov
OC
OL
OV
OH
OG
Ous
Oest
Oman
Ours
OIC
Oax
Oph
Oster
OCT
Ouj
Ohr
OLA
Ochi
Ojan
Osteop
OKD
Oerl
PN
PC
PP
PB
PU
PF
Pan
Pes
Por
Pel
Pent
Pers
Pos
Pear
Poc
Pate
Pall
Pok
Pack
Pound
Pign
Pork
Pace
Poin
Pope
Poss
Pember
Pict
Piz
Purd
POND
Papp
Peng
Parm
Parr
Pins
PONT
PICK
Pots
Pati
Pined
Pena
Poud
Poul
Pont
Payne
P10
Pint
PIV
Point
Pells
PPI
Piano
Pizz
Pisk
Panama
Painted
Proud
PEMBER
Qic
Qot
QAD
Ques
QTR
RS
RD
RF
RO
Rin
Ring
Ras
Rus
Row
Run
Rast
Rok
Ramp
Ruc
Rans
Rup
Rare
Rens
Ride
Raw
RUL
Rory
Riz
Raul
Roth
Rune
ROT
ROU
Rowing
RIA
Rana
Ruan
Rico
Rains
Rugg
RAP
RENN
RIF
Ramb
Ringer
Rys
Rece
Rudd
ROV
REG
Rona
Rumb
Reno
Racing
Rika
RSA
RAV
RUB
Ralf
Renna
ROW
Ridge
Ranked
Ribe
Roux
RICH
ROCK
Renter
RICA
RUF
RIFFE
RANGE
Rottweiler
Sg
Sv
SM
SO
SG
Son
Sou
Sent
Sot
Sith
Sag
Sop
Sard
Sark
Sang
Sime
Sine
Smer
Suc
Sher
Sous
Sold
Sib
Sah
Sind
Sax
SIT
SUR
Sonn
Sex
SAD
Sese
Seal
Seng
SOT
SOS
SAY
Siet
Sung
Sayed
Suan
Sett
SUS
SID
Sule
Sfor
Session
Sino
Sars
SNE
Sava
Sno
Sesa
SELES
Saying
SKS
SUB
Soura
SACK
SOK
Sells
Soph
SURE
Semer
Savi
SUZ
Sellers
SDV
Simex
Senga
S23
Source
Sairy
SELI
Sefer
Seeing
TN
TL
TW
TK
TX
Tin
Tas
Tet
Tos
Tow
Tch
Tri
Tian
Tap
Tart
TON
Ties
Tall
Tight
Tub
TER
Tamp
Time
Tup
Told
Tade
Tact
Tare
Taj
Terr
Tij
Term
TUR
Tech
Turr
Tram
Tondon
TOM
Tana
Tins
Tung
Trib
Taf
Tender
Tests
TRE
Tarn
TRO
Train
TEG
Touch
Tann
Tamir
TIES
TBC
Temp
Tusc
Tiant
Tombe
TRAD
Tamer
Troph
Tette
TRADE
TEND
Tarak
TAKES
Tamas
TAI
Tijuana
Tiber
TULF
Tipper
Tando
TENDER
Tucker
Ul
Us
Ub
Um
UD
UH
UG
Und
Uly
Upp
Use
UIC
Umb
Urd
Umber
Uzi
Umar
UTI
UBS
ULT
ULIM
USTA
Vl
Ve
Vn
VS
VD
VO
Von
Vis
Vil
Vent
Vur
Vand
Vow
Vian
VER
Vie
VEN
VAT
Vile
Vital
VOL
Very
Vries
Vuk
Vander
Vald
Venal
Voor
Veter
VANC
VIP
VENT
VOD
Varia
Vogue
Valdo
VTM
VOG
VERN
VEER
Vinko
Vrol
VIEW
Wr
WE
WV
Wen
Wing
Wick
WAL
WEN
Wach
WAS
Wath
WORK
WEST
Wemb
Wife
Waf
WIM
WBUR
Winger
Wert
Wada
Welfare
Warren
W15
WEI
Wright
Welch
Wagle
WALK
Wozn
W112
Xing
Xam
Xenos
Yv
YM
Yve
Yos
Yak
Yap
YES
Yong
Yuss
Yield
YOU
YED
Yaq
Yuk
Yuan
Yurt
Yann
Yoel
Yitz
Yonse
Ylon
YOUR
Yatche
YURT
Yuri
Yulia
Yoka
Ze
Zr
Zb
Zar
Zal
Zigh
Zell
Zund
Zina
Zev
ZEL
Zeng
Zaf
Zinc
Zule
Zeri
Zeles
Zuber
ZAV
Zden
Zarc
Zarak
Zitelli
Zeyer
Zarraga
ah
aug
aud
aeg
auth
aided
aylum
ailment
ber
bes
bou
bic
bay
bum
bart
bast
bore
bree
bick
bare
bog
bind
breat
bonn
buck
brew
bung
bene
bris
bugg
bands
bump
burg
bishi
bbl
bells
bounced
bunk
bails
bouncing
cere
civ
cab
cif
cake
cable
cath
cott
cater
cries
cops
caff
cages
cards
cakes
categ
cinn
cried
castle
catal
camo
caves
crab
cycle
code
cables
courage
dl
dat
dal
dia
dun
dop
dess
dod
dong
dire
dold
danc
dens
doss
dorm
dared
duel
diplom
diat
dump
dyn
dont
dashed
dancing
dipping
dizz
dusty
dumping
dinar
ditch
dashing
dazz
domic
dairy
dressing
daughters
diamond
ec
eur
eup
esp
eats
eaves
eager
ejected
fing
fou
fid
fad
fam
fame
fold
fals
ferv
fash
fles
fees
fron
fru
fights
fries
fren
finger
fitting
frict
fert
fault
folly
fiest
fuelled
fuse
gm
gat
gal
gou
gur
gut
gag
gast
gall
gend
gown
germ
gru
gaug
grid
garn
gases
grey
gyp
gaps
grown
gaining
gym
german
gifts
hes
hers
hill
hap
hate
hab
hug
hive
hack
hick
holl
hier
hous
hors
hott
horm
horn
hipp
hides
heter
honed
hump
hiring
hills
hook
hints
hails
hacks
hockey
hailing
haunted
harsh
ie
ire
ipo
ju
jol
jam
jure
jury
jett
jeep
journ
jokes
joking
jawed
jazz
kero
lt
lon
les
lion
lad
lur
lac
los
lak
lend
lank
lie
lary
lens
lax
lets
laug
lights
laugh
limb
lender
laid
lined
lashed
lenders
lateral
liter
lasts
litre
laud
logo
lapped
lodge
lanes
lucrat
mi
mes
ming
mou
mel
mac
mus
map
mast
mant
mational
mock
mog
mull
maul
morp
mouse
misc
mamm
mourn
mocked
moul
mala
master
muted
maver
mosit
moon
mafia
maimed
marsh
na
nc
nas
nic
nig
nem
nose
nair
nons
nerve
nerves
nasty
ot
oo
ost
oun
oct
ostr
omission
odd
ousting
pp
pv
py
pin
pom
pac
pus
