[PAD]
[UNK]
[CLS]
[SEP]
[MASK]
!
"
#
$
%
&
'
(
)
*
+
,
-
.
/
0
1
2
3
4
5
6
7
8
9
:
;
=
?
@
A
B
C
D
E
F
G
H
I
J
K
L
M
N
O
P
Q
R
S
T
U
V
W
X
Y
Z
[
\
]
_
`
a
b
c
d
e
f
g
h
i
j
k
l
m
n
o
p
q
r
s
t
u
v
w
x
y
z
}
£
§
«
®
°
·
»
½
à
ã
è
é
í
ñ
ó
ö
ü
ē
;
а
࿽
‐
‑
–
—
‘
’
“
”
†
•
…
⁄
€
™
⅔
−
●
总
数
股
##u
##s
##t
##o
##m
##e
##r
##a
##w
##i
##n
##l
##d
##h
##O
##S
##I
##T
##N
##c
##b
##9
##0
##q
##f
##g
##y
##k
##A
##C
##p
##B
##x
##E
##R
##D
##4
##1
##5
##V
##L
##v
##7
##8
##X
##j
##6
##H
##G
##P
##2
##U
##M
##F
##z
##3
##J
##Y
##Q
##K
##W
##é
##Z
##ü
##™
##࿽
##ó
##è
##°
##½
##ñ
##⅔
##®
##ē
##í
##ö
##ã
##he
##er
the
##ti
##on
##en
an
##re
of
##es
##ed
##an
##ent
##in
or
##al
##or
and
in
##tion
##it
to
##ec
##at
##is
##ment
##ar
##ch
any
##ro
##ing
th
be
##ce
su
re
##ation
##mp
##all
##ll
##ur
##ement
##gre
sh
##li
##ts
con
##ve
##her
##le
shall
##ith
##ther
##as
##der
##greement
by
with
as
Co
ex
such
pro
##ab
##id
no
other
Agreement
##ate
##ut
this
##ay
co
##ect
##ver
for
##ter
##mpan
##ere
##ig
##mpany
##ly
##ic
Company
de
##un
here
##tive
##im
##st
un
##able
##ty
##ding
is
that
##erm
ac
##ff
on
##ul
##ties
##qu
##se
par
res
not
##lo
##oc
##ran
##res
prov
##red
all
##hi
##ess
##tin
##ance
##ection
##il
##ac
##ach
##pp
##ity
its
##for
Par
##ion
under
##tr
##ting
##su
##ers
##lic
##ain
##ations
The
##ri
inc
##ated
##ol
app
##aw
term
whi
which
##ant
Ex
##de
en
##ments
may
resp
##ir
##ge
##mm
##ecu
##ted
##igh
##et
there
ha
##ary
requ
Section
##ign
##eri
##tions
##lu
##te
##ub
##di
##ci
at
##ase
each
st
cons
##ill
In
##ision
##rans
sub
have
ma
##loy
##mploy
##row
##lig
law
righ
will
##ow
provision
pay
##end
##orrow
ad
##ru
##pt
##ct
Borrow
##gent
##ender
##min
##th
##la
ob
##liver
##ocu
##ies
exp
are
am
##of
Sub
provid
##form
##us
inclu
pur
acc
##oun
deliver
##est
##oan
##ise
##ER
applic
##ecutive
##ffect
Lender
TH
##to
##fic
##ective
tim
Loan
##ord
##ee
party
Borrower
##per
##ire
Executive
##ason
dis
##iv
time
##rom
trans
##idi
##sidi
Agent
mat
reason
St
Ad
##ally
applicable
##ens
##istr
from
respect
##cept
agreement
oblig
rec
rep
##cip
##os
including
provided
No
noti
Subsidi
##ard
##out
##med
##od
##pon
##tain
Re
has
##ject
##ired
ass
AN
##erial
##ocuments
##ef
##tit
##ock
##me
##erson
##ure
reg
##ult
##eral
ta
Th
Party
##ative
##led
rights
##ore
without
comp
parties
##under
terms
This
##ors
agre
##fer
##ten
##TI
per
ii
##ON
it
set
##ute
pri
##anding
##tent
##vi
##ministr
##redit
if
##resent
##wise
otherwise
##by
##stru
date
##ress
##ecur
upon
termin
ag
subject
##force
##lated
inter
required
employ
##um
##eg
##ceed
##ue
##EN
obligations
Comm
##iz
##iness
##lan
##usiness
hereunder
ar
THE
provisions
forth
whe
accord
##alid
##par
accordance
been
##uth
Date
so
##ably
exec
notice
made
##fter
##urch
##ili
sa
li
##ministrative
##uthor
##fi
##ag
##ticip
##cc
##aries
go
than
prior
##vent
##los
herein
##uld
##ility
effect
##ees
Purch
pre
except
hereby
##ates
inv
transac
hereto
##vern
assign
pursu
Employ
Credit
##ount
##du
##ail
Documents
hereof
##rit
##ares
##fied
conn
pursuant
def
coun
Administrative
##ell
proceed
##dic
extent
connection
lim
##IS
OF
##ence
rece
##ces
##ffective
ca
material
cour
represent
disc
##irect
perform
##temp
##ull
##ED
##ual
##por
stat
issu
writ
cla
business
##uted
wa
comm
laws
their
##its
Purchas
OR
Pro
##and
thereof
##ven
dee
##ive
##ES
written
##older
contemp
##ities
Subsidiaries
##now
action
right
conf
##dem
author
Con
##ements
##ited
constit
fin
##ib
##losing
##age
##aid
##ber
##dition
##ENT
Parties
full
##itted
##endment
contemplated
##ke
Plan
perm
##perty
##ra
reasonably
jur
deemed
IN
##ew
##el
enforce
executed
consent
##ability
##eriod
##ecurities
##tw
##demn
ben
##isdic
day
after
jurisdic
##egal
direct
##ould
##enses
claim
##formation
##IN
transactions
##ever
delivered
##arran
Am
Stock
again
against
vi
payment
Particip
tax
##OR
##TH
ANY
ins
##less
agrees
##tial
pr
Purchaser
##TION
Closing
do
jurisdiction
proceeding
delivery
##standing
Sell
##EC
would
giv
##nowled
##pos
sign
##ffili
Person
##orpor
termination
##tained
##eci
case
sp
equ
event
##uar
counter
benef
valid
person
##sion
one
AND
Participant
##erc
agreements
Term
##ward
ser
##tric
An
##ended
##ange
respective
fac
add
ch
Each
govern
du
Subsidiary
appro
##ither
Sh
fil
##ecess
ow
instru
##iver
Un
##bit
##ear
Seller
counterpar
##AT
but
##verse
man
constitute
##riting
necess
##ank
fur
##tic
address
fore
reasonable
As
writing
##cial
##use
##fy
regul
speci
wh
fees
expenses
same
bre
interest
matter
Commit
##termin
Trans
necessary
permitted
amount
information
des
determin
paid
##AL
##ocument
constru
##tor
exerc
rela
result
##ault
##mental
Employee
##oll
##om
##are
##ator
##ud
state
##ced
warran
TO
All
##rou
rem
execu
##00
po
part
performance
finan
period
offic
relating
##ized
##AR
##che
refer
stock
legal
##ort
##ected
nor
limit
remed
##etter
viol
breach
mo
Guar
##uring
me
sim
contr
fa
effective
##action
##MENT
own
employment
##ome
shares
##ption
court
##ust
##ilar
##ederal
##ork
Amendment
##gh
##RE
##demni
similar
require
yo
whether
enti
Mat
20
sal
rele
order
##cy
##erti
##ING
##een
contin
##AN
##ateral
ab
betw
between
##llateral
statements
State
##urance
##uts
##cri
##ner
##incip
##ile
non
##ived
##urred
waiver
bin
occ
indi
##iden
Any
imp
remain
##ose
bec
##bitr
##ission
Li
Affili
##ditions
mail
execution
express
##tee
##ction
Lenders
##THER
year
##urr
##go
##igin
##ges
##oss
outs
Material
Bu
If
only
##vice
Shares
##ital
##nowledge
Collateral
##ased
##ounts
AG
princip
##tanding
##clu
payable
given
binding
##ants
invalid
conditions
financial
##sets
##going
securities
##am
construed
##ving
conflic
##ising
modi
addition
Bank
Award
Letter
##CH
cap
##ollow
##tis
entit
agree
##hol
##ested
el
foregoing
Buy
insurance
due
further
outstanding
##ense
##ERE
Res
iii
Law
form
days
federal
affect
fail
property
##oard
make
201
##UR
follow
documents
contained
Except
out
Guarant
##ccess
Buyer
##ecurity
when
##les
##rough
##idential
##ization
##umber
counterparts
entitled
##iginal
New
unen
##poses
##sed
##ature
av
##fication
unenforce
Adverse
exercise
certi
success
into
purposes
arbitr
10
Act
gen
##vid
##hip
thereto
good
##holder
##ually
unless
##ible
use
##sure
##ease
transfer
Property
limitation
benefit
##ules
withhol
Effective
satis
coven
exis
defin
Sche
sole
##ves
Effect
##ilities
##bur
##RO
expected
Is
Ob
##gate
then
sur
##tro
instrument
duly
Transaction
##gether
following
number
Oblig
together
##ong
##stan
Issu
arising
amounts
##sts
tak
during
indemni
Loans
within
original
Board
##alf
##ey
pow
oper
##hed
incurred
Def
Common
##ition
##rect
beh
SEC
##sim
behalf
cause
either
##CE
##dule
De
##ithstanding
pub
received
THIS
Ar
##mber
being
OTHER
gran
##simile
claims
he
main
CON
disclo
##orporation
costs
assets
issued
##IT
polic
##crib
##gregate
obligation
amended
##ects
agent
##ages
##gan
##tig
representations
approv
Gran
ack
##ax
understanding
##pri
##tricted
liability
RE
York
##ron
PAR
compli
dec
##ight
000
facsimile
his
failure
##irst
become
Securities
Note
AGRE
##vic
mon
violation
defined
recei
loc
##edi
Holder
##unic
##ree
issuance
public
HERE
##ings
unenforceable
force
request
Schedule
filed
##IC
##ark
##edu
Document
ann
taxes
##vive
employees
CO
survive
BY
##ately
##tered
taken
capital
##reat
##ests
##change
specific
##so
receipt
Tax
##AI
manner
##fore
ne
aggregate
act
##ons
elect
consu
##owever
expressly
communic
##ership
payments
service
avail
consumm
purch
Restricted
more
directors
authority
SU
officers
sale
dam
limited
determined
Ten
##ash
condu
por
entire
governed
##tly
##LY
##act
ext
Committee
you
##sel
prep
sent
conflict
particip
mean
knowledge
therein
proper
amendment
however
imm
##ronic
##ast
##cess
bo
##utes
##ffic
equity
##ating
Inter
authorized
notices
##after
available
used
default
##udg
could
##ded
##lement
Tenant
Go
char
related
exclu
who
Affiliates
ir
##EMENT
##tigation
remedies
Obligations
##cum
##ap
withholding
##low
Guarantor
le
before
##imbur
immedi
se
Default
benefits
cop
adv
##mission
AC
warranties
judg
electronic
##ous
successors
continue
covenants
##sive
##ider
Ass
irre
actions
assigns
cover
##cing
thir
power
##pre
##olving
##abilities
Su
##oli
Sal
individ
##ney
reimbur
##twithstanding
pen
neg
release
portion
AGREEMENT
regard
Notwithstanding
##torney
signed
appropri
plan
Ser
##cribed
aff
##ond
App
##voc
compliance
confidential
signature
sup
##isc
interpre
For
transaction
##RIS
account
##ound
##rust
##trol
attorney
al
##und
##ersed
##ensation
execute
Ch
supersed
##tives
immediately
##lord
dem
Reg
approval
Parent
appropriate
##ad
provide
##ient
document
condition
respects
##ganization
Option
regulations
##lace
##oin
Lease
through
demand
##eld
##UT
record
PRO
##urn
duties
remedy
##ency
assignment
respons
##hib
BE
enforceable
##til
coll
##ved
acknowled
Part
##urrent
security
first
design
Govern
terminate
##ph
##rang
consider
##vices
counsel
bas
proceeds
Inv
principles
promp
terminated
##old
En
basis
##VE
##ecting
Land
Business
##AW
purchase
##ination
requirements
##ecured
Day
giving
take
reli
Rele
WI
credit
rules
Artic
faith
##cted
Invest
##TY
until
Inc
Landlord
inj
##ures
continu
Base
loss
disp
they
United
##ution
held
suit
##ension
governmental
LAW
general
##ms
statement
States
liabilities
damages
restric
threat
described
Issuing
Sections
Period
directly
validity
Lien
irrevoc
those
discre
agents
way
ret
fully
##mb
were
12
maintain
affili
acqu
discretion
tra
Governmental
cash
##OC
comply
##ATION
requested
11
cir
##ember
judgment
satisf
policies
return
##ayment
circum
##alue
oral
certific
filing
##ened
##orporate
indirect
reference
month
##king
does
##ished
##orts
Author
proceedings
int
threatened
##olid
Noti
enforcement
##oid
process
ear
additional
your
WITH
properties
promptly
##ove
Event
Assign
##ine
below
adj
##thing
Rev
where
THAT
##TS
adverse
##atory
Employment
fact
##ctions
acce
##ACH
acknowledges
##ass
principal
##istration
Employer
tw
arrang
##emp
##IG
##esting
##raph
understandings
##ged
Secured
modified
based
cre
30
counterpart
##losed
##dings
##holders
##ises
contain
##nership
granted
ref
ill
##LL
##VER
inves
##enew
third
##iration
Revolving
WAI
poss
##ks
personal
accru
##lied
EACH
Laws
substan
##ule
subsidi
regis
irrevocably
##PL
specified
##tell
cor
consolid
reco
above
present
##atives
##tellect
##tellectual
##oti
subs
exclusive
Article
##ases
individually
include
##op
Borrowers
illegal
constitutes
##air
equal
lic
compensation
Code
injun
JUR
disclosure
bound
existing
##ECT
##with
comple
##ffer
occur
arbitration
TR
award
negoti
SUCH
corporate
conver
disclosed
attorneys
##trib
obtain
##ortg
##uali
employee
referred
##TR
both
##AB
##stances
communications
contract
##TO
resul
Del
att
enforceability
whole
EX
furn
consummation
##aware
eff
##arket
courts
##ives
pending
indemnify
transmission
local
enfor
Exchange
Cons
##ice
Salary
Authority
##ning
Liens
Affiliate
manag
Taxes
instruments
##agraph
thereby
Warran
PARTY
long
current
##sp
##pose
##itle
supp
was
Delaware
##ld
##cer
end
Direct
prac
Offic
regulation
officer
##our
##ger
entity
give
##TIES
dedu
Indemn
commit
Security
##AS
gener
expiration
solely
Ne
adjust
19
##ry
purpose
expense
##sequ
less
them
application
services
enter
##ustom
##fici
Man
pos
Termination
copy
To
renew
##one
change
car
quali
representation
actual
interests
##ful
##ou
thereunder
circumstances
share
intended
Change
##TER
ST
##ptions
Acc
receive
Information
na
##inan
Subject
##ectively
among
##itial
sever
affecting
representatives
Pre
est
registered
Indemnit
REL
amend
Investor
matters
14
di
Release
##ATE
validly
Officer
Exp
##rought
brought
##ker
rule
final
interpret
consents
There
what
##tially
##istent
collectively
##ached
advis
Equ
value
rel
generally
COUR
Conf
##con
##fe
certified
##DER
Repor
issue
##ights
Applic
NO
Units
income
bank
separ
impos
conducted
##enture
Notice
redu
post
##ier
##held
##laim
Control
enforced
withheld
##roup
SH
##dequ
##oci
compet
hold
arbitrator
##xt
##AC
apply
ACTION
##hibit
Corporation
subsidiaries
15
earli
sell
##soever
##BY
eng
iv
##ind
cal
##SU
##ot
affiliates
prot
incre
whatsoever
##arm
inure
Requ
specifically
indirectly
extension
##oper
prom
custom
##ALL
##itable
Trust
competent
##efici
lat
##arding
had
MA
##ents
warrants
represents
Commitment
##duct
Rate
Intellectual
investigation
Per
Commitments
Dis
##ite
subm
agreed
Confidential
2016
know
Purchasers
addressed
Pri
##hief
Applicable
##arge
waives
invest
Sec
##ATI
exchange
PARTIES
supersedes
SHALL
affected
Grantee
##imum
regarding
Coun
del
nature
##formance
assess
Or
Upon
organization
With
accept
conduct
rate
relief
owned
occurr
records
agency
13
contrary
conflicts
FOR
##erger
concer
neither
##ory
##dequate
substantially
##isting
Fac
Indemni
plans
Deb
##rupt
making
Manag
harm
ERIS
Performance
ERISA
fee
kind
##vor
NE
##tention
##atement
##ish
now
##ia
thereafter
correct
work
asser
policy
assu
Purchase
dispute
remaining
consolidated
Share
reser
Such
confir
obtained
mut
sett
complete
Mortg
##CEED
Rep
having
indemnification
PROCEED
name
LI
arrangements
tru
regulatory
later
mis
cooper
also
PROCEEDING
##sequent
Partnership
fair
HEREBY
UN
violate
##anty
aud
title
waive
salary
disclose
At
##stance
Interest
##ily
Tra
##roker
underst
concerning
true
##NG
##AA
##paration
Finan
##ring
Chief
meaning
responsib
least
Neither
carry
Member
modification
furnished
prepaid
Group
over
consistent
HERETO
attached
40
##ident
cance
##IGH
interpretation
##ruptcy
litigation
press
assigned
director
##view
two
##IAL
STATE
holder
charges
prohib
periods
ord
##ness
##UN
earlier
Issuer
##ler
operations
fund
equitable
disch
sing
permit
satisfaction
RIGH
##ences
##UMENT
##uture
coverage
Ac
courier
ARIS
subsequent
authoriz
aut
future
file
distrib
##LE
##set
defense
separate
registration
preced
sche
##uses
warranty
##dules
Warrant
00
void
##vernight
Guaranty
##actor
occurred
delay
##ior
##ferred
years
course
Rights
her
waived
Indemnitee
abs
restrictions
acti
##ounting
Perm
##elf
overnight
Comp
consideration
performed
##denture
adequate
practi
##oma
##ist
paragraph
##tes
##erially
covenant
##RES
responsible
deb
exercis
DOC
Se
reports
pres
##mpanies
DOCUMENT
construction
materially
inde
##hibits
##ath
NEW
place
2017
acceler
WH
included
certificate
ARISING
##sement
entered
intent
page
##EM
##lass
##ORK
AP
annual
determination
##omatic
foreign
##vant
YORK
##ular
MAY
harmless
Ben
accrued
hand
##ATED
##ium
possible
ordin
During
LO
last
##ali
automatic
##ording
join
Notes
designated
EN
##ections
must
##ex
Service
##ix
reimburse
Commission
confidentiality
Directors
withhold
copies
vesting
##gn
trust
##IR
##orporated
participation
Gen
##iting
communication
##den
##mbers
JURY
standing
##fficient
lease
Indemnified
grant
position
satisfy
cont
Contr
three
option
boo
adversely
Lic
depos
maintained
free
up
administrative
##gra
conven
Facility
31
render
##FOR
##vile
privile
clause
death
see
company
##tib
anything
##ances
01
PER
hereafter
##tence
##apital
LOAN
Cour
##ultant
benefici
##PRES
applied
existence
##eal
imposed
San
control
##ta
##ared
exceed
timely
##eep
authorization
Reports
providing
##enior
##ars
##acts
##aged
##ession
Claim
review
Grantor
recogn
incorporated
relevant
TRIAL
five
Exhibit
Adv
accounting
##lacement
considered
favor
16
##if
Hol
COURT
acknowledge
automatically
powers
postage
Second
occurrence
General
##vidence
norm
Enti
##ata
##LAI
##LAIM
##ide
##alance
Agreements
letter
therewith
##ligible
businesses
Disc
GAA
GAAP
Other
corporation
##ires
Represent
##ival
On
##roll
supplement
Certi
##actions
preceding
##II
forfe
##see
##vities
commitments
decree
##abl
sufficient
becom
keep
qu
sec
Nothing
via
##DIC
##ously
IR
##SE
##MIT
vested
##als
results
bankruptcy
she
##ss
operation
Form
##withstanding
cost
notwithstanding
proced
em
om
First
OUT
ownership
evidence
activities
Initial
statute
IND
normal
Pled
##ack
continuing
Existing
Transactions
losses
trade
Market
commence
fullest
Certific
RES
administr
books
broker
##nal
injunction
Acqu
##gin
cle
##ial
serve
funds
Dec
##ip
commen
iden
##enue
##olved
Federal
unre
lap
offer
Financial
cancell
base
decision
off
investment
##bted
DE
dele
dates
Permitted
##adings
contro
payroll
Unless
Equity
establ
##ading
located
demands
ordinary
months
practices
vac
successor
By
Holdings
capac
##endar
THERE
prepared
certificates
report
previ
clear
##btedness
venue
##losure
times
avoid
Capital
unp
assignee
real
Consultant
conveni
email
##sements
##used
Related
reimbursement
##olven
##olvency
Assets
CONS
##ical
supersede
##ently
suits
differ
lapse
LL
Administr
##ivers
Trading
next
interpreted
accep
personally
approved
##erve
##posed
member
Certificate
December
sentence
known
efforts
##ood
Letters
returns
underta
disbur
##iving
satisfactor
##tible
limiting
means
##udic
employed
satisfactory
##etary
##ligence
##organization
##REV
Grant
##VES
prevent
regardless
HA
Rec
##oice
calendar
mailed
NOT
##ulting
Subs
notify
audit
Sw
WAIVER
options
invalidity
Distr
prohibited
unpaid
##other
AM
##SUs
##ATING
pat
another
##vail
RIGHT
Deliver
##nia
##very
refl
vacation
perf
Persons
market
Cali
##OCAB
RELATING
IRREV
IRREVOCAB
leg
##fornia
chan
covered
discharge
California
##iscal
409
procedures
extended
penal
creditors
word
others
uncon
filings
stated
Proceed
identi
balance
Servic
capacity
409A
##TED
settlement
##cent
reorganization
publicly
cooperate
IRREVOCABLY
Mar
single
uncondition
none
licenses
Delivery
##cul
##arily
##ators
bear
contains
ten
##fere
Regul
AS
##sc
responsibilities
##ote
##pend
##demark
operate
indemn
Registration
Trustee
Administrator
##law
##ctive
##EG
Amer
##leading
Po
##ending
dire
CLAIM
headings
modify
Payment
div
insolvency
Supp
##ISDIC
Amount
JURISDIC
Americ
JURISDICTION
##ATIONS
##ners
##atures
beli
persons
WAIVES
Court
##ID
misleading
becomes
financing
RESP
convenience
##ority
deal
ev
offi
Ins
Cash
office
Mortgage
can
##ste
currently
Assignment
whom
implied
IT
created
gro
stockholders
##scrow
Interests
LAWS
belie
##PLIC
disbursements
##isite
##ANCE
qualified
Swing
damage
Me
Pr
##ody
sit
indic
guar
##UD
Ow
You
##ational
annivers
prof
determine
conversion
exhibits
doub
Sp
percent
individual
negotiations
heir
closing
HAVE
contracts
max
City
light
una
##fying
recognized
Doll
AGENT
##itions
appoin
Borrowing
meanings
Without
herewith
companies
renewal
##mises
organ
excess
commission
heirs
##quid
preemp
maximum
##cription
increase
te
Arbitr
amendments
Pres
proposed
##vey
acceleration
##ane
##utable
price
unenforceability
engaged
mutually
##ABLE
avoidance
##velo
commer
most
IS
min
##rd
##andard
ALL
com
fun
money
acting
different
consummate
##ause
County
asserted
anniversary
Merger
Conver
doubt
##ural
partic
liable
particular
18
##BL
##cribe
section
##CL
Partner
ph
pled
vest
organizational
##ocket
##ISE
cancellation
requests
Thi
##ST
conclu
APPLIC
ended
##cially
##UL
CONT
reserves
President
Awards
pocket
sc
like
ability
Manager
prosp
associ
Compensation
Disclosure
tri
inf
thirty
unconditionally
advance
members
customary
participate
##utions
##velop
02
fiscal
Inde
acquire
Benef
##ORD
##OVER
contrib
requirement
negotiation
lis
##OW
released
license
ques
Oper
##cts
##gated
##ETHER
executive
unreason
Cor
##essee
injunctive
DIS
##olute
Services
class
protect
##ury
understood
insu
##ict
##WISE
extend
Required
Pay
omission
##raw
##ulti
consult
##elec
Third
Non
##TENT
##idend
acceptable
preparation
OTHERWISE
conting
##ANS
satisfied
absolute
exercisable
bond
ris
##rov
##bran
Days
WHETHER
prevail
need
##cumbran
Statement
advisors
##entive
initial
acts
excluding
Le
##try
owing
GOVER
##udited
confirm
words
GOVERN
TRANS
ENFOR
penalties
rev
merger
##PRESENT
REPRESENT
17
AD
involving
Arbitration
him
telec
##ime
requisite
signatures
op
##stall
creation
Premises
best
untr
eviden
show
Contract
schedules
complied
therefor
193
100
port
approvals
privilege
six
resulting
untrue
sold
District
##tim
convertible
indu
incur
internal
pages
##ACTION
##iron
impair
##viron
Stockholder
acquired
ON
infring
Require
TRANSACTION
preclu
indenture
repayment
##US
defend
Sellers
EXTENT
ACC
telecop
RSUs
##kes
contested
##gram
##df
said
dated
##hen
Price
ITS
##tary
##des
##FF
##ertain
jointly
##IRECT
##vel
itself
##ned
relations
##pendent
##vironmental
##ensed
Ann
SE
partnership
arrangement
##uarter
sales
##ITY
It
loan
##ANT
##ope
##isition
##ducts
SUB
subsection
estate
pdf
##vers
RESPECT
Debt
Off
gross
Escrow
orders
##emption
##not
calcul
assessments
Account
unaudited
previously
seek
indemnity
36
thereon
##eries
Separation
##hing
##olun
understand
organized
scope
Sanctions
GOVERNED
Guarantors
subscribe
APPLICABLE
Tex
Expo
submit
Dollars
##asing
LLC
insured
##tire
##olution
COM
stric
unreasonably
forum
accur
releases
SECTION
##laws
60
##line
##ENDER
disputes
working
liquid
Associ
##onduct
convey
nothing
Fee
##tru
dispar
##isconduct
Texas
ACCORD
choice
Entity
misconduct
references
preclude
ite
##lor
##tern
##land
managers
LENDER
certain
##NOW
negligence
established
##tirement
##TRU
pl
red
##orator
insur
judgments
##yp
discus
addresses
Indebtedness
contingent
Senior
##ECTION
distribution
preemptive
flow
##ruption
ACCORDANCE
caused
2015
might
##co
rest
##umul
clauses
AGREES
Insurance
guarant
sum
occurs
supplemented
Servicer
##END
03
PROV
##ranch
mailing
shareholders
indicated
relationship
materials
limitations
CONSTRU
adjustments
Value
##ys
instit
sets
secre
requires
##ough
transm
soon
representative
remainder
offices
UNDER
Pledg
obligated
Assignee
willful
##ALLY
Debtor
Jun
morator
moratorium
##TIG
sel
adjustment
Owner
us
##ince
Rest
Sale
Conversion
opp
##OL
susp
owns
conclusive
manually
controvers
04
Lessee
##irm
CONTR
restriction
incorporation
Incre
Exposure
great
##yste
obj
indemnified
LITIG
asset
accrue
practic
holders
##tal
##MIN
##raf
##orting
Schedules
preserve
resign
Preferred
promises
None
judic
eligible
##foli
lien
debts
Options
Indenture
decla
commencing
##tail
##OUT
install
tele
listed
##OF
minimum
##AIN
##folio
##DI
partial
finder
dividend
25
Des
##mium
##eti
Transfer
reduction
liens
##urrency
forms
reimbursed
##inion
allow
##prietary
beneficiary
LITIGATION
attemp
common
WITHOUT
reduce
Disability
PERMIT
##IRECTLY
CONSTRUED
Proceeding
includes
BOR
alleg
jurisdictions
prevailing
##ordin
CONTEM
HAS
Knowledge
Rece
06
body
##part
Director
according
fairly
##truct
##ORT
CONN
trial
##oting
involved
##eth
exist
##ROW
Vesting
##EST
Defa
21
Claims
permits
Holders
consummated
management
200
substance
transferred
nam
standard
##omic
trademark
deposit
PERMITTED
charge
consolidation
furnish
Pledgor
mortg
null
replacement
Product
COUN
Optionee
investig
legally
hour
##uro
Stat
announ
exercising
possession
Pat
opinion
Offer
rise
quarter
##up
##fications
call
##iss
Paragraph
severance
##aneous
##unity
Addition
legality
##ATIVE
Office
Action
PR
Notices
patent
LC
##ured
collateral
##conomic
recip
##venue
determines
##iti
##acter
##ERAL
US
Registr
DOCUMENTS
associated
Jan
##ationally
##iring
arise
judicial
Fair
events
##undred
designate
severally
License
pledge
well
makes
character
board
new
##enting
incons
portfolio
##ROWER
Ag
economic
##CC
dispos
independent
circumstance
BORROWER
borrow
deductions
debt
Association
##uary
##ech
revo
Design
##eed
irrepar
Report
forfeited
Euro
##IP
premium
affiliate
##ang
January
##uting
##alu
undertak
##ectus
contra
Representative
executing
TRANSACTIONS
##CON
##mption
recipient
intellectual
##uty
##ecti
##vered
contempor
partners
rendered
CONTEMPL
Perc
##CED
##onus
CONTEMPLATED
duty
##ida
Anti
When
hereinafter
##veness
create
engage
CONTRAC
Ma
Time
election
Incorporation
##ectiveness
Percent
deduction
risks
##hes
increased
nationally
rely
##IL
responsibility
things
served
prepayment
accepted
franch
assert
practicable
draf
develop
##lose
Expenses
submits
##ealth
Registrable
should
Defaulting
flows
about
authorizations
Operating
##urity
annum
##ugh
##lar
##ULL
begin
suffer
detail
profession
hours
##odi
reputable
participations
forfeit
##ught
notes
attention
copyr
properly
obtaining
##aging
administration
Polic
##cumbrances
regular
funding
shown
understands
fid
##uci
sought
Obligor
sitting
FULL
##01
applications
accountants
Released
effectiveness
exercised
March
CLAIMS
senior
##TIONALLY
##ICT
##ASED
Series
multi
##GES
##FI
##ARD
perfect
##ERTI
disability
Wa
ending
Swingline
self
##man
##ister
names
Statements
Placement
four
Equival
ENFORCE
every
tr
typ
conform
causes
executives
##claim
subsidiary
qualification
##umulative
data
##ESS
changes
mortgage
##raud
AMEND
confer
Ext
Assignor
CERTI
Eligible
Title
##dated
##ully
location
cumulative
##rim
decre
COURTS
Al
##QU
net
##limin
Environmental
prospective
##etition
intention
Participants
taking
June
Reci
##pient
##utory
acceptance
##ethod
Recipient
pertain
disclosing
documentation
expire
lie
continued
Supplement
method
inqu
Order
contraven
fiduci
Shareholder
LEG
Sever
##ie
##LED
counterclaim
exclusively
Priority
close
##ION
##EO
Proper
##elve
Warrants
##og
commitment
Benefici
favorable
commercially
irreparable
AR
facts
Unit
waivers
EV
volun
appeal
CONTRACT
From
##sures
transmitted
contemporaneous
FULLEST
Purchased
exists
alter
reporting
twelve
controversy
Join
voting
assist
jury
wire
##gy
##onven
##eng
Articles
LEGAL
American
##fully
##eeting
Princip
greater
er
Companies
inconven
Confidentiality
evidencing
CONNECTION
##chan
appear
compar
since
treat
disposition
lieu
AT
##utors
##sions
##ortunity
Entities
Commer
items
resignation
AMENDMENT
##fies
incident
purpor
##urchase
Asset
former
confirmation
undertakings
MAT
##lus
##TING
Capitalized
rat
##vation
administrators
Additional
retain
actually
portions
omitted
Speci
Waiver
inconvenient
VII
##ral
cooperation
mar
##ciation
Incentive
imposition
Secre
1934
##cement
##ables
commenced
Properties
##olvent
statutory
fails
##ystem
##ror
##from
Exhibits
attach
Fund
TORT
##ivil
fax
fiduciary
Severance
##RED
dom
stockholder
##respon
format
assume
##feree
objection
comparable
Agents
correspon
dischar
alleged
tre
provides
Prosp
Guaranteed
longer
Flor
##estic
total
privileges
Regulation
cannot
##KNOW
second
##UDG
Receiv
JUDG
500
violations
relate
LIB
##grams
Class
##PER
##FIC
periodic
Arrang
Florida
past
equival
poten
Set
##train
##airs
submitted
reflected
accurate
OBL
done
##ied
governing
##ada
EXPRES
##arget
Advis
Prospectus
OBLIG
EXPRESS
executors
government
capitalized
directed
proprietary
admin
acco
access
##changed
Year
fraud
##pte
assum
Septe
September
GU
exa
prohibit
installments
GUAR
fif
comb
intend
Subscription
Cause
Vice
plus
alloc
Retirement
RIGHTS
Members
Work
##aired
conte
owed
substit
changed
telecopy
##reciation
##inal
exce
entirety
insurers
05
50
##acy
Corruption
deems
awards
exchangeable
controll
opportunity
Principal
context
den
operating
UNCON
joint
liquidation
##DITIONALLY
Rules
consequ
whose
COMP
Extension
LIBOR
UNCONDITIONALLY
expressed
America
##jority
##ENCE
receiving
Investors
reduced
JUDGMENT
programs
deem
Percentage
Fore
Contrib
bind
ACKNOW
Counsel
audited
ACKNOWLED
CEO
##ental
Fur
mer
##app
delivering
artic
Assu
According
Attention
##ordinated
Further
these
mutual
Annual
Accordingly
Covered
##aches
status
##AND
##arks
strict
Ret
##IVE
##llary
##cillary
Amended
collection
deduct
posting
Advances
selected
lawful
disclosures
potential
##DF
bylaws
owner
##ROM
advisable
##echn
professional
PDF
therefrom
defa
earned
contractual
trustee
BASED
CA
wee
##lease
impaired
##vocation
singular
pertaining
restrain
CONF
assessable
treated
Line
##jections
signing
breaches
authorizes
90
Current
##fill
##reas
##ana
##TIVE
carri
RELATED
Original
##enty
resolved
##licit
##iry
Payments
El
##tarily
promul
question
never
pros
##pons
##ize
AGAIN
patents
Beneficiary
Secretary
EXPRESSLY
AGAINST
##OING
accounts
terminates
reviewed
declared
promulgated
Broker
meeting
##vested
vii
questions
WO
cease
Obligation
register
FOREG
attempted
FOREGOING
##avor
##AM
withholdings
Approv
STAT
THEREOF
##ULD
bring
monetary
reserved
Foreign
recently
Prior
dev
recover
##CLUD
plural
exemp
Liabilities
refus
Management
confirmed
confirms
authorize
Benefits
Offering
percentage
though
special
covering
FROM
Treas
##current
##zard
##idence
Stre
documented
relied
travel
II
Sign
ful
##AY
##vider
Provider
furtherance
occurring
discussions
Rule
##irable
because
monthly
schedule
##CLUDING
22
##writ
##chie
suc
injury
desirable
Guarantee
WOULD
medi
deed
ensure
taxable
##ISION
entities
relie
Disp
fulfill
##eb
##ecution
Products
relates
refusal
##istered
interfere
chall
OBLIGATIONS
CONFL
succeed
##pr
revocation
indebtedness
Equivalents
SO
sections
initi
concurrent
##cies
Good
Subscri
Requirements
premiums
##TEN
##abor
##agor
else
Mortgagor
Financing
##CLUS
sheet
FIN
bro
ela
INTER
twenty
presently
multip
elap
Lim
lender
##oen
anticip
Incremental
##partment
Subscriber
Flo
ine
secur
modifications
endors
deposited
Sanction
trademarks
##CLUSIVE
ABL
list
##ults
arbitrators
continuation
omit
Whenever
type
##ength
elapsed
achie
##ranche
participant
beginning
equivalent
while
receives
entering
likely
Requirement
##MINIS
ACKNOWLEDGES
Legal
##draw
INTO
inquiry
Nev
ADMINIS
Commercial
Ancillary
establish
##REDIT
Nevada
##eh
##vision
replace
SUIT
customarily
indust
valu
##IV
Exerc
REG
consultants
##FFECT
copyrights
CREDIT
IV
##hec
origin
##alth
Program
specify
acquisition
articles
##mptions
##ousand
##enewal
commercial
Sett
Street
ADMINISTR
length
##tenant
performing
settled
Sanctioned
##encies
##aster
Coven
subp
effectu
effecting
dilig
calculated
##NI
##here
##atural
##ices
priority
country
negotiate
adjusted
redemption
sound
##ICH
delayed
INDU
appoint
instituted
secrets
forfeiture
Sales
Consent
PROVISION
subpoen
INCLUDING
health
##ronting
absence
ENTER
Acquisition
Regulations
phys
inconsistent
COMPAN
##wealth
##edical
Trademark
WHICH
reflect
Benefit
National
##lit
restricted
issuable
previous
SER
hol
##off
##mor
##CI
projections
##teg
Real
##jected
Bankruptcy
Commonwealth
affairs
assumptions
situ
investigations
nonass
prompt
hundred
natural
generality
promise
calls
subpoena
24
##TOR
registr
assignments
BEEN
##ipment
##ised
##formed
Maturity
delegate
sixty
Right
##dul
unvested
expired
setting
publ
secu
tort
##INGS
named
securing
nonassess
products
resolution
Revenue
##TIC
PROPER
Aggregate
franchises
Exercise
nonassessable
##ICE
##enced
instructions
##ehic
Less
struct
product
##tical
annually
seeking
delegated
DISTR
##ternative
holding
Bonus
##ton
##bal
##lient
care
ineffective
Project
forec
remains
Restric
licensed
LLP
error
##tinu
containing
Restatement
succeeding
Settlement
COMPANY
##SON
##EE
##resenting
charter
Licensee
PERSON
restated
DISTRICT
##uration
##tenance
outside
##ific
##PUT
Subtenant
formation
commencement
believes
Lessor
Target
##oy
##BR
requiring
grants
severable
accepts
secure
##GH
instance
authorities
recordation
INDEM
Mortgagee
Designated
relieve
Master
found
Indi
identified
##lin
##UGH
representing
electronically
voluntarily
Receivables
Fronting
Nor
anti
examin
doll
definition
Expiration
##IDED
industry
Renewal
duration
##UM
##ONG
priv
effected
tes
##enn
##employ
integ
projected
##olve
obs
description
financially
##crip
possess
renewed
Advance
infringement
cure
draw
secured
sums
##ublic
affects
##ixed
attachment
rata
retained
continuance
SP
Tranche
##endi
##ters
conditioned
substantive
AMONG
DISPUT
treatment
combination
ADMINISTRATIVE
##lac
##encement
disco
processing
substantial
believe
commissions
discharged
devote
##endix
recent
Commencement
Terms
prohibition
FED
##TC
##hold
illegality
earliest
Licensed
FEDERAL
Fif
##ouse
content
assessment
Patent
MATTER
registrations
emb
diss
insp
effectively
irrevocable
decisions
DIRECTLY
incap
impro
adjudic
offering
##UAL
incentive
replac
prim
Internal
Appendix
Representatives
INDIRECTLY
##rovements
Plans
indemnifying
APP
##ilding
Limited
diligently
Min
UCC
aw
system
##ked
requesting
surv
Acquired
IP
##minated
maintenance
##empor
Treasury
07
##tof
##back
##USE
##erted
arises
perman
##ave
Register
loans
Restated
defaults
effectuate
##tofore
##ANTOR
teleph
MUT
##lements
##dian
Under
similarly
practice
EVENT
tempor
Depos
declar
PRIN
improper
##lain
##yn
attrib
split
Loss
Rent
##ari
proof
occup
##soli
converted
Cop
encumbrances
deliveries
repay
invoice
partner
managed
conveyance
##morand
ce
firm
employer
WAIVE
contribution
corresponding
##ehicle
42
Mon
##olo
produ
respectively
truth
Advisor
##ponsor
III
deri
##yond
beyond
area
referenced
invalidate
Eng
incidental
##CIPL
PRINCIPL
##national
pror
participating
qualify
disparage
situated
##solidated
28
##ECTIVE
Origin
dealing
assuming
Elect
REGARD
##ues
##ets
##NE
##vity
##utation
##agement
manif
warrant
Appreciation
Accru
protection
##UNDER
purported
##BIT
Sublease
notified
forever
injunctions
protest
PROVIDED
Deposit
ra
##EK
THEIR
offset
SEEK
announcement
unchanged
Reason
computed
invo
remit
2014
##duled
SAR
##doll
withdraw
constituting
Bylaws
##dollar
group
nine
##ROUGH
completed
support
360
revoke
ATTOR
##NEY
ATTORNEY
Currency
##inqu
Instru
carrying
omits
PRINCIPLES
Outs
fo
##irt
arm
level
reliance
Organization
CERTIFI
Dispute
Accrued
ina
program
##ilit
##ASE
several
omissions
29
MAN
##olly
Partners
advisor
##ocial
appointed
08
Ite
##teen
inserted
Short
lev
restrict
1933
disparaging
challen
aware
Corporate
##50
summ
ascribed
##portion
statutes
enforcing
Servicing
Assumption
Ju
elimin
##ling
##thern
aside
##ulent
Reserve
##comp
fraudulent
es
setoff
##ady
diligence
undertaking
domestic
temporary
Bo
facility
meas
surr
##FICATIONS
foot
BROUGH
Fil
##MPL
##uter
Thousand
represented
Investment
shareholder
Accounts
Eurodollar
Policies
weeks
surrender
BROUGHT
After
dil
scrip
##sign
##ention
##mple
confidence
Fees
virt
collect
Managing
Solvent
pred
##right
resc
enc
consistently
CAUSE
May
Sponsor
specifying
ASS
believed
evidenced
##appro
##oyal
Electronic
July
Apr
Sur
Consolidated
able
Department
purchases
activity
beneficiaries
exempt
April
##ich
##payment
sue
2018
Representations
ENFORCED
##issible
Policy
restraining
Four
Mass
##DA
adop
##izations
direction
REPRESENTED
dividends
23
Cana
Ter
##NER
Standard
trading
awarded
positions
brokerage
WAIVERS
ISSU
guarantee
COUNTER
structure
attributable
gender
##uf
##liance
##lying
therefore
compens
##andatory
extensions
##stead
##notes
Specified
footnotes
Ha
vote
##uid
##udi
##atis
##kers
##CA
##ential
##ready
##inance
Buyers
DEL
administered
virtue
##ufact
##uage
##ony
unk
note
Subland
reputation
sour
##nown
implement
already
superseded
Pledge
##anguage
Return
integr
Copy
Canadian
advice
Creditor
RELE
UNIT
suffered
prosecution
anticipated
##ificant
##morandum
Originator
manifest
unknown
Sublandlord
throughout
WILL
##cumbrance
Leases
SUBMIT
quarterly
conformity
WAY
et
language
##tts
entry
##ibility
Licens
Distrib
##aneously
exemption
assignable
##usetts
recovery
sheets
Joinder
##signed
chec
rating
Subordinated
recording
Suite
carried
multiple
physical
CH
##ores
##PT
orally
##achusetts
Banks
seven
Repurchase
##UNT
Grantors
Lead
Massachusetts
Multi
fe
ste
##GE
retirement
breached
Indemnitor
REPRESENTATIVE
STATES
originally
SERV
UNITED
##fers
##att
unable
deliverable
##ritory
completion
Contracts
borrowing
VI
##ino
respon
facilit
Building
Chair
Shareholders
##rimination
ratably
DISPUTE
PUR
##ug
majority
relative
SECUR
precedent
##tructuring
contravention
##echnolo
vehicle
##ric
##ne
##RIT
##FTER
appell
solicit
preferred
county
immediate
##mbership
affiliated
dollars
dissolution
inadequate
appellate
Fun
crim
##75
transferee
##ARI
manager
comments
Car
af
listing
remo
designed
subsequently
deno
permanent
AAA
Custom
Penn
my
marks
##ps
approve
import
resulted
CERTIFIES
##RITTEN
ARE
She
undersigned
Continu
HEREUNDER
availability
acknowledg
contest
appoints
risk
Annex
MUTUAL
Imm
civil
##aily
##gation
##DE
THINGS
##udge
acknowledged
Encumbrances
Consulting
cancel
Courts
One
estim
bu
Costs
##lobal
##cluded
deducted
Contractor
using
contravene
Floor
INDUCED
Fifth
Client
Net
##the
##isitions
whereby
197
KNOW
##CLAIM
202
Issuers
restrictive
sooner
Increase
##appropri
adopted
##oresaid
aforesaid
Mr
##nel
##lv
unf
heard
purchased
International
designee
separation
scheduled
contributions
##liminary
Chairman
Hundred
Your
pass
##tili
##andon
Transition
Mortgaged
shor
defici
heretofore
##ORY
necessity
abandon
controlling
##SO
incurr
distributions
announced
Licensor
social
##igu
transfers
prej
##inancing
development
criminal
HE
##ob
knowing
absent
##timony
drafting
marke
Arranger
intends
private
testimony
check
Civil
rul
##quali
submission
repurchase
waiving
finally
facilities
##vidual
AGREEMENTS
EXEC
accelerate
redee
CERTIFICATIONS
assistance
##zardous
Individual
EFFECT
cas
vari
yet
##ump
##isten
##ays
##igger
environmental
issuing
noncomp
Develop
CONSENT
45
Feb
Imp
did
##bigu
##CP
proportion
##utor
##ruary
simult
fam
prepare
deduc
letters
Maker
Penns
February
26
VOL
venture
purchas
inconsisten
incapable
Funding
Ill
##OY
##ancy
unused
lawsu
gives
determining
presentment
1401
Losses
VOLUNT
EMPL
UP
##raction
##Co
interim
##ventory
Prot
THEREBY
Alternative
##employer
EMPLOY
##na
##dent
##ines
THAN
##ANTY
Withhol
Margin
FINAL
SUBMITS
##attan
Global
bonus
##ober
##hattan
granting
locations
committee
Manhattan
investments
Covenants
Aug
WAR
bill
permissible
official
Deed
##ources
Indemnitees
customers
VIII
August
guid
lay
##ists
read
Coll
finance
##IGN
##TERMIN
DETERMIN
PROPERTY
obser
ninety
dilution
casual
CF
Follow
mas
medical
##SS
##lies
deferred
##statement
enable
invalidating
follows
managing
ordinance
perfection
item
appointment
Following
fre
encumbrance
ambigu
becoming
telecopier
However
Ph
lump
##son
Counter
distribute
merged
inconsistency
Pension
fraction
##itive
##UC
##UE
formed
life
Conditions
serving
##CEPT
charged
levi
leave
Char
LIMIT
misappropri
profits
published
contents
Based
GEN
fixed
lack
rent
##ylv
anyone
##acc
Inven
insist
recorded
Assigned
prorated
Outstanding
##ARILY
levied
##ylvan
lo
##iform
informed
limits
Att
perfected
penalty
Multiemployer
##inois
Pennsylvan
Illinois
Pennsylvania
Quali
SIT
str
##val
manage
Transferee
updated
Proceeds
Memorandum
365
Patents
bon
##where
##SA
##pts
forward
##unded
Excluded
complain
##ENS
198
marketable
text
infringe
drafted
COUNTERCLAIM
rates
utili
pursue
instrumental
operated
Defer
REIT
leasehold
##FORM
phr
##angible
margin
Approvals
predecess
VOLUNTARILY
Withholding
##rain
##02
##PRE
##sual
defenses
acquires
earn
MADE
investors
plac
##ILI
steps
shorter
knowingly
WARR
Div
eigh
hear
vers
asp
notification
FORUM
preser
Corp
secret
ARTIC
appealable
GUARANTOR
controlled
##yndic
Fourth
Oct
Sou
cases
##ace
Color
Stockholders
##ORS
Materials
contractors
relying
##ograph
laying
SITTING
ARTICLE
Southern
09
Balance
##amp
##aper
parent
consulting
Review
personnel
added
wholly
advances
maintains
franchise
Avenue
Use
##orough
##mptly
##asion
##loc
Promptly
impose
leases
reservation
methods
October
OP
Obligors
capitalization
holds
beneficial
Post
COUNTY
Approval
PROVISIONS
Customer
Dom
REC
RSU
##more
##ington
enj
payee
##ado
insurer
##echnology
escrow
##ok
##RING
consists
adver
afford
delinqu
distributed
declare
closely
adjudication
Colorado
Lending
determinations
relation
Pledged
CONFLIC
North
Hazardous
denominated
##theless
41
even
ge
##urances
provider
failed
prepay
calculation
developed
primary
declaration
truthful
DETERMINED
27
Gro
WRITTEN
sti
##aterial
ende
##ords
maturity
assurances
claiming
captions
followed
originals
assessed
ground
exception
SERVICE
redeem
utiliz
Ear
##WE
##entions
assigning
violates
Accounting
ENFORCEMENT
allocation
INDEMNI
49
##lish
instead
##antom
compr
returned
convert
trustees
indemnities
ARBIT
CONFLICT
casualty
advertis
ARBITR
Tw
national
occasion
COLL
Funds
administer
levies
instrumentality
CONFLICTS
He
inventions
purchasing
recoup
customer
presu
Acquir
##culine
INTERPRE
Items
Copyright
UPON
masculine
Avail
##VEN
##art
##ick
##illion
##endit
##ferences
##demnation
Liability
misstatement
absolutely
revoked
consequences
foreclosure
Development
Domestic
series
##aff
##iqu
##vement
##urate
exc
2013
individuals
allowed
embodi
Underwrit
MANNER
Surv
bar
holid
##sey
ado
##THING
equally
breaching
Disbur
Support
Contractual
portable
SET
GUARANTY
telephone
abandoned
##qualified
noncompliance
Jer
##credit
##JECT
##vember
##minine
November
materiality
Income
continues
144
auditors
feminine
##creditor
NON
##upon
##URE
stay
repaid
##INGLY
lists
nevertheless
inspection
marketing
La
Ohi
daily
how
##ield
##zation
proc
defer
unlaw
seq
##ystems
Joint
##oyalty
geograph
endeavor
Ohio
chief
num
##orrect
incorrect
refrain
identity
180
##udice
prejudice
recoupment
Acquiror
Borough
##ole
##ging
##MS
matured
elects
Releasees
paragraphs
accordingly
Arrangers
Furthermore
Standards
Jersey
Labor
Rata
ess
pru
##RA
##aring
Ref
discon
certification
designation
interpretations
rendering
showing
incurs
media
Restrictive
surviving
unfavor
##gies
##itness
##cements
##uman
preliminary
Employees
PERFORM
Dollar
Convertible
SUBJECT
guarantor
source
deficiency
frequ
##ltim
##AFTER
##orne
##abled
arre
Proprietary
##ICA
altered
BET
accelerated
exceeds
transmit
attempt
furnishing
Majority
##FIED
elsewhere
ceases
Returns
simultaneously
33
Bro
LE
rental
ultim
##FER
prove
depart
subdi
obligate
equipment
meet
HEREAFTER
##self
Authorities
cancelled
DEF
association
strictly
broad
discovery
ruling
##WEEN
unlawful
unfavorable
BETWEEN
Either
Fiscal
GIV
im
##EX
##acted
##ordination
INC
EXCLUSIVE
NOW
discussed
standards
challenges
integrated
prudent
##ris
anal
lawfully
manufact
HEREOF
##certain
suspension
decrees
family
Dividend
subdivision
Back
Final
##EL
##ower
defending
issues
view
spouse
improvements
successive
Noteholder
credited
Indemnification
offers
Pool
fifteen
Organizational
JAM
Mary
consultant
computing
competition
##ference
NOTHING
FORTH
Facilities
identification
trigger
deriv
KNOWINGLY
HEARD
BRING
experi
doing
##itals
supplements
NEG
copyright
Reviewer
arrears
JAMS
Maryland
OTC
Public
subordinated
Selling
Uniform
##troll
Indemnifying
comment
accuracy
correspond
response
PSUs
##mer
##charge
expires
some
##earch
convenient
accepting
inducement
ple
##currency
##CESS
##ater
consecutive
ORAL
taxing
Intercreditor
##ota
Debenture
assumed
assumption
functions
pledged
controversies
##issory
##naire
enjoin
Sa
sm
veri
##ME
Inventory
files
dispose
increases
Permits
##tibles
investigative
brokers
withdrawal
##rong
##vance
Controll
REQU
##ECTED
Records
comes
open
called
consequence
deductibles
##enditures
Cent
System
lending
sk
##bun
##fin
##EES
##lier
##iche
##acti
comprom
involun
addres
Resources
HEREIN
##apers
Country
domain
departure
Well
flo
ver
##SP
inacc
##ather
##itholder
paying
##ANK
199
contribute
oppos
opinions
MATER
substitute
concurrently
APPE
Minn
AB
##DUC
connected
Should
Unitholder
leased
##UTED
RESPECTIVE
decrease
aspect
MATERIAL
BANK
ke
##ak
accumul
recapital
assignees
PROCESS
162
reflecting
liquidated
Junior
Signatures
GENERAL
##bunal
kept
Modi
##IED
##WI
##onic
##reg
##rep
##enth
##ina
##orld
inoper
super
extr
##verage
reset
subro
##orporations
EXCEPT
Total
placement
Eurocurrency
assumes
Inventions
DAM
borne
mach
ter
##bear
insure
THEORY
lead
lesser
sells
401
rati
inoperative
DAMA
DEM
adequ
witness
##pted
##irc
applicability
##ensurate
##tending
involve
commensurate
Transferred
##ustodi
Matters
2019
alone
creditor
120
ACTIONS
Discharge
recognition
Practi
drawn
invoices
predecessors
procure
DEMAND
Di
Health
NY
Pur
wrong
##onor
##ined
##ale
units
##quar
resolve
##resp
underwrit
appra
applies
stop
Participating
##umbered
CONCLUSIVE
refund
Within
prescribed
Proceedings
Spin
needs
EVID
voluntary
Counterpar
GIVING
small
Bas
VEN
##rid
##gen
##plic
##itor
Proced
writings
invalidated
2010
accruing
preempted
Transferor
##ILITY
Wh
##argo
come
active
appreciation
##ligibility
exper
##oftw
duplic
##THERN
entitle
negative
##inances
advised
Equipment
ordinances
decreased
alteration
examination
Territory
removal
derivative
addressee
Wells
##WITH
##oftware
Five
dim
labor
##mpanied
underlying
##medi
##IND
significant
expression
Chan
CONTRO
restatement
appearing
accompanied
accumulated
ever
##cting
##just
##esota
conferred
forty
##venth
fines
whiche
forma
AGREE
receipts
maintaining
banker
DEAL
organizations
allocated
rescin
frequently
Minnesota
VENUE
whichever
AFF
ABR
Data
Fran
PB
Ques
##tionnaire
delivers
entirely
unconditional
Prime
profit
viii
occupancy
Refinancing
dimin
rescinded
Questionnaire
Ge
Hed
IX
mark
tender
##ism
##active
receiver
charitable
excluded
seeks
beneficially
offered
suspend
250
valuation
wages
##atever
##eria
agencies
save
consented
whatever
describ
elected
Regulatory
regularly
week
##ricted
lawsuit
observance
machine
##ustodian
Key
Port
back
##IVER
##itles
##state
##stricted
Add
forthwith
##riteria
definitions
Investments
subsections
JURISDICTIONS
tribunal
Debtors
Covenant
replaces
incurring
purchaser
correspondence
apprais
##lation
##SY
##let
REFER
neuter
immaterial
Events
COURSE
promote
mutatis
indefin
##SEL
summary
ASSIGN
fractional
delinquent
##respective
EVIDENCE
indefinite
AFFECT
Fargo
Medical
##onoun
##organ
short
##astern
Exce
Install
##titution
pronoun
head
196
division
prospects
##ternate
INDEMN
CHO
EXECUTED
Improvements
earnings
Disbursement
Body
si
##urer
assure
nomin
##tries
timing
##tainment
##venues
violated
##AIL
along
Releas
##UND
Accept
book
COMM
COUNSEL
Equivalent
accomp
lenders
replaced
##ique
EQU
Finance
Ho
Judg
Max
Vir
paper
sending
##vis
once
issuer
##andis
prin
instructed
engagement
mutandis
THERETO
dealings
SOU
achieve
DELIVER
strate
Virgin
Human
Quarter
Vested
##over
##itially
##IOR
##GC
instances
rein
retro
conce
mature
Participation
owners
nonp
irrespective
leasing
##LLER
presented
Consenting
reserve
canceled
identifying
guaranty
SELLER
select
greatest
Special
endorsements
SECURITY
##bearance
Installment
32
Six
currency
restructuring
##osen
defam
Amounts
##ARE
takes
communicated
acquiring
##contr
latest
settle
Payee
consultation
passage
guidance
hearing
ARBITRATION
SOUTHERN
mandatory
##lack
uns
unique
expenditures
vice
interpreting
traded
##LLATE
##ABILITY
advisory
banking
Distribution
Protection
APPELLATE
Basic
35
Mo
##mmod
disposed
counterparty
useful
##cery
Facsimile
deposits
publish
solicitation
Attn
##VENI
recapitalization
Chancery
Eastern
GR
der
##ken
prox
##ided
##license
stamp
protected
undertake
evalu
achievement
providers
excise
##quarters
indefinitely
papers
##bers
##RI
##HIP
initially
##lief
##stain
parts
Relief
##tentions
##ARY
communicate
institution
discharges
fifth
AFFILI
Virginia
nonpublic
Out
Ro
Ste
eligibility
##ics
##olina
##del
Adjust
prepar
discrimination
spin
membership
discretionary
corre
Receivable
fulfillment
eliminate
Filing
##yndication
Modification
software
web
##mn
disse
Affiliated
arbitral
complies
COBR
separately
Agency
Carolina
analys
skill
subrogation
COBRA
FUR
##OS
##EVER
Int
protective
##FORE
conveniens
NOTE
Operative
Instrument
facilitating
inaccur
headquarters
CL
Gather
Mandatory
Since
VAL
West
gain
pun
##EA
##org
reformed
revenues
condemnation
exhibit
noted
##irms
##outh
##resentation
Employers
##elines
##ediately
faithfully
ITSEL
relationships
appears
invoic
Immediately
complaint
flood
Judgment
ITSELF
Black
LTI
MO
bad
techn
titles
##ha
##jun
exchanged
propos
##own
claimed
signs
poli
Prepayment
workers
misrep
legis
tenant
uses
suspending
CONNECTED
fifty
##entioned
CONTROVER
retroactive
DIP
Red
corporations
petition
##ii
##VING
##ries
computer
executes
quot
phantom
##irmation
ratable
Contribution
measures
Filings
CONSENTS
numbers
Practices
simple
derog
Fail
Mich
Technology
Where
cured
lend
sustain
retention
OFAC
prices
releasing
##ott
investor
Acquisitions
identical
APPLICATION
accommod
Contributions
deeds
initiated
produce
Two
triggered
DAMAGES
wrongful
CHOICE
Aut
Bri
CASE
Ener
Gre
hig
systems
##POR
inform
##lim
##ders
respecting
compell
INV
alternative
collected
##SEQU
dealt
##ULES
substitution
INDUCE
APPLY
advertising
presumption
INTERPRETED
##DUCT
PBGC
Maximum
FURTHER
political
CONTROVERSY
Failure
South
fire
nd
sw
##OG
##IES
##11
##orage
motion
Litigation
advise
##feas
##ULT
LENDERS
USA
SARs
Continuation
afforded
quotation
75
BUT
home
##otion
##zon
remove
participants
##ideration
refinance
RELATIONS
Marke
buy
INDEMNIT
misrepresentation
IM
##ame
##orted
##urse
##ley
residence
proving
subcontr
recitals
repair
employs
Conn
##ATES
remarks
Deal
complying
##ferees
##STAND
366
##itization
PROPERTIES
LIMITATION
versa
embodies
essential
EQUITY
invoiced
400
sick
target
##jects
##UDIC
##ero
##utations
##endum
advan
Enter
presentation
PRIOR
telephonic
holidays
So
dental
pension
size
##will
##cor
##ble
##CO
sure
hazard
##uston
Leaseback
recourse
Holding
Membership
Additionally
Alternate
endorsement
##lined
surrendered
compensate
acknowledgment
ambiguity
Qualified
describing
Houston
Bond
Estate
KIND
OB
##din
##pul
##15
sharing
These
Execution
disreg
terminations
Prof
##ATERAL
##vided
PART
Noteholders
accountant
acquisitions
independ
unrelated
Independent
guarantees
types
substituted
fulfilled
facilitate
RELATIONSHIP
RULES
air
criteria
emp
million
tif
##AG
respond
defects
EXIS
supplemental
administrator
prospectus
detailed
valuable
Trademarks
Sheet
bonuses
COLLATERAL
derogatory
Can
UK
Ver
hire
lod
##PM
##30
thereupon
disabled
affirm
##AWARE
Indemnity
qualifications
suspended
Depositor
DELAWARE
Georg
Energy
independently
Georgia
300
Ari
Wash
bi
bur
##lay
##inder
##ayer
##stone
##antage
##tel
dish
References
interruption
entitlement
CONSU
REM
##apter
disputed
Ordin
completely
indefeas
stricken
##ypot
excepted
possesses
various
EMPLOYEE
412
INDUCEMENT
Ordinary
FCP
gra
hypot
##au
##da
##arb
writs
INS
abatement
Liquid
Restructuring
Tenn
Consents
Consideration
annualized
controls
installment
example
1986
phrase
grounds
INDEMNIFIED
geographic
Green
FCPA
hypothec
PL
Rating
##mat
##amental
##ERS
##port
Appro
Authorized
1402
funded
##enging
Extensions
challenging
preservation
preparing
compelled
Tennessee
Bi
CB
ED
SN
our
usual
world
##lf
##LT
##JECTION
##entures
conjun
##igan
Park
states
transition
##orship
consummating
saleable
406
Licenses
sufficiently
Fundamental
Significant
INTERN
stipul
plead
##ridge
Washington
Age
DO
DES
PO
TER
doc
late
##edic
##ans
##suant
premises
Produ
Resolution
refunded
Disabilities
discuss
Orders
RELEASED
##udget
Pursuant
Hedge
accomplish
webs
Hold
LP
client
hinder
##ins
prob
##icing
depend
safe
attend
severed
upd
legate
minim
unreasonable
usage
Americans
rather
mediation
physic
elimination
Availability
adopt
extra
conjunction
Voting
cri
##zz
##orti
##ishes
novation
goodwill
Issuance
processes
corruption
delegation
##IDITY
bonds
himself
##ordinary
boards
##ESSORS
Supplemental
prosec
Flood
observe
MATTERS
SECURED
Postal
4975
Addendum
Michigan
Dealer
EXISTING
37
Dri
Fam
clar
##mark
##LIG
##HI
sublease
renewals
Discrimination
Corrupt
counterclaims
SPEC
Instruments
Underwritten
NEGLIG
INTERNAL
Family
OW
##net
##ross
inclusive
##arded
Creditors
issuances
##ATOR
desires
describe
contractor
succession
Governors
generated
Express
increasing
MAK
##ealable
scan
Designation
Month
derived
ISSUER
Charges
utilized
opening
LTIP
OBJECTION
Be
Cal
Custodian
age
met
tear
##oted
reaff
department
##acks
##ago
signatory
##lessee
transferor
##EMENTS
advantage
001
##elfare
Comply
debtor
Institution
inducements
Associate
##etitive
##idav
bringing
##employment
summons
Deferred
WARRAN
Redemption
advanced
surety
doctr
Full
LOC
Secur
Te
average
mess
san
wear
##ITHER
##xim
##10
##VED
##ectives
##icago
consisting
##ffected
##iree
##ENE
##ENSE
INTEN
insolvent
approxim
supporting
procedure
Acquiree
fourth
##rorism
Advisory
territory
Acceptance
punitive
swap
FICA
Up
ix
##13
##LESS
exha
##tri
computations
define
Goals
exclude
contact
deleted
Supply
Supplier
guaranteed
Percentages
FINRA
dishonor
Approved
extraordinary
FL
JV
Omn
aid
##ification
##IB
##40
##anel
intentions
##acting
##dily
##using
notifies
assurance
Provided
became
accrual
effort
IRS
capacities
ADEA
telex
testi
phrases
##zona
Arizona
Qu
##eer
##tieth
acted
explicit
servic
##ANC
nonapp
##ffici
Chapter
Managers
Operator
1000
212
professionals
combined
exceptions
Retention
encumber
ASSER
misappropriation
comprising
Headings
Survival
experience
Sixth
AFFILIATES
VALIDITY
legislation
INTENTIONALLY
nonappealable
48
77
Ell
FIL
GP
HOL
Wil
##oking
##SC
##SR
##IE
##cumbered
##essation
stating
##ofar
##uality
##ibus
participated
Chicago
continuously
EXP
selling
Commissioners
identifies
advancement
suspected
bills
ambiguities
looking
discontinu
image
verbal
adequately
Counterparty
DELIVERED
GRANTOR
INVOL
disregarded
Versu
##fficiency
Foun
IF
Jo
Mer
Rock
dies
vend
##iries
##OT
##99
##ky
##gree
##iggy
##olver
entries
##paragraph
preven
Condition
abide
audits
THEREIN
Owned
impairment
SUBSEQU
institute
##raft
telegram
inquiries
merge
primarily
NEGLIGENCE
SUBSEQUENT
GSO
JPM
Main
Top
auth
mental
##ones
thousand
reti
##aining
##anta
##ounded
reasons
##TIT
cho
certifying
successful
101
Defin
##unicip
publicity
SUCC
affidav
enterpr
reducing
postpon
asserting
PROCEEDINGS
Seventh
ADD
telecopied
Commerce
initiate
1974
Controlled
Frank
##VENIENT
doctrine
Omnibus
##unicipal
62
Ta
municipal
solvent
##ixt
##pe
##urisdic
##lients
ascertain
unit
Provision
##bery
insofar
Unre
nonpayment
2012
COP
conducting
ACT
reimbursements
Forbearance
diffic
Expense
allowance
##echan
Contributor
valued
discovered
embody
OPP
experts
Securitization
sanctions
FI
PF
Put
##rodu
##alloc
##ulted
##acity
##olutions
transferees
reprodu
##izes
causing
commences
instruct
##atories
End
Releasing
licens
ends
Therefore
##SUANT
promissory
DEAC
bearing
purporting
survival
Item
##atisfied
PURCH
PURSUANT
Deferral
places
Ground
compromise
Road
MODI
probable
##iggyback
##urisdiction
difficult
Bloc
Eigh
MAIL
Rod
Royalty
mere
mechan
##way
##incial
##atch
##idents
sublet
Stand
reported
invol
defect
INCON
chosen
Enforce
certifications
refused
subscription
effects
Manufact
banks
Request
Trade
##RESS
##seeable
tenants
telef
undertaken
intentional
Money
levy
incurrence
ultimately
Blackstone
technical
Jurisdiction
Piggyback
##ren
##ati
##ian
##roy
##utral
research
##erior
Reimbur
Respons
arbitrate
transferable
Optional
Relevant
illness
accruals
150
clearing
clearly
Administration
Leased
accurately
##AINED
Assumed
multiplied
production
estimated
2020
administering
Surviving
deferral
##mediary
subcontract
affirmative
REMED
legatees
Versus
preventing
59
CD
DIRECT
FAT
city
half
land
line
role
##oto
##long
belong
sufficiency
Comb
extending
provincial
##tinue
##lue
##tholder
instruction
desire
impact
2011
monies
seal
BEFORE
obtainable
engaging
Requisite
##UNITY
authorizing
exceeding
recognize
Subsection
conveyances
initio
challenge
version
RECOG
PERFORMANCE
ultimate
Center
diminish
REFERENCE
SUCCESSORS
ADDRESS
INCONVENIENT
Responsible
FATCA
RECOGNI
600
85
87
Aud
Gold
XI
ali
cessation
judge
put
panel
ren
##PAR
##alse
und
unemployment
##ford
ener
pricing
CONDUCT
Documentation
SUP
##selves
Registered
possibility
themselves
Dispos
satisfying
freely
Claimholders
legend
pledges
SECTIONS
Paragraphs
consequential
adjudicated
Both
rescission
compensated
EXECU
##ENSES
divisions
proxy
Budget
Draw
Fid
Mail
clients
##ipt
##hest
##onci
##eness
reverse
provis
storage
subordination
##undering
constituted
mails
formal
Interim
refinancing
recognizes
objections
practical
1977
prepayments
discontinue
ASSIGNS
unsatisfied
inaccuracy
Auto
LOCATED
explicitly
Unrestricted
RECOGNITION
55
Ox
Prom
TI
TEX
dest
false
rated
send
vary
##opp
##VP
##20
##UP
ongoing
repairs
transact
pursuing
##elity
##termination
certifies
##oint
cancellations
delete
realized
insufficient
contingencies
achieved
Restriction
dollar
still
Available
##ircraft
Gatherer
##limit
website
SPECI
COPY
Cy
HC
Los
Long
Number
royalty
welfare
##TTER
unex
uncertain
##geles
##mmend
THEM
Angeles
##criptions
agreeing
decided
histor
documentary
continuous
Equal
Confirmation
knows
works
revised
REPRESENTATIONS
naming
##issan
Extended
equivalents
forecas
sources
estimates
LETTER
involuntary
Procedures
Exceptions
defamatory
disseminated
proposals
grace
TEXAS
destroy
Bill
Cle
DATE
Har
ICA
Meeting
Nas
fixt
zero
##wide
##funded
##pired
##GAR
##onent
##ison
cond
Sublimit
##osp
litig
##tics
exercises
contracting
whenever
monitor
sentences
Success
suitable
negotiated
DEEM
##otel
needed
STATUT
Disputes
Restrictions
##linical
##SOEVER
Charter
adoption
involuntarily
INDEMNITEE
##daq
##matured
DESC
Drive
SUPPL
proviso
Nasdaq
34
38
EITHER
Gas
Loc
Rents
Uta
down
job
tangible
##mentioned
##rors
##hn
##gement
##Gen
##25
##inn
realloc
enacted
##tees
pays
##lause
##osition
disclaim
##lessor
Shared
appropriately
collecting
Government
Revolver
Warrantholder
relinqu
promotion
ARISE
##ordinate
Receipt
Election
lawsuits
placed
eighth
RECE
opposite
EDGAR
Producer
approximately
authorship
DEEMED
Utah
Ab
Due
Es
Tr
Tri
afore
civ
pas
table
##bank
##HL
##encing
thing
noon
##range
additions
##uthorized
construe
principle
indemnifies
PARTIC
annex
neutral
##adline
Authorizations
302
Replacement
disbursement
dealer
secrecy
UNDERSTAND
alleging
Designations
errors
ceased
RELEASE
responding
Shelf
PERFORMED
weekly
Wherever
Canada
dependents
aforementioned
TEN
Wall
fault
vis
##wood
##IDER
##UY
##ze
##stop
entail
Sublessor
inclusion
##ivable
Rem
##ureau
signatories
destru
construing
violating
face
decide
Officers
entertainment
Disclosing
quoted
CONSIDER
Space
Nonqualified
investigating
irreparably
meetings
incapacity
English
purchasers
verification
underwriters
destruction
BUY
ML
Mis
PM
Pier
fring
technology
##menting
##OSE
##pet
##ering
##alo
##orth
##ites
degree
##rand
##forfe
compul
perpet
terminating
goals
constitu
##ATSOEVER
##tility
wherever
enters
concern
Permit
WHATSOEVER
contesting
##ackage
Insolvency
calculating
mortgages
carrier
Treasurer
enterprise
PFG
Promissory
fringe
66
Dam
Million
PAT
Tys
har
tenth
##lations
##IRE
##AD
##MM
##FY
##rehen
##une
hereon
##rug
amending
Substances
compel
ORIG
foreseeable
##ALI
nonforfe
HEREWITH
assertion
cooperating
Compliance
handle
Certificates
induce
disparagement
SOUND
PERSONAL
##ILITIES
DEALINGS
accommodation
safety
##rehensive
ORIGIN
nonforfeitable
SOUNDING
64
83
Ci
Cap
DS
Fixed
Shi
##payer
##KE
##enger
##liers
theretofore
Subsequent
receivers
##vings
operates
coverages
designs
Governing
##raphic
refers
##TRUMENT
realization
unauthorized
Leave
conclusively
Receiving
Indiana
implementation
Early
Brokers
DEALING
printing
analysis
INSTRUMENT
EXPENSES
entails
Tyson
80
EFF
LIC
NAS
near
##gency
##CTION
##PC
##anes
##ectic
subparagraph
admission
expect
areas
Sublessee
Reference
Until
injur
acquies
principals
obtains
suppliers
amends
Competition
##timate
objectives
denied
Contributed
anticipate
examinations
produced
measured
##oyalties
Distributor
guidelines
manufacture
duplicate
retroactively
highest
Connectic
WARRANTIES
messenger
PURCHAS
Combination
condensed
Connecticut
Actions
AFTER
Cre
Nissan
Oil
TA
clos
##tter
##rights
##war
##inding
##isen
resale
Instead
Subordination
dissim
##TIAL
permission
Unen
owning
##amble
##onsin
Sup
Application
occurrences
accelerations
AGENTS
selection
2002
announcements
Europe
Northern
inspect
truthfully
##ECTIVELY
Terrorism
genders
Copyrights
RELEAS
removed
Qualifying
barg
viewed
strategies
update
John
forecasts
dissimilar
Aff
CALI
FUT
ILL
PTO
branch
peer
##mington
##cle
##gic
##int
##inter
##liation
detri
unaware
##riot
payables
##though
Start
arisen
##templated
Consu
finding
qualifying
##FORNI
##SETS
DEB
infringements
restates
Patriot
faxed
CAUS
endorsed
Outside
measure
etc
WARRANT
Gross
Procedure
Releasor
Adjustment
exhaust
Provisions
European
CALIFORNI
CALIFORNIA
65
750
JUDIC
SW
puts
syndication
##OIS
##OTHER
##STS
##ft
##AGE
##eration
often
##liquid
##dee
adm
reclass
Relations
Three
assignor
Cont
fine
##clusive
COSTS
Super
creating
##ABILITIES
Releasee
SHO
settlements
LIABILITIES
WHO
APA
depositions
undertakes
divul
restate
2007
borrowed
mortgagee
attachments
devise
estimate
Earned
holiday
geographical
Quarterly
Holdco
minimize
Wilmington
OPPORT
BUYER
receivership
JUDICIAL
##liquidated
Awar
Bra
Circ
FO
Mc
Op
Sarb
Wal
Whi
far
##writing
##OVE
##bo
##60
##tiff
intro
reve
##herence
##igital
##ilest
sublicense
object
transport
ANOTHER
connote
defraud
find
manual
transferring
Determination
Grants
##AID
reimburs
recordable
intangible
##istle
Former
HAD
licensees
Pledgors
USD
contemporaneously
deny
##licitation
SPA
encour
Phantom
INTERPRET
1964
CONSULT
prosecute
JPMorgan
FILE
licensing
##onciliation
Oxley
injuries
Consumer
OPPORTUNITY
Awardee
Sarbanes
800
Bre
Dall
DEC
Ir
Lt
PRE
Wisc
XII
lear
rounded
##sory
##ored
##itimate
##NC
##anties
better
reb
##stated
underfunded
##lumb
Sublicense
repurch
Constru
##ibly
##INOIS
descent
agreeable
REAS
WITHIN
supply
singly
autom
presence
Oncor
Ownership
Paying
sixtieth
infringes
##FFIC
finders
revokes
details
appeals
integral
ISSUING
Continuous
Collection
Backstop
supervision
conceived
Bribery
clarity
merely
Disposition
compulsory
ILLINOIS
Dallas
Ltd
Wisconsin
REASON
Case
Ford
Mic
eas
##usual
##ming
##RIP
##HC
inability
##isted
##roc
reach
reloc
resto
resident
##acsimile
adherence
Contemplated
INT
referring
nonex
implic
arbitrations
Defect
WAIVED
subscriptions
TRIED
die
handling
contributed
borrowings
exemptions
Engagement
levels
complaints
comprised
OTCQ
ABOVE
Diligence
Releasors
vendors
Reimbursement
Audit
civic
TENANT
PURCHASER
INTERPRETATION
43
Cut
LAND
Yield
##sw
##sh
##blow
##90
##RT
##MIS
##tici
##lex
parents
enlar
consist
##arest
specifications
nearest
leading
credits
Applicant
Trustor
##ishment
direc
indicate
calculations
contradic
purport
Years
Limit
DISPUTES
Engine
preserving
utilize
Markets
lodged
burden
critici
Rodman
telefacsimile
Harris
Damages
##istleblow
OTCQB
GRO
Medi
MEM
Sing
Sel
Syndication
Will
key
usu
##uit
##oGen
##iott
##cher
##cence
##80
##erv
rea
##gress
unusual
##tine
##pper
##teenth
stand
consulted
subjects
comprehensive
Committed
discount
waiting
committed
insuring
##imbursed
administratively
normally
Disclosed
conveyed
SPV
Fifty
declarations
PURP
cancels
bona
ratified
Wholly
While
directives
usually
3rd
BENE
CAN
CIC
DI
DTC
Emer
Flow
Nu
Pac
Press
Tit
fide
##ea
##OTI
##IA
##MP
answ
##inc
##iture
##attel
##uri
proposes
unc
##hill
expedi
accident
Not
##ponso
perqu
community
Condemnation
Personal
remitted
whereupon
posted
deleg
Swap
directions
##oluntary
##DITION
draft
Beneficiaries
permanently
Underlying
raise
Survey
implemented
Pledgee
EMPLOYEES
eighteen
NEGOTI
nominee
indefeasibly
scanned
FILO
Founder
Unencumbered
##RIPTION
MEMB
##ponsored
CUS
EG
ME
Mor
MORT
NB
aro
lower
lacks
royalties
sponsored
##TA
##ADIC
##BB
##KF
theft
##cel
##leased
Columb
##iding
unto
unliquidated
##reshold
##tingu
dism
OFFIC
findings
taxation
noncon
elections
formul
publication
##astle
lea
##assment
##outine
prohibits
joinder
RESULT
unreimbursed
legitimate
##IDENT
1001
##company
CONTRADIC
debtors
article
carriers
drawing
##DAQ
lost
DEFEND
imaging
##SPC
adequacy
expert
COMMENCE
Eighth
Local
NASDAQ
FUTURE
devisees
MORTG
CONTRADICTED
70
Aircraft
Daily
Fed
GKF
Paper
Play
Systems
Tier
Way
fall
site
utility
##sight
##IM
##HAL
##FR
theory
inventory
##lementing
code
##ston
##rie
payout
##ounted
assent
competitive
international
whistleblow
##ANEO
imped
REV
damaged
BEHAL
factual
Preliminary
Thereafter
overall
oversight
404
Compound
Exposures
CONTEMPOR
2009
SERP
280
buil
Phase
OTCBB
Controlling
REQUIRE
duplication
physician
discontinuance
alien
Esq
nearly
acquiescence
Superior
WHOLE
enlargement
Playa
##ANEOUS
BEHALF
CONTEMPORANEOUS
Bid
Castle
ET
Firm
FEES
Over
Petition
Package
We
clinical
eight
##etit
##ade
##iam
##EP
##45
##LORD
##67
##21
##MI
##anti
##cell
concept
unsu
##seen
Communic
preamble
receivable
Union
imposs
goods
retali
Prep
engages
unrestricted
ISO
PRSUs
Reportable
CONTRACTS
Assuming
establishing
ATTORNEYS
acknowledgments
2021
eighty
essence
TERMS
##ansas
Beach
HOLD
postpone
TIME
monitoring
Trigger
reclassification
LANDLORD
impossible
Affected
Free
Farm
Hotel
Vac
War
hard
mand
##mi
##OD
##SID
##fection
##onst
device
##endices
disa
Nov
##ISH
Condu
Amend
##ECTS
##ATURE
remun
failures
operative
Summ
demonst
supplier
Official
Premium
advisers
compete
engine
Perfection
Disqualified
prohibiting
Acti
##IRD
16b
realize
difference
auditor
Owners
conclusions
insureds
COMPL
judici
Defaults
defame
ENTERING
drawings
422
deficiencies
##obile
distributees
COLLECTIVELY
numer
INCIDENT
underwriter
pronouns
analyses
Monthly
Elliott
Standby
belonging
DESCRIPTION
Abb
divulge
Single
71
Audited
EST
List
MD
NOR
Plain
XV
claw
la
quality
run
ww
##lary
##SION
##LI
##61
##PI
##22
##Med
##za
unmatured
resolutions
##achute
Excess
Inf
provisional
##ERC
##osing
interfer
interview
##fier
discounts
Projections
Cham
Notification
Nex
Reporting
protections
LOSS
AMER
photo
conclusion
infringing
conveys
##comm
##aluation
situation
privacy
REGARDING
building
proportionate
observed
reinstated
corrected
hazards
ASSERTED
subcontractors
reveal
Columbia
whistleblower
Beg
Fin
Opp
Pla
Vend
dra
honor
routine
we
##eased
##care
##ka
##vill
ancillary
##ink
##inning
##ortion
##iled
underwriting
##ained
attainment
Rein
interbank
Commencing
THEY
ACCEPT
although
designates
subsisting
supplies
Securityholders
imposts
differences
SUBST
usury
BORROWERS
developments
GUARANT
COUNTERPAR
Protected
DEFENSE
compromised
Liquidation
MAKES
affidavits
##ilestone
reimbursable
disagreement
Abbott
www
Chamber
Beginning
drafter
99
BRE
East
Mid
NATURE
Sch
bri
ll
rents
testing
water
##run
##ipp
##vants
extingu
##ictor
unil
residents
Borrowings
THIRD
Process
Unused
Scheduled
survey
neglig
Involuntary
consolidate
recommend
correctly
Attorney
Course
Claimholder
offending
emailed
ASSETS
Mezz
function
disparages
news
Workers
Goods
diligent
encumbered
famili
Invention
predecessor
delinquency
REQUEST
1967
sustained
Solicitation
##ortization
##HIBIT
servicing
##oppel
EFFECTIVE
nonexclusive
readily
Pacific
impede
remuneration
judicially
AMERICA
BREACH
Best
CITY
HAR
Mut
Morgan
PAY
Rich
Syndic
Vehicle
dat
house
ide
##wen
##wich
##ios
##day
##fidential
##point
##vals
##PA
##rea
##rill
Reorganization
intervals
##egoti
Anal
Ash
remote
##MENTAL
salaries
electing
outlined
ACQU
Incorporated
125
early
Assignees
supplied
committees
Disabled
Priv
ENTI
CONSTIT
Split
prospectively
##ORDIN
SUBORDIN
institutions
drafts
Joining
medium
predic
Immaterial
ARBITRATOR
NONEX
Counterparts
Whole
Portfolio
Greenwich
Calendar
reaffirms
Definitions
involves
Fidelity
SPECIFIC
HCM
##ospital
ORIGINAL
retaliation
INCIDENTAL
##ville
NONEXCLUSIVE
Bridge
CM
Cases
FCC
ID
Lu
Linn
Ol
Pl
Sim
Whe
cross
lessee
sender
vou
##uity
##ourn
##SI
##jection
##itably
toward
##aried
Cowen
depri
herefrom
##quare
Exec
##ORPOR
many
ordered
nond
deceased
0001
immune
Internet
designations
equals
Warranties
NOTI
applying
workout
LIABILITY
Acce
distributable
Comple
Format
identify
ADJ
induced
CONSTRUCTION
##written
discover
inspections
ISSUES
simultaneous
Underwriter
supervis
Spinco
actively
Exception
Adjusted
higher
indefeasible
testify
INVOLVING
subletting
energies
Cycle
harassment
transportation
criticize
answer
CUSIP
nonconfidential
negligent
Mutual
voucher
AW
Area
Care
DVP
Drug
Hy
NA
PNC
Social
Tim
Typ
World
bid
turn
vision
##tance
##mart
##TAIN
##plan
##RL
##MLESS
##WRITTEN
##estern
##edited
##isk
shared
##asi
##terling
Exc
Execu
Subleased
Nomin
##ONT
##vention
INJ
equitably
servants
necessarily
remedial
memorandum
##ustody
implementing
##CHAR
103
HEREON
factors
UNWRITTEN
authen
quasi
RESOL
NOTES
indicating
CONTAINED
DISCHAR
classes
prevails
insurable
2008
retains
SOLE
##drawn
structuring
SERVIC
##echnologies
embodied
ratifies
concepts
emptive
lodging
Bio
sealed
Pieris
DEBTOR
Construction
Micron
EGS
COUNTERPART
HARMLESS
Whether
ADJUDIC
authentic
51
Ban
Eff
FDA
His
High
Im
OCC
RB
custody
gas
##rals
##pting
##XX
##FECTION
##oning
inher
##semb
##acqu
##lating
##ardless
##odd
##ONS
accorded
going
##venty
Anything
capable
Research
Device
Intermediary
covers
planning
##isclosure
refuses
recovered
Conflic
postal
permitting
PERFECTION
THEREUNDER
reportable
Reco
indicates
REPRESENTS
##lands
resigns
COMPE
Commercialization
establishment
Minimum
occupation
Depositary
withdrawn
Immun
prejudic
INDEMNIFY
transmitting
copyrightable
SpinCo
dissemin
##OSING
Intangible
SNH
OWNER
Maintain
Shipper
arose
Vacation
##ISHED
clawback
Plaza
Vendor
datab
EBIT
FIR
Kell
Medic
Nin
Sterling
Techn
USE
Venture
mentioned
pend
##OUGH
##HS
##PE
indul
rever
codes
forbearance
##ternal
det
resources
##ocop
##awa
envelop
##ete
##rowth
##ounding
transpired
obligor
Reform
##ISTER
Prohib
Conduct
##urring
##ames
Deadline
REO
##preme
Supreme
Forfe
Regardless
collections
Directly
##otocop
Debentures
OUTFR
Acquiring
notifying
directive
divided
Meas
Prim
##ENDED
2001
alterations
appearance
periodically
relieved
REGISTER
proration
Boston
feas
LIMITED
Laundering
LEASE
manufacturing
##aterally
refundable
unsecured
empower
testifying
Taked
DIRECTORS
landlord
unexerc
fixtures
PARTICIP
PATENT
detrimental
contradicted
Mediation
Warren
##commit
ADJUDICATION
COMPETENT
ImmunoGen
pendency
envelope
OUTFRONT
REGISTERED
46
98
Clause
Dates
JSC
Jones
Mex
OPER
VER
nt
##ser
##ADA
##xy
##HA
##zed
##ordings
##arc
##cho
##sees
parking
##acies
incorpor
##ighting
##ignation
##lative
Station
recordings
##umeral
governance
counterparties
descrip
##ches
existed
Chase
designees
Enumeral
restricting
satisfies
Factor
harmful
Atl
exercisability
perfecting
anniversaries
Operations
STATEMENTS
examine
dissolved
rulings
submissions
misappropriate
stri
Broad
Same
verify
Portable
appraisal
defamation
DOES
OWN
##IEW
REMEDIES
uncertainties
Successor
finds
encourage
implication
NEGOTIATION
Morris
REVIEW
##cellaneous
demonstr
Opportunity
ACCEPTANCE
ideas
Older
vouchers
Ninth
indulg
Takeda
Mexic
descriptive
430
550
Cay
IMPL
Mul
Mac
More
NR
PA
PRES
Si
Str
Wood
blue
bureau
cent
cur
custodian
oil
winding
xii
##omin
##av
##ious
##no
##dens
##ho
##Sall
##be
##gers
##81
##UST
##enti
##ening
##anine
##alances
##issu
##artis
##ception
##dification
Indu
applicant
dist
reck
component
interference
##ENTIAL
##izing
##lank
##park
##parting
countries
Proxy
##andid
##ATT
##ticurrency
##ALS
Departing
RELY
##ront
publications
##souri
bodily
collective
threatens
303
##ASS
estoppel
depositing
Secondary
offsets
Recitals
excessive
photocop
##rovement
##USIN
2000
Secrets
ACKNOWLEDGE
carefully
Book
enclosed
Collections
LaSall
Central
marked
strategic
inaccuracies
Gathering
##atio
UNDERSTANDS
Missouri
perpetual
CAUSES
Braz
repurchases
OFFICERS
Type
EBITDA
Forfeiture
Primary
##committee
Cayman
IMPLIED
Multicurrency
LaSalle
44
54
69
Aust
Access
BUSIN
Cel
Dry
Dodd
Evidence
Every
Food
Franch
Guid
Kansas
MIS
Phi
Pru
Ratio
budge
digital
ies
nar
wish
##mal
##ep
##SED
##ITION
##IARY
##bre
##98
##BS
##HATT
##ULE
##FUL
##essel
##ander
##alent
##atent
revenue
reacqu
dependent
##unities
uniform
undrawn
##trust
subordinate
distin
##oses
##ferential
intern
preferences
invit
pursued
contemplating
space
desired
remedied
genu
COVEN
semi
affirms
Authorization
##spected
bankers
favoring
HAVING
reflects
modifying
unaffected
##veloper
ADV
liquidate
BOROUGH
FINANC
MANHATT
denomin
Floorplan
Collabor
Disbursements
subdivisions
##gene
physically
INVOLVE
Rockpoint
Enforceability
Manufacturing
renegoti
STATUTORY
LICENS
Contest
##book
Breach
relocation
PURPOSE
Emergency
uncured
280G
##etitor
unsuspected
Summary
ENTIRE
NOTICE
feasible
unexercised
BUSINESS
Celgene
MANHATTAN
375
7th
Ca
Field
Lighting
Pe
Pal
Sc
TP
Valuation
##omm
##rac
##house
##NESS
##come
##fast
##Lea
##FE
##31
##heless
##erated
Codification
##ically
##stell
underlined
incorporate
appar
##etheless
accredit
##eek
##TIN
##OND
wage
contempl
##ibles
##ewer
taxpayer
##ANTS
Banking
##URRED
certify
Dem
Dev
CONVENI
CONTIN
Goal
superseding
##adfast
Encumbrance
refuse
##ATIVES
Competitive
forfeitable
procedural
THEREFORE
unpatent
Reconciliation
guaranties
double
ONLY
Agencies
##angibles
exemplary
mediator
integrity
Annexes
markets
advertisement
Head
presumed
INCORPOR
diminution
Moving
Steadfast
retired
Golden
restored
Amendments
Plaintiff
Infring
CONSTITUT
predicated
Moreover
##Leaf
450
78
8th
Air
BO
Da
Dire
Eag
How
MER
Mood
PI
ROF
blank
mu
ro
zoning
##tt
##ways
##io
##dy
##favor
##jor
##GCL
##till
##ansion
##atements
##isites
external
##tinent
enroll
stored
##rude
disfavor
Stated
Strand
assisting
pertinent
savings
##field
prec
preference
constitution
serves
memorand
##ama
Resorts
##cession
##udged
Appeal
Chattel
adjudged
TRS
Consult
15th
seller
LIKE
trusts
Compete
##take
##arsh
licensee
revise
REPRESENTATIVES
60th
plain
restatements
oppose
allowable
PRIV
disposal
AMENDMENTS
merges
multiplying
MANAG
acknowledgement
billing
hearings
Earn
enjoining
NYSE
COMMON
##STANDING
Profession
CBS
TERMIN
##IEF
annexed
Remaining
PMH
constituent
Circuit
introdu
REASONABLE
MEMBER
buildings
Conduit
SUBSTAN
Mezzanine
SUBORDINATED
SPECIFICALLY
FIRST
empowered
Pruden
narrow
##ommunic
CONVENIENS
INCORPORATED
Infringement
Moody
PIK
disfavoring
memoranda
1st
350
501
CP
Fort
HSR
Hawa
Know
Keep
MC
Orange
PSPC
Quality
Side
Sky
Santa
Tru
lines
mee
rd
##sing
##ration
##ified
##nd
##lits
##Trust
##NOT
##VIR
##POS
##UTION
inaction
##roportion
exact
coup
resort
##iles
##tra
consign
expand
intermediary
employers
##ego
##lander
preferential
invention
##duc
defe
##rame
Closings
splits
Sharing
finances
nonr
Resignation
failing
102
Arch
CONDITION
communicating
considers
disproportion
acquit
negotiating
Delay
RELIEF
ENVIR
keeping
Formation
guardian
Benefited
2005
revoking
Designee
intentionally
prosecu
INTEREST
Normal
CERTIFIED
KNOWN
aspects
appraisement
evaluation
Marketing
hypothecated
REMEDY
EXECUTION
historical
litigating
SUPPLEMENTS
##FFICULT
easements
CANNOT
DIFFICULT
Titling
unilaterally
Private
deprive
AWARD
Executives
budgets
denominator
Prudential
Hawaii
meets
coupled
ENVIRON
5f
56
Bayer
Blue
Certain
Clar
Ed
Eth
Kalo
Marks
RED
RENE
SA
Square
Ther
Tag
Ven
Wain
lab
##work
##wright
##IENT
##graphic
##paid
##Bank
##Bios
##FIT
##atform
##isp
reached
unan
##resolved
##irmed
arrange
Prov
Transmission
##udy
remedi
nonre
##aming
entitlements
entitling
definitive
Developer
exclusion
Forward
discrep
##ATIONAL
##ource
lessor
Withdraw
overd
renders
THEREWITH
NOTWITH
directs
##PLICATIONS
indication
DISC
Status
pledgee
Arrangement
defaulting
questioning
Signature
anticipation
##ehicles
##obe
textually
Lake
Brook
experienced
verb
Diego
Franc
evaluating
skills
CLOSING
IMPLICATIONS
hypothecate
FLSA
ASSERT
Definitive
affidavit
reproduction
Enforcement
SUPPLEMENT
CONSIDERED
CONSIDERATION
Creations
DECIDED
INTENDED
perquisites
numerator
LOSSES
Ashland
remotely
Kelley
Indust
Guidelines
Eagle
PRIVCO
nonrenewal
ENVIRONMENTAL
KaloBios
RENEW
Wainwright
NOTWITHSTANDING
5th
61
67
95
IL
King
Lou
LAY
Milestone
OS
Sto
WAS
Western
balances
slander
xi
##ship
##OIN
##IO
##pes
##66
##time
##oner
##any
##orse
##above
partially
resolving
##loit
Exchanged
staff
explan
explain
Storage
repeal
internet
employing
hereinabove
invested
Convey
Amgen
spe
approving
nonetheless
imprac
##CEP
seventh
##ousing
##isco
Optionholder
dispatch
completing
##ABL
qualifier
reductions
kinds
worker
Once
indemnit
##PLICATED
Arbitrator
phone
GOVERNING
partnerships
SUBSID
COMMIT
COMPLICATED
##ysis
installation
allowances
dispositions
AMENDED
altering
##FICATION
allocations
Worker
excepting
strictest
initiating
replacements
privately
abandonment
deductible
Attach
placing
Purpose
REFERRED
printed
proposal
Profit
POM
MODIFICATIONS
involvement
legends
EXECUTIVE
Sublicensees
laundering
Nexus
Richard
Syndicated
discoveries
NAIC
Drye
LIKELY
Francisco
LAYING
92
900
AF
Brow
Du
Den
Em
FAC
Gl
GMS
MB
Nant
Pa
Risk
RULE
SC
Vi
Writ
oath
wishes
##men
##rat
##water
##lays
##TE
##BAL
##vations
##GI
##35
##anger
##ints
##ineness
inception
##itch
##arting
##gregated
Cost
##ides
##hia
##olen
subc
disquali
Adobe
recon
Retrain
##fiable
##ague
constructive
expressing
Awarded
##URY
##reek
##vocable
Forced
conditional
PROHIBIT
Periods
12RT
consolidating
TRUST
EXCLUDING
estates
imposes
postmark
voidable
Component
prescribe
deposition
Capitalization
changing
RESPECTS
Thir
6011
secretary
Make
inquire
fiduciaries
purports
allocable
substitutions
promptness
draws
rescind
Continuing
variations
Attached
WARRANTY
stayed
opposed
ABS
Hedging
Motor
370
HOLDER
visit
Histor
RBT
revert
PARTICIPANT
VERBAL
distress
genuineness
Province
RENEWALS
Louis
COMMITMENT
Retraining
PROHIBITED
86
DER
FUL
Gu
Kite
Met
Ok
Pet
PSA
Position
SL
Sum
Technologies
audi
graphic
human
living
roll
tranche
xvi
##ses
##em
##ege
##week
##homa
##TUR
##yan
##keep
##32
##issed
relig
retentions
coordinate
across
subcommittee
##lahoma
disruption
##titute
Threshold
##ENTURE
Termin
approves
executions
points
financed
abilities
conflicting
Obligated
##axis
Cha
EnTrust
121
acquits
creates
Controls
##armace
Trustees
##ATIS
Mortgages
REPRESENTATION
10013
impairs
infringed
guarantors
commonly
quarters
ENFORCEABILITY
Advisors
accompany
IPO
ratings
redeemed
##dentures
CFO
itemized
misappropriating
270
tendered
Address
AFFILIATE
PLAN
attendant
Franklin
disclaims
closes
RELEASES
expediti
ESTABL
Times
Excise
prejudiced
Medicare
detached
renegotiate
Venaxis
Written
FULLY
Oklahoma
##armaceu
ESTABLISHED
AL
Cl
Crude
Creek
FR
File
Hill
Home
IW
Las
Lond
Log
Oak
Syn
TB
Table
Venue
Vessel
Wind
closed
eth
log
marsh
worth
##secured
##TD
##gro
##graph
##phia
##77
##ert
##ensual
##orn
reform
##ector
unfore
unissu
##ilton
##cienti
willing
willfully
##ladel
export
experti
distric
priorities
pursuit
Proposed
contemplation
##iber
INVES
claimant
dues
Unsecured
Matter
nonqualified
outcome
Newmark
unencumbered
compliant
ACCEP
BEING
acquir
EXERC
incremental
delisting
API
optionee
##tibank
##ableness
clean
##iversary
minor
associations
confirming
revision
ACCO
Anniversary
declares
2006
##changes
attaching
potentially
ADMINISTRATION
Copies
remittance
inadequ
Distributions
enjoy
##iques
Underwriters
##RAP
1991
DELIVERY
gains
techniques
##corp
Profits
prosecuted
choosing
Blocked
energy
Drawings
unexpired
RECEIV
annexes
646
Citibank
automobile
Prepetition
Acceler
Prohibited
Mexico
Philadel
prosecuting
Denver
Paul
subclause
accompanying
London
##ground
unissued
expertise
Philadelphia
79
72
Agre
Bureau
CSO
Corporations
Deri
DUT
FM
Found
GS
Henn
JOIN
Mark
Nation
Oreg
SY
Tort
VM
Val
Veg
card
efficient
fas
vol
ventures
##still
##eting
##iff
##lished
##OUS
##IZ
##plus
##41
##ery
##ont
##entives
##ann
too
anywhere
consequent
unass
online
allege
##tract
attained
store
start
amortization
##estation
Revocation
##efore
##tential
##loses
Convention
##rating
regulating
motions
Life
##urrencies
principally
##cribers
Intermedi
traden
presentations
localities
endorse
Indemnitors
FOREVER
worked
misuse
herself
##IRED
optional
IRC
emotion
vacations
Potential
directing
Supporting
trials
Level
precluded
allegation
##ESSOR
Specifications
origination
240
##ario
Mont
Monitor
manifested
Depository
compensable
variances
Division
Twenty
Savings
inaccurate
1993
opposition
DAMAGE
Healthcare
##genics
burdens
stipulated
choose
Standstill
undisp
fixture
reallocation
promotional
RECEIP
Johnson
measurement
Supervis
William
BENEFIT
MORTGAG
XVII
interviews
GUARANTEE
disseminate
Atlanta
##epin
Palm
CONTINUE
SUBSTANTIVE
Withdrawal
overdue
EXERCISE
DUTY
Hennepin
Oregon
Vegas
fashi
undisputed
AU
Aus
Call
DD
Fax
FAA
Gaming
Mag
Nond
NATIONAL
OVER
PH
PREV
PLED
Power
Portion
Sant
Writing
curing
danger
torti
##ume
##tar
##tario
##oth
##etin
##aile
##atible
##ife
##IX
##bridge
##front
##gistered
##Ex
##44
##vard
##GER
##MO
##YL
##inity
##ching
##mpson
concession
progress
forgoing
deadline
##unch
##hild
##acent
Inves
Included
expended
expects
expedited
tapes
investing
discloses
##ulletin
Propos
##INE
##anks
point
expresses
surplus
Defined
specificity
Taxpayer
completes
attestation
RELIED
protecting
delisted
UNKNOW
Seven
contacts
reviewing
Ontario
quanti
INDIRECT
INDENTURE
Declar
##udicial
Subscribers
Spouse
concluded
##ULAR
6060
patentable
USP
##CONDUCT
Mae
begins
fidelity
domic
treas
denial
Retained
Signage
225
##lines
England
##udies
WILLFUL
2022
333
broadest
INCURRED
manufactured
MATERIALS
appraisals
proxies
##limited
updates
minimis
servicer
FILED
Fiduci
Clean
PARTICULAR
MLP
Miscellaneous
closest
bargaining
##interested
##MISSION
dismiss
leaves
Communication
supervisory
SERVICES
Conflict
##choate
##andidate
Franchise
MISCONDUCT
distinct
internationally
invitees
FINANCING
Collaboration
ROFO
Clara
inadequacy
Intermediate
emotional
RECEIPT
fashion
Santander
tortious
UNKNOWN
47
Ave
AFOR
Cat
Cant
Criteria
DV
FBR
Fann
GE
Gra
Hud
Iow
IHS
MK
NDA
Overs
QTS
Rose
SB
SD
TX
VIV
Wy
educ
field
gu
pictor
sear
vests
##rin
##rings
##rime
##droc
##car
##cker
##fall
##AU
##AUSE
##RUP
##47
##XIM
##KX
##tigate
##anent
indentures
##rop
sug
##mples
shipp
nominated
##utch
unlimited
##ffers
##olis
happ
##lumn
studies
Insp
##rum
##rush
##usti
disinterested
reasonableness
##eft
compatible
intercompany
executor
lib
OFF
Projects
##ESTS
Conting
Unvested
determinable
##oming
remade
model
meals
##ANING
remained
Guarantees
arbitrable
105
SECOND
SUPER
Tenants
Intercompany
##apolis
sex
Appendices
##phax
restricts
##LLOW
##ulevard
convers
Delphax
##ASIS
Preferences
LIMI
##IGHT
Ack
Permanent
reviews
emer
INDIV
unregistered
clearance
Record
AMO
##scal
telecommunic
user
2004
hourly
endorser
foreclose
examiner
##TCY
replacing
declaratory
Engage
Boulevard
unfair
2601
excuse
barred
Dividends
experiences
pleadings
sky
1990
BANKS
BANKRUP
Practice
nomination
accommodations
attendance
##ANCES
10005
Founders
Topic
retiring
Take
MODIFIED
destroyed
passive
concerns
DSKX
expectations
SWBS
FOLLOW
MEANING
families
Analysis
Completion
##TAINING
Bancorp
Measure
incorporates
Bookrun
COVENANTS
LICENSOR
TERMINATION
consignment
defeat
discrepancy
explanation
impractic
Historical
##TURN
unforeseen
district
Deriv
##hildren
USPTO
Fiduciary
Hudson
Iowa
Oversight
VIVUS
pictorial
##drocarb
LIMITING
INDIVID
BANKRUPTCY
58
700
BA
Before
CS
CC
Card
CAS
EL
EM
FA
Gord
Growth
LB
MSA
Molen
PP
QCP
Ra
Rick
SED
SIC
Sonic
TW
WP
Win
WERE
fronting
gif
lock
left
ment
miti
range
sponsor
search
yield
##eath
##az
##win
##cil
##ymb
##55
##je
##HOL
##MC
##36
##JC
##YS
##KING
##ergan
##eny
##rell
##essees
Coverage
##ayments
##erequ
depre
unwritten
unresolved
parachute
inco
hazardous
starting
sublessee
major
##ligh
##lad
timef
matures
obligating
recurring
repute
Reaff
region
##teness
##uel
Community
arch
##parral
##agon
performs
##ORID
##THOR
spent
spous
specifies
Transferees
Allergan
relet
nonc
binders
Newpark
CONSEQU
Granting
PARAG
decline
CODE
SUMM
conducts
Assist
regards
planned
PRODUC
adjourn
##empt
substanti
completeness
##DERS
MAIN
MAXIM
Gener
shelf
operational
percentages
influ
Benefitted
ONEM
SEL
allegations
Offered
ARME
INTERESTS
REGUL
occupy
Hazard
EMPLOYER
Counterpart
Grote
Safe
##akage
terrorism
DEMANDS
expressions
describes
accomplished
PARTNER
Liquidity
hypothecation
stipulate
critical
WARRANTS
Team
exhaus
Quin
vendor
Maintenance
SPECIFIED
uncertainty
##mmendation
history
STATUTE
constitutive
LICENSE
RELEASING
automated
Engineering
BENEFIC
delegable
dismissed
Activities
CMF
nondisclosure
Worldwide
Recommendation
Strate
Demand
constitutional
Delayed
##keeping
Chaparral
##RAPH
Supervisor
AUTHOR
Declaration
Catalent
searches
impracticable
mitigate
##ORIDA
PARAGRAPH
MAXIMUM
ARMEAU
2nd
715
89
Ap
Ax
AV
BIND
Bulletin
Ced
DU
DGCL
Dutch
Fer
Hand
Kent
Kind
LESSOR
MAND
Olin
OMISSION
Pub
Paid
SOW
TY
UGI
Vall
Vari
WF
amp
cit
high
umb
##oks
##ials
##ko
##AP
##EOC
##vest
##Health
##Punch
##UALLY
##tiles
##onents
tomb
##arn
##unk
##qua
restor
enum
encomp
##dio
##dies
conserv
adding
##performance
Stan
Star
assisted
composition
compiled
##ENCED
count
Programs
##ESSE
##ESTED
Content
##berg
INFORM
beneath
##everage
insider
prime
foreseen
improvement
Actual
Islands
Issue
Aron
COO
Taxing
participates
bodies
Sucker
superior
considering
continuations
adjacent
waste
Securityholder
Manit
Expenditures
increments
##ductory
13d
settling
##UNTS
president
WHERE
intents
upward
PERTAINING
Only
Marine
minus
181
contributes
TRANSFER
ONE
liquidator
rede
Descar
recipients
502
##ANDIS
Stream
Floating
CREDITOR
MUTATIS
MUTANDIS
Originators
Instructions
ISSUE
shorten
mask
Photo
##UCTION
4999
occasions
EXCLUSIVELY
INDEMNITEES
Bonds
CONSUL
worldwide
HoldCo
7700
ACTUAL
Blocker
relinquishment
GROUP
FedEx
Novartis
Platform
Similar
INJUN
apparent
DevCo
much
disproportionately
Email
disqualify
12101
PLEDG
conversations
Acknowled
LBIO
##jeure
##rella
Quintiles
BENEFICIARY
BINDING
Valley
ampli
umbrella
##ESSEE
SuckerPunch
Descartes
275
52
68
91
Ak
Bec
Berm
Blu
Cer
CPL
DMS
Domin
Fully
GROW
Ham
Housing
Judicial
LESSEE
Merc
Mad
NJ
Nations
Pol
PEN
Page
Pip
Rosen
Sm
Sun
SIGN
TD
WRI
ZAI
brings
ed
ec
hospital
led
medic
pip
slo
solvency
##ots
##amin
##iance
##dom
##OM
##kins
##xmor
##EB
##MD
##Mark
##onings
##inations
inures
inchoate
##isys
shipment
asked
assemb
Cooper
column
##ectrum
Parachute
##trie
##rial
##rius
##ols
appendices
expiring
expiry
disapp
disappro
reposs
Through
##orem
components
##TIFF
##egment
##ENC
##party
##ISITION
##eline
prerequ
Terminal
##REE
nonperformance
modifies
grantee
RETURN
PARENT
SUFFIC
Forms
always
cashless
Assignors
##ourse
adviser
separable
reduces
asserts
##LEX
Representation
Formul
lapsed
establishes
disbursed
Recourse
Americas
DISCLAIM
extends
impairing
SEQ
calculate
submitting
PROVID
installed
##AINTIFF
##itiz
JUDGE
##applic
carries
STATEMENT
effectuating
compensatory
variation
casualties
##account
forwarded
deferrals
REQUESTED
ASSIGNEE
evaluate
##RIB
Brixmor
subcontractor
PLAINTIFF
Parkway
POST
##edicated
Merrill
litigated
relinquish
perpetuity
FOUND
introductory
learn
learned
##MISES
NuLeaf
formula
MORTGAGE
alienation
mandated
##LIFE
interferes
Finally
ACQUISITION
Hydrocarb
RESOLVED
Broadway
indulgence
reckonings
excessively
preca
introduced
Broward
Agreed
unasserted
tradenames
treasury
Cantor
happening
Contingent
FOLLOWING
depreciation
SUMMONS
Safety
TYPE
Contents
77002
Dominion
GROWLIFE
slogan
prerequisite
39
AK
Average
ALEX
Bur
Barc
Ce
Cance
Clay
Currencies
DP
DAY
EW
Element
Fo
FTI
GL
Germ
Halo
Hospital
Ire
KC
MT
Mit
Mill
MPT
Miam
MIGHT
Occ
OID
Pass
PSU
Roll
Site
TSR
YO
drug
firms
fewer
grie
hos
just
mal
val
##tz
##tree
##eo
##ras
##ray
##apt
##worth
##iana
##dle
##ham
##hood
##grie
##71
##hered
##ervic
##tix
invent
inad
intending
##atur
##istic
##chant
threshold
##lihood
##asance
devices
parcel
Pari
Exper
enh
suble
lawy
##owoc
expendit
##eemed
Stone
Study
reconciliation
repe
notifications
Reed
aggrie
solic
Credits
Constell
##rae
signific
Personnel
owes
Unmatured
##tisan
Reser
Obj
heading
publicize
COL
exclusions
advising
alternate
PROCED
Governance
considerations
reliable
arrangers
##LLC
impositions
##ACK
UNLESS
indebted
APPL
##vantage
upfront
CONSOL
##culation
##IDATED
ISP
tried
classified
PREC
Principles
OBLIGATION
allocate
securitization
SPC
424
Reasonable
diluted
collectors
Terad
important
billed
Lazard
refraining
Pooling
triggering
superv
Diam
significantly
IMP
CBRE
Production
FLORIDA
ascertainable
telefax
Trial
passed
TAX
CAUSED
McM
Walmart
denying
Limitation
standby
NBPC
Communications
engineering
COMPLE
COMPLAIN
bribery
PAYMENT
Splitco
towards
Technical
contemplate
plaintiff
unanim
Kingdom
Attachment
Glenn
Louisiana
DERs
##cientific
##IZED
Austin
domicile
libel
emergency
Reaffirmation
LICENSEE
DUTIES
enumerated
Manitowoc
Madison
disapprov
Formula
##applicable
precautions
ALEXION
Ireland
Miami
expenditure
aggrieved
Constellation
significance
390
Av
BEC
CRE
CAC
Craw
Camp
DC
Digital
Ele
Ever
Fen
Fis
FVE
Fitch
HF
Herm
HOW
ICC
LX
Late
Lock
Lang
Med
NHL
Old
Pere
RSA
Ryan
Tower
Veri
Valid
Wat
Words
aircraft
cy
docu
hiring
hotel
ss
sounding
ve
varied
##rent
##hab
##OID
##SB
##Tree
##kor
##pite
##XL
##XG
##GG
##ZARD
##ēz
##rex
##anus
inappropri
##itz
##isible
thus
##urers
conformance
pari
Extending
##etts
Integ
Substance
disad
compounded
##ilian
##ESAID
Amkor
Uncon
##uda
Alliance
remises
##ortunities
Guaranties
salaried
imply
10th
operator
##similes
##tigroup
REAL
seventy
Leasehold
112
1100
intangibles
wherein
supported
copying
##fulfill
Expansion
SHARE
Republic
408
prohibitions
Seventy
##alian
contacted
privileged
Discounted
offerings
HAZARD
divisible
Means
Spectrum
Arbitrators
likewise
##FFER
Associates
UNDERS
resigned
allowing
attempts
collateralized
reciproc
##QUIDATED
Principals
ATT
formerly
accessible
combinations
Working
Disputed
SUITS
SERVE
##TICES
possessed
420
Mondel
prorations
Electric
REGARDLESS
eliminated
integration
deducting
Collab
freight
INDEMNIFICATION
advertisements
Unitholders
extracts
witnesses
nominate
strategy
reinstatement
##RIOT
legislative
websites
MAKE
reaffirm
10004
discontinued
mechanics
alia
DESCRIB
PATRIOT
Citigroup
admitted
GROSS
expedient
DEFENDANT
falls
ETP
##antied
brief
DISCHARGE
database
databases
OPERATION
central
photocopy
Brazilian
GoldenTree
Consultants
DISCUS
Industry
indemnitee
Clark
JOINDER
DDR
AFORESAID
Fannie
SUPERSED
Measurement
Gordon
Ricketts
timeframe
CONSEQUENTIAL
influence
AUTHORIZED
Kindred
restoration
Bermuda
WRITING
repossession
Barclays
Cancell
valorem
Objectives
supervise
McManus
Crawford
Fiserv
LXRT
disadvantage
reciprocal
Mondelēz
DESCRIBED
515
81
BCA
Blv
Brand
DT
Deemed
ES
Gri
HR
HL
Hub
Ida
Je
Listing
Lyn
Liber
PC
PV
Rh
RCA
Sund
Satur
Telec
Victor
Xen
XIV
baile
euro
fri
overse
pill
pack
sense
syndic
symb
tion
##ogo
##rate
##ralian
##ader
##ware
##night
##do
##dale
##IARI
##TAINED
##place
##BUR
##DS
##vo
##vol
##enities
##alegal
##orter
inapplicable
##itated
##atable
##atri
##rog
Core
projects
##utee
paralegal
Paragon
underpayment
apportion
environ
##gee
attain
subtenant
##ocus
amic
##ERV
##ensive
computation
competitor
interrog
##umb
##lantic
##ticipated
##elp
Amenities
despite
warranted
poison
contracted
abro
##tish
successfully
electric
immunity
Force
Charge
Releases
disputing
30th
##ople
qualifies
##otes
Repayment
overpayment
Permal
##elfth
APAM
keeps
prevents
Substitute
AMMO
belief
Pride
unavail
Payout
revolving
ADVER
defendant
601
liquidating
LITIGATED
210
##anging
Alter
Alph
incidentally
LIBO
fulfilling
industries
Realty
Mining
423
summaries
setoffs
Box
1973
##tilities
proportionately
UPS
1981
preserved
##ampunk
frequent
analogo
##SPECTED
##repid
subrogated
White
tendering
reinvested
Step
Steampunk
Intrex
Intrepid
punct
British
biweek
reaffirmed
##IBLE
Quinter
encumbering
Goldman
passu
INSTRUMENTS
subparagraphs
TAKING
detriment
restore
perquisite
delegates
alienated
Prepayments
718
interfering
Reindel
familiar
DISCHARGES
Imaging
REVIEWED
PRESENT
Australian
Cahill
CONSTITUTE
explained
37067
TBIL
acquirer
VMRE
volume
60603
Rosehill
educational
##ladon
spouses
encompass
PLEDGOR
amplify
Because
Merck
hospitalization
Celadon
disapproval
Hermes
Perez
inappropriate
Unconsolidated
HAZARDOUS
Blvd
Idaho
Lynch
Liberty
Rhino
##IARIES
analogous
Intrexon
biweekly
Quintero
Bres
Batch
CEC
CME
CRL
EF
ESS
FC
FB
GRE
Jag
My
MAR
Nine
Point
RO
Rental
Sy
SG
Sach
SEN
SAN
SUR
Sole
Software
UCP
Umat
VAT
Vist
Vote
budget
escal
hed
hired
mixed
nation
rank
##ument
##etic
##dable
##bon
##fund
##Car
##pro
##49
##Vry
##VADA
##vin
##72
##PS
##PAID
##FROM
##head
##timm
##ream
##anol
##andem
##inson
##itance
##itech
top
##istics
##role
##urb
exchanges
##abama
##igration
##stock
unm
##ffin
##hire
They
##ubin
##dible
Intent
Intel
sublic
expo
Subparagraph
includible
##ountain
transit
Retrie
compil
samples
Employing
##ffiliated
##ATER
Assemb
##ARG
move
Guarantied
elements
DeVry
CONC
##ITNESS
Grand
consumer
directorship
SUN
damaging
injured
arranger
presents
attack
EXT
Warranty
145
NEVADA
Athen
debar
Separ
joined
ENTIT
##abling
IRREVOCABLE
Insider
minutes
contingency
ADDITION
redacted
instituting
opportunities
Registrar
developing
conforms
decreases
Alabama
##ogen
treaty
retaining
Specially
questioned
registering
recoveries
originated
healthcare
SERIES
##ilitation
adopts
Licensing
unfunded
noncompetition
EMPLOYMENT
CFR
GUARANTORS
Publication
plea
REQUIRED
wrongdo
CONTROL
KeyBank
backup
INDEMNITY
bookrun
correction
informal
##dership
IMM
stipulates
DESIGN
Calculation
Upgra
mechanism
590
bargain
Opco
CONSULTATION
PREMISES
PREPAID
XIII
Cutoff
Titan
704
Activity
MDXL
photographic
Effectiveness
inherent
inheritance
Techne
unpatented
BOTH
Professional
True
REDUCTION
Therap
label
Transmissions
OSHA
SUBSIDIARIES
Guide
FRB
IWTA
ACCEPTS
Valvol
DVGG
SDSP
sugges
shipping
models
Derivatives
noncons
substantiation
Handbook
medically
POSTAGE
Hydrocarbons
DAYS
Rollover
Expert
enhance
HFOL
##habilitation
Griffin
ADVERSE
Breslow
Sachs
Umatrin
Vistana
##timmune
##roleum
Retrieval
Assembly
ENTITLED
wrongdoing
Valvoline
BB
Bal
Cla
CRO
CAB
Children
Dyn
EC
FT
Fult
FHL
Flex
Fuel
Great
HIS
IA
JG
Leg
LTD
Lessees
Leverage
MG
Mun
MSR
MSPC
PU
Pas
PBR
RP
Rail
Rob
Surr
SCH
SSP
TC
TJC
User
Vers
Vehicles
Xero
bloc
cell
candidate
drill
help
ign
journ
justi
mor
side
vent
##uc
##oMed
##ma
##ezz
##rint
##ify
##SD
##SM
##TL
##cos
##gor
##gment
##gam
##ki
##put
##xx
##Life
##vine
##65
##33
##algam
inactions
##itect
##char
##changing
bears
reass
rejection
##lling
convic
Cogen
exoner
propri
##ectuses
forg
detract
##star
##stream
unde
##ermat
##rier
incumb
Exiting
stopp
consp
Inno
exposes
amalgam
Subtit
Substan
##usion
accounted
THOSE
##idian
Reins
##ultural
tail
##ONE
##egy
##izure
arms
soph
live
ORALLY
Pros
INST
Amortization
##ORAD
spend
validation
Anad
chattel
Unisys
##ATEMENT
constructed
Matching
orderly
imperm
Buil
CONTING
REP
declines
AGREED
##arko
seizure
interpretive
Region
##elds
PROT
BEL
Enanta
injure
##OCK
111
yourself
Assignments
304
301
refinan
investigate
thirds
managerial
generation
differs
##conn
imposing
concert
Managed
NEITHER
mistake
Attrib
Financed
Competitor
GenMark
Discount
Ono
Forma
lapsing
avoiding
Subservic
Pricing
Sprint
unaffiliated
preempt
minister
conclude
associates
inflic
contributing
revived
10022
sixth
plc
institutes
CONTRARY
attempting
alleges
Majeure
training
conferences
Specific
##ralia
OBLIGOR
initiation
##oenix
SPE
embezz
APPRO
Mineral
survives
Engaged
race
Phoenix
GENER
OPTION
RECOVER
4980
GIVEN
analy
recapitalizations
underwritten
shortfall
GRANT
buyer
EnteroMed
transitioning
POSS
SPECIAL
MAKING
388
Captions
Shields
Create
Affinity
admissible
manuals
Irvine
easement
Select
MEMBERS
extinguish
Nominee
Efforts
OCCUR
Brazil
Australia
##break
reacquired
unpatentable
Edge
Ethics
speak
logos
revisions
Foundry
BENEFITS
Investig
Proposal
telecommunication
##light
Kentuc
Variable
INFORMATION
Similarly
DMSI
Hamilton
assemble
Diamond
COMPLAINT
Vericel
Jeff
Sunday
Saturday
Victory
bailee
oversee
paralegals
SURV
exposure
Dynegy
Fulton
JGB
Surrender
Xerox
Cogentix
Subtitle
sophistic
Anadarko
CONTINGENT
ministerial
embezzlement
EnteroMedics
Kentucky
725
97
BR
BP
Bon
Bun
Cin
Close
Dan
ETI
Fred
FITNESS
Fermat
Gi
GA
Hall
Ja
Jury
Lo
Linc
Mountain
NES
OC
Present
Please
QUAL
Rober
Sor
Sab
Sil
Sear
TES
UM
Wag
Welfare
borough
cable
cred
global
htt
losing
larc
ns
say
tandem
vide
##mit
##wa
##imp
##ias
##lson
##OUM
##NING
##ck
##cings
##borne
##bras
##face
##gest
##gaz
##kee
##48
##19
##LA
##GETHER
##PRI
##ertion
##erock
##reme
##inery
##oro
##chand
##cep
rejected
revocable
sha
##veill
##derson
Cook
noun
coordination
##terias
##lot
incidents
incentives
##oln
enabling
##die
attending
subhe
##owance
expend
ANCI
##titu
Those
comput
aggregated
intercreditor
arg
arri
THESE
caption
ware
##ram
INOL
##uarial
personam
Anderson
governs
Shar
Unpaid
##ATA
addressing
Asc
Asterias
TOGETHER
officials
##CHANT
Newco
numbering
##AIR
extreme
equityholders
regarded
China
Chosen
processed
##LLARY
recomm
transmissions
Nebras
190
renewing
STOCK
RELATE
NOTICES
Dispar
concerned
##UNI
Acts
ordinarily
31st
supplementary
Certified
Certification
RESUL
DEPOS
deleting
THEREFROM
##iversity
Swiss
AML
AMID
Deliverables
team
coming
moneys
pharmaceu
Noncomp
Leasing
evidences
shows
SUBI
Offtake
discussion
selecting
Increased
television
2510
21F
collateralization
borrower
##odified
Wak
Commercially
marital
OBLIGORS
JUDGMENTS
merit
Retain
defaulted
Signing
Providers
SOOUM
endorsers
##ranches
foreclosing
attribution
occupied
ceasing
##olous
challenged
checks
##ricultural
Carry
Network
Individuals
Alternatively
bonded
DEFIN
ratio
negatively
Acceptable
publishing
institutional
Roth
spinoff
correlative
##OSES
CLIENT
Blackridge
MOU
Micha
Automatic
4007
INSTIT
Ratings
##insic
clarification
chooses
postponed
Eighty
Rodney
Manufacturer
ADDRESSED
undue
Clear
Successors
downward
relinquishes
UNDERSTANDINGS
Wales
rebate
repurchased
PURPOSES
10019
Farmee
engineers
Lux
Executed
INJURY
strike
demonstrate
indulgences
curtail
Foods
##breach
accredited
accreditations
CONSTITUTES
David
MERGER
MERCHANT
Earnest
narrowly
Store
MetLife
auditing
Oaktree
RECEIVED
FMV
Monitoring
Nondisclosure
PREVAIL
Franchisee
Wyoming
reletting
Assistant
highly
Stanley
Bluerock
Smith
disapprove
SUFFICIENT
##apture
subleases
COLORAD
TAXES
Eleventh
ATTACH
Brands
environment
Jaguar
SENIOR
escalation
##fundable
unmodified
IMMUNITY
Passu
SCHED
exonerate
Attributable
infliction
APPROPRI
GENERALLY
SURVIVE
sophisticated
Bunge
Freddie
Giants
Jazz
Lincoln
UMHL
larceny
##veillance
nouns
ANCILLARY
extremely
Nebraska
MERCHANTABILITY
APPROPRIATE
801
Agree
Ba
BD
Bran
Branch
Cu
Cub
Dig
Ev
Est
Eligibility
HIP
IASIS
JD
Jose
LMI
LACK
Mur
Mil
Mage
MPL
NM
Nav
OHI
Papers
PUNI
Raging
Sail
Spre
Shen
SVP
Test
Titles
Vest
WW
aver
blo
cG
cris
flu
growth
jun
otwithstanding
pe
package
vehicles
votes
xiv
##ugn
##ssive
##rated
##One
##Smart
##curring
##fish
##focus
##CB
##46
##42
##12
##volous
##601
##MT
##zee
##39
##rey
##alized
##orm
tot
##chures
##alling
##llan
##gressive
Coal
##idge
forbear
debit
##unding
uninc
Parts
##ria
Exempt
ent
##irad
##lub
subpar
subpart
magaz
advers
Subcontr
##ush
##usp
reputations
##osed
##odity
Reloc
Remedi
Rehabilitation
##efield
compared
agricultural
interested
gov
##EDEC
##ports
Providence
Congress
viti
##ORE
##ECH
eventual
And
facie
duress
##ecessary
Committees
remise
##ARO
referencing
impugn
AGP
AGENS
##amity
outbreak
arbitrated
Issued
Boards
Defend
Commonly
Deason
Artisan
annul
chart
affixed
##isclosed
altern
Chris
Regis
designating
##phy
suitability
LAWSU
115
certificated
arranged
accrues
substances
##ivestit
Constitution
positive
Expedited
competence
calamity
##otts
##argets
Organ
correctness
workman
Atlantic
405
hands
##IRC
leaseback
315
Claimant
##IIA
unrealized
deletion
prevented
##culp
tenor
preempts
ALLEG
associate
##ultivation
SEPAR
PREDEC
##rimin
Also
pertains
##ogic
Adviser
Retail
questionnaire
registers
brochures
##ehring
COMPANIES
Benefitfocus
prima
occupants
raised
guaranteeing
Funded
myself
Sheets
acknowledgements
cancelation
HEP
misappropriated
logo
19890
414
utilizing
comprises
presume
1998
PBF
background
320
325
355
Intangibles
Connector
4001
legatee
Drilling
Institutional
message
##IBUT
Meridian
reproduces
PURCHASE
MAILING
345
Pierce
666
harmed
bargained
OpCo
reborrow
Sublicensee
extinguished
recommendation
Plant
Hyatt
authenticated
xiii
reckless
Direction
Fortress
Ethanol
nonrefundable
nonrecurring
Conveyance
oaths
Thirty
Thirteenth
PetSmart
religious
expeditious
SYN
Bookrunners
gift
##HOLDERS
citations
##vestment
tombstone
Acknowledgment
PENAL
##itizens
Clayton
German
hostilities
parcels
repeated
Teradata
Fenner
Medgenics
cycle
Cancellation
disadvantageous
frivolous
Alterations
punctually
MARKE
nonconsensual
Munzee
moral
reassign
impermissible
BELOW
NESR
Sabby
Sears
video
##impaired
subheadings
Wakefield
Retainer
INSTITUTED
COLORADO
Digirad
HIPAA
Magellan
OHIO
PUNITIVE
Sailfish
crisis
junior
unincorporated
Relocation
Remediation
AGENSYS
LAWSUIT
PREDECESSORS
950
AH
Ade
ACH
Achie
Aval
Bar
Binding
CT
Cas
CAR
CDI
Clinical
Cush
DW
DSUs
DUE
Eight
EVER
FAIL
Hoc
Hemp
Live
Mir
NIL
PE
PJ
Pul
Pink
Rubin
STI
Sue
Struct
SCO
Solutions
Tenth
Tanks
Uses
Ward
XL
cast
dri
ere
fig
hon
hall
men
milestone
sort
spons
sewer
war
wra
wind
##scep
##sOne
##ov
##option
##marks
##emb
##easance
##well
##nab
##nos
##large
##dened
##hall
##Site
##IATION
##cast
##CTIVE
##BATEMENT
##ELL
##43
##70
##MG
##MES
##FS
##34
##JA
##ena
##revocable
org
##ora
inverse
##iter
##itan
##itate
##athered
suscep
reorgan
##alls
##liff
exculp
project
##idic
color
##sta
union
undi
##ulk
notation
notations
##ilis
##acking
##sured
##ried
##olitan
enables
enlarge
##mmoth
##cience
##rusOne
##ptus
##ctu
##ths
expansion
amorti
##ERO
Adoption
recited
reconci
reply
##ositions
Notis
Remed
subjected
##ENGE
liken
defective
Progressive
Participations
owe
Una
University
##earned
##ATORY
##ticals
descriptions
##ALTH
remised
salable
nonbreach
financials
element
forming
transferability
defining
Defici
REBATEMENT
SUPRE
immunities
thirtieth
negate
Forty
##ounds
recordkeeping
##urnal
Entit
WIL
creditworth
Basel
display
ways
110
illust
subscribed
##TOOD
EXHIBIT
furniture
Constitu
##ourg
140
customs
##ALLENGE
FORM
LIENS
LIQUIDATED
canceling
couriered
WHEN
handled
INDEB
vacate
##TEDNESS
dividing
##IDENTIAL
##stein
Arbitrate
1866
concludes
Index
ADI
ONI
2003
USURY
##IPATED
Mammoth
##odities
Altimmune
Recipients
ATXG
fifteenth
CAP
singularly
restraint
CONFIDENTIAL
exempting
traveling
succeeds
SOJA
achieves
##TICIPATED
PERSONS
examiners
surviv
attributed
Instruction
collectability
CHALLENGE
stead
removing
passw
Imposition
Improvement
##utorily
VOLUNTARY
Protective
CFS
##SSB
Qualification
Deferrals
occasioned
NONE
BRINGING
compromises
APPEAL
extrinsic
refunds
ASSIGNMENT
##visable
GRAN
proxim
corrective
CLAUSE
Connor
advancing
CONSUMM
PLC
770
Ellin
Journal
enterprises
621
Manufacture
affirmatively
versions
851
CyrusOne
MLSA
ORIGINATOR
DSM
Affairs
SWP
Relationship
Brady
##box
Irrevocable
Constructive
keys
DIFFER
Surveys
NBT
formulas
4043
Triggering
Premiums
numerical
##SIONS
Processing
household
Execute
Conflicts
REVIEWING
Simpson
ENTIRELY
contemplates
MANAGERS
Earnings
remediation
9261
NantHealth
postmarked
religion
expeditiously
Hills
marshal
marshalling
INVESTIG
MORTGAGOR
XVIII
quantity
dismissal
##ropolitan
OFFSETS
AMOUNTS
INDIVIDUALLY
EMB
PRODUCTS
Strategic
Axi
conservator
CONSULTING
INJUNCTIVE
Rosenberg
DISCLAIMS
inadvisable
PROCEDUR
IMPRO
telefaxed
Collaborator
HLSS
packaging
##atriate
encompassing
GREEMENT
directorships
REDUCTIONS
Clauses
CROSS
PBRSUs
Versartis
amalgamation
Subservicer
TESARO
warehouse
Sharp
Michael
Luxemb
JDC
Murphy
Shentel
cGMP
fluctu
subparts
vitiating
alternatives
Adeptus
Avalon
Cushman
PJT
figures
susceptible
undivided
likeness
nonbreaching
Deficiency
SUPREME
INDEBTEDNESS
Luxembourg
63
650
615
Areas
Astell
BJ
Brush
CR
Dr
Dill
Er
EQ
EPC
Finn
Gmb
Holl
House
Holly
IMS
JSSB
Ke
KYL
Lex
Must
MHI
NL
Overnight
PICA
Rice
RMS
Ratable
Sol
Sold
SPL
Stri
Spark
Sports
Tes
Tender
TIT
Utility
Van
Wel
Worth
XXX
Youn
cate
crime
dict
divestit
ease
effic
fix
flex
garn
lar
mid
pati
ridic
tests
tack
voice
wal
##serve
##mond
##west
##num
##lect
##TON
##TEL
##NTY
##ciled
##ba
##bro
##goner
##AULT
##person
##DIS
##LP
##LINE
##vana
##79
##85
##69
##Gas
##FC
##heim
##retion
##anced
##anapolis
ing
ink
##arr
Cogn
exchanging
projection
##vera
dep
undu
unimpaired
##ques
resides
appended
Exit
ens
##dia
consenting
consensual
##illy
##ERT
##ERG
##ERNING
##ivo
Stations
Adam
recital
recapture
noticed
Reti
That
competing
liber
##fiers
goal
transacted
defended
caution
materialmen
##ulled
rightful
spec
equities
facto
necessitate
regulated
regulators
Transfers
##ollution
##utsche
conflicted
Resale
10D
##burg
indemnifications
##alfeasance
Deutsche
Granted
decides
receipted
Documentary
annulled
Taxable
servicemarks
seat
Salt
neglect
##iscrimination
transactional
##adrius
Enroll
threats
threatening
Manna
Tou
##TERN
Applications
##otech
latter
Council
OrLeaf
Indemnifiable
Repurch
LIABLE
cooperated
Travel
402
ARISES
distributing
distributee
delaying
debentures
contamin
Otherwise
REST
clearances
legible
RESPONS
whomsoever
Arbitrable
##BLIC
likelihood
Corn
Payday
confirmatory
ADR
grossly
certainty
Registry
newsp
detailing
fourteen
Although
Properly
##ogers
Forest
Contributors
merits
WOD
industrial
originating
Indianapolis
dissolve
Minne
temporarily
declaring
occupational
##olog
285
SEEKS
SEEKING
Books
##mplete
Surveillance
230
CHAR
VIEX
Carvana
Customs
2024
Charlot
1985
COUNTERCLAIMS
LEI
DEFAULT
verifying
floor
ratify
##quarie
appraisers
evaluated
##junctive
Autom
disregarding
INSERT
Biom
##ATORI
Caladrius
Teich
approximate
GPD
Reimbursements
CDOR
Dispositions
HCW
reallocate
reallocations
reallocated
visits
admit
Contested
Circle
Opinion
sublicensees
DECISION
Micro
relocate
Media
NBHC
Federated
Overstock
Conduent
photograph
Midstream
surveys
SOLELY
SERVICER
dissemination
Macquarie
Woods
TPG
blanket
enrollment
Therm
SUBSIDIARY
MBC
MBM
SLB
ethical
willingness
INVESTOR
ACCOUNT
cards
Montage
Cleaners
MKT
PPG
incomplete
Generally
PARTNERS
exhaustive
Starwood
redetermination
Burdened
DPW
EWSD
Occup
YOU
solicited
HOWEVER
abrogate
CONCERNING
debarred
Prosecution
refinanced
Waggoner
http
DEFINED
PREVAILING
NMAC
Spread
averaging
totally
adversary
annulment
ALLEGED
PENALTIES
Achievement
EVERY
reconcile
DIFFERENT
Axiom
Astellas
BJNTY
Brushy
Diller
Finnvera
GmbH
Holland
KYLK
Strike
TITLE
Young
efficacy
Cognate
unduly
liberally
Enrollment
Charlotte
photographs
BH
Bat
Bet
Cross
CIB
Cinc
CEOC
CIRC
Down
DONE
FEE
GEL
Grid
Grush
HG
Her
Hour
HLT
Iden
Kal
Kim
MON
Mell
MED
MIT
NHC
Och
Opt
PK
PLE
PIIA
Ridge
SS
SR
Sand
SAL
Segment
Treat
TECH
Ump
Vit
VOID
WES
Ziff
bulk
citi
dress
dedicated
frame
jp
laid
mi
ng
ny
pleading
sid
scientific
ts
tic
tend
##sys
##shire
##trans
##tances
##tman
##oce
##eu
##rub
##af
##wind
##ike
##bs
##feg
##kansas
##CENT
##VOR
##LUD
##vances
##89
##23
##FK
##Fusion
##onded
##ene
##inally
##inna
inhibit
inno
##itus
##atus
##ara
##aris
##chler
reject
reemployment
##greg
##liances
##asive
##ica
unam
unfulfill
unearned
residing
province
Partial
##olf
##irk
##illage
payor
##enda
adr
Subaccount
deliverables
##top
disks
Stam
Staff
repatriate
Noble
##ultz
##tenants
terminable
soil
##porter
statutorily
##INA
Ameri
##ORG
ANYTHING
spea
Anton
facsimiles
chair
Unfunded
regulator
##ollo
Alloc
financings
##ARK
memor
##MENTS
205
continental
Collateralized
additionally
Resolutions
##ccessful
arbitrability
1015
Deloit
Arkansas
##eduction
##solicitation
##actment
league
seques
judged
Appra
accountability
##ades
##UTE
collec
Assigns
adjoin
305
##tellig
generate
Previ
##ATELY
Expiry
SHMC
Facing
miscellaneous
overhead
schedul
Competing
##istar
ENCO
##IRM
contests
312
PERCENT
LOANS
DEED
vacated
avoids
Substitution
tenancy
ASC
ASP
closings
particularly
Levin
##times
precludes
##dfathered
liquidity
Conversions
telegraph
pledgees
disposing
typically
conference
Severed
Beneficially
merchand
mediations
broader
effectuated
ENTERED
registry
adjudicate
away
improperly
occupant
derives
eliminating
integrate
CHS
Multiparty
##neGas
criminally
Carve
Carrier
Customers
Shell
Developments
Withholdings
lifetime
loading
1988
margins
Reviewing
evenly
administers
derivatives
sometimes
##atherford
superced
Covenantor
nominees
SELLERS
CLASS
Weston
##EAD
accommodate
INVAL
##111
sureties
Arius
Greenwood
Tele
10007
7701
Merchant
JPMCB
mechanically
Auditor
Clearing
Rentschler
Tribunal
EFFECTIVELY
CONSULTANT
rebut
diem
Selected
Flowserve
##MPASS
lowered
Weatherford
##etitors
unsuccessful
hardship
NORTHERN
running
##Medex
Middle
Schultz
Excuse
RESOLUTION
Measures
apparatus
room
ArchCo
Hawaiian
remediated
verbs
Conveyed
868
xviii
Acceleration
GSK
burdensome
MagneGas
PHMD
SBA
fields
guests
FAVOR
Radio
Wintrust
Apollo
Cedar
MANDATORI
PhotoMedex
Cerner
CPLV
Polaris
Throughout
##ENCY
Passport
grievances
ISP98
PRECLUD
unanimous
Integrated
UNDERSTOOD
SUPERSEDE
Huber
VoteCo
hedging
nationwide
Separate
Upgraded
labeling
forgive
incumbent
INSTEAD
Specifically
QUALITY
Ascena
pharmaceutical
Noncompetition
Branded
MPLS
##riminatory
SYNTEL
NILT
SCOPE
honest
amortized
garnishment
##DISPUT
ensuring
Touche
Repurchased
contamination
Minneapolis
Cincinna
Grushko
Identi
Mellon
PLEAD
Umpqua
unfulfilled
Stamford
Antonio
Deloitte
sequestr
scheduling
ENCOMPASS
MANDATORILY
PRECLUDE
Cincinnati
440
525
713
898
Aur
AIP
Bay
BARG
Crow
Cam
CSI
Crime
Cultivation
Dil
Dade
DRL
Eco
EEOC
Fa
FN
FG
FF
FDIC
GM
Glo
GSS
Hers
HCH
Hong
HALL
Hilton
HSM
IRE
Jap
Jacks
JFK
Kong
Lab
Lath
Ms
Mall
Mobile
MGCL
NC
Never
NTC
Nater
Pers
Place
Peer
Q2
QU
QEP
RG
RM
Rogers
SIN
STR
Sier
Solvency
SAM
Source
Tor
TAR
Tangible
Targets
UTI
Verm
Ventures
Ware
Web
Wolver
WATER
Y2
cler
club
ff
jure
jeo
let
lot
large
malfeasance
pil
rounding
sens
tas
test
torts
ur
wide
zone
##tone
##ook
##rink
##atial
##ience
##OME
##SH
##Star
##NA
##gun
##gular
##glary
##CAR
##xic
##EED
##RAN
##VC
##701
##ji
##GED
##UF
##zel
##KEE
##KERV
##inent
##oring
##orum
##ita
##itative
##atche
begun
reformation
rearran
##urant
##like
##utler
deli
unper
unqualified
onto
resist
##losures
##aces
##acom
##tron
##licop
##away
Exclusive
##ird
##mma
##dient
study
subtit
exploit
##forming
##usting
recru
recons
Revenues
##ferage
##vient
##ENFOR
Commodity
##pardi
##iliation
invasive
performable
commits
commodities
authoritative
Cond
Consequent
Concurrent
Anticipated
addendum
Unwind
breakage
##terminations
construct
Allowance
metric
Materially
##cript
importing
##amb
captive
entitles
Respon
Resource
109
1099
##bury
operators
Devices
grantor
CONA
PARKERV
00001
monument
##reets
COH
SUE
SUSPECTED
##apid
segregated
advises
irregular
affording
affirmed
Forum
Regarding
demanded
collabor
##phase
basic
takeover
Incentives
dispatche
129
returning
adjusting
twelfth
arranging
307
personalty
TRA
contractually
Exchangeable
Preamble
bankrupt
separated
##ACOR
##armacy
Seconded
UNENFOR
overly
overtly
overbro
Active
voided
debenture
Genetic
##grap
310
Entire
Discretion
Disclosures
RESER
tenure
ASSU
indemnitor
Supplied
dealers
evades
sites
Own
Youji
Converted
1833
CONTAIN
insures
Payor
Lea
10036
defendants
CONTRIBUT
objecting
resignations
Statutes
Statutory
characteristics
newly
Euros
Antitrust
forfeitures
Waivers
conforming
##claimed
contravenes
ARRAN
EVEN
EVADA
volunte
discharging
denig
Elective
##prise
##TENANCE
ineligible
effectuation
secures
forecast
##UMST
incapac
withdraws
withdrawals
##atisf
step
##7544
KNOWING
Pharmaceu
look
bonding
##moreland
##WEALTH
comprise
Heli
Helicop
embodiment
1445
procured
transmittal
330
manufacturer
Savient
terror
France
Geosp
Acceptances
Westmoreland
compelling
burglary
stipulations
discussing
telexed
Ellis
##onesty
FIX
MODIFY
Block
mechanic
reno
litigations
Successive
Abs
civilly
expectation
##ilestones
learning
reaching
implications
436
criticiz
##urious
GUARANTEED
unilateral
recommendations
Attorneys
Syndicate
Lucos
Nominating
OCCUP
OWNERS
OPERATE
Atlas
striking
strikes
PAPER
photocopies
697
reacquire
COVENANT
ADVIS
LICENSED
Airborne
BOUND
##amai
Appeals
COMMONWEALTH
Professionals
##POSED
SAFE
Brookline
SUPPLEMENTAL
Stores
Viol
Viacom
##ratz
TRUSTEE
Petroleum
audio
Terminated
Logitech
enjoyed
797
Nationals
MORTGAGEE
##YLON
Grade
Inspection
