[PAD]
[UNK]
[CLS]
[SEP]
[MASK]
!
"
#
%
&
'
(
)
*
+
,
-
.
/
0
1
2
3
4
5
6
7
8
9
:
;
<
=
>
?
A
B
C
D
E
F
G
H
I
J
K
L
M
N
O
P
Q
R
S
T
U
V
W
X
Y
Z
[
]
a
b
c
d
e
f
g
h
i
j
k
l
m
n
o
p
q
r
s
t
u
v
w
x
y
z
##m
##u
##n
##o
##b
##l
##a
##s
##t
##d
##r
##e
##y
##p
##i
##k
##R
##h
##c
##g
##0
##3
##f
##v
##B
##D
##H
##T
##z
##1
##P
##O
##L
##x
##q
##G
##A
##9
##C
##V
##4
##I
##S
##w
##M
##F
##E
##N
##8
##2
##5
##j
##7
##U
##6
##W
##Q
##Y
##K
##Z
##X
##J
##ti
##er
##en
##on
##ed
##in
th
##al
##es
##th
in
of
##or
##ati
##at
an
##ent
##as
##is
##ar
##ic
the
##an
##re
##ro
and
re
##ith
with
##os
##om
##ve
##us
##ul
##ter
##ing
to
##ec
##ation
##ol
##ur
##id
##em
##ly
##it
##ac
##atient
##op
patient
##ap
##tion
##le
##ia
##oc
##tr
##tic
be
Th
##ated
##ver
was
##ut
##ment
##il
##ase
##am
##uc
is
tre
for
de
##si
##ine
##um
##ce
as
##ort
##ow
##rom
con
##erap
##el
##ir
##ph
##ot
##og
##ad
##res
##un
##ig
patients
##port
##erapy
wh
##tin
ch
The
dis
##se
##ug
com
##fter
##od
##atment
##ere
##ical
##ous
##ys
##ant
##pl
report
##im
pro
treatment
ad
##ff
after
##iti
##ear
res
##ate
ac
on
##ag
##yp
##vel
al
##ib
##ab
therapy
ex
##ect
case
se
##nd
inf
##ity
im
st
##ure
le
ne
by
or
##ay
that
sy
##ain
sh
ind
##ath
tr
##osis
##oth
##ep
##velop
##yc
##di
develop
were
##ess
year
##one
##ary
##oid
pres
##qu
li
ass
rec
##pt
cl
##ell
We
##ide
hyp
this
dr
##ular
per
##ion
eff
##ist
##igh
su
##iv
anti
##ial
are
##iz
##itis
induc
##ox
##oci
inc
##aus
##ans
##et
##ication
##st
associ
##ection
##est
##orm
drug
ol
##low
##anc
car
##if
##ence
##emia
##pp
developed
##ose
##ud
been
ha
induced
pre
##our
##olog
who
at
##ute
##ases
##min
mon
##tive
old
man
pos
associated
##cr
##act
##vi
##sion
##ting
ag
des
fol
may
##ch
not
oc
##ory
##mon
In
un
we
##gn
sever
##ym
##rome
follow
dia
had
dise
##ven
##sive
##urr
present
##ved
##atin
##ther
##ast
treated
synd
effect
intr
cases
ab
cor
##lo
##ative
ar
from
##yt
compl
##ne
caus
di
syndrome
have
##oma
##crib
##ON
disease
hyper
occ
##ally
##ign
clin
##wo
trans
dur
ser
##ult
acute
##yl
inter
##ple
rel
##enti
##mun
##ue
##ten
##enc
sp
us
rece
has
##az
##ip
use
##ptom
##ich
##ore
##minis
##ge
##oul
##ould
ph
##ese
##action
##atic
##enal
##ron
##age
during
severe
resp
month
##per
sym
describ
##oph
me
##oun
##rol
clinical
##ong
##ors
##tis
hep
adminis
##otherapy
reported
##ium
##ros
This
##ever
##ations
symptom
##yst
which
disc
par
pr
sub
##are
diagn
##teroid
##te
chem
##entr
##ond
##rop
infection
##ful
receiv
ev
high
##ew
en
##ormal
##romb
##sib
ob
suc
cons
##ail
##erm
##ugh
cell
incre
mg
immun
hem
two
##plant
my
##tinu
da
app
##usion
##tration
renal
months
dose
##ree
##ective
##uk
##ight
complication
##ome
following
##ance
##der
##ra
##ism
pl
##able
it
med
##ased
##icity
symptoms
##ies
but
intra
##ak
##cess
##eral
imp
##tiv
##he
##ub
show
##lud
thromb
##ding
effects
##ost
##athy
should
##atitis
##ane
reaction
und
sur
tox
##ild
neu
##ction
##ile
chemotherapy
##ement
##bin
leuk
ep
##all
transplant
mal
##ures
conc
##ymph
##ual
##ature
##erg
he
##hy
sug
##otic
can
sugg
##atory
##kin
lymph
##ating
other
all
##up
fl
##ici
pot
##ek
##ole
##ents
##out
sign
##ough
##ill
##ran
##sible
##SI
week
##ysis
##emic
sec
wom
no
these
rare
##vir
cont
##ons
level
##adi
fail
rem
##ized
##ronic
administration
##ted
##ite
inj
sc
##irst
##view
Al
##ocyt
first
##aneous
occurr
##dition
syst
bet
##ulmon
##ogen
obs
##ulmonary
days
##ard
##ency
ris
##ently
result
review
chronic
am
##ior
meth
liter
second
##00
##ren
##osp
##ected
used
hist
low
##ogr
one
due
##amin
literature
suggest
er
gl
##fer
##ific
over
impro
##ri
int
##verse
comple
liver
##ution
##SION
related
potenti
##ang
includ
showed
woman
child
##ological
day
##unction
peri
presented
##omy
##ression
diff
under
##etic
reg
years
inv
##ych
fact
normal
##gen
##ycl
diagnosis
dos
##ob
failure
well
##ulti
comp
bec
##ach
##order
ins
inh
met
##amine
##vious
##ound
cortic
nec
##lood
##now
three
end
##opathy
antib
pain
##ive
##ft
##CL
cardi
##cessful
##inal
##asm
her
##end
dec
##pos
combin
##ital
disorder
##tivity
##ancer
##cin
##and
##osteroid
##ressive
##ime
risk
mar
col
em
previous
##ater
##ech
##ress
##acter
surg
CON
##ontinu
##row
##rosis
blood
adverse
toxicity
##ame
cause
##USION
##CLUSION
CONCLUSION
cancer
receiving
el
corticosteroid
both
##so
multi
##amide
bl
pulmonary
##aled
drugs
side
##ptic
##ery
weeks
ps
##inding
initi
without
describe
flu
##oin
##ef
An
tum
also
##venous
##ograp
##sy
##owever
##ung
##ained
##alc
##ibit
post
serum
gen
##ens
##ates
##ause
know
our
##though
obser
##ider
resol
##iop
acid
##duc
##ensi
out
respon
long
##fe
##ulation
##we
##asc
when
leukemia
10
##ke
##enia
reve
cour
dys
##ening
discontinu
##ious
##peri
##ix
##vement
oral
##ologic
finding
##ax
##esion
levels
radi
##utaneous
dep
received
##form
experi
such
##ytic
##asis
##ardi
##tered
manag
hepatitis
##ES
##idence
infl
arter
injection
def
##yro
##apine
##fore
##sequ
common
described
red
transplantation
##ities
##CT
successful
revealed
##ritis
##eu
##ycin
signific
recurr
lesion
##erative
##ema
consider
increased
prob
spec
##ween
intravenous
inhibit
##ral
caused
##ler
##IV
##ulin
##amm
##over
##tine
between
dem
his
typ
str
It
To
more
vis
mic
complete
findings
##ll
##tim
prog
##ass
diagnos
significant
there
##itive
its
##ct
##alu
path
up
##med
##ers
##ish
##ade
phen
than
continu
myel
course
non
tak
##rh
##DS
##neum
appear
##ily
##arin
conf
infusion
##astic
systemic
min
##led
##arly
##ology
##cinoma
##ied
##thm
es
##udi
##quir
possible
decre
reports
control
sus
##tal
within
agents
medication
anal
##uss
##osph
##onstr
cycl
steroid
##anism
combination
##ov
##atal
##tinal
neuro
function
##normal
##ility
##udy
##opl
##ocal
only
##azole
time
##pha
abs
##iciency
potential
reduc
cyt
studi
occurred
Ac
##ric
effective
response
mus
most
##ness
##erc
##iotic
##icated
##roph
##ock
study
doses
management
pneum
##ural
discuss
malign
period
##yth
##terior
abnormal
##entric
Although
including
##upp
##ie
ang
##ange
vir
new
##tensive
complications
history
previously
observed
biop
fib
condition
four
##cop
##tern
children
19
After
ul
fe
concentr
br
bone
hy
test
##ulf
##iven
##dro
##TS
occur
pred
multiple
##requ
##osupp
##ereb
prol
alpha
skin
##tit
##apid
##eutic
aut
ret
secondary
ME
##esis
arth
invol
He
ey
##SE
rep
##ody
examin
agent
because
antibiotic
mech
##lor
##rem
care
later
var
##iss
##erapeutic
import
12
##zapine
##orrh
##ogn
seiz
demonstr
administered
tumor
##yroid
term
These
##phal
star
neph
##raw
However
##ts
##draw
##ascular
Two
op
##ission
she
##oxicity
diab
lesions
given
sim
tub
##rine
top
##ste
carcinoma
eryth
##ensitivity
hour
##ked
##lev
recover
##vention
##ography
considered
calc
##ually
development
reactions
##ospital
hear
##TH
withdraw
##lyc
##ilat
##otre
pol
rapid
##openia
del
pers
RES
##com
antic
##abol
corticosteroids
psych
inflamm
sa
##mit
##ving
##UL
RESUL
derm
##ps
##par
##tial
form
carb
##feron
##pite
surgery
##ram
##urther
##itor
perform
using
subsequ
RESULTS
co
##erv
##onia
produc
lead
factor
##iat
positive
biopsy
lung
##enced
evidence
evalu
There
addition
immunosupp
CONCLUSIONS
studies
##aemia
##ition
ref
requir
##ranul
cardiac
topical
found
frequ
##eter
##ale
##arm
arthritis
20
ble
##ian
det
expos
need
recom
val
METH
METHO
##entricular
She
id
##operative
before
while
like
sup
marrow
known
los
interferon
fever
hospital
##xate
##urn
##ants
##rolog
diagnosed
taking
hours
##otrexate
Cl
org
##ization
##ancy
manif
differ
mechanism
some
##ND
##ticular
##istent
plasm
prolong
##uth
##icin
##oxic
system
improved
av
##entral
heart
CA
cereb
early
##av
monitor
##AC
##orph
##atheter
male
##ergic
angi
##enic
##thal
left
##ilateral
manifest
sm
##til
##ont
##emat
chang
followed
##azep
improvement
loss
main
##ori
##ice
performed
prom
##arr
##arc
their
##lear
association
withdrawal
lim
##ood
##emb
##ace
##aph
resist
##ately
metabol
confir
any
contr
##set
resolved
ill
##nis
life
##ophil
successfully
micro
METHODS
On
ben
bre
cutaneous
##ges
##reat
serious
##tension
hemorrh
thrombosis
factors
necrosis
experienced
type
##iatric
##ract
##eding
##ack
several
##armac
catheter
elev
fem
##went
adv
tiss
therapeutic
##uted
recogn
increase
##hythm
hydro
##lish
##arge
prop
prim
signs
methotrexate
##isod
total
appro
##tig
##ised
##ithium
##olone
hypers
daily
doc
right
##rin
##omycin
##iratory
episod
mod
##of
##tained
##iqu
##xim
##ety
##icians
block
discontinuation
Ch
could
ed
panc
##ex
##asing
char
onset
15
fatal
##RO
##ialysis
##entif
hepatic
infections
visual
discussed
##umb
All
vit
##aps
##app
##tric
##abine
##heum
##ata
##olysis
##olytic
surgical
examination
central
mac
##tes
##ced
##gative
##PO
##use
##astro
##raft
toxic
potentially
susp
plasma
changes
coun
hum
sulf
rever
##odium
pregn
hypertension
lower
regim
seizures
ir
ker
##rogen
cells
musc
did
oste
rheum
##atus
##ental
##opr
##occ
##ocardi
neurolog
##ospor
abnormalities
prolonged
character
sin
##ument
##rect
epid
##ercul
##mitted
identif
One
five
##air
##vent
##arb
##ffer
exc
negative
##ronch
artery
range
ven
##onic
##atures
##lob
##ipi
resulted
demonstrated
##azepine
edema
OB
St
gr
sel
##fen
hepat
##ropathy
hemat
results
malignant
auth
lab
##ECT
##itu
##ilar
ext
recipi
supp
gluc
brain
hypersensitivity
lithium
po
##oh
##dom
##KG
##JECT
respiratory
underwent
virus
BAC
qu
##line
##red
##pec
##ury
chol
extr
possib
Acute
tissue
OBJECT
OBJECTIV
##UND
##actic
diss
lymphoma
insulin
radiation
recurrent
##ROUND
##KGROUND
BACKGROUND
##mend
##ok
##onitis
##esting
##reatment
##och
##aining
short
features
important
24
if
often
being
##ically
seen
infil
pharmac
##ledge
HIV
bilateral
large
sodium
##sure
##atoid
##ash
##ococc
status
respond
meas
into
disorders
inflammatory
document
authors
Wh
aw
aff
role
##lastic
##yr
##arg
eye
##ias
##fusion
corne
metast
recommend
Clin
pancre
further
sch
##onary
threat
##its
##amazepine
##ential
##tein
head
##ardia
medications
##thalm
small
11
horm
kg
mo
##aj
##son
##val
##inated
##asia
##leptic
##ists
##etes
##ropri
knowledge
ulc
##ves
decreased
As
data
##pro
##function
##ortic
##osin
##truc
increasing
suggests
confirmed
breast
threatening
Ad
granul
gastro
##rough
##acin
age
marked
fluor
exposure
##ajor
##oag
##ise
##ocl
acc
##uption
general
inhibitor
progressive
pathogen
diabetes
tubercul
rheumatoid
ful
local
muc
##zym
##oscop
##uria
##idine
##opath
##allen
discontinued
female
16
Patient
mild
major
##esia
##oral
##ick
##pheral
medical
##ograph
started
##aphyl
hemorrhage
50
Treatment
even
lup
##usual
toler
##olar
##ocytic
treat
infar
##ophosph
injury
similar
refract
resistant
do
prov
thrombocyt
resolution
continued
antibiotics
primary
##pir
##oratory
chlor
##ably
pressure
coronary
reviewed
psori
fluid
dysfunction
bleeding
##lished
corneal
lupus
25
however
very
##sti
##tid
##erb
abdom
inhibitors
nephro
CASE
##ropriate
refractory
rate
##AR
##istic
##ited
admitted
activity
clo
suffer
##anced
died
interaction
beta
elect
human
##trial
##und
##lovir
usually
##oblastic
recovery
calcium
required
OBJECTIVE
CD
Re
Sever
ap
cat
made
##ovir
those
##roup
##ulting
##amb
##sient
adult
unusual
weight
particular
immune
underg
##ressed
auto
extrem
##stitial
few
##lem
##acil
resulting
heal
suggested
overd
peripheral
pregnancy
regimen
##osinophil
bronch
##avi
##xy
##estig
anemia
Three
##cet
despite
complicated
investig
##medi
##ieved
safe
##ontaneous
based
numb
sol
##ert
##itone
##uct
##immun
##ially
##ectively
emerg
organ
14
Ph
pat
##oy
##ene
##acement
death
##otoxicity
whom
again
causes
remission
pneumonia
##testinal
clozapine
bacter
stim
ventricular
##avir
##II
##tiz
##odies
ach
##aging
stop
stage
tran
about
occurrence
eruption
problem
neuroleptic
prednis
erythemat
carbamazepine
documented
13
30
six
##upt
##auc
##ality
##ycardia
presence
antid
##urrent
heparin
##ocyte
##ameth
cyclospor
return
infarction
##itoneal
At
cr
cap
so
##fl
##rel
##omp
##eminated
protein
##ects
##ectomy
hypoth
combined
continuous
concentrations
cir
nod
##enting
##onate
##intestinal
##orb
##asal
##isting
##very
isch
##cept
neut
##other
noted
intrac
initial
initiation
fibrosis
subsequent
##pecially
ped
rash
##cit
thyroid
they
##phyl
##oton
##platin
Intr
presentation
enzym
##kinson
##illin
methyl
dosage
postoperative
deficiency
analysis
##arcoma
Des
clear
gas
sw
##ingle
##ache
##let
proced
##ances
intrav
##ychotic
especially
Am
No
eosinophil
wide
##vul
##TI
##ided
beg
##plication
##imal
##ages
##ypical
##ability
##ayed
##oxication
##azine
prior
intoxication
##axis
abscess
anticoag
##psychotic
stopp
acet
cis
est
single
tem
war
##ption
##come
##gal
##ML
##FN
##UR
##icac
beh
where
agg
epile
scler
cerebral
##ique
DI
rh
##anzapine
##omas
prost
altern
antipsychotic
haem
rarely
emb
arterial
recurrence
steroids
##rophy
concentration
monitoring
undergo
Both
Ig
cre
cult
less
##uff
##ded
##eth
##iod
through
##oglyc
prescrib
##ival
##ouracil
uncom
spontaneous
included
diffuse
##phalopathy
elevated
aware
gastrointestinal
Un
ca
grow
line
##thetic
##trates
##irl
lip
##ytoin
interstitial
spinal
occurring
##ocardial
##lobulin
number
200
ro
sal
##toxicity
##yn
##iting
##tib
##omer
##ecal
##iam
prot
immedi
##ize
ocular
##ake
depend
experience
tests
100
CS
vas
##ning
##rug
intensive
##ust
deter
adj
many
recept
##ermal
##rav
##viral
complex
diffic
commonly
specific
decrease
##titution
subsequently
hormone
##allenge
##ophosphamide
##immune
IFN
Par
Rec
mas
nerv
tach
##li
##ae
##farin
##US
retin
##ulating
##acerb
prof
stand
efficac
relative
depression
advanced
muscle
thrombocytopenia
graft
nit
##cutaneous
##ird
##imes
prophyl
sequ
prevent
mean
clinically
##rosp
impair
##ocytosis
outcome
##ventional
support
suspected
schiz
Patients
group
mm
mag
##tro
##den
##TX
##arone
##ither
##osus
##omat
##olol
##ured
##iaz
##ili
although
infant
olanzapine
prec
arr
colon
gener
reduced
reduction
must
mechanisms
transient
pediatric
embol
17
IV
dam
might
pap
##ines
repl
##idual
dex
##seud
##plasia
##imus
indic
assess
##ophren
surv
neuropathy
glomer
became
rapidly
evaluation
episodes
##appear
reversible
identified
abdominal
antidep
18
IN
##mission
##CA
##ension
##onazole
though
third
stem
atypical
describes
event
##ogenic
necess
199
autoimmune
health
behavi
schizophren
Com
Our
With
led
##hip
aden
active
exacerb
class
##isted
seroton
phot
phys
##ationship
shown
##ogram
insuff
##ungal
observ
appears
repe
laboratory
tuberculosis
##ographic
Despite
undergoing
tw
ter
##man
##MS
##EN
##NA
##onal
##ind
##lying
##itation
##atelet
imaging
##ains
incidence
##ymptom
##rolimus
cyclophosphamide
recovered
dermat
immunosuppressive
electro
Severe
standard
antidepress
pur
pop
tom
##var
##rec
reac
##itre
##pho
set
trial
##oxif
relationship
diabetic
venous
psoriasis
warfarin
##iodarone
dialysis
girl
ve
##lusion
##old
##trib
##agon
intrath
useful
phosph
##oung
obstruc
acidosis
avail
manifestations
overdose
cyclosporine
efficacy
Im
tech
young
##otr
##iety
##art
##iab
##ocular
white
disappear
exp
seem
lev
##azol
myocardial
conclud
completely
count
irr
recommended
##ovirus
cisplatin
damage
##photer
techn
body
boy
mit
##ling
##SC
##uring
expl
hypot
##pper
interval
##ences
respectively
##tivation
phenytoin
persistent
avoid
illus
erythematosus
uncommon
tachycardia
##photericin
PUR
eti
free
tac
upper
##light
##onvul
then
ant
retinal
##osed
##ull
dist
extensive
syn
##oxacin
unc
##roscop
##ogenous
probably
pneumonitis
recognized
##POSE
disseminated
metastatic
PURPOSE
CM
lam
pe
##af
anterior
##ict
##retion
##omal
##urb
##idne
##itant
##unt
##essation
recently
att
series
intervention
consistent
##omegal
##ranial
women
necro
antibody
herp
##oplasm
importance
different
benef
characterized
nephrotic
##orbid
nervous
21
Drug
bi
kidne
mass
##oe
##asone
##ison
##omen
##ides
##uccessful
alone
scan
method
colitis
occurs
polym
ulcer
available
CT
az
pub
##ational
##iagn
##oglo
##tention
events
compar
##ovascular
dermatitis
microg
Clinical
achieved
CSF
insufficiency
##oglobin
Hyp
cessation
dop
late
same
##assi
##roh
admission
##yclovir
##mong
diseases
appropriate
remained
viral
conditions
ultr
frequently
likely
neurologic
arrhythm
40
Ex
PD
hal
vin
##lu
##RI
##erve
deg
asthm
aspir
pros
recent
phenomen
controlled
valpro
keratitis
sinus
When
particularly
growth
schizophrenia
vein
intrathecal
Ne
each
mening
optic
te
wors
##les
##kal
##PA
##ositis
##ulitis
##ters
##amic
##umab
##otoxic
super
hemod
amiodarone
injections
repres
prompt
##ximab
possibility
##ococcus
tolerated
##aucoma
alternative
prescribed
massive
48
AI
amin
ovar
##nes
##iel
##PD
##esc
##icine
##osa
##ecti
##ysm
infected
trig
hypoglyc
sud
until
direct
transfusion
##derly
contact
underlying
diagnostic
absence
approach
epidural
recipients
pancreatitis
headache
enzyme
receptor
##itreal
eth
las
morph
urin
##br
##ses
##domy
##HD
##eric
##idone
##ments
##phen
##imab
##abdomy
presenting
subs
ence
platelet
lymphoblastic
antibodies
##iximab
##yroidism
contrib
##gestion
poor
##ochem
against
returned
estab
setting
hypotension
disturb
sudden
En
HC
et
here
##renal
##ioid
##LL
##till
##edema
##ined
##essive
##itus
##apse
bel
##igment
change
posterior
cord
enter
containing
##ocytes
amphotericin
glaucoma
elderly
inflammation
metabolic
recipient
responded
stopped
aggressive
antagon
CMV
Further
PC
gu
lens
vasc
##pred
##inase
##roduc
##emcit
##opic
##ocol
##amp
conventional
##otor
##iferative
partial
obtained
concom
##arditis
##obacter
endome
appeared
episode
kerat
##ohol
fluorouracil
circ
dependent
difficult
urinary
##emcitabine
AC
SU
atrial
either
m2
##otid
##50
##oside
##ocomp
deterior
##unc
developing
##ella
higher
appar
emph
strong
involvement
saf
immunosuppression
detected
neurological
since
##ituximab
cholest
emergency
relatively
population
##abdomyolysis
Croh
LA
Ser
Tr
cri
ox
##iated
##iasis
##cohol
##oper
##try
##tical
isol
immunod
##ieve
careful
seizure
illness
generalized
pattern
neutrop
replacement
tomography
concomitant
safety
Crohn
Four
Her
TN
among
every
mel
ple
pseud
vascular
##iver
##ision
##read
##trac
##amoxif
infants
induction
prepar
complic
##ophthalm
subj
##binant
##hyd
histological
neurotoxicity
eyes
leading
additional
frequency
##amethasone
temp
kidney
ovarian
##amoxifen
AML
CN
During
bow
hel
host
nerve
##yel
##MM
ingestion
##oration
##rog
##ithel
##oster
##trate
##imin
alcohol
implant
##uretic
##aryn
##ancies
artic
##ensitiz
taken
starting
poly
vitamin
generally
serotonin
SUMM
TNF
SUMMAR
Case
II
Neu
cyst
idi
times
ver
wor
##toxic
##etine
##SA
##MT
##ules
##ites
##tral
##romised
##phthalm
##ellular
##oxetine
duration
##ipr
allergic
endoc
##eficiency
##ixed
progression
predis
involving
delayed
valve
grade
prednisone
DISC
##USSION
DISCUSSION
60
His
don
myc
memb
##oqu
thor
##orn
another
##asion
##oprol
##amil
##ucle
septic
close
##chlor
##perg
immunocomp
failed
remov
include
##ycline
##imeth
tumors
infliximab
vision
requiring
grad
poison
pathogenesis
suffered
obstruction
Meth
QT
der
mut
penic
##gia
thyro
##esth
##rob
rele
##omide
##ident
##itch
##tions
consequ
##aden
acyclovir
allow
shunt
##ancomycin
concer
lymphocytic
typical
##rogenic
movement
##oscopic
problems
ischemic
intravitreal
widely
rhabdomyolysis
Parkinson
prophylaxis
thought
##ymptomatic
##omegalovirus
hemodialysis
##prednis
immunodeficiency
bowel
Hist
MTX
PT
air
mes
poin
site
valu
##utine
##oal
##ays
##ins
##asive
##anth
##retro
##osine
##omyc
treating
##ump
##oglobulin
chrom
##ystic
acu
##udine
##netic
symptomatic
enc
mediated
intraocular
leukaemia
remains
coll
radiotherapy
myeloid
analog
various
coag
monitored
characteristic
hepatotoxicity
methylprednis
gastric
repeated
published
phenomenon
SUMMARY
##pergill
##retroviral
23
35
dyst
good
ml
men
morbid
pac
sens
##less
##tent
##vant
##xt
##ened
##onance
##isc
refer
##ulated
dev
##inetic
##umin
conj
##otyp
process
rest
acquir
leg
indicated
##minant
part
region
dyskin
elevation
possibly
tacrolimus
##ophthalmitis
poisoning
methylprednisolone
Bec
FU
Here
fac
gre
gemcitabine
hand
lat
mort
pal
rituximab
situ
still
vol
##mine
##ida
##idal
##emph
##trum
chest
disch
resonance
exce
seven
having
##ageal
##ophageal
##ross
enh
myocl
therefore
exposed
limited
recognition
##opril
glucose
anticoagul
glomerul
healthy
##artment
disappeared
ultras
acuity
Because
##emphig
Myc
Successful
bac
ophthalm
sarcoma
vom
##oi
##ioma
##RT
##CG
##ator
anaphyl
##icial
##veolar
##ocar
##ocortic
##agic
##abil
antiretroviral
induce
##peridone
hemolytic
##adiation
scre
computed
initiated
tumour
anticonvul
Intra
necessary
purp
phosphate
##ield
complicating
predispos
removal
acquired
22
Hep
dil
duct
tamoxifen
will
##oz
##equ
##BV
##onat
##onec
inten
##ark
##aract
##roke
toge
##adder
##odg
tract
perit
peritoneal
##izing
##hea
##ospasm
##ressin
spectrum
significantly
psychiatric
##psis
formation
macular
##ertain
creatin
##assium
neutropenia
vomiting
together
Med
testing
vancomycin
##sential
##rill
##ysi
##ire
##RA
##AD
##round
##ule
##tri
asymptomatic
##romycin
##resp
##plastic
accom
neon
rech
##ividual
antigen
unit
##nea
subcutaneous
immunoglobulin
##ergy
suggesting
##rief
introduc
initially
specim
##remia
recombinant
organism
mainly
##ximately
revers
irre
##oscopy
application
cataract
eosinophilia
dexamethasone
technique
compared
asthma
##ectious
vasculitis
article
donor
anticonvuls
36
DNA
RA
eight
lo
mental
past
ra
##ues
##aine
##tre
##pan
##cor
##ger
##AT
##VHD
##asth
##ithromycin
##opulmonary
##mental
##amatic
##cep
adrenal
activ
sepsis
state
least
orig
##elling
dramatic
##stan
attrib
correl
occasion
thrombus
epithel
potassium
##ranolol
endophthalmitis
probable
appearance
involved
moder
affected
##opathic
adults
intracranial
epilep
routine
established
##unctiv
morbidity
##odgkin
28
Early
Five
Hodgkin
Post
SI
base
byp
field
mol
oper
pul
##oence
##last
##ty
##LD
##EPO
##olid
##urg
##urysm
##utol
whe
proper
individual
areas
##lofen
thrombolytic
amp
##alcemia
responsible
##ardive
suscep
##rophil
198
psychosis
##ranulocytosis
limb
quin
##ambutol
switch
procedure
##iliary
survival
twice
emphas
help
##oproliferative
peritonitis
bypass
susceptib
Sub
dig
pemphig
##uvant
##onus
##ising
##rept
##roid
##ectr
##lex
deep
##umed
##els
##otrop
comm
##plement
stent
hyponat
##ification
##cris
##urrently
relaps
##ipro
microscop
myeloma
minimal
essential
metabolism
epidermal
determin
seems
herpes
##ochemical
##ensitization
immunocompromised
mortality
##onecrosis
Fol
Pos
ur
would
##arding
##ics
##icillin
##usc
##itary
conver
##erapies
challenge
coma
##plicated
add
##earch
along
##oxin
attention
##crip
Inter
clinicians
relapse
##ministration
parent
parame
myasth
##omyopathy
cardiomyopathy
bladder
outp
cytomegalovirus
malignancy
evaluated
Therefore
##arrhythm
##arged
extreme
procedures
immediate
physicians
observation
antidepressant
conclude
illustrates
encephalopathy
##esthesia
release
dyskinesia
##ocarcinoma
epilepsy
##oencephalopathy
##cristine
AD
Diagn
Sin
back
brief
fet
fungal
gang
ile
mater
nor
nons
rif
##lit
##OP
##LS
##osc
##omin
##terol
##empt
##opressin
depos
##phrine
##rest
whose
cho
action
##ypt
shock
perf
effusion
##oxazole
hyperplasia
respons
practic
leukoencephalopathy
##hydro
##icient
##illary
secretion
institution
cytotoxic
studied
fibrill
frequent
needed
resistance
self
infiltration
pancreatic
began
caution
immediately
reactivation
laser
deterioration
deriv
values
responses
bull
current
dox
ear
mL
rib
uter
##nal
##afen
##ying
##famide
##eration
##enol
##ord
##aren
##arily
##osfamide
##uric
##acic
##opro
##ocellular
aspar
##iram
##tinib
seg
stroke
##quam
##ellitus
prem
weak
hyperg
##yloid
##ylline
##ubicin
sugges
remo
intes
compound
become
##ausea
courses
malignancies
bleomycin
approximately
vitro
selective
suppression
##okinetic
stimulating
prednisolone
sclerosis
impairment
assessment
exacerbation
vincristine
disturbances
parameters
fibrillation
000
27
37
IC
MM
NMS
SS
best
dental
focal
gold
ket
loc
last
mellitus
nausea
pel
urine
wall
##sity
##eti
##iant
##hood
##erous
therapies
##orption
them
##ann
##osarcoma
##ulatory
##sies
congen
added
infectious
##urea
triam
trimeth
##chicine
##atinib
occlusion
highlight
regarding
##cinolone
##oplatin
propranolol
suppor
##ococcal
granulomat
clearance
##TION
culture
protocol
profile
sequel
attempt
dopamine
trigger
ethambutol
morphine
##obacterium
isolated
CNS
idiopathic
##ocorticoid
accompan
hyponatremia
triamcinolone
26
Di
Ep
TM
max
oxy
port
slow
##most
##utr
##topril
##hibit
##face
##utes
adequ
##athiop
tric
peric
severity
##tenance
highly
risperidone
invasive
fluoxetine
managed
struct
sustained
##ternal
##odyn
variety
confirm
benz
infiltrates
measured
investigation
solution
anticoagulation
prostate
magnetic
termin
##rected
etiology
encoun
conjunctiv
anticoagulant
moderate
whether
Follow
Since
congenital
##athioprine
32
Pulmonary
aim
cent
ec
ech
tardive
##oic
##aum
##sis
##tle
##yan
##king
##fact
##VA
##ercept
##ones
##thromb
##orubicin
##anercept
requ
##veitis
##apan
##leep
##phosph
distr
treatments
sex
neur
##oneph
##ified
agranulocytosis
uns
arrest
causing
receive
##ichen
##ophylline
##rops
myopathy
median
##athyroid
##SIK
analges
examined
opioid
erythema
pharmacokinetic
measures
bacterial
##avirin
##floxacin
proteinuria
determine
##nesium
antagonist
LASIK
##traconazole
##hydr
##omycosis
facial
parenteral
extremely
ribavirin
oxygen
31
72
BMT
CY
Con
Japan
MRI
Res
Se
ST
bro
ce
fract
mat
rupt
sleep
ten
##know
##vic
##PS
##arabine
##tering
##ecular
##lysis
##ograft
progn
resection
almost
unique
phase
##tisol
##erma
thrombolysis
lymphocyte
##illamine
improve
normalized
neck
blind
dysp
##axel
##tity
persisted
psychotic
differential
angio
maintenance
hemorrhagic
macroph
##oprim
hematologic
glucocorticoid
fulminant
suffering
##plications
##oeb
rechallenge
choice
##areness
suggestive
supportive
45
70
AT
AND
De
GVHD
cystic
certain
dog
fam
grav
light
##bal
##lic
##focal
##IN
##onide
ane
##osing
##opa
##opsy
##otens
##ept
unknow
diarr
hyperc
chemoth
entity
increases
place
lymphaden
cardiovascular
electr
defects
##ervical
supplement
##embol
##appropriate
exclud
full
fully
##tizing
IgG
trials
##icture
meningitis
##igmentation
ACE
melan
endocarditis
creatinine
irrever
baseline
hyperglyc
sequelae
##odynamic
encountered
require
distress
##otensin
unknown
diarrhea
42
53
55
CB
Fatal
MA
Most
Pr
aortic
bip
equ
flow
face
lack
mig
motor
nine
zoster
##aemic
##pr
##path
##ivery
##way
##ways
##aria
##iclovir
##itating
##aper
##apar
##ume
orth
##othel
##oidal
clar
##ellar
antim
##oxamine
##anciclovir
##ologous
agon
presents
##geal
##kinase
flap
scale
##angi
##yclic
##oplastic
nephritis
##rams
products
contrast
benign
hydrox
ifosfamide
infiltrate
measure
While
Administration
granulocyte
does
stimulation
neutrophil
whereas
epileptic
precip
colony
paper
indicate
surviv
prosthetic
valproate
cholestasis
preparation
##aryngeal
glomeruloneph
Mycobacterium
##iprofloxacin
##cription
CYP
gravis
AR
REPO
Six
ak
burn
cyc
fav
lumb
lichen
mil
sul
uveitis
water
##mb
##utive
##oac
##lus
##land
##aw
##yg
##iol
##itic
##ief
##xiety
##jective
##tiapine
inappropriate
##teria
##ecutive
##olin
##olution
##ura
##idental
##itr
##iton
##amoeb
##uclear
##inephrine
##adver
##igine
traum
hypoc
area
##izumab
desensitization
##astatin
diet
##uetiapine
subc
enl
consecutive
concurrent
better
##ologically
cardiopulmonary
##oint
##ensitive
recurred
probability
autologous
varic
carboplatin
manifested
doub
extremities
swelling
cultures
##rospinal
magnesium
adenocarcinoma
antidepressants
##otrigine
peg
biochemical
azathioprine
hypoglycemia
guid
strongly
##oquine
gradually
thyrotoxic
origin
myasthenia
##ominant
##quamous
trimethoprim
aneurysm
chemotherapeutic
irreversible
glomerulonephritis
00
90
Cand
HD
Le
Multi
coin
cef
dl
fr
itraconazole
os
pyr
sensitivity
##yram
##LE
##inent
##alysis
##isia
##aran
##omon
##ush
##ecting
##itated
##erapamil
adren
restric
##ectable
lep
orally
order
##ather
percutaneous
carri
##asty
hyperkal
relief
spasm
##ophag
parkinson
genetic
department
cycles
retrosp
tubular
##lycer
delivery
produced
evaluate
angiotensin
hydrochlor
approved
sulfate
osteonecrosis
Clinicians
##aphylococcus
cirrh
begin
impaired
necrotizing
benefit
arrhythmias
half
worsening
AIDS
endometrial
apparent
pleural
penicillamine
##anthamoeb
determined
perforation
Candida
##yramidal
AN
Man
Other
Pro
basis
cav
cross
cyan
lin
lact
nasal
vac
warr
##me
##uter
##rac
##rane
##event
##pid
##kyl
##fa
##ward
##EG
##ties
thus
off
theophylline
##anol
reas
##ittle
aspergill
##romes
##otomy
residual
onc
##aginase
alb
alfa
exhibit
next
hair
haemat
monotherapy
agitation
unevent
syndromes
clinic
plan
leukopenia
allograft
weekly
erg
regard
colchicine
minim
demonstrates
detection
manifestation
##ophilia
sulfameth
regimens
shortly
Phys
lipid
electroc
lamotrigine
degree
valproic
represent
etanercept
believe
temporal
concern
chromos
coagulation
discharged
myoclonus
baclofen
##oietic
anticonvulsant
molecular
pulse
doxorubicin
weakness
##utrition
Following
REPORT
##anthamoeba
uneventful
39
43
AP
HBV
More
Sp
Wil
cm
cough
currently
gamm
ganciclovir
pene
rati
rig
tend
venti
##oembol
##lation
##loxacin
##ave
##aqu
##ry
##HS
##Cs
##inol
##ession
##thyroidism
##atis
anxiety
##osal
##ulate
##ulopathy
Thus
##ampl
##adox
inform
never
##athisia
antidi
aged
##ophysi
prur
lymphoproliferative
##obarb
inhib
##ishman
biopsies
brad
##tituted
mechan
##remic
##apsone
Staphylococcus
hepatocellular
markedly
solid
hypothyroidism
acetate
antipsychotics
IgA
observations
micrograms
represents
thoracic
device
##uminum
greater
Intravenous
outpatient
Diagnosis
earli
asparaginase
intestinal
pelvic
prognosis
dyspnea
lymphadenopathy
bipolar
sulfamethoxazole
##obarbital
57
BC
ECT
For
If
MDS
PR
Pre
bic
brom
den
fung
gest
hip
kinase
mul
mother
now
pust
pump
picture
rang
rather
vul
vess
vers
ventric
wound
##born
##cious
##zid
##SH
##jection
##iness
##inally
thi
##esterol
##ored
##idate
##tional
conduc
##oderma
proc
proven
once
stable
##ultaneous
paras
objective
##ostatic
cann
allergy
##ogene
rise
longer
progress
pathological
phenobarbital
Acanthamoeba
periods
abnormality
##erebral
delay
##oniazid
produce
cerebrospinal
##ontrol
hydroxy
metastases
mucosa
patch
captopril
nodules
adjuvant
retinoic
embolism
glomerular
Immun
##iable
concluded
mitral
necrolysis
##otide
screening
##ADH
attributed
SIADH
##otropic
removed
accompanied
adequate
echocardi
##lusive
beginning
versus
33
34
56
69
64
80
Ab
CP
Carb
Eff
HA
Lab
PV
Renal
SM
bile
basal
cur
cop
cervical
ciprofloxacin
date
ect
mid
mim
nutrition
oedema
pan
size
slight
ure
verapamil
##ms
##na
##rupt
##ez
##xine
##als
inadver
##atrogenic
##rection
##used
##ula
##ulative
##ecit
##opoietic
##apyramidal
Thromb
##uch
asp
chori
commun
##antoin
##ateg
alkal
existing
infer
implicated
imatinib
stabil
lethal
recall
##ansfer
##ologists
##ipine
sympath
##ount
hemoglobin
placement
lymphocytes
novel
childhood
inser
herbal
gene
##fetil
depressive
defic
stress
upon
infusions
reduce
newborn
open
##tility
prominent
Only
extraction
psoriatic
ischemia
cream
prophylactic
polymorph
worsened
##escent
Neuro
##traline
legs
##respon
load
digoxin
rifamp
bullous
granulomatous
tricyclic
##thrombin
cirrhosis
##amples
##ecitabine
29
44
400
61
Ar
ALL
DE
Naran
Over
TEN
aer
bis
lysis
mixed
pall
sum
sites
ty
table
yet
##tum
##jo
##enz
##onidine
##thi
##icrob
##uled
##ulsive
##urs
##itol
##amph
##imod
alveolar
external
strept
leishman
##oidosis
perman
##ivudine
antiviral
cortisol
hyperthyroidism
intermit
##plete
##oretin
consisting
surface
toxin
cand
##ician
histopath
##omyel
compulsive
elimin
influ
##times
pathophysi
minutes
simultaneous
##stein
erythrop
value
suprav
angiography
##arcoidosis
##rectomy
##arbonate
awareness
##arget
increasingly
Report
bacteremia
enzymes
Americ
stopping
prostag
INT
aspirin
aspiration
superior
apparently
Trans
work
##ipramine
membran
referred
neonates
Subsequ
Possible
deposits
practice
##afenone
premature
rupture
excluded
akathisia
favor
varicella
aspergillosis
antidiuretic
mechanical
earlier
Naranjo
supraventricular
51
500
End
EEG
High
IU
Ind
III
PE
Per
Str
TSH
UC
VII
aplasia
bot
caps
fil
glyc
great
home
iron
ng
nucle
ray
rhythm
sour
search
squamous
sarcoidosis
uremic
vi
vag
##ni
##ner
##oked
##fort
##fection
##vascular
##GN
thal
##atib
##icyl
##rof
relev
##aced
##apr
##apism
##aparin
##ocaine
##amycin
trem
##elines
##unct
##anted
adol
aluminum
##ible
antif
##stances
prevention
monocl
Initi
units
##atinum
diuretic
##teen
overall
regular
endothel
painful
multifocal
progressed
##ished
confusion
minor
##ulfiram
sometimes
##azepam
primarily
ques
sched
ulcers
tuberculous
tolerance
soft
haemorrh
vasopressin
INR
behavior
##ENT
irradiation
arrhythmia
##luor
verte
movements
PTLD
##otype
ultrasound
##arkable
introduction
quinine
pemphigus
relapsed
microscopy
family
lumbar
carried
bicarbonate
##ansferase
##icrobial
##omyelitis
prostagland
monoclonal
75
Dep
Diss
El
HS
MR
PA
Rever
SD
TD
cle
cum
ju
joint
mis
nat
rates
sensitive
viv
##de
##rial
##ii
##cent
##ged
##gth
##zolid
##ST
##titis
##ensive
##ength
##ina
insi
offer
##ording
##atemia
##icl
##rees
reupt
degen
##umerous
chann
##plied
resemb
activation
alter
exch
clos
mand
complained
hypert
hyperp
hypertensive
sertraline
spread
substan
##ropath
##raves
potent
##ogenetic
histor
##genase
dosages
compon
black
arteri
strateg
visc
myelogenous
predominant
autopsy
nephropathy
production
propyl
blockade
##ochrome
affect
provide
interactions
Several
investigations
nodular
behaviour
unclear
lamivudine
methods
##brid
tempor
mutations
dystonia
purpura
predisposing
##uscular
converting
##arrhythmic
Epstein
portal
sexual
melanoma
hyperglycemia
cycle
thyrotoxicosis
coinc
##omonas
hyperkalemia
hydrochloride
ratio
Laboratory
leishmaniasis
permanent
erythropo
reuptake
38
54
58
Barr
Cardi
Disc
Graves
HUS
My
Mar
Pl
Sc
SLE
aver
aort
aure
cogn
eas
none
ot
vig
##noid
##ool
##pected
##itinib
##kel
##fied
##wing
##tile
##esophageal
##thesis
##oroidal
##anding
##rotic
##oses
##itud
##trating
conges
##otal
##otopic
##ugment
##odone
##odopa
proxim
alert
implications
sten
leuc
##ainide
##epatic
presumed
drain
preval
##chol
unrespon
##veness
abuse
serial
##encing
discl
subac
##ropion
thrombotic
allogene
##ocytopenia
##ript
intake
##posed
blast
responsive
defect
defined
intravenously
absorption
angle
hyd
optim
simple
forms
##ervative
immunosuppressed
hospitalization
maintained
blocker
##existing
counts
excessive
CD4
applied
extremity
erythematous
soon
estrogen
spontaneously
Complete
classic
levodopa
attack
interventions
critical
closely
sensory
volume
specimens
##treated
epithelial
segment
##athyroidism
CYP2
double
guidelines
parkinsonism
##ciousness
##atible
antifungal
verteb
prostaglandin
cumulative
aureus
congestive
allogeneic
47
65
71
Af
AZ
Blood
Is
SE
Symptom
TP
Ten
Use
ax
around
aplastic
bas
bup
biliary
dapsone
fat
lactic
little
nas
numerous
quetiapine
ren
section
target
##uting
##ove
##okinase
##eal
##ficial
##tia
##tially
##ination
thick
##esthetic
ana
##arial
##omes
##idomide
##opur
##apular
##ucil
isoniazid
##ote
##ades
##adine
chain
They
##odys
##ploy
proved
##aged
##agia
##epile
desm
Inc
unex
unrel
corrected
##ytopenia
##ylated
##ronate
##ophenol
chemical
plaqu
platinum
shows
epinephrine
obsessive
##ferred
##achment
##achnoid
cortical
##formation
##ardial
##timately
pathologic
cytochrome
##ietin
demonstrate
calcification
hearing
withdrawn
delir
product
femoral
##ofovir
sulfon
muscles
##opramide
hematoma
extrapyramidal
mofetil
##oclopramide
localized
##ambucil
eruptions
##asalazine
intravascular
acetyl
United
##iamine
##iazide
##tribution
beneficial
Hyper
degrees
Eng
HCV
PCR
Serum
implantation
specimen
organisms
susceptible
material
##litaxel
triggered
hypercalcemia
sulph
ergot
electrocardi
rigid
##adoxical
inhibition
##thiouracil
intermittent
##rofur
Disseminated
proximal
disclosed
Afric
Symptoms
##ophenolate
41
46
66
CO
CLL
Es
ECG
Hem
Min
Oral
Ps
P4
Pneum
Pseud
Syst
augment
dL
ero
ging
giant
kne
list
lob
norm
spl
tes
##aund
##ration
##eff
##yositis
##iative
##hepatic
##voxamine
##19
##LA
##AB
##NU
##ats
anaemia
animal
##enter
##ises
##arn
##rod
rein
##osum
##idofovir
##opia
##apt
##apen
##ocr
iss
##umption
##cephal
##portun
##imazole
prothrombin
accept
altered
strom
neoplasm
index
tradi
##velopment
antih
##oxaparin
##etamine
##actoid
intram
arm
causal
occup
spe
##azodone
##rosy
consciousness
cellular
intraoperative
##aking
malaria
remain
gland
underst
inhaled
mark
fluvoxamine
postm
outcom
##ulinum
Its
##oplasty
fibrin
opportun
coh
reflex
detail
prolongation
promyel
contrac
catheters
##wenty
tissues
propafenone
Chronic
toxicities
selected
much
##ART
gastr
eosinophilic
mmol
##iazep
Within
electroly
disappearance
mitomycin
explan
uncontrol
##phenidate
subsided
believed
circulation
carefully
subject
consequence
concerning
##lastoma
individuals
switching
susceptibility
fetal
##oprost
broad
fracture
clarithromycin
Multiple
##ushing
retrospective
chromosome
bradycardia
HAART
insertion
elimination
question
haemorrhage
closure
propylthiouracil
stenosis
drainage
##epileptic
##rofurantoin
P450
outcomes
promyelocytic
52
68
AV
BO
Based
CH
Cutaneous
Del
DPD
DAT
FD
GI
None
Tran
Toxic
VPA
fo
fif
fixed
gyn
hall
iatrogenic
lid
nature
samples
tors
##uod
##oar
##laf
##sal
##tub
##yz
##vac
##13
##PE
##LIN
##wise
##ending
##onid
thym
##thel
ing
##orp
##atch
anesthesia
androgen
rejection
##osm
##omep
##omile
##oler
##acity
bevac
deb
dehydro
##resh
##tinoin
chamb
disulfiram
exist
except
sept
separ
tri
##eptic
assay
suff
inducing
##oxide
##ologies
atax
causative
internal
##ipar
##teroidal
plus
medias
##ostatin
amb
##rene
regression
compatible
color
colonic
##axine
defin
types
esophageal
retro
repair
start
option
options
##ramycin
hospitalized
differenti
limiting
hydrocephal
identify
excretion
OBJECTIVES
dissection
##okal
Aspergill
accum
provides
nephrotoxicity
bronchospasm
investigated
cyclosporin
crypt
hypothesis
vasospasm
profound
assessed
peak
superficial
aminotr
transfusions
lasting
contributed
criteria
##operfusion
cystoid
mutation
penicillin
pointes
paclitaxel
purpose
intensity
reversed
reversal
properties
ampicillin
compounds
TMP
matter
##aperitoneal
antimicrobial
epilepticus
##itonavir
enlarg
leprosy
lactate
warranted
##pidus
vessels
source
view
relevant
juven
vivo
insipidus
degeneration
visceral
erythropoietin
Discontinu
unrelated
##aundice
stromal
Transient
##lafaxine
bevacizumab
chamber
Aspergillus
67
78
Ag
AB
Bronch
Central
Dec
Em
Ev
Fl
HT
Long
MS
Mag
Met
Noc
Of
Prop
foc
fall
mood
pigment
sun
tonic
yr
##nec
##but
##lin
##aec
##diagn
##iter
##gue
##BD
##BC
##12
##LT
##GF
##ION
##ores
##atives
##atur
##atosis
antine
##asmin
##istry
##aris
##arachnoid
##icion
##omic
##usis
##uscit
##ulations
##term
##terone
tob
tool
##idase
##openic
##oposide
##ocys
##ocycline
##utamine
##ucin
dele
##irth
##tinue
##imer
prote
resuscit
actin
acting
acne
##agen
alle
##abin
##abapen
infrequ
neural
neovascular
prescription
antiarrhythmic
antiepileptic
carotid
##iform
##actable
octre
able
arabin
dip
relation
##entia
spine
##opharyngeal
administering
enti
consisted
##raine
##aker
impact
##ludarabine
thromboembol
surve
neuropath
##SIGN
contamin
score
histologic
##aches
inhal
decomp
employ
resolve
radiological
special
typically
microm
myelodys
fourth
ultimately
feeding
##otretinoin
antich
##abolic
producing
detachment
CAPD
##iquimod
suspicion
lowering
States
label
##ohn
extrac
##oking
pharmacological
hormonal
provided
chlorambucil
##tidine
abdomen
capecitabine
temper
##rophysi
receptors
sequence
embolization
serotonergic
dermatologic
##onvulsive
promptly
##brile
encephal
keratomile
ophthalmic
Medical
neonatal
ileus
##oscler
unsuccessful
cephal
angioedema
macrophages
Development
migraine
survived
reason
exhibited
Physicians
gamma
ventilation
information
cannot
Carbamazepine
inadvertent
inferior
rifampicin
DESIGN
favorable
tremor
histories
average
cognitive
unresponsive
vertebral
English
Systemic
knee
dehydrogenase
ataxia
enlargement
juvenile
Discontinuation
Nocardia
##ocystis
##abapentin
octreotide
keratomileusis
49
BP
BCG
CI
Col
Cap
Eight
Hb
Hospital
Nine
New
Sim
fer
fati
lapar
mir
porph
sed
sil
via
##mol
##uz
##oat
##bl
##bound
##tain
##taining
##yle
##pation
##pective
##iosis
##iance
##irolimus
##iapism
##cal
##HL
##erase
##entical
##inic
thiamine
##org
##oric
##atology
antin
##icc
##reous
##rox
##osyn
##ecia
##urate
##idol
##acillin
##leb
##oct
##tries
##uten
##uction
debrid
##celer
conn
distin
distribution
##odiazep
##agnes
always
alkyl
imiquimod
##ainamide
##oides
hypom
hypox
hypophosph
##oxy
##oxysm
##acted
##vium
intraperitoneal
##azone
priapism
evident
conservative
play
plasmin
medicine
thrombin
conclusion
otherwise
remarkable
scal
##ogenesis
metoclopramide
endoscopic
Anti
##yroxine
demyel
pathology
myelosupp
##rophic
periodic
197
feature
##titute
##loroquine
METHOD
##orphine
##ember
advant
propose
humans
pregnant
hematopoietic
ulcerative
accidental
majority
chloride
healing
safely
deaths
neuroleptics
prescribing
linezolid
retinopathy
dextro
indicates
photos
reactivity
expression
intervals
synthetic
ulceration
azithromycin
asthmatic
meningioma
##escence
contribute
subjects
Neurolog
Methotrexate
consequences
characteristics
anaphylaxis
raised
activator
##standing
occasionally
urtic
gangl
maternal
##oscarn
maxim
pericardial
benzodiazep
Japanese
Prim
burns
##olinergic
hypocalcemia
pegylated
ANCA
Moreover
conduction
SMX
deficit
Neuroleptic
American
botulinum
clearly
hyperpigmentation
prevalence
subacute
##riptan
delirium
African
testicular
hydrocephalus
tobramycin
anticholinergic
fatigue
debridement
plasminogen
##oscarnet
59
74
82
Aut
ACT
Co
CK
Cor
Dop
FM
Hg
John
Lithium
Oc
PS
Prol
Rh
Ris
Top
atri
bul
bodies
birth
cranial
drops
far
final
fludarabine
gon
junction
jaundice
lav
mE
py
ruled
##riam
##pread
##habil
##gi
##AS
##VII
##ER
##NG
##20
##onography
##inavir
##inii
##alim
ineff
offen
##ortion
##orting
##entan
##isis
##anine
##antib
##rous
reach
##ostic
##omfort
tol
##emide
##emotherapy
##emoglobin
##itate
##opram
##leuk
##letal
##lets
##ocial
##trans
##tically
Therapy
isotretinoin
deple
##romazine
conte
convul
##elf
##unomide
choroidal
distal
exten
exists
trimes
##othor
##othyroxine
record
percent
##ications
olig
carinii
##encephal
preoperative
preexisting
atrophy
untreated
unnec
diaz
correct
severely
##tisone
discomfort
parac
subarachnoid
enoxaparin
obese
consti
myal
##rand
remaining
scans
amyloid
histology
endogenous
##italopram
##imetidine
##rown
##keletal
discontinuing
managing
arteries
##CTION
significance
specif
dementia
cytosine
effectively
##ieving
prolif
retard
examinations
120
person
psychotropic
lungs
refl
identical
differences
cerebellar
limits
microb
blockers
pancytopenia
vitreous
macul
osteop
osteomyelitis
venlafaxine
##lobal
headaches
Addition
hypothes
postoperatively
acetonide
##ethyl
growing
adjust
Recently
##like
profession
##omatostatin
##iazine
eventually
physician
repeat
terat
dermatosis
levothyroxine
##azoline
##azolamide
##oplasmosis
##idespread
Neut
disturbance
difficulty
pseudo
##iversity
histologically
membrane
##amilial
allowed
airway
##oalveolar
analogue
myoclonic
dilated
introduced
activated
operation
nonsteroidal
blindness
ATRA
dogs
traumatic
penetrating
pustular
procainamide
bisphosph
endothelial
natural
optimal
TPN
Pneumocystis
erosion
traditional
intramuscular
opportunistic
uncontrolled
ambulatory
aminotransferase
arabinoside
micromol
alkylating
Primary
lavage
mEq
##riamycin
ineffective
context
unnecess
76
95
By
Bone
Cal
DR
EBV
Gl
Gen
IT
Liver
Ob
Or
PU
RPE
Twenty
aeti
bol
binding
cas
citalopram
dang
fist
fasc
foscarnet
gain
gram
hr
how
just
ke
lor
noct
pil
uro
umb
wear
wave
##mia
##uary
##urop
##bar
##rain
##eine
##pine
##iar
##gr
##GE
##eresis
##onates
##inc
##inating
##ali
##alapr
##ators
anth
##entam
##roc
rehabil
##omod
##terase
##ecul
##olamine
##emp
##acti
##acaine
##oconstr
##uture
##ilical
##unk
##igm
##tinence
challen
resc
acceler
##aglobulin
stenting
stool
assisted
clot
classi
hypokal
##ivacaine
antitub
carcin
preterm
monon
Infl
unable
unilateral
intractable
##lotinib
diphen
occlusive
transformation
##rolene
##rosine
paradoxical
paroxysm
evol
immunomod
##ukast
##uresis
##onstitution
##adily
amount
err
erlotinib
intoler
completion
perioperative
normalization
##obutamine
compression
decline
decision
multiform
minocycline
##oventricular
Accor
##phalan
delusion
systems
angiosarcoma
smear
metabolites
##ofluor
##osporin
##ohist
cholesterol
pharmacologic
##yria
Adverse
according
pathogenic
chlorp
organic
Pharmac
cry
crisis
capacity
eosinophils
aggrav
scleroderma
##omastia
throughout
linear
nitr
supported
groups
obstructive
expected
polymyositis
##ectiveness
substitution
establish
guided
##operidol
gradual
regional
excell
tumours
Hepat
##respond
##cortisone
correlated
##urgical
emphasize
microscopic
derivative
highlights
##TIONS
slowly
conjunctival
Seven
electron
agonist
linked
gestation
ventricul
hydroxyurea
panic
aspects
palliative
tyrosine
tablets
candid
pathophysiology
membranes
adolescent
Reversible
channel
strategy
predominantly
attacks
Incre
gingival
contracep
DATA
fifth
Emerg
protease
myelodysplastic
antinuclear
maximum
FMF
Prolong
##emoglobinemia
constipation
unnecessary
bolus
umbilical
According
2b
300
63
62
600
73
77
99
Bef
Calc
CML
Due
Hy
HB
HI
IL
Kap
MP
NE
Pol
Panc
Prog
PSA
Sy
Some
TB
TA
Vis
cer
cyp
cran
cidofovir
duod
dobutamine
length
nif
nail
pron
punct
swe
sirolimus
upt
widespread
##mar
##more
##utin
##uropathy
##oon
##bo
##bital
##lig
##aution
##taz
##damycin
##rad
##razole
##pon
##RH
##RS
##carb
##ging
##vo
##Ds
##DU
##D6
##11
##ICA
##MD
##tiaz
##editary
##inary
##astine
##astric
##arter
##reg
readily
##osi
##osulf
##osomal
took
##olic
##idov
##itamin
##acia
##opaus
##opapular
##opecia
##leven
##iltration
##amol
##ample
fore
displ
##odilat
##ystitis
##antrolene
##imine
proposed
access
exud
neonate
trache
trunk
##epam
clonidine
effort
##izole
##ify
preced
atten
position
##chym
Ins
abrupt
complain
hyperther
##encies
##ounced
paralysis
chemor
obli
showing
surge
##ranous
novo
injected
amn
completed
##ychloroquine
risks
##rowth
Anaphyl
reveal
radiographic
species
esophag
analys
##oplasia
cytarabine
MED
reporting
variable
carbonate
leads
detect
needle
##ematous
##arcoal
limit
##embranous
breath
##RODU
labor
##ituitary
##pecific
affective
recommendations
mouth
##truction
mucositis
electrophysi
CD20
Review
autoantib
Phen
achieve
cryst
methylphenidate
saline
protamine
1000
difficile
Recent
nitrofurantoin
Combin
##azolam
irrit
explain
illustrate
##omalacia
##omegaly
polymerase
PDT
haloperidol
directly
suddenly
HCC
etoposide
enterocol
antagonists
Furthermore
cholestatic
melphalan
mycophenolate
coagulopathy
pacing
exception
enhanc
enhanced
##oiter
anaphylactoid
intense
anticonvulsants
correlation
amput
switched
pemphigoid
fetus
##litazone
uterine
MMF
attempted
center
analgesic
Seiz
CBZ
orthotopic
measurements
ARF
lichenoid
##iolitis
trauma
pyrid
adrenergic
planus
community
sympathetic
streptokinase
INTRODU
Strong
capsule
Initial
Elect
misdiagn
resembling
exchange
component
easily
simplex
bupivacaine
nasopharyngeal
##opurinol
electrocardiogram
lobe
hallucin
lidocaine
sunitinib
resuscitation
entire
employed
mirtaz
demyelinating
myelosuppression
ACTH
atrioventricular
trimester
diazepam
PUVA
anthrac
rescue
excellent
Before
Kaposi
uptake
##tiazem
##idovudine
##opausal
obliter
enterocolitis
INTRODUCTION
mirtazapine
Bilateral
CF
Care
Cons
Cauc
Cushing
Gy
HLA
LM
Me
MI
Mon
Mic
National
OC
Prom
Rep
Rapid
Sal
Steroid
Ste
Typ
TLS
UV
avium
bal
bur
border
call
dro
done
dimin
fal
fast
fund
finally
future
goiter
ran
som
sem
sib
sick
social
yiel
##uti
##ufact
##nitol
##ld
##after
##sA
##ruption
##piratory
##ik
##fac
##Hg
##PH
##IG
##juvant
##inosa
##align
##thral
##thyroid
##tharg
instances
##orous
##atriptan
##asian
##icular
##ussion
##idog
##idronate
##eminal
##acr
##ople
##opidine
##opidog
##aple
##aptic
##ocation
##trated
##ticul
##version
##utane
##amidronate
##ower
##romise
##adr
##ported
whole
##uginosa
##odine
adh
research
act
##yps
exogenous
images
standing
leak
letharg
##aind
##epa
##eptid
living
reconstitution
clom
clopidog
draw
##anch
haz
preven
manufact
mannitol
follic
folinic
Inf
##vens
correspond
##load
arg
##neuropathy
hyperpar
clindamycin
transverse
##ylate
##encement
spir
spond
spite
##peritoneal
##rolide
partic
subm
evolution
enalapr
consumption
##hex
##heimer
leukem
##uality
heter
healed
signal
##illance
contained
instituted
##ressant
cancers
dysph
##formin
considering
##ersensitivity
phenol
mineral
controls
functional
reducing
Acc
tested
proliferative
eyel
##stead
polyc
persons
requires
plasmaph
##enicol
promising
contraind
hydrocortisone
##ofib
##iques
150
suspect
osteomalacia
##oprazole
identification
excision
veno
extra
##ochond
##zyme
chloramph
catat
cleared
cauti
vasoconstr
prevented
mmHg
behavioral
physical
twin
tomographic
##artan
##iabetic
tachy
##roscopic
herpetic
##oea
Hypersensitivity
Enter
endometr
circulating
deteriorated
preparations
##osterone
alcoholic
##aryng
polyneuropathy
idiosyn
endocrine
##oquinol
allowing
PTU
grew
hands
latent
discharge
bacill
anaphylactic
diltiazem
##ozyg
##iramate
##yloides
terminal
analgesia
placebo
agonists
fraction
restricted
Many
vaccin
oncology
APL
pruritus
ranging
echocardiography
mimic
slightly
polymorphism
aeruginosa
PATI
##iclopidine
Cardiac
desmopressin
unexpected
sulfonamide
Pseudomonas
augmentation
speech
gastritis
electrolyte
accumulation
antineoplastic
neovascularization
temperature
##osclerosis
##blastine
##agnesemia
offending
maculopapular
professionals
##aliplatin
rehabilitation
antitubercul
multiforme
Visual
crani
hyperthermia
Caucasian
Stevens
clopidogrel
hyperparathyroidism
chloramphenicol
cautious
83
AA
Cyt
DL
FK
Fever
GH
Hum
KS
Line
Nor
NHL
OCT
PP
Path
Pers
RS
Ret
Radiation
Sh
SC
Such
WE
aid
bab
cost
cimetidine
div
dial
diz
fell
fusion
familial
gabapentin
global
je
mill
notic
om
pH
pituitary
rub
ritonavir
ster
somatostatin
tim
taper
ves
##mus
##uation
##uros
##oad
##bup
##lined
##tte
##tently
##dle
##dural
##iomas
##ks
##haps
##ground
##garis
##fication
##vage
##vasive
##DD
##HA
##TA
##TTI
##ziness
##xia
##AL
##int
##aline
##alities
##esir
##esias
##orr
##orafen
anomal
##asation
##assive
##isole
##iction
##icidal
##anin
##rover
##rofen
read
rebound
##econd
##oll
##idrosis
##emaker
##activity
##opar
##opyr
##apl
##tioners
##ocrine
##tra
##tronid
##tracted
below
##amisole
##umably
##ortem
continue
##adic
##tinent
comorbid
##antadine
##pler
##imeric
onych
##agement
##abutin
exerc
##ndrome
imm
ste
stom
##urette
trypt
develops
presumably
lipos
assist
##ideo
perfusion
##ionate
effectiveness
##izes
##etal
##etaxel
mono
manic
description
ocul
##romegal
compliance
causality
spect
##azimine
discover
paral
partially
practi
myopia
plate
##aken
thrombi
##ostasis
##ergistic
canal
lymphoid
allopurinol
##viron
##virapine
methicillin
##aminergic
gluten
##ferri
##anges
##angioma
diffusion
dosing
##obil
compromise
hereditary
##endazole
empir
elective
Angi
continuation
nonc
take
cytogenetic
##ythemia
newer
feas
febrile
involve
Heal
##ognized
deliver
persist
organs
##avasation
changed
metabolite
catheterization
modalities
Chol
Chest
surgically
sulfasalazine
pregnancies
muscular
vena
Strept
hematological
affecting
##yramine
granulocytopenia
accident
accurate
progressively
##icking
CD3
catech
undergone
stimul
transi
node
intracerebral
DIHS
prostatic
uncomplicated
University
salvage
Recom
Recurrent
supports
mm3
irrig
techniques
mitochond
etiologic
##oplasmic
dopaminergic
vinblastine
trigeminal
lenses
endometri
keratoplasty
circum
oxaliplatin
CNV
##iminary
world
Methyl
Histopath
point
chromat
restless
latter
ultrasonography
Hepatic
##ozol
operative
commencement
ADR
pericarditis
##factory
##ropsych
opioids
pharmacokinetics
##hydramine
macrophage
electroretin
supplementation
##prazolam
hydroxychloroquine
milk
001
frag
osmol
hairy
tendon
pruritic
PRES
vulgaris
copper
middle
mimicking
chorioretin
stabilized
loading
Subsequent
Subsequently
##icylic
diuretics
HSCT
temporary
aorta
SETTI
rigidity
foot
##theless
debil
separate
retroperitoneal
Magnetic
focus
infrequent
encephalitis
##uzumab
distinct
hypophosphatemia
ganglion
Johnson
Topical
##alimumab
##othorax
records
osteopor
Neutrop
fistula
paroxysmal
chlorpromazine
Hydro
Syndrome
pronounced
puncture
amnesia
Strongyloides
hallucinations
obliterans
yielded
##alignant
manufactur
eyelid
plasmapheresis
tachyarrhythm
dizziness
##urosemide
##buprofen
##orafenib
##tronidazole
practitioners
endometriosis
osmolality
SETTING
88
86
A1
BK
CR
Car
Clo
Continu
Cont
Cortic
Cerebral
DG
ER
ED
Finally
Group
Gold
HR
IOP
RF
Rif
RNA
SJ
SMS
Second
Us
bo
born
dan
ef
facil
gast
globulin
gross
gave
lig
merc
making
near
night
oil
oint
rit
rad
rose
sided
util
vital
zon
##lam
##lip
##ture
##rap
##pre
##iph
##iate
##iitis
##ces
##gl
##gular
##for
##OR
##OD
##LP
##A4
##MP
##FVII
##jun
##erence
##enes
##onol
##edipine
##inese
##orded
anesthetic
anabolic
##enteric
##isamide
##aring
##ico
##icat
##antr
##reported
##roz
##rovascular
retention
##ithiasis
##omotor
##omembranous
toc
tooth
##ecainide
##urally
##ope
Thir
##utable
##amyl
iso
##own
##elior
charcoal
chimeric
##odrine
adriamycin
reser
acromegal
alread
alanine
lefl
syph
true
##eprazole
##quid
##quine
liquid
reconstr
clonic
periv
perhaps
incon
##ested
atopic
mania
##cratic
##actam
desferri
##monemia
unres
intrad
above
articular
##nex
diver
transamin
interest
interfer
##tenosis
spastic
##iptine
##ipipr
physi
symme
symptomatology
discussion
##ropine
ens
eng
constric
immunological
immunohist
hemodynamic
myoglobin
##ometh
played
placed
##ubation
thromboc
neuropsych
others
flut
##virus
##adiotherapy
remed
scin
ampl
amantadine
amelior
intact
##omyositis
cardiotoxicity
multid
psoral
postpar
##timulation
nonin
confined
mind
decreasing
timely
newly
retrog
involves
reproduc
erythrod
calculated
calciton
dermal
formulation
performance
##iatr
bleb
detectable
##urnal
CAP
angiogram
break
modified
Chinese
counter
suppressed
glucur
quick
quadr
cholec
extravasation
White
metastasis
mucosal
##ographically
infarct
chloroquine
weighted
thyroiditis
Intrav
begun
scleritis
rhin
haemolytic
room
grafts
sequential
precurs
emboli
papular
replaced
indicating
1991
behaviors
schizophrenic
populations
##recognized
levamisole
synergistic
##roscopy
##oplasma
azot
dopa
prospective
phenomena
approaches
poorly
PCP
##506
emphasis
patterns
Histological
mesenteric
##omyces
dystrophy
pacemaker
sensor
Herein
exceed
Heparin
creatine
dramatically
attributable
occasions
epithelium
routinely
emphasized
helpful
herpesvirus
output
background
gangrene
rifabutin
ketoac
located
locally
Differ
hypocalc
Management
cava
##wards
albumin
Spontaneous
Wilms
BCNU
bromocr
dense
ectopic
##amphetamine
Department
MRSA
mandatory
March
Plasm
##itude
plaque
accepted
neoplasms
understood
explanation
##osmetic
septal
sufficient
##iparesis
December
neuralgia
thromboembolism
decompression
Similar
sedation
##oatrophy
advantage
Doppler
##transplant
myalgia
proliferation
retardation
##igmoid
##ofluorescence
Emergency
Prolonged
HIT
Pancre
TAE
foreign
complaints
LMW
borderline
spondyl
enalapril
catatonia
vaccination
FK506
jejun
platelets
Streptococcus
mitochondrial
##ozolomide
osteoporosis
Corticosteroid
DGTX
SJS
ointment
zonisamide
already
leflunomide
desferrioxamine
##ipiprazole
postpartum
calcitonin
ketoacid
bromocriptine
81
Biop
BAL
Cy
Center
Er
ES
Even
EPS
Ewing
Food
FAB
Given
LE
Op
Oste
PI
Pent
RLS
Sm
Skin
Ul
UL
VW
Var
VAD
WBC
bed
bound
ces
cosmetic
fron
furosemide
gel
lay
lines
mum
make
narc
nurs
pa
put
pauc
ral
ros
rand
rats
scr
sole
tin
tear
tone
tip
tong
turn
tics
vary
wk
##nac
##oir
##ourea
##bul
##leral
##liminary
##ah
##ament
##aff
##side
##tosis
##ds
##rate
##rade
##ye
##ient
##iation
##iac
##iological
##ky
##hidrosis
##care
##gent
##vis
##vity
##zine
##OL
##xone
##A1
##ME
##NS
##onium
##onazepam
##onomic
##edrine
##ediatric
thiazide
thresh
##alox
##allow
##alpha
##thritis
instead
ofloxacin
##oresis
##ateral
anast
ankyl
##aser
##articular
##ices
##roun
reverse
##ostr
##osage
##ositive
##ostig
##vemb
##olate
##idemia
##emetic
##emination
##active
##oped
##opositive
##ocent
##ammonemia
##umor
const
##phedrine
##oto
##otoxin
##otepa
##ogl
##adolin
what
##tinic
chel
chron
Their
##odermal
##platelet
##imetic
##iminated
protracted
adalimumab
alive
alopecia
alprazolam
##ectal
statin
staining
nebul
trazodone
##oids
recorded
dry
##ionic
antithyroid
antiemetic
antiplatelet
##oxid
##stem
##pped
preliminary
manip
##actone
##sions
design
unlike
wean
##rometh
diam
correction
arising
diaph
dihydro
directed
transcr
transferred
seropositive
intern
relieve
space
usual
##ipran
means
##tism
##rosourea
paran
subt
##arean
##teroides
environ
obvious
success
cellulitis
immunologic
hemangioma
medium
intraves
##ubated
##aneurysm
surroun
neurom
allerg
flare
remit
injur
##ogenes
amoun
methanol
methimazole
methemoglobinemia
##amines
##angiop
includes
periocular
regressed
becomes
metformin
endemic
coli
##ressing
blis
initiating
Antib
postulate
##ensity
longitud
##esional
experimental
##ESS
##ammatory
diagnoses
itself
continues
myeloblastic
confocal
estr
estim
escal
decreases
controlling
angina
branch
tube
former
needs
##ophilic
##ofloxacin
blocking
Chemotherapy
vitrectomy
osteogenic
osteosarcoma
rheumatic
epiderm
hepatotoxic
brainstem
##ortical
thrombocytopenic
nephrotoxic
overdosage
##mediate
Phil
##flu
hypotherm
Novemb
haemophilia
2000
##ynamic
retinitis
nitrog
nitrosourea
##omatosis
##iliar
IVIG
papillary
adenosine
exacerbated
photodynamic
##ENTS
electroencephal
seemed
explained
uncertain
##untary
herpeti
kidneys
masses
Extensive
Neither
##ochemistry
herein
enteropathy
PCI
##operitoneal
##tracycline
implanted
mycobacter
thorough
collagen
dystonic
palp
situations
enhances
predisposition
irregular
original
emphasizes
relapsing
conversion
Interferon
practical
derived
utero
uterus
remove
ICD
granulomatosis
Diff
TMA
structures
conjunctivitis
ecz
cysticerc
##angiopathy
measurement
precipitated
dietary
enlarged
restriction
##lycerin
cavity
vacu
##uterine
reasons
concerns
Spinal
tendency
##atisfactory
gestational
multic
aspect
sumatriptan
influence
INTER
VIII
thalidomide
schedule
CYP2D6
AZA
basic
issues
occupational
BOOP
FDA
gynaec
torsades
##yzed
mediastin
cryptococcal
##aturation
deletion
surveillance
##oriconazole
hypoxemia
reached
depletion
specifically
pseudoaneurysm
DRESS
dangerous
##entamicin
##eculiar
hypokalemia
diphenhydramine
ventriculoperitoneal
Progressive
nifedipine
preceded
autoantibodies
Phenytoin
Seizures
Salmon
false
##ticulum
hazard
noticed
omeprazole
vesic
##orrhea
Health
debilitating
Rifamp
ritodrine
##onolactone
reconstruction
thrombocythemia
noninvasive
spondylitis
CyA
VWF
random
tongue
##nacipran
threshold
ankylosing
##ostigmine
##adolinium
intravesical
surrounding
longitudinal
November
nitroglycerin
herpetiform
01
2a
AL
App
Cult
Comp
CLIN
Dis
Data
Et
Europ
Eleven
Fab
Fungal
Gram
Gemcitabine
Growth
Jan
Lymph
Mec
MAC
Massive
Malignant
NC
Nit
NSA
OD
OU
Quetiapine
RE
Ray
SO
Spec
Total
Val
aph
cover
cicat
duc
dim
dual
euth
erection
fentan
gly
gut
give
gentamicin
hom
hot
him
harm
ili
iodine
ibuprofen
kept
lis
lost
mix
mamm
nar
ov
owing
pent
pup
pigmentation
p13
pamidronate
peculiar
sen
sorafenib
tia
tun
tib
titr
utility
vs
video
voriconazole
wal
zaf
##uan
##uated
##nel
##oke
##sess
##ria
##yx
##ipl
##iacin
##iphyl
##ihood
##hib
##cine
##gabine
##vin
##vastatin
##BT
##DP
##DCA
##zole
##zheimer
##OS
##O2
##GS
##VI
##wh
##welling
##ERI
##erin
##eridine
##enectomy
##enchym
##enopausal
##enzyme
##inine
thin
inst
##ora
##ork
##orus
##astin
##icopl
##anic
##roterone
androgenic
##oming
##veol
##ulos
##olet
##iding
##acent
##oconazole
##tria
##utaline
##ilis
##amiv
##ucl
deox
##cein
##ception
asc
##romatic
##elph
##ada
##adone
##adiazine
##adelph
##unte
##unately
##odialysis
##pling
##plase
##plained
##imidine
reserv
acral
##agi
##agent
alveol
##ibular
##abs
excess
extension
neoad
orbital
indications
indwelling
##eperidine
##dial
preser
likel
recur
##ellate
hypopar
induces
##oxacillin
##ets
##etamol
##stomy
preferred
##ologist
monocyt
manner
##astating
##loquine
aripiprazole
##neal
hyperuric
hyperactivity
hyperhidrosis
transl
serous
##ults
interpre
metronidazole
parathyroid
praz
subf
subep
evoked
energy
succin
consult
consists
hemoperfusion
myositis
itch
intrauterine
##ements
leukocytosis
concurrently
lymphomas
scro
Alzheimer
amph
histoplasmosis
##angitis
##obic
compr
becoming
inher
metal
heroin
##anded
##androgen
eluc
Analysis
outside
radiologic
depressed
experiencing
deficient
considerable
inhibits
strain
Tourette
visit
microl
thereafter
phenyl
myelin
myeloproliferative
absent
potentials
concentrate
terms
topiramate
##psia
produces
topically
201
Clostr
cerebrovascular
maintain
microangiopathy
docetaxel
suspension
countries
extent
glucagon
viruses
pancreas
111
hormones
pathogenetic
##icken
250
##erbutaline
bronchial
bronchoalveolar
##aviolet
emergence
bacteraemia
achieving
intraventricular
Amiodarone
Amphotericin
abscesses
acetazolamide
IgE
##irlukast
lipoatrophy
salt
proton
dependence
adjunc
adjacent
nerves
##rospective
generation
##inesterase
INH
1993
healthcare
Common
Complications
classical
##ograms
reactive
phosphorus
##iability
avoided
people
##afil
benefits
ultraviolet
Neph
aminosal
hypoglycaemia
hypoglycaemic
contributing
HCQ
enteritis
keratopathy
Seroton
Trich
critically
oxidase
neutropenic
pseudomembranous
cysts
##ucleosis
allows
airways
mesal
points
valuable
collection
reference
devastating
restar
palsy
situation
volunte
ophthalmologic
raises
Postoperative
limbs
urgent
Diagnostic
aspart
segmental
ketoconazole
structural
termination
neuritis
ceased
fractures
tender
glucocorticoids
ARDS
milnacipran
retrospectively
link
haematoma
regarded
minimize
Physical
ventil
informed
bromide
denied
ranged
thiotepa
##naud
communication
summar
typh
histopathologic
simultaneously
UCBT
VIIa
##icylate
Myocl
ototoxicity
anaesthesia
plaques
antihist
glands
detailed
Delayed
##LINE
ingested
allevi
neuropathic
contamination
connection
hypomagnesemia
scalp
dextrose
Autopsy
Risperidone
extended
paracetamol
amyloidosis
personality
adjustment
bisphosphonates
Org
lorazepam
urokinase
clotting
classified
mononucleosis
candidiasis
Polym
duodenal
##carbazepine
##ICAL
exudative
MEDLINE
electrophysiological
amputation
misdiagnosed
Careful
Prompt
Type
lethargy
corresponding
spironolactone
polycystic
idiosyncratic
##ozygous
Persistent
anomalies
##opyramide
liposomal
feasible
delivered
Recombinant
chromatography
manufacturer
Continuous
danazol
diverticulum
ensu
constriction
remedies
scintig
quickly
Intravitreal
ketoacidosis
Various
mumol
nursing
##aloxone
anastom
international
##angiopath
Philadelph
hypothermia
CLINICAL
Europe
January
Raynaud
fentanyl
iliac
tiagabine
zafirlukast
##iphylaxis
##icoplanin
##amivir
reservoir
neoadjuvant
likelihood
monocytogenes
Clostrid
adjunctive
Philadelphia
84
85
98
Amin
Among
Be
Bet
B12
CC
Cancer
DDD
Fluor
GAB
Hash
IGF
Klu
Lis
Lif
MC
MAT
Na
Pub
Perc
Rituximab
SA
Sur
Syn
Tors
Tamoxifen
VZ
Ven
Wol
ather
bar
bil
brown
cres
came
cram
cured
cystitis
dom
drop
drow
educ
fill
food
flex
gout
goal
gadolinium
laryngeal
mor
mast
nad
nond
naloxone
outer
pen
pant
peptic
sk
sac
session
sigmoid
saturation
ti
tax
zol
##uish
##bine
##ton
##rhythm
##yric
##yrin
##ping
##pof
##io
##itin
##ipt
##iple
##irect
##RTI
##gias
##fazodone
##filtration
##floquine
##vents
##TP
##VEN
##ID
##ertensive
##enolol
##inergic
thigh
##aling
##alesional
inn
##orin
##orel
anuria
##entation
##any
##reak
##ropl
real
reticular
##omorphine
##ulosis
##ullob
##ecycline
##urine
##ittal
##acing
##acial
##open
##opinavir
##apamide
##trig
##trument
Though
##ilities
##amen
forear
dehydr
##ortex
##romy
##elt
##igecycline
disopyramide
##ode
##antar
adip
adding
##ffeine
##agittal
##ypertensive
##abis
example
step
staphyl
nefazodone
shap
shun
indapamide
##othiazide
##epinephrine
press
##que
cla
clof
clonazepam
pertinent
suicidal
##iving
antitum
##izer
##oxine
##oxapine
inclusion
incident
atenolol
destruction
note
Inves
Infection
unreported
presentations
##cribed
hyperphosph
occult
transport
transfer
transesophageal
##yline
interesting
interventional
interruption
describing
##ophyt
mefloquine
parenchym
submitted
diagnose
evid
ensure
hemangi
appropri
intrahepatic
##head
epig
transplants
malt
flash
##adiol
scar
scarr
Altern
##amination
overload
##riasis
undert
understanding
compromised
computer
instill
instrument
##position
combinations
##ands
##acterium
eluting
Another
##ungin
postulated
genotyp
genotype
101
radio
radiograph
consideration
##ammaglobulin
stri
strict
strength
pathway
phenoth
phenotyp
phenotype
appearing
##arinic
cytoplasmic
##ricial
##cope
autonomic
arthropl
varenic
variant
##orrhagia
tubul
polys
dermis
##part
##ervation
evaluating
##avy
maleate
angiographic
smoking
mainst
recognised
propionate
mode
modality
##exist
##astrozole
##raftment
sulfadiazine
##dominal
quite
cholangitis
cholinergic
dissemination
pharmacotherapy
responding
cornea
granuloma
##oagul
##oagulation
account
mucoc
##opathies
tolerability
treatable
fluids
CD8
apnea
bronchi
bronchodilat
bronchiolitis
emerged
pneumoniae
antidiabetic
Atypical
capable
Amp
temozolomide
sclerosing
rhEPO
alternating
caffeine
route
adjunct
##omatous
##iazolid
IVC
necessitated
1999
1997
1996
exacerbate
exacerbations
insufficient
twins
usefulness
Impro
scanning
comparison
sinusitis
veins
teicoplanin
##escents
ethyl
substituted
vascul
cholestyramine
oxid
illnesses
concomitantly
Herp
hosts
mycosis
mycotic
thorac
immunocompet
thyroxine
collapse
menorrhagia
processes
restoration
restored
regions
lateral
intensi
immunoglobulins
adrenaline
pulses
1989
commerc
myasthenic
ileum
norepinephrine
nonspecific
deposition
derivatives
bullae
##oprotein
ICU
attempts
confirming
conjunctiva
##factor
familiar
supplements
requirements
CBDCA
MAO
migration
precipitating
##itrate
spasms
##ractive
##ranean
haematological
fungemia
fungoides
cannabis
curative
##rupted
deficits
##enza
streptococcal
greatly
vaginal
thalass
adolescents
scheduled
alteration
exchanges
substantially
components
blasts
CYP2C
renin
sections
##oveal
thickening
thickness
COX
Psych
animals
issue
antihypertensive
understand
markers
postmortem
gynec
mediastinal
definite
##iterranean
Captopril
laparotomy
porphyria
photosensitivity
Neurological
urticaria
urticarial
benzodiazepines
gonad
General
ITB
aetiology
fasciitis
challenges
immunomodulatory
contraceptive
HBsA
cyproterone
##arterial
chemoradiotherapy
analyses
enhancement
Repe
called
dropped
diminished
sibling
##ikacin
##aplegia
##eptide
clomipramine
follicular
particip
dysphagia
Accutane
contraindicated
PATIENTS
Cytomegalovirus
Human
dialys
timing
discovered
paralle
irrigation
A1C
ERG
Using
gastrectomy
syphilis
incontinence
unresectable
##omethacin
azotemia
Plasma
Osteonecrosis
paucity
constant
##oxidil
manipulation
injuries
Antibiotic
estradiol
Diffuse
INTERVEN
Salmonella
narrow
##triaxone
alveolitis
##absorption
hypoparathyroidism
aminosalicylic
Serotonin
restarted
##angiopathic
GABA
Listeria
MATERI
VZV
Wolff
skull
##pofungin
clofazimine
Investig
varenicline
##iazolidined
04
05
1a
79
800
96
Az
Aw
AE
ASA
ALT
B19
Brain
C1
C4
Cycl
Cef
Camp
Caution
DH
D2
Det
E1
Each
Ful
Fail
Flu
GC
GM
Gastro
HH
HV
ILD
IOL
LT
Late
Mg
MB
MN
MVI
NI
Nons
Ol
OH
Oxy
OHS
PTX
QRS
Ro
So
SP
Sus
Sch
Sign
Sequ
Surg
T3
TC
TK
Ter
TAC
UI
VV
WP
atr
aromatic
bu
buc
brough
denti
dark
dantrolene
down
density
dynamic
fresh
froz
gall
har
hicc
irin
jus
larg
lopinavir
mT
mist
mism
miss
nur
niacin
oesophageal
por
pure
pass
power
ptosis
quality
rule
rFVII
sent
skeletal
sagittal
tap
tel
tPA
ticlopidine
uric
vel
went
zidovudine
##ming
##uro
##uit
##urox
##okin
##best
##aise
##siness
##trop
##treatment
##tuzumab
##ray
##patient
##pox
##iace
##ipheral
##ioquinol
##RE
##hensive
##cessive
##gol
##group
##vovirus
##vision
##B19
##LB
##GA
##GVHD
##ALS
##CO
##Is
##MENT
##FT
##23
##WI
##KT
##enomegaly
##oni
##onj
##ontic
##ales
##escein
##thym
inade
##oring
##atrin
anap
antral
anastrozole
##entre
##isation
##arth
##arium
##icans
##rex
##rehensive
withh
##osh
##osac
##ostine
##osides
##omb
##omated
##omimetic
##uster
##ulse
##ulide
##terious
##inger
##ecan
##olip
##uration
##emtuzumab
##itory
##acid
##acrine
##opo
##opt
##apyr
##iafiltration
##trative
##transferase
##ticasone
##illo
##ilance
##amn
##ineur
##ineural
##umig
ascit
##romat
##eld
##elzine
##irm
##irc
##pher
##otecan
disin
##odyst
##odontic
##antel
##imide
##imoxazole
##imoto
##itide
resected
restenosis
##abatrin
exanth
##ector
##ectasis
leup
leaf
neither
neoplastic
nevirapine
indep
indomethacin
trab
trend
##oiditis
##quate
lif
lived
recording
hypoplasia
pergol
##ighten
antiin
##auss
##anserin
##ifying
##ifostine
##udin
##ouraged
atropine
older
manage
##cher
unch
unrecognized
abus
abated
##neic
dipl
hyperammonemia
##ylase
interface
relax
sparing
usage
##oreal
##actions
##enalidomide
##perfusion
discon
discol
pars
paraplegia
parvovirus
prick
##tegr
##ropr
highest
ent
enough
immuno
immunity
immunofluorescence
hemolysis
hemiparesis
myot
##ometry
medullob
##iesis
##uble
##binaf
transplanted
malaise
hex
##ups
fluc
flecainide
##iciently
potency
##illar
controver
remote
scores
##ogenicity
resultant
amni
##renosum
erad
glioma
potentiation
##omyosis
unders
##ychn
##oblast
composed
comprehensive
painless
cardiover
##endocrine
decade
cold
emission
eliminated
multiorg
Anterior
##enstr
##iders
dysrhythm
discontinuance
proges
phenelzine
confused
minute
analyzed
##ovastatin
##ovorin
reduces
cytostatic
feet
hyal
hyph
testosterone
predict
autosomal
125
nephrogenic
simvastatin
developmental
anticip
psychiatr
##itoring
coad
immunosuppressant
supr
Close
##aves
##orphic
metabolized
Onc
elevations
advised
recognize
hyperstimulation
model
modest
##iquantel
Child
Churg
maculopathy
##ocardiosis
##osporins
identifying
##arbit
selection
suppress
quan
##oker
largely
documentation
affects
##yrid
##tructive
Aden
gastrostomy
##ickets
provoked
providers
##erbal
Reg
##immunoblastic
130
sixth
capillary
hypothyroid
nodes
intracor
intracellular
clearing
cultured
Until
2004
root
efficacious
nitrogen
##imesulide
171
INF
necessitating
1998
Compar
purple
levofloxacin
etiologies
lamellar
biological
##rohept
##lux
prosthesis
hypoglycemic
ethanol
morphologic
guide
LABD
Serial
isolates
complicate
subjective
##ithelial
implantable
QTc
Histologic
collected
sensation
referral
devices
palm
screened
predisposed
Mediterranean
rechallen
cataracts
correlate
occasional
##lasty
digital
commenced
Posterior
additive
Interstitial
gangrenosum
SSRI
lasted
accompanying
maximal
Resolution
Results
##eptor
MAHA
Prior
clarify
neutrophils
neutrophilic
aneurysms
Leuk
adrenocortic
parkinsonian
##lyceride
Prot
cyanamide
albicans
haematopoietic
electroconvulsive
Willeb
outpatients
PRCA
vessel
thiosulf
progressing
CPH
Effect
PVB19
urea
inadvertently
Thrombotic
chorio
polymorphic
rifampin
Overall
histopathological
influenza
America
Endoscopic
PET
Strauss
nucleoside
vagina
##nitine
Initially
offers
channels
alterations
hypertrophy
hypertrophic
strategies
Marked
aorto
vigorous
leucovorin
##choline
##cholinesterase
hydration
anaesthetic
unexplained
##ocrit
postmenopausal
cohosh
##oprostenol
##orporeal
##omepizole
sufficiently
definitive
differentiation
Evidence
##linical
deleterious
actinomycosis
Colchicine
Capecitabine
##ylephrine
dextroamphetamine
Neurologic
benzodiazepine
convulsions
Additionally
Obs
caspofungin
key
nocturia
nocturnal
Infliximab
evolving
intolerance
delusional
Hepatotoxicity
Increased
995
NEH
##ligo
surgeon
Combined
pyridoxine
Monitoring
fundus
sickness
preventive
vasoconstriction
Enterococcus
bacilli
antituberculous
Retrospective
baby
tapered
##esiritide
exercise
tryptase
##obilization
empirical
catecholamine
electroretinography
Neutropenic
tachyarrhythmias
HRCT
##raphy
##icotinic
tocolysis
reserpine
spasticity
symmetric
engraftment
flutter
amplitude
retrograde
sensorineural
hypocalcaemia
LMWH
ESR
varying
##ocentesis
blistering
mycobacterial
herpetiformis
Computed
cicatricial
##uloskeletal
amphetamine
##ickenpox
Nephrotic
volunteers
aspartate
Myoclonus
Clostridium
Hashimoto
Life
Percutaneous
drowsiness
morning
antitumor
hemangiomas
appropriately
maltophilia
scarring
arthroplasty
mainstay
immunocompetent
HBsAg
Awareness
Fulminant
Failure
HHV
VVR
WPW
brought
frozen
irinotecan
mTOR
rFVIIa
##uroxime
inadequate
anaplastic
##apyridine
ascites
##odystrophy
independ
pergolide
##binafine
##roheptadine
Willebrand
thiosulfate
03
1b
3A4
450
93
AS
AU
Aus
Ara
Apr
AHS
Bl
Bi
Bis
Bac
Brown
C3
Can
Cereb
Dr
DS
DM
DES
Dapsone
Dantrolene
DWI
EM
Elev
EPO
Eosinophil
Fe
Fort
From
Fif
Iatrogenic
JH
LD
Low
Little
MH
MG
Mer
Mac
Musc
Never
OG
Pe
Pot
Pain
Pri
PTH
RH
RI
Red
Rem
Radi
Ritonavir
Sud
Swe
SCT
Sulf
Te
T4
Tox
Turn
TCA
Tardive
TRH
Tumor
TTP
UG
Upon
Unex
War
Zidovudine
audi
afl
bus
bum
bim
cure
centr
catal
dors
dilat
dominant
erec
fas
fair
fumig
fomepizole
go
germ
gran
gained
gamb
ground
hence
ion
jud
jaw
kind
lac
lib
lang
lax
lovastatin
ms
mem
miz
moxif
nyst
name
nesiritide
nicotinic
ow
pit
pip
rating
rickets
spp
sternal
sicc
trough
tigecycline
von
van
waves
yell
zyg
##men
##ux
##uage
##utis
##nat
##norm
##noea
##oor
##oum
##oful
##aem
##tus
##tally
##ruc
##yre
##ih
##ione
##ike
##iology
##ianserin
##hisc
##go
##gressive
##flow
##TB
##TCO
##zoar
##10
##GH
##As
##AN
##ATION
##CE
##Ms
##FP
##54
##69
##tif
##enil
##enna
##enafil
##inone
##inopril
thion
thiazolidined
##alin
##esonide
##therapeutic
inability
##orec
##orid
##orated
##orib
##oracic
##atid
##atoprost
ann
##entgen
##astim
##istries
##arrh
##icle
##antile
##ret
##rove
remin
##oss
##osen
##ospl
##osity
##osamide
##osentan
##omn
##usted
##uspid
##ulent
##ulbar
##terstitial
##ings
too
totally
##ecally
##olved
##uran
##urge
##idermal
##itative
##achy
##aptive
##aprox
##tioned
##ocon
##ocated
beats
bezoar
##vern
##ilst
##amed
##amus
##amole
##amipr
##amizole
dehisc
##sial
##sian
##cell
asteroides
##romial
##elve
##elective
##irone
##irub
##phth
whilst
##tinin
disting
##sex
##odular
##yster
progen
prochlor
##itid
##itiligo
##aginal
ald
allo
alarm
examine
seeding
infest
infancy
infantile
impl
stay
stages
stones
statis
net
neoplasia
shallow
indinavir
indirect
##athecal
tris
##epez
##ycycline
##dii
assumed
rectal
clioquinol
Wegen
hypo
hypoal
perosp
antimon
##oxitin
##ociation
incision
incorp
##ansoprazole
##etectable
##stone
carmus
carnitine
##udesonide
prep
pretreatment
possess
##crine
##acts
##vix
ago
desipramine
fold
foliace
unm
unf
unrem
unless
intran
intralesional
arch
complement
hyperchlor
hyperchol
clinician
transmission
serological
serologic
interleuk
intermediate
relieved
##encl
spor
sperm
spray
##azide
##ichia
respect
##perative
##perazine
meg
parents
subthal
subdural
subtherapeutic
##teplase
chemistries
enuresis
consolid
hemophag
hemiple
myd
apprec
##raemia
media
intraarterial
##akes
leukemic
leukocyte
males
heavy
heighten
##upor
##uptive
flar
##illing
content
contagi
##adione
scleral
betamethasone
reviews
ammon
amoxapine
seconds
glue
##rier
##ritic
##anged
##ulties
##endronate
declined
##andem
##aterally
adversely
elic
blue
flux
fluticasone
##ointerstitial
##ensis
##iopurine
outb
outlet
##ascial
dysplasia
recurrences
inhibited
strains
micros
##ishing
phenylephrine
myelopathy
nonp
cycling
neurob
neuroendocrine
functions
functioning
Actin
discusses
fibrous
conditioning
196
brachy
##requency
automated
arthral
demonstrating
tuberc
polyps
persisting
##comas
safer
evaluations
reflux
##oxicillin
cerebell
##avudine
##orphyria
changing
##aphic
Once
females
##tigo
##rinogen
models
##ofantr
Allergic
##apsular
osteoar
##arbose
Stage
hematuria
hematocrit
extubated
suppressive
gluconate
possibilities
pharmacodynamic
##ococcosis
Ass
##proate
##truct
Adrenal
gastroenter
##iseoful
generalised
localization
similarity
similarities
provocation
thrombocytosis
overdoses
investigate
numbness
emergent
emerging
organizing
140
Phot
bacteria
##avirenz
cruc
##flammatory
Intrac
Intrathecal
##URES
behind
epilept
DIC
rhGH
##oglycoside
Unfort
lipomatosis
roentgen
salts
##ynin
complexes
difficulties
##iliac
precise
embolic
embolus
papules
180
1995
photop
dermatological
intrathecally
##otri
##iably
expan
explored
avoiding
synthesis
syncope
necrotic
biologic
##oetin
public
##tentional
comparable
Extr
Examination
halofantr
degrad
aspirate
tea
tetr
tetracycline
AIN
amino
morphology
settings
keratectomy
Serious
oxcarbazepine
subjected
##roglitazone
##arynx
verified
septicemia
thyrotrop
releasing
consequent
mesylate
analogs
analogues
repeatedly
conjunction
dyskinesias
enhance
anticoagulants
Mycophenolate
Intraocular
dilution
subcutaneously
loop
raise
##unctival
##lofenac
commencing
address
##criptions
briefly
effusions
structure
structurally
confirmation
terminated
aimed
eccrine
analgesics
##hydrate
ruptured
orthoped
precipitate
##oactive
subcl
Multifocal
ceftriaxone
hydrochlorothiazide
cyanosis
warrants
allografts
regardless
gammaglobulin
penetration
inhibiting
Previous
##esterolemia
conducted
parasite
parasitic
Immune
echocardiogram
Abdominal
Effects
curve
ureter
alkaline
tablet
PEC
Peripheral
nucleus
##ENTATION
Electr
Reversal
##iclosporin
substantial
behavioural
coincident
coincidental
Scale
vigabatrin
leucopenia
axillary
bupropion
fatty
calcifications
splenic
splenectomy
coherence
reflexes
gastrin
explanations
thymectomy
triple
colorectal
differentiated
Agranulocytosis
ABL
HT2
##butynin
thromboembolic
survey
contaminated
inhalation
extracorporeal
ophthalmicus
cephalosporins
porphyrin
Occ
Ocular
Rhod
tolazoline
convulsive
oliguric
microbial
Additional
hypotheses
bisphosphonate
##empor
accelerated
carcinomas
evolved
error
intolerable
cervix
sweat
##regulation
displacement
displayed
trachea
efforts
Institute
surgeons
crystall
irritability
pyridostigmine
entirely
OCD
somatic
submuc
cautiously
DLK
Linear
North
divided
stere
comorbidities
onycholysis
stomatitis
Angio
nonconvulsive
circumstances
ADRs
PRESENTATION
chorioretinitis
Hydroxy
RFA
efavirenz
ligament
##lampsia
##amylamine
acromegaly
perivascular
intradermal
neuropsychological
multidrug
psoralens
reproductive
erythroderma
quadrant
precursor
exceeded
Biopsy
frontal
scrap
unlikely
weaning
paranoid
neuromuscular
amounts
estimated
eczema
cysticerci
Meckel
OUTCO
Valproate
aphasia
euthyroid
lisinopril
mixture
mammary
tunnel
tibial
##iplinary
preserved
praziquantel
subepithelial
itching
anastomosis
CCNU
SAH
barrier
cresc
nadir
titers
forearm
hyperphosphatemia
parenchyma
evidenced
undertaken
striking
##existence
Improvement
commercial
MATERIALS
Olanzapine
OHSS
hiccups
mismatch
##onjunctival
##rexed
##optysis
trends
antiinflammatory
unchanged
medulloblastoma
controversial
##ychnine
multiorgan
##enstrual
##yridamole
independent
Austral
April
Nevertheless
OGC
Priapism
Sweet
Toxoplasma
Turner
UGT
Warfarin
aflat
bimatoprost
erectile
fumigatus
gambling
language
memory
mizorib
moxifloxacin
sicca
yellow
##normally
##aproxen
##amipril
dehiscence
##irubin
prochlorperazine
alarming
infestation
##epezil
Wegener
perospirone
carmustine
foliaceus
hypercholesterolemia
interleukin
consolidation
##iseofulvin
Unfortunately
halofantrine
thyrotropin
OUTCOME
7th
87
91
Av
AM
ART
AMD
BU
Ben
Brug
BTX
Bart
Cis
Cop
CPS
Ciprofloxacin
Cidofovir
Do
D3
DT
Don
Dan
Derm
Fus
Few
Gu
Gn
GD
Granul
Gyn
Gabapentin
Gastric
HL
HU
HCL
HPS
Herbal
Luc
Lip
Later
Lex
LPD
MD
Mit
Muc
May
Merc
Non
NST
Optic
Pa
PB
Pres
PPA
Pemphig
Qu
Rare
SN
Sodium
Surgical
T2
Tre
Tax
TSC
Ticlopidine
VP
Vancomycin
VAS
apro
bid
bite
band
bind
barbit
bosentan
budesonide
cam
cra
ciclosporin
dent
dac
fa
fed
gef
hor
hith
hyster
jer
join
lar
lic
lum
lamin
lock
lind
lenalidomide
mc
mer
mec
mare
nab
nuclear
nimesulide
pound
popl
prometh
rip
sti
sar
sough
sensi
sorb
sensitization
sample
satisfactory
tar
tet
trop
titer
terbutaline
tandem
troglitazone
vic
vec
vocal
vitiligo
way
zone
zomep
##mg
##molol
##uper
##uinal
##nitus
##oer
##off
##otism
##be
##bumin
##bida
##luse
##lines
##au
##ai
##sel
##to
##dac
##dermal
##rag
##yes
##yver
##pose
##prop
##pinal
##iologic
##iffer
##ker
##ken
##ha
##hr
##cainide
##cending
##frin
##vular
##vitamin
##DY
##HT
##Ps
##PT
##PTION
##97
##CF
##CRI
##VN
##wide
##82
##UDY
##XT
##tified
##era
##err
##erian
##eracillin
##enoc
##ense
##edronic
##inity
##infection
therm
thiopurine
##alt
##alizumab
##alarial
##alactam
##albida
##esity
##therapy
##thimide
inpatient
##oria
##orionic
##oroiditis
##atum
##atrob
anec
anore
anhydr
##asic
##asidone
##asatinib
##isable
##arol
##arran
##icide
theory
##antic
##anial
##rete
##roximately
reappear
##osol
##osuria
##omical
##omib
##omatoid
##usually
towards
##ecox
##oline
##olute
##uronium
##iden
##idis
##idum
##idyl
##empl
##emet
##itz
##itness
##itazine
##acy
##acc
##aconazole
##acyclovir
##opy
##oporphyria
##apro
##apac
##iad
##ocorm
##utum
##utamide
##utrophil
##iline
##ameral
##amides
foramen
##siveness
asbest
##ortly
##ortez
congestion
##irac
##oted
##otactic
##otensive
##ogammaglobulin
##advant
##iglitazone
chec
chore
chickenpox
chosen
disk
disori
disadvant
##seous
##uge
##imonidine
##itivity
reserve
resumed
actions
acenoc
##agmus
alemtuzumab
alteplase
alendronate
##ibencl
##abling
exact
exper
examples
exalbida
see
infused
imipramine
imperative
stasis
stellate
indolog
indisting
tried
##ycosis
##quer
##quitazine
assumption
recessive
recluse
##ptyline
##ptocorm
clob
cluster
hypere
perior
permitted
perme
##ionitis
##ived
##ivastatin
antipar
##izers
##oxime
incapac
##stance
##estrogen
##ormycosis
carry
##uditory
preec
attained
##utethimide
posaconazole
positivity
##cras
ages
agitated
desquam
folic
unt
unusually
##rometry
##atine
ability
ablation
abnormally
arms
hypertrig
hypernat
hypersex
transc
dural
serology
##ylhyd
reliable
spac
spider
##azan
##ipex
##oretical
mequitazine
##ysty
para
parotid
pren
princ
subgroup
substance
enven
obtaining
##ails
hemostatic
hemoptysis
myopic
daun
applying
##raemic
##ismus
plann
imping
impulse
##tives
thrombosed
shoulder
undetectable
epiph
epoprostenol
##allergic
malad
heat
height
lymphoprol
##illes
##rank
##SIS
##adiated
##iteal
sci
scapular
Also
systolic
amikacin
amifostine
methadone
##renavir
glass
gliomas
glibencl
##fers
##ificant
overl
intubation
completing
##omyce
differs
##ycholate
factory
##obiliary
##oblastoma
metamizole
endoscop
endoscopy
endotoxin
##ivefrin
cardiogenic
cardiores
decades
##posure
##andard
##imetry
emo
multiagent
Antic
##syn
##alcitr
posts
##ensed
##ensus
##ensatory
resolves
##ioplasty
##duction
##febrile
##keting
dysarth
##ixation
radiof
depth
##formations
experiences
##ardiac
defib
speculate
inhibitory
##ulindac
##overy
stricture
strychnine
##time
program
continuing
myelocytic
myelomon
nonm
noncom
##usside
##anisms
##ovaqu
neurotoxic
neurolysis
absolute
cytok
cytokin
pneumococcal
pneumothorax
angioplasty
fiber
fibrotic
concentrated
hybrid
##ulfan
prolapse
##titutes
MEAS
involuntary
vari
variability
withdrawing
polysty
personal
perspective
anticancer
carbon
coexisting
refractive
##alein
valacyclovir
ideal
losartan
hospitals
difference
##oxicosis
avidum
smoke
improvements
promote
##aceous
microc
microangiopathic
advocated
advisable
proportion
modification
Chlor
macrolide
muscarinic
##osporon
characterised
excit
excised
Standard
griseofulvin
hepatospl
author
labour
cholangi
dissolution
##ochoroiditis
pharmacogenetic
##ococci
affinity
Asthm
fluoroscopy
pathogens
160
providing
##piration
##ARAC
CDT
Reye
apomorphine
cats
catabol
solitary
##erto
proteins
methyltransferase
AmB
intoxications
##icacy
aggression
haemoperfusion
embry
Unit
Unusual
caud
lipodystrophy
2003
2007
salaz
protective
vasodilat
adjusted
Paradoxical
Recovery
masquer
tachyp
retinochoroiditis
nitropr
magn
preclud
precaution
arrival
colonoscopy
generic
eventual
1994
adenoma
adenovirus
photo
repeti
terbinafine
dermatomyositis
##oxifene
Imaging
##iabendazole
irritant
irradiated
hypotensive
antacid
##ullary
extensively
uncons
##ictable
latex
admissions
arrhythmic
Experi
PDCs
vinorel
prosp
optical
teg
teach
hemodiafiltration
triglyceride
##bruary
aggressively
##predictable
ACS
LAM
Tradi
oxide
pleur
prepared
##ophthalmos
##iprasidone
predispose
septicaemia
##esthes
##umping
collaps
mentioned
##isciplinary
glomerulosclerosis
ophthalmopathy
ductus
##triptyline
##cores
wheez
properly
1983
1985
quinidine
quinacrine
helped
##otropin
##plementation
relapses
Interventional
norad
intestine
MMC
Epid
##utramine
adequately
tricuspid
centers
##thrombotic
Conc
Respiratory
STUDY
maturation
hyperglycemic
MAIN
equi
equal
lacking
##aparoid
hydroxyc
surviving
CYP3
ARB
akinetic
cyclo
lumbosac
subcortical
subclinical
subconjunctival
guidance
HDAs
HDARAC
Lev
lepromat
hyperkalaemia
ANLL
cyanide
##anolamine
plana
ergotism
minimally
Wilson
brady
vulvar
vulner
Immunosupp
##lusively
Abnormal
urethral
alkali
alkaloids
infertility
stabilization
sympathectomy
sympathomimetic
hemoglobinuria
newborns
Neurotoxicity
Arter
aerobic
aerosol
##imodipine
candida
histopathology
membranous
filtration
##apride
SDC
hypertonic
temporally
Scler
easy
Isoniazid
axis
render
targeted
##opurine
sulphate
sulphasalazine
ergotamine
Hemolytic
Psori
##aptopurine
electrolytes
CHF
torsade
thymic
inguinal
androgens
cryptococcosis
Aggressive
Bronchiolitis
Evans
focused
pigmented
##aturity
infrequently
dipyridamole
dipivefrin
decompens
labeled
encephalomyelitis
cephalosporin
silver
connective
advantages
Corneal
PSL
Rhabdomyolysis
gondii
depleted
preoperatively
specificity
reflect
teratogenic
teratogenicity
ITP
keep
lorcainide
##uropulmonary
##grastim
mononuclear
aggravation
nitrite
Calciphylaxis
cyproheptadine
Insulin
chemoradiation
Anaphylaxis
Anaphylactoid
breathing
Combination
enhancing
anthracycline
Consider
Meas
balance
rank
semis
##acrimal
leakage
preventing
arginine
##ofibrinogen
endometrium
##oquinolones
bacillus
antituberculosis
Linezolid
Shortly
SCE
million
onychomycosis
stomach
monoamine
spectrometry
stimulus
transiently
worldwide
Methylphenidate
Histopathology
fragments
chorioretinopathy
BKVN
Clozapine
Contact
Secondary
facilitate
mercury
mercaptopurine
nearly
utilized
##lipidemia
Thirty
Thirteen
isoenzyme
transaminase
interference
blebitis
glucuronide
cholecystitis
rhinitis
jejunal
Corticosteroids
Small
UL54
cesarean
layer
paediatric
raloxifene
solely
tinnitus
##oglutethimide
diamorphine
transcranial
subtotal
environment
escalating
epidermidis
palpable
irregularities
gynaecomastia
mediastinum
Rifampicin
VWFMs
randomized
Approximately
Cultures
Etanercept
Nitrofurantoin
NSAID
ducts
harmful
titration
##where
deoxycholate
hyperuricemia
translocation
consultation
inherited
mesalamine
summarize
Between
Kluyver
MCD
pantoprazole
##uishable
##iptase
dehydration
##romyography
adipocytes
phenothiazine
tubulointerstitial
mucocutaneous
bronchiectasis
oxidation
Herpes
thalassemia
dialysate
parallel
Investigations
Detection
Gastrointestinal
HVF
Oxybutynin
Routine
Sustained
Surgery
TACE
larger
veloc
##amnionitis
leuprolide
diplopia
discontinue
discoloration
fluconazole
amniocentesis
underscores
dysrhythmia
progestin
Oncology
Children
quantit
intracoronary
INFVA
rechallenged
chorioamnionitis
AUC
Bisphosph
DESCRI
February
JHR
Merkel
Potential
RIF
bumper
dorsal
dilatation
lacosamide
laxative
nystagmus
own
piperacillin
##oumarol
thionamide
##cellular
##phthalein
progenitor
hypoalbumin
unmas
unremarkable
hemiplegia
mydriasis
outbreak
neuroblastoma
brachytherapy
cerebellum
photopatch
expansion
orthopedic
Hydroxyurea
Australia
Brugada
Fusarium
GnRH
NSTE
aprotinin
craving
gefitinib
hitherto
joints
lindane
mcg
popliteal
promethazine
sarcomas
sought
victim
vecuronium
zomepirac
##ifferenti
##atroban
anecd
anhydrase
##ecoxib
asbestos
##ortezomib
disorientation
acenocoumarol
indologenes
indistinguishable
##ptocormia
hypertriglycer
##ylhydantoin
##ipexole
planned
lymphoprolif
glibenclamide
cardiorespiratory
##alcitrant
dysarthria
radiofrequency
##ovaquone
cytokine
cytokines
nitroprusside
vinorelbine
lumbosacral
lepromatous
Kluyvera
DESCRIPTION
2nd
750
92
Ap
Avascular
AST
Asian
BW
Bacter
Cr
CV
CE
C5
Cre
Cel
Catheter
CPA
Control
CLB
Centre
DA
Dil
Dys
Dose
DMS
DCF
Eth
EGF
ELP
FS
Fig
Fanc
Finding
Font
FVII
GB
G6
GHD
HP
Hemat
Hair
ICG
Itraconazole
IBD
IMP
Jul
KW
Kay
Know
Kleb
Lp
LS
Lam
Lim
Lef
Local
Large
MT
MLL
NS
Normal
NAT
Os
Ox
OS
OF
Oct
OLT
Py
PL
PK
Pis
Pap
Port
PML
Prob
PLD
Pediatric
PHT
Rap
Rel
Russ
RTA
SR
Sw
SW
Side
Sten
Symptomatic
Squamous
SCs
Soon
Sah
Tc
TI
Tem
Test
Tub
Toxicity
TPO
TRA
VC
Very
Visc
VOD
Whe
Zol
auditory
afebrile
bag
biv
bout
bund
bortezomib
cil
cage
cerv
cocc
cocaine
citrate
cGVHD
dend
dimeth
dasatinib
ethm
ejection
eleven
fin
fit
fear
falc
fecal
finger
fixation
gap
gra
glycer
grand
hop
hard
henna
huge
ips
ji
kil
kary
lend
laryng
lansoprazole
muk
mosa
miliary
meperidine
mianserin
makes
menstrual
oment
pter
pum
pyl
p11
pector
q13
rat
rar
rot
run
rab
round
ramipril
sized
sensitiz
sulindac
taz
twenty
urolog
uraemic
viol
wa
ways
zinc
##mark
##uous
##uximab
##uterol
##nic
##nell
##oab
##oform
##ohydrate
##bing
##bur
##bow
##bet
##body
##bits
##buric
##lum
##lod
##lusc
##lunomide
##lukast
##aven
##aft
##aving
##senic
##ta
##tage
##tually
##trometh
##ring
##rum
##ries
##eed
##pus
##pran
##iox
##iomy
##iologists
##ietal
##kes
##ci
##cyt
##gor
##gic
##gement
##growth
##fol
##fere
##fib
##fall
##vice
##vaginal
##TR
##15
##LICA
##GB
##CP
##CC
##VO
##49
##4V
##59
##57
##72
##KA
##erent
##erating
##enar
##enem
##enate
##onucle
##onomical
##edrops
##inter
##inate
##inion
##inolone
thri
##aly
##alent
##alate
##alamic
##esophag
##esarean
##thoracic
##orage
##atase
##atose
##atally
##attered
##atrial
anat
##asa
##asburic
##isti
##arp
##arenal
##ica
##icone
theoretical
##anes
##antin
##anosine
##anoz
##anamivir
##anlukast
##ream
reins
reabsorption
revision
reperfusion
rearran
##ithm
##oste
##ostim
##omed
##omies
##omidine
##omoxetine
##omorphic
##ulase
##ulator
##ulpr
toward
##ectic
##ectin
##ecretion
##olep
##urates
##uronate
##ido
##idor
##idated
##idioid
##idazoline
##emm
##itect
##itations
##itable
##itri
##acycl
##activation
##acuation
##opap
##opress
##tionally
##ley
##oce
##ocine
##ocyst
##oche
##oclastic
##ocarditis
##ocapro
##trations
##trimazole
beam
Through
##ilarly
##amidine
##ucose
forced
debr
detri
##siella
##umaz
##umenting
aseptic
##oward
##eles
##phar
##pharmac
##otence
##otroph
##ogyric
##ading
##uneal
##tinate
che
disapp
disability
disruption
##sewhere
comatose
##odes
##icalutamide
##ouse
##antenate
##pled
##imaging
##imotor
aftern
resorption
acted
acarbose
ongo
##agra
##agenic
##agger
algor
##abled
##abismus
exam
exophthalmos
exagger
seek
infective
imip
implementation
stain
stained
stavudine
storage
leiomy
neomycin
oryz
shif
indication
indium
trast
trich
trimoxazole
##othane
##oneous
prescriptions
lips
rectus
recalcitrant
cloxacillin
cluneal
##ellagra
drin
perib
perimetry
efflu
efficient
antithrombin
antileuk
antiandrogen
##oxalactam
##eted
##etuximab
##etomidine
##sts
##iforn
##ude
##udication
premed
prevents
##ouraging
atyp
atovaquone
manual
descending
##chaemic
##oryne
Inadver
unw
unman
unaff
unpredictable
##yme
##ympath
##ymopap
follows
##urred
##atinization
abl
abol
aberr
corpus
##looked
##atively
diverse
diuresis
diarrh
hyperbar
transdermal
durable
serve
serone
serocon
service
acutely
##ylamide
##ylurea
##ylcholine
intermed
interrupted
intercellular
interbody
interfere
reluct
relieving
##entially
spot
sputum
##azocine
##ipulated
##oreth
##ministered
phases
monthly
##ophen
##ophan
##opharmac
##rosing
##ystole
##ystectomy
discouraged
paroxetine
paradox
pranlukast
subset
chemoembol
chemistry
##ropyr
##fulminant
##fuloderma
evacuation
entr
enabled
##sibility
obesity
successive
consent
consist
constitute
consensus
immunoblastic
immunologically
hemophilia
hemostasis
hemothorax
myth
myocarditis
appeti
##rae
plastic
plays
plantar
medial
intraarticular
##akia
impressive
impotence
##ostomy
undiagn
undesir
surfac
toxoplasmosis
neuros
leukocytes
epend
epoetin
malformation
##ergoline
lymphoh
fluct
flush
florid
##icious
##iciencies
##illa
##ills
contains
failures
scenar
scattered
##ocytopenic
##ocytoclastic
amoxicillin
methazolamide
##aminal
eradic
##ference
overcome
overlooked
improper
improving
##ritin
##versely
regurg
##yclines
##obactam
compartment
compensatory
instruc
metapl
endodontic
##andibular
marketing
empt
##ressants
elements
elbow
elsewhere
multifactor
Animal
##alcemic
##alcitol
postdural
posttransplant
resolving
acids
outstanding
outlined
outflow
dysregulation
##axone
depressant
define
deficiencies
recurring
lesional
considerably
histi
striat
stridor
strabismus
visits
##assay
##aluation
pathways
##medetomidine
myelotoxicity
confidence
esmolol
neurode
##oplakia
absorb
abstinence
cytology
Acyclovir
pneumat
pneumatosis
virtually
fibrosing
feel
brid
brimonidine
alpha2
eyedrops
varied
variation
nephrectomy
##drawal
opium
opening
opinion
sheath
simulating
similarly
erythroid
calcineur
calcitri
polyp
psychopharmac
carbonic
carbohydrate
cou
##iatry
205
bleed
blephar
exposures
ide
Class
Clonidine
manifesting
avascular
##orphan
angiitis
maintaining
promise
contractions
femur
advice
advances
doct
documenting
modulating
modifying
##ofiltration
##exalate
chart
country
humoral
sulfonate
keratinization
musculoskeletal
rheumat
identifies
##arbazine
exclusion
##ronchial
Study
gray
selectively
hepatocytes
hepatomegaly
hematomas
supply
extrap
shortage
shortness
pharmacist
responds
##yrrol
Clinically
Adult
Adriamycin
fluoroqu
fluoroscopic
fluorescein
fluoroquinolones
accoun
mucous
mucormycosis
##opathogenesis
mildly
##ophosphate
provoking
##piride
chloro
chlorhex
abdomin
CDDP
Retin
apneic
fewer
overdosing
bronchitis
bronchopulmonary
numbers
crises
capillar
ischaemia
ischaemic
rashes
##kinsonian
swoll
##acheal
warning
prostacycl
alternate
alternatives
haemodialysis
created
##oglycosides
Unlike
2001
2002
2005
2006
salmon
salbut
##ynthetic
##tibuten
CSC
vasopress
retina
nitrous
precor
preceding
reductions
IVF
damaged
replace
dextrometh
indicative
Withdrawal
adenomyosis
photoc
terr
dermatologists
##itreous
girls
phosphokinase
availability
Imp
Imatinib
expanding
##azolin
irritation
exploration
illustrated
illustrative
etiological
petit
##omalate
##urbipro
2149
##oephedrine
ulcerations
publ
Hypoglyc
Exacerb
PDPH
halothane
Nevirapine
meningiomas
teeth
prompted
aminoglutethimide
ovaries
morphological
antagonism
PCNS
isolation
isolate
pseudoephedrine
##hydram
##hydropyr
implants
articles
polyuria
TNFalpha
vertical
verify
members
##chloride
##imethamine
Methemoglobinemia
consequently
##adenosine
Histologically
mesothel
mesodermal
coagulase
menopausal
green
handling
mortem
palatal
voluntary
exceeding
##ocarpine
screw
screen
Hepatitis
##ozo
antigens
reversing
raising
epithelioid
moderately
fields
mollusc
operations
operating
property
1988
Positive
urate
addressed
ADH
ADHD
ileal
nortriptyline
doxycycline
prematurity
##yloidiasis
ICP
MMI
ketamine
walls
trimethadione
protocols
confirms
benzarone
neuron
neurons
neuronal
Conventional
broken
prognostic
dyspnoea
angioimmunoblastic
ATL
ATG
##balance
supplemented
exclude
antimalarial
hydroxide
precipitation
milder
sulpiride
watery
##oacr
subcapsular
varices
HDR
coinfection
cefuroxime
ceftibuten
pyrimethamine
carrier
lactam
vaccine
oncologic
albuterol
minimum
represented
chromosomes
ratios
nevertheless
BCR
fungi
multiv
pustules
pustulosis
ventricle
paraspinal
progresses
Carboplatin
Efficacy
PVE
PVOD
SMN
copy
ectropion
##fetilide
DEM
pathophysiological
Reports
worker
workup
IUD
Indian
glycol
sources
relevance
regularly
confusional
schedules
PAS
TDF
mandibular
spreading
substantia
arteriosus
coincided
vigilance
subacromial
blastomycosis
hydatid
basement
materials
electrocardiographic
Escher
Hemodialysis
Minoxidil
normally
normotensive
reintro
##aptomycin
acceptable
marker
fibrinogen
fibrinolytic
CHOP
FDE
GIST
##osmolar
existence
##iparum
Evaluation
Propafenone
##linking
antineutrophil
actinomycin
inhaler
inhalers
##osclerotic
reasonable
CIPS
CITB
ferritin
silicone
##oatrial
##lebitis
hypoxia
hypophosphat
##oxygenase
##oxyadenosine
conservatively
photosensitive
ganglia
Auto
Dopamine
PSG
Risk
bulky
myalgias
retarded
reflecting
hypothesized
hypothesize
Californ
aetiological
fascia
pilot
wearing
##entamidine
##eculectomy
##emporal
challenging
stools
classification
diphenylhydantoin
erroneous
cryofibrinogen
aggravated
candidates
Increasing
contraceptives
cerivastatin
duoden
sweating
##arteritis
attenuated
positioning
esophagus
esophagitis
limitations
exceptional
Electro
anthracyclines
CFSE
Microscopic
OCS
balanced
buried
sibutramine
sickle
##acrylamide
adherence
actual
actually
clomiph
Infectious
particles
leukemogenic
heterozygous
phenolphthalein
##ofibrate
extrahepatic
Enterobacter
endometrioid
mimicked
PATIENT
Norway
SCC
millili
rubrum
##roversy
immobilization
steatosis
tryptophan
canalicular
Cholest
Cholesterol
CD30
catechol
transition
Neutropenia
tachyarrhythmia
Controversy
boost
efalizumab
radical
radial
##antrone
acromegalic
periventricular
transaminases
immunohistochemical
immunohistochemistry
ameliorated
multidisciplinary
psoralen
glucuronid
cholecystectomy
infarcts
precursors
Differential
Pancreatic
Eryth
Opioid
Pentasa
UL97
cesium
narcotic
rosiglitazone
##aserod
chronically
nebulised
designed
diameter
diaphoresis
diaphrag
dihydroxy
transcriptase
subtyp
environmental
remitting
remitted
Rifampin
Disulfiram
ODT
erections
glycop
glybur
pupil
pupillary
walk
##hibition
interpret
interpreted
subfoveal
scrofuloderma
comprise
elucidate
phenylbut
Trichophyt
ventilator
antihistamines
alleviated
Polymyositis
ensued
ensuing
scintigraphy
European
bilaterally
cramps
domain
education
penile
sacro
reticularis
##eltamivir
staphylococcal
shunting
pressures
claim
Infections
epigastric
computerized
instillation
bronchodilator
Ampicillin
intensified
MAOI
CYP2C19
gonadotropin
Repeat
siblings
participants
INTERVENTION
Azathioprine
DHP
Fluoxetine
Significant
TKI
buffer
dynamics
missed
nurses
withheld
##illoedema
exanthematous
leaflet
trabeculectomy
entropion
hyaluronate
hyphema
psychiatrist
coadministration
digitalis
SSRIs
Protamine
aortoiliac
ESRD
Baclofen
Fifteen
Sudden
Unexpected
audiometry
busulfan
fasting
fairly
granular
judged
libido
namely
pitfall
##oreceptor
##retory
##roveci
##vernous
aldosterone
implic
statistically
intranasal
hyperchloremic
sporadic
heightened
flares
ammonia
elicited
osteoarthritis
##tructural
crucial
epileptogenic
Extrapyramidal
Electron
crystalline
stereotactic
scraping
mismatched
UGT1
aflatoxicosis
mizoribin
Avastin
AMI
Bartter
Copaxone
DTPA
Donepezil
HLH
Pemphigus
horse
mecamylamine
pounds
rippling
stiff
sorbitol
tetany
tropical
##haar
##hrl
anorexia
disadvantages
antiparkinsonian
preeclampsia
untoward
hypersexuality
transcatheter
envenom
impingement
maladaptive
endoscopically
emotional
polystyrene
hepatosplenomegaly
catabolism
precautions
repetitive
prospectively
##esthesiologists
wheezing
Epidural
CYP3A4
cyclooxygenase
Arterial
semisynthetic
velocity
hypoalbuminemia
hypertriglyceridemia
Crypt
DMSO
Ethambutol
EGFR
FSGS
Fanconi
Fontan
G6PD
IMPLICA
July
Kayexalate
Klebsiella
Leflunomide
NAT2
Pisa
Whether
biventricular
bundle
cilastatin
falciparum
hopantenate
ipsilateral
jiroveci
kilogram
mukul
mosaic
pteryg
pumps
pectoris
rarity
tazobactam
##beta
##lodipine
##foliative
thrive
##asburicase
##anozolol
##olepsy
##ocaproic
detrimental
##umazenil
ongoing
algorithm
exaggerated
imipenem
trastuzumab
##oryneb
Inadvertent
unmanipulated
unaffected
##ymopapain
diarrhoea
hyperbaric
seroconversion
intermedia
paradoxically
chemoembolization
undiagnosed
surfaces
ependym
lymphohisti
regurgitation
metaplasia
multifactorial
striatum
calcineurin
calcitriol
fluoroquinolone
chlorhexidine
swollen
prostacyclin
salbutamol
dextromethorphan
##urbiprofen
PCNSL
##hydropyrimidine
mesothelioma
Escherichia
California
clomiphene
glyburide
Trichophyton
IMPLICATIONS
09
02
1H
2D6
3r
4th
550
6beta
89
8th
94
Ak
AO
Aug
Ach
Aortic
Atrial
AGE
Apart
BH
Ble
Buc
Brom
Bud
Ca
Cat
Cases
CRA
CLS
Cimetidine
CsA
Coryneb
DN
Dem
Div
Dox
Duk
Def
Dex
Dise
DSC
Ed
ET
EC
Ero
Ech
Emb
Eye
FR
FE
Focal
Familial
G1
Gly
Germ
Graft
Giant
Ganciclovir
Global
How
Hear
Hick
HRT
IG
IA
IM
Ile
IRI
IDD
Je
JRA
Jaris
Kalim
LH
Lact
Latin
Lup
Lichen
LPS
Lapar
Laser
LFT
M4
MF
Main
Mich
Mech
Myel
Moor
NH
NM
Nec
NSC
NPH
Nocardiosis
Om
Ovar
Ophthalm
OKT
PN
PW
Pen
Pur
Pure
Pros
PAR
PLE
PEG
Patch
Paec
PGE
Pamidronate
QD
RD
Rital
Ref
Rupt
RML
ROP
RBD
Sa
San
Sil
Scr
SCL
SSE
SCA
Saf
Sept
SBC
Somatostatin
Selective
Snell
Ta
Ti
T1
TL
Tw
Tac
Toler
Terbutaline
TRE
TGA
Up
Und
USA
Vi
VR
Vap
Ventricular
Verapamil
Vitamin
VGB
Wes
Well
Witness
XRT
aura
aque
auro
bw
bit
bcr
bub
bicalutamide
cin
cut
cel
cab
cast
cuff
crest
cutane
cortex
cutis
cetuximab
din
dib
dich
dub
dressing
dumping
eg
ej
fen
fus
fulf
fits
fosin
felt
frank
gm
ga
giving
hid
hast
hors
happ
haptic
hope
ie
ip
iv
jug
lear
lute
larynx
mu
mR
ment
mere
mobil
moxalactam
nig
nose
nocardiosis
naproxen
nimodipine
noreth
ole
omental
oesophag
pi
pg
pon
pin
pet
pair
puff
pyramidal
pFVII
pentamidine
rated
rod
rout
rational
son
sut
sple
tro
tast
tons
tard
tamp
ub
uremia
viable
vortex
xer
zucl
ziprasidone
zanamivir
##mo
##mat
##mis
##mph
##magnesemia
##mectin
##uate
##uished
##ned
##nol
##oting
##ovenous
##bic
##bit
##bronchial
##lot
##litis
##lorm
##lact
##lable
##aq
##aun
##ault
##aicin
##sic
##sia
##sant
##self
##tan
##tyl
##tail
##tective
##tach
##tles
##dade
##dopa
##rata
##raphic
##ev
##eor
##east
##eamine
##etigo
##yot
##yron
##yond
##ylob
##pass
##point
##ij
##ier
##ipp
##ket
##hov
##cy
##cyst
##gu
##gmat
##0s
##fate
##fazimine
##vad
##vised
##visc
##BMT
##DA
##DI
##TE
##ze
##zi
##zia
##PR
##PP
##LENT
##xheimer
##x10
##q11
##q23
##GD
##Geor
##AM
##CI
##CES
##VT
##VP
##VES
##IES
##IFN
##SES
##Med
##EP
##EM
##EE
##NTS
##2A
##jected
##67
##tirac
##eri
##erations
##ertal
##entic
##enesis
##enazine
##ona
##onas
##onism
##onych
##inosis
##inten
##inamide
thro
thiabendazole
##alf
##alytic
##alges
##alcet
##eses
##esides
##esartan
##escribed
##thy
##then
##thet
##thix
intim
inotropic
inner
inversion
inactive
integr
##orol
##orable
##ories
##ortions
##atiram
anion
anagen
##istribution
##isterone
##arch
##arct
##arges
##ariably
##icting
##icted
##icts
##icarditis
##iclofenac
##anib
##ander
##analysis
##anoprost
##rew
##reus
##regn
##reted
##reening
##reactive
##rose
##rotein
retr
reminis
##osider
##osition
##osorb
##ostenosis
##omant
##vetirac
##ustine
##ulph
##ulsion
toes
##ecum
##oles
##olent
##olam
##olaryng
##olithiasis
##urk
##urative
##urium
##urable
##eme
##emed
##itoid
##itans
##itour
##itron
##itance
##itates
##acute
##acyt
##aculation
##acalcet
##opros
##opsies
##opolamine
##opping
##apez
##iae
##oceles
##tras
##tran
beyond
##vermectin
wash
wasting
##ilim
##ilomyces
##amotomy
##amipexole
islets
israd
tree
fort
force
forward
dead
deform
dealing
##sification
##umet
##cetic
ask
astro
asystole
conval
concept
conception
##eline
##elithiasis
##elming
##ired
##iramine
##irudin
##phasic
##ady
##aded
##adinone
##igan
##iguric
disper
disodium
distention
disabling
##ugated
##odal
##yserg
##antom
##plished
##imposed
##imurium
prove
proarrhythmic
adver
adapt
adnex
##itig
##earate
resin
resour
resting
##ypert
aler
##ibility
##ibizumab
##abrata
##abenazine
##abitans
exer
exocrine
exhib
exempl
exfoliative
imbalance
stut
stone
stains
stump
stupor
stearate
##urethral
let
lepir
neg
syring
share
##athion
trump
trapez
##eparin
##epidermal
##ycotic
##oneur
presump
preservation
##quagenic
lives
assume
recr
clonal
closed
hypocellular
hypoplastic
driven
driving
draft
permit
perhex
suicide
suitable
##ives
##ivation
antithrombotic
##izine
##izide
##oxemia
##oxantrone
##ociety
incons
##etam
##ette
##etrosis
##stable
cared
carers
carries
##ifically
atazan
atomoxetine
posterol
positron
##acture
##vive
##chr
##ched
##chemotherapy
notable
Inh
Inhibition
unaw
university
unstable
##gnancy
##urrence
aband
abortion
core
arres
arise
arsenic
complaining
diethyl
diurnal
hyperandrogen
hyperinfection
hyperlipidemia
hypermagnesemia
hyperlact
hypervisc
occip
transm
transform
transmitted
transfor
transvaginal
transbronchial
interc
interact
interview
interlam
##plex
spar
ushaar
##aze
##azinamide
##ipment
##ipolar
##ipizide
##oreg
##pericarditis
##ophor
##ophlebitis
##rolithiasis
##tising
##tisation
administrations
param
paresis
pramipexole
subch
substances
##teg
##ondaparin
encom
obtain
oblig
sucral
constitutes
##ermis
hemis
##plantation
plac
plug
plant
intraatrial
impregn
##tivated
##hexy
##hegmat
##ubic
thrombophlebitis
##aneoplastic
undifferenti
undescribed
suramin
survive
toxins
##ildenafil
leukaemic
leukostasis
leukotri
malfunction
malarial
malabsorption
malformations
concentric
lymphatic
lymphopenia
lymphocytosis
lymphomatoid
allogenic
flup
flumazenil
flurbiprofen
contents
##onstration
##adian
scot
scopolamine
Aluminum
Alopecia
##ocytoma
obsc
amen
amyot
methox
##renic
##renergic
##ospinal
##aminic
eruptive
glabrata
glipizide
overs
overt
overlying
overwh
improves
##rix
##angial
perioste
regen
regis
regime
regulating
invasion
invariably
##genic
##yclics
##ober
compressed
composition
insult
metall
endomy
paint
##ended
marg
marij
colic
element
multit
Antim
postg
postural
postpran
serumcholinesterase
genaven
104
dyscras
radiography
radiopa
depending
experiment
##ardiogenic
arteriol
##sequently
redness
redistribution
considerations
typing
stranded
visible
micdade
##asserian
##ctomy
pathologies
ups
nonn
nonket
conflu
minoxidil
esterase
analytic
steroidal
##ovol
neuroc
neurovascular
neurotrans
neurogenic
##oplantar
##phae
abstinent
mostly
##ercosis
##rophagia
##upping
angel
fibers
194
195
concentrates
hyphae
##ulfite
predomin
predicting
##titrexed
autograft
autopsies
retained
retreatment
arthroscopic
123
124
127
##ognition
nephrolithiasis
opacity
opiate
simulated
tubes
calciphylaxis
polycl
persists
##comitant
psychotrop
saved
##mitriptan
dermati
formalin
carbox
carbimazole
coated
coum
coved
coenzyme
coarct
Thereafter
frequencies
##ianzi
recomm
supra
suprap
##rologists
differing
plasmacyt
##icines
##oxicam
systematic
systemically
CASES
##avalent
##avorable
angiopathy
##tilization
promoted
contracture
microorg
bretyl
seriously
advanc
advise
propamidine
approval
hypersecretion
##ofuran
##ofecoxib
blocks
Chem
Chrom
Choroidal
Changes
pancreat
1500
fatality
vitritis
##apped
##apping
macula
suspended
sulfur
lowered
didanosine
osteoid
epidem
##arbox
exclusively
venules
##lobular
seldom
hepatobiliary
hematogenous
hematopo
suppurative
pouch
##ohypert
dissolved
##estingly
shorten
pharmacology
measurable
documents
##yrate
112
11q23
motion
Asia
##prostone
Adjuvant
granules
granulomas
accur
accord
tuberculomas
##opathology
165
##oralen
tolerate
doing
dofetilide
##pired
chloral
##tide
clotrimazole
beta1
electromyography
CDI
Retinal
Reactivation
bronchoscopy
bronchiol
##avian
solvent
solvents
soluble
organized
organophosphate
patent
patency
problematic
neuroleptica
heparinoid
hypothalamic
nodal
nodosa
intracameral
intracardiac
pedicle
thyroidectomy
Intrad
Desensitization
swallow
##TIGA
##TICI
cisapride
##URCES
sclerotic
haemoglobin
haemofiltration
culturing
##iodic
##ivalent
caesarean
lineage
lipase
lipoid
2008
salicylate
dependency
IFNalpha
Recognition
mask
masked
tachyc
preventable
array
colonies
IVB
papilloedema
dexmedetomidine
dextran
assessing
INVES
actively
exacerbating
classes
classically
observable
terreus
##NAGE
dermatology
dermatophyt
phosphatase
Immediate
##iabetes
expressed
technical
technologies
etiopathogenesis
##ullous
synov
syncy
CMO
lamp
benefited
biom
polymyx
CTLA
microgram
CSFE
Except
Exposure
sinuses
teen
team
worsen
##PANTS
superimposed
AIM
AILD
aminoglycosides
aminocaproic
##phenyl
##phenidyl
##pheniramine
substitute
contribut
contribution
contributes
##ochemotherapy
Ensure
Enoxaparin
HCM
##renaline
belong
enteral
enteric
enteropathic
vasculopathy
##otorula
strongyloidiasis
Trimeth
Herxheimer
meloxicam
pleocytosis
pleuro
pleuropulmonary
##ivers
heliox
##osteronism
alcoholics
articulating
polyar
polypharmac
polyarteritis
polyacrylamide
SUMMARIES
cysteamine
verruc
worse
working
donors
member
##ucleated
##ucleoside
removing
Methadone
derang
Histoplasma
PTE
PTCA
mesangial
##insic
##ysticercosis
encouraging
collateral
processing
faced
facility
latest
latanoprost
palms
palmar
voltage
discharges
glomerulopathy
ultrastructural
predisposes
22q11
ductopenia
##onecrotic
Median
Medicine
accomplished
##panic
##ATMENT
activating
activities
correlations
SIS
SILENT
##rophilic
1984
emphasizing
determination
determinations
converted
adds
Interaction
Interestingly
nonsurgical
deposit
perfor
##ords
##ordination
segments
intestin
SSc
SSTR
locus
locations
pelvis
occlusions
triggering
DiGeor
maxilla
##hibited
tricyclics
benzoin
solutions
terminating
aims
ecchym
ecthym
economical
unsatisfactory
BMTN
Conversion
Conversely
Consequently
Concomitant
Respon
Sevent
brother
fractured
matrix
hypercoagul
electrical
IgG1
melanonych
distressing
MANAGE
equipment
clarified
antimycotic
hydroxyl
hydroxylase
survivors
burning
doubled
pegvis
cefoxitin
cefazolin
osseous
pyrimidine
pyrazinamide
orders
cirrhotic
ANC
Protein
cyanoacr
##metin
aspergillus
albendazole
clinicopath
concerned
chromosomal
uneventfully
APML
rigorous
##oembolic
##atism
intestinalis
BCCs
Ifosfamide
PRK
Prevention
Preoperative
Pregnancy
multin
multis
ranges
ventriculitis
wounds
parasites
echocardiographic
Abs
About
CPK
PVT
coprophagia
Thrombolytic
hemoglobinemia
inserted
stressed
stresses
extractions
Arg
bisulfite
pallor
summ
intermittently
eliminate
influenced
pathophysiologic
Transfusion
PEEP
Periodic
TSHoma
UCVA
capsular
capsaicin
filter
filgrastim
glycosuria
nuclei
rhythmic
vague
##nios
minority
questions
haemorrhagic
Depression
HSOS
natri
vivax
degenerative
resembled
historical
arteriography
arteriovenous
erythropoiesis
Cardiovascular
Cardiopulmonary
prevalent
unresponsiveness
hydr
hydrate
SEPs
TPMT
axial
anaer
chemicals
acetylcholinesterase
acetylcyst
Africa
COMT
Esophageal
Minor
Minimal
PsA
reiniti
occupancy
occupying
cohort
details
uncontrollable
fifty
ingred
debate
septum
separation
trioxide
trihexy
differentiate
dissections
antimicrobials
ABO
Decre
Flecainide
Magnesium
Metoclopramide
Metabolic
Propranolol
falls
entities
neuropathies
neuropathological
feedings
extracellular
BPRS
Nineteen
laparoscopic
silent
##ylephedrine
##agnesaemia
hypomanic
1978
asthmaticus
Coexistence
Coronary
Hgb
Topiramate
bulim
pyogenic
tolmetin
extending
reflects
microbiological
microbiologic
osteopetrosis
adjustments
Neutrophilic
Gluc
castration
danger
pilocarpine
Inflammatory
errors
decisions
##ofluorescent
Pharmaceutic
cryotherapy
aggravate
nitrate
nitritoid
Prolongation
Calcium
HBs
##regation
##osulfapyridine
exudate
precede
attend
attenuation
analysed
autoantibody
crystal
crystals
exceptionally
Seizure
misdiagnosis
anthracostenosis
Conservative
Micro
Prominent
Typically
burden
ranibizumab
somnol
##ikes
adhesion
drawn
argatroban
submandibular
leukemias
Accidental
vasoconstrict
fractions
craniotomy
DLI
GHB
PPAR
Pathological
baboon
fellow
timolol
tapering
readmitted
##trahydro
exercised
oculogyric
spectroscopy
discovery
paralytic
empiric
persistence
persistently
CD34
restlessness
fragment
Clofazimine
boys
facilitated
utilizing
##lipressin
anesthetics
physiological
physiology
symmetr
neuropsychiatric
flutamide
amelioration
retrogasserian
erythroderm
quadriparesis
sensorimotor
hypocalcemic
Pancrease
Ultras
VADs
gelatine
narcolepsy
paid
raltitrexed
rosace
chelation
chronotropic
statins
weaned
allergies
escalation
electroencephalography
cysticercosis
vacuum
multicentric
mediastinitis
pseudoaneurysms
hazards
vesicul
vesicles
Culture
Etoposide
NCSE
SOT
SOURCES
Specifically
coverage
ductal
homozygous
ovary
senile
walking
##uana
instance
##ucloxacillin
succinylcholine
Trichosporon
mesalazine
tenderness
linkage
ventilatory
typhimurium
antihistaminic
Aminoglycoside
PubMed
Torsade
Torsades
atherosclerosis
atherosclerotic
bilirubin
dominated
gouty
nondiabetic
penis
taxanes
zolmitriptan
##openthix
staphylococci
shape
shaped
shunts
claudication
flashes
genotypes
10172
radiois
phenotypes
bronchodilators
antidiabetics
AmpB
vasculature
thoracoscopic
CYP2C9
gynecological
gynecomastia
definitely
Repeated
INTERVENTIONS
narrowing
AED
AEDs
Cyclophosphamide
Campath
Campylob
LTG
South
Sequential
atresia
harv
justif
mistaken
telmis
##irmenol
##pheres
livedo
abusers
immunoallergic
myotonia
myotonic
eradication
eradicated
cardioverter
anticipated
Compared
palmoplantar
Leukemia
CPH82
ASCT
Black
Cerebrospinal
Elevated
Forty
Muscle
Reduction
kindred
msec
ratings
zygomyce
##ihabitans
thiazolidinedione
##omnographic
distinguished
alloBMT
netw
trisomy
incorporated
architect
subthalamotomy
hemophagocytic
contagiosum
Actinomyces
1966
arthralgia
tubercular
Association
degradation
tetrabenazine
subclavian
PEComa
Rhodotorula
##emporary
submucosal
crescentic
Cisplatin
Danaparoid
Dermat
MDR
SNHL
Taxus
barbiturates
camptocormia
larval
licensed
lumen
merits
##oerection
##propanolamine
##kerat
##alteparin
diskitis
incapacitating
hypernatraemia
spacers
prenatally
daunorubicin
epiphora
sciatic
defibrill
myelomonocytic
noncompl
hybridization
MEASURES
variations
Asthmatic
salazosulfapyridine
masquerading
magnitude
antacids
unconscious
Experience
tegaserod
teaching
Traditional
collapsing
noradrenaline
Measure
anecdotal
lymphoproliferations
Findings
FVIIa
ICGA
Knowledge
October
PKP
Portal
Probable
Russell
Stenotroph
Tests
Tubercul
Visceral
Zoledronic
bouts
coccidioid
dendritic
dimethyl
ethmoid
graf
pylori
rabbits
urological
wafers
##lumic
rearrangement
##ochezia
afternoon
seeking
leiomyosarcoma
oryzihabitans
effluvium
premedication
aberrant
seronegative
consistently
appetite
undesirable
instructed
empty
histiocytes
pneumatoceles
bridging
doctor
##yrrolate
capillaritis
vasopressor
precordial
##hydramnios
multivitamin
hypophosphatemic
milliliter
glucuronidation
diaphragm
dihydroxyvitamin
interpretation
buffered
pitfalls
stiffness
ependymoma
lymphohistiocytosis
3rd
August
AGEP
Corynebacterium
Division
DSCG
Heart
Hickman
IGIV
IRIS
IDDM
Jehov
Jarisch
Kalimate
Mooren
Ovarian
Prosthetic
PARTICI
Paecilomyces
Ritalin
Reflex
SSEH
SCA2
Safety
September
SBCCs
Snellen
TLR
Twelve
Tolerance
TREATMENT
Under
VRC
aqueous
aurothi
cinacalcet
cabergoline
cutanea
dichlor
ejaculation
fosinopril
gait
horses
ipilim
jugular
mRNA
mentally
norethisterone
puffs
pFVIII
routes
spleen
troub
taste
tarda
tampon
ubiqu
zuclopenthix
##lormadinone
##aqianzi
throat
##thetase
##orolac
##atiramer
reminiscent
##osiderosis
##vetiracetam
##itourinary
isradipine
##umetone
astrocyt
##ysergide
exhibiting
lepirudin
trumpet
presumptive
perhexiline
atazanavir
posterolateral
abandon
hyperandrogenism
hyperlactatemia
hyperviscosity
transforaminal
interlamellar
##ondaparinux
encompass
sucralfate
impregnated
##hegmatogenous
undifferentiated
leukotriene
overwhelming
marijuana
genavense
dyscrasias
radiopaque
micdadei
nonketotic
confluent
psychotropics
coarctation
suprapubic
bretylium
##ohypertrophy
accordance
##TIGATIONS
INVESTIGATIONS
polymyxin
pleuropericarditis
polypharmacy
SSTR2A
DiGeorge
ecthyma
melanonychia
MANAGEMENT
pegvisomant
acetylcysteine
trihexyphenidyl
somnolence
Campylobacter
telmisartan
Stenotrophomonas
Jehovah
PARTICIPANTS
ipilimumab
zuclopenthixol
1A
1st
2C
6MP
Ay
AF
Air
APO
Acet
ANA
ARA
Aquagenic
Br
BR
BS
BF
Ber
Bre
Base
Bel
Bot
Best
Back
Brief
Blast
Benz
BID
Besides
Cd
Cle
Cyp
Cell
Cyst
Cough
Coin
Clear
Current
Cessation
CPD
Cross
Currently
Coagulation
Circ
Day
Dyst
DCL
Dental
DME
Daptomycin
Diclofenac
EP
EO
Est
East
Event
EMD
FH
FA
FI
Fal
Fib
Fact
First
Final
Fixed
FAD
FFP
Git
GST
Grade
GVO
Horm
Hence
HAR
Hicc
Id
Ir
IB
IS
IPA
Ibuprofen
IDA
JW
Jun
Jak
Jude
Ke
Ki
Kin
King
Lo
LC
L2
LAR
Lower
LRTI
Loss
Lyme
Mul
Mil
Mob
MCT
Mamm
Mex
Mental
Moh
Maj
Major
MHD
Motor
MOP
Much
Mucin
Morphine
Moll
Miac
M69
Ni
NA
Nur
Niss
Naproxen
NDI
NVP
Ot
ON
OK
OX
Out
OLP
Pn
Po
PG
PF
Pul
Pit
Pac
Ple
PES
PIV
Pick
Plus
Propion
Power
PLP
POS
Q57
RR
RP
Right
Rating
Role
Rech
RBC
Radiotherapy
SY
Serv
Septic
Sirolimus
SAS
Sorafenib
SKT
Super
Sympath
Society
Sildenafil
Tol
Tenc
Tric
Tathion
Temporary
Uk
UF
Ure
Urine
UVA
URTI
UFT
VB
VA
Vin
Vir
VDS
Video
Vitreous
WG
West
Will
Yous
York
avi
apart
aGVHD
aPT
acetic
ber
big
bib
bif
bival
bird
bold
brand
cc
cation
crom
cod
civ
casc
cock
cited
cust
categ
cushing
curette
cecum
du
dd
dut
dival
dalteparin
eat
eigh
ehrl
fos
fine
flo
fish
fash
find
famil
fenes
firm
foss
fondaparinux
ger
gal
gum
got
game
glob
garen
gives
gaze
hap
hCG
house
ivermectin
kD
kin
kill
ly
log
lys
laden
lacrimal
mC
mM
mature
mitig
maqianzi
nocardial
national
nmol
nitid
od
ool
opp
ome
otitis
ochr
oophor
pom
pod
pim
pity
pay
paus
pock
pale
pack
pyel
p12
portion
peptide
pemet
pellagra
q3
q8
q6
qual
q23
rH
rul
ring
rim
rasburicase
rofecoxib
sn
sl
sA
sting
sight
sound
sarg
solar
sella
slit
satis
sonography
tas
tid
tit
tular
tail
targe
tick
titre
tepa
veter
vermis
