[PAD]
[UNK]
[CLS]
[SEP]
[MASK]
!
"
#
$
%
&
'
(
)
*
+
,
-
.
/
0
1
2
3
4
5
6
7
8
9
:
;
=
?
@
A
B
C
D
E
F
G
H
I
J
K
L
M
N
O
P
Q
R
S
T
U
V
W
X
Y
Z
[
\
]
_
`
a
b
c
d
e
f
g
h
i
j
k
l
m
n
o
p
q
r
s
t
u
v
w
x
y
z
}
£
§
«
®
°
·
»
½
à
ã
è
é
í
ñ
ó
ö
ü
ē
;
а
࿽
‐
‑
–
—
‘
’
“
”
†
•
…
⁄
€
™
⅔
−
●
总
数
股
##r
##m
##i
##n
##a
##t
##o
##v
##e
##w
##u
##g
##s
##H
##I
##p
##c
##h
##R
##B
##A
##C
##f
##P
##l
##y
##1
##0
##b
##d
##2
##8
##6
##T
##N
##E
##7
##9
##5
##j
##U
##L
##3
##M
##q
##S
##D
##x
##k
##V
##O
##z
##4
##F
##G
##K
##Y
##X
##W
##J
##Q
##é
##Z
##½
##ü
##è
##࿽
##°
##í
##™
##⅔
##ó
##ñ
##ö
##ã
##®
##ē
##he
##er
the
##ti
##on
##en
an
##re
of
##es
##ed
##an
##ent
##in
or
##al
##or
and
in
##tion
##it
to
##ec
##at
##is
##ment
##ar
##ch
any
##ro
##ing
th
be
##ce
su
re
##ation
##mp
##all
##ll
##ur
##ement
##gre
sh
##li
##ts
con
##ve
##her
##le
shall
##ith
##ther
##as
##der
##greement
by
with
as
Co
ex
such
pro
##ab
##id
no
other
Agreement
##ate
##ut
this
##ay
co
##ect
##ver
for
##ter
##mpan
##ere
##ig
##mpany
##ly
##ic
Company
de
##un
here
##tive
##im
##st
un
##able
##ty
##ding
is
that
##erm
ac
##ff
on
##ul
##ties
##qu
##se
par
res
not
##lo
##oc
##ran
##res
prov
##red
all
##hi
##ess
##tin
##ance
##ection
##il
##ac
##ach
##pp
##ity
its
##for
Par
##ion
under
##tr
##ting
##su
##ers
##lic
##ain
##ations
The
##ri
inc
##ated
##ol
app
##aw
term
whi
which
##ant
Ex
##de
en
##ments
may
resp
##ir
##ge
##mm
##ecu
##ted
##igh
##et
there
ha
##ary
requ
Section
##ign
##eri
##tions
##lu
##te
##ub
##di
##ci
at
##ase
each
st
cons
##ill
In
##ision
##rans
sub
have
ma
##loy
##mploy
##row
##lig
law
righ
will
##ow
provision
pay
##end
##orrow
ad
##ru
##pt
##ct
Borrow
##gent
##ender
##min
##th
##la
ob
##liver
##ocu
##ies
exp
are
am
##of
Sub
provid
##form
##us
inclu
pur
acc
##oun
deliver
##est
##oan
##ise
##ER
applic
##ecutive
##ffect
Lender
TH
##to
##fic
##ective
tim
Loan
##ord
##ee
party
Borrower
##per
##ire
Executive
##ason
dis
##iv
time
##rom
trans
##idi
##sidi
Agent
mat
reason
St
Ad
##ally
applicable
##ens
##istr
from
respect
##cept
agreement
oblig
rec
rep
##cip
##os
including
provided
No
noti
Subsidi
##ard
##out
##med
##od
##pon
##tain
Re
has
##ject
##ired
ass
AN
##erial
##ocuments
##ef
##tit
##ock
##me
##erson
##ure
reg
##ult
##eral
ta
Th
Party
##ative
##led
rights
##ore
without
comp
parties
##under
terms
This
##ors
agre
##fer
##ten
##TI
per
ii
##ON
it
set
##ute
pri
##anding
##tent
##vi
##ministr
##redit
if
##resent
##wise
otherwise
##by
##stru
date
##ress
##ecur
upon
termin
ag
subject
##force
##lated
inter
required
employ
##um
##eg
##ceed
##ue
##EN
obligations
Comm
##iz
##iness
##lan
##usiness
hereunder
ar
THE
provisions
forth
whe
accord
##alid
##par
accordance
been
##uth
Date
so
##ably
exec
notice
made
##fter
##urch
##ili
sa
li
##ministrative
##uthor
##fi
##ag
##ticip
##cc
##aries
go
than
prior
##vent
##los
herein
##uld
##ility
effect
##ees
Purch
pre
except
hereby
##ates
inv
transac
hereto
##vern
assign
pursu
Employ
Credit
##ount
##du
##ail
Documents
hereof
##rit
##ares
##fied
conn
pursuant
def
coun
Administrative
##ell
proceed
##dic
extent
connection
lim
##IS
OF
##ence
rece
##ces
##ffective
ca
material
cour
represent
disc
##irect
perform
##temp
##ull
##ED
##ual
##por
stat
issu
writ
cla
business
##uted
wa
comm
laws
their
##its
Purchas
OR
Pro
##and
thereof
##ven
dee
##ive
##ES
written
##older
contemp
##ities
Subsidiaries
##now
action
right
conf
##dem
author
Con
##ements
##ited
constit
fin
##ib
##losing
##age
##aid
##ber
##dition
##ENT
Parties
full
##itted
##endment
contemplated
##ke
Plan
perm
##perty
##ra
reasonably
jur
deemed
IN
##ew
##el
enforce
executed
consent
##ability
##eriod
##ecurities
##tw
##demn
ben
##isdic
day
after
jurisdic
##egal
direct
##ould
##enses
claim
##formation
##IN
transactions
##ever
delivered
##arran
Am
Stock
again
against
vi
payment
Particip
tax
##OR
##TH
ANY
ins
##less
agrees
##tial
pr
Purchaser
##TION
Closing
do
jurisdiction
proceeding
delivery
##standing
Sell
##EC
would
giv
##nowled
##pos
sign
##ffili
Person
##orpor
termination
##tained
##eci
case
sp
equ
event
##uar
counter
benef
valid
person
##sion
one
AND
Participant
##erc
agreements
Term
##ward
ser
##tric
An
##ended
##ange
respective
fac
add
ch
Each
govern
du
Subsidiary
appro
##ither
Sh
fil
##ecess
ow
instru
##iver
Un
##bit
##ear
Seller
counterpar
##AT
but
##verse
man
constitute
##riting
necess
##ank
fur
##tic
address
fore
reasonable
As
writing
##cial
##use
##fy
regul
speci
wh
fees
expenses
same
bre
interest
matter
Commit
##termin
Trans
necessary
permitted
amount
information
des
determin
paid
##AL
##ocument
constru
##tor
exerc
rela
result
##ault
##mental
Employee
##oll
##are
##om
##ator
##ud
state
##ced
warran
TO
All
##rou
rem
execu
##00
po
part
performance
finan
period
offic
relating
##ized
##AR
##che
refer
stock
legal
##ort
##ected
nor
limit
remed
##etter
viol
breach
mo
Guar
##uring
me
sim
contr
fa
effective
##action
##MENT
own
employment
##ome
shares
##ption
court
##ust
##ilar
##ederal
##ork
Amendment
##gh
##RE
##demni
similar
require
yo
whether
enti
Mat
20
sal
rele
order
##cy
##erti
##ING
##een
contin
##AN
##ateral
ab
betw
between
##llateral
statements
State
##urance
##uts
##cri
##ner
##incip
##ile
non
##ived
##urred
waiver
bin
occ
indi
##iden
Any
imp
remain
##ose
bec
##bitr
##ission
Li
Affili
##ditions
mail
execution
express
##tee
##ction
Lenders
##THER
year
##urr
##go
##igin
##ges
##oss
outs
Material
Bu
If
only
##vice
Shares
##ital
##nowledge
Collateral
##ased
##ounts
AG
princip
##tanding
##clu
payable
given
binding
##ants
invalid
conditions
financial
##sets
##going
securities
##am
construed
##ving
conflic
##ising
modi
addition
Bank
Award
Letter
##CH
cap
##ollow
##tis
entit
agree
##hol
##ested
el
foregoing
Buy
insurance
due
further
outstanding
##ense
##ERE
Res
iii
Law
form
days
federal
affect
fail
property
##oard
make
201
##UR
follow
documents
contained
Except
out
Guarant
##ccess
Buyer
##ecurity
when
##les
##rough
##idential
##ization
##umber
counterparts
entitled
##iginal
New
unen
##poses
##sed
##ature
av
##fication
unenforce
Adverse
exercise
certi
success
into
purposes
arbitr
10
Act
gen
##vid
##hip
thereto
good
##holder
##ually
unless
##ible
use
##sure
##ease
transfer
Property
limitation
benefit
##ules
withhol
Effective
satis
coven
exis
defin
Sche
sole
##ves
Effect
##ilities
##RO
##bur
expected
Is
Ob
##gate
then
sur
##tro
instrument
duly
Transaction
##gether
following
number
Oblig
together
##ong
##stan
Issu
arising
amounts
##sts
tak
during
indemni
Loans
within
original
Board
##alf
##ey
pow
oper
##hed
incurred
Def
Common
##ition
##rect
beh
SEC
##sim
behalf
cause
either
##CE
##dule
De
##ithstanding
pub
received
THIS
Ar
##mber
being
OTHER
gran
##simile
claims
he
main
CON
disclo
##orporation
costs
assets
issued
##IT
polic
##crib
##gregate
obligation
amended
##ects
agent
##ages
##gan
##tig
representations
approv
Gran
ack
##ax
understanding
##pri
##tricted
liability
RE
York
##ron
PAR
compli
dec
##ight
000
facsimile
his
failure
##irst
become
Securities
Note
AGRE
##vic
mon
violation
defined
recei
loc
##edi
Holder
##unic
##ree
issuance
public
HERE
##ings
unenforceable
force
request
Schedule
filed
##IC
##ark
##edu
Document
ann
taxes
##vive
employees
CO
survive
BY
##ately
##tered
taken
capital
##reat
##ests
##change
specific
##so
receipt
Tax
##AI
manner
##fore
ne
aggregate
act
##ons
elect
consu
##owever
expressly
communic
##ership
payments
service
avail
consumm
purch
Restricted
more
directors
authority
SU
officers
sale
dam
limited
determined
Ten
##ash
condu
por
entire
governed
##tly
##LY
##act
ext
Committee
you
##sel
prep
sent
conflict
particip
mean
knowledge
therein
proper
amendment
however
imm
##ronic
##ast
##cess
bo
##utes
##ffic
equity
##ating
Inter
authorized
notices
##after
available
used
default
##udg
could
##ded
##lement
Tenant
Go
char
related
exclu
who
Affiliates
ir
##EMENT
##tigation
remedies
Obligations
##cum
##ap
withholding
##low
Guarantor
le
before
##imbur
immedi
se
Default
benefits
cop
adv
##mission
AC
warranties
judg
electronic
##ous
successors
continue
covenants
##sive
##ider
Ass
irre
actions
assigns
cover
##cing
thir
power
##pre
##olving
##abilities
Su
##oli
Sal
individ
##ney
reimbur
##twithstanding
pen
neg
release
portion
AGREEMENT
regard
Notwithstanding
##torney
signed
appropri
plan
Ser
##cribed
aff
##ond
App
##voc
compliance
confidential
signature
sup
##isc
interpre
For
transaction
##RIS
account
##ound
##rust
##trol
attorney
al
##und
##ersed
##ensation
execute
Ch
supersed
##tives
immediately
##lord
dem
Reg
approval
Parent
appropriate
##ad
provide
##ient
document
condition
respects
##ganization
Option
regulations
##lace
##oin
Lease
through
demand
##eld
##UT
record
PRO
##urn
duties
remedy
##ency
assignment
respons
##hib
BE
enforceable
##til
coll
##ved
acknowled
Part
##urrent
security
first
design
Govern
terminate
##ph
##rang
consider
##vices
counsel
bas
proceeds
Inv
principles
promp
terminated
##old
En
basis
##VE
##ecting
Land
Business
##AW
purchase
##ination
requirements
##ecured
Day
giving
take
reli
Rele
WI
credit
rules
Artic
faith
##cted
Invest
##TY
until
Inc
Landlord
inj
##ures
continu
Base
loss
disp
they
United
##ution
held
suit
##ension
governmental
LAW
general
##ms
statement
States
liabilities
damages
restric
threat
described
Issuing
Sections
Period
directly
validity
Lien
irrevoc
those
discre
agents
way
ret
fully
##mb
were
12
maintain
affili
acqu
discretion
tra
Governmental
cash
##OC
comply
##ATION
requested
11
cir
##ember
judgment
satisf
policies
return
##ayment
circum
##alue
oral
certific
filing
##ened
##orporate
indirect
reference
month
##king
does
##ished
##orts
Author
proceedings
int
threatened
##olid
Noti
enforcement
##oid
process
ear
additional
your
WITH
properties
promptly
##ove
Event
Assign
##ine
below
adj
##thing
Rev
where
THAT
##TS
adverse
##atory
Employment
fact
##ctions
acce
##ACH
acknowledges
##ass
principal
##istration
Employer
tw
arrang
##emp
##IG
##esting
##raph
understandings
##ged
Secured
modified
based
cre
30
counterpart
##losed
##dings
##holders
##ises
contain
##nership
granted
ref
ill
##LL
##VER
inves
##enew
third
##iration
Revolving
WAI
poss
##ks
personal
accru
##lied
EACH
Laws
substan
##ule
subsidi
regis
irrevocably
##PL
specified
##tell
cor
consolid
reco
above
present
##atives
##tellect
##tellectual
##oti
subs
exclusive
Article
##ases
individually
include
##op
Borrowers
illegal
constitutes
##air
equal
lic
compensation
Code
injun
JUR
disclosure
bound
existing
##ECT
##with
comple
##ffer
occur
arbitration
TR
award
negoti
SUCH
corporate
conver
disclosed
attorneys
##trib
obtain
##ortg
##uali
employee
referred
##TR
both
##AB
##stances
communications
contract
##TO
resul
Del
att
enforceability
whole
EX
furn
consummation
##aware
eff
##arket
courts
##ives
pending
indemnify
transmission
local
enfor
Exchange
Cons
##ice
Salary
Authority
##ning
Liens
Affiliate
manag
Taxes
instruments
##agraph
thereby
Warran
PARTY
long
current
##sp
##pose
##itle
supp
was
Delaware
##ld
##cer
end
Direct
prac
Offic
regulation
officer
##our
##ger
entity
give
##TIES
dedu
Indemn
commit
Security
##AS
gener
expiration
solely
Ne
adjust
19
##ry
purpose
expense
##sequ
less
them
application
services
enter
##ustom
##fici
Man
pos
Termination
copy
To
renew
##one
change
car
quali
representation
actual
interests
##ful
##ou
thereunder
circumstances
share
intended
Change
##TER
ST
##ptions
Acc
receive
Information
na
##inan
Subject
##ectively
among
##itial
sever
affecting
representatives
Pre
est
registered
Indemnit
REL
amend
Investor
matters
14
di
Release
##ATE
validly
Officer
Exp
##rought
brought
##ker
rule
final
interpret
consents
There
what
##tially
##istent
collectively
##ached
advis
Equ
value
rel
generally
COUR
Conf
##con
##fe
certified
##DER
Repor
issue
##ights
Applic
NO
Units
income
bank
separ
impos
conducted
##enture
Notice
redu
post
##ier
##held
##laim
Control
enforced
withheld
##roup
SH
##dequ
##oci
compet
hold
arbitrator
##xt
##AC
apply
ACTION
##hibit
Corporation
subsidiaries
15
earli
sell
##soever
##BY
eng
iv
##ind
cal
##SU
##ot
affiliates
prot
incre
whatsoever
##arm
inure
Requ
specifically
indirectly
extension
##oper
prom
custom
##ALL
##itable
Trust
competent
##efici
lat
##arding
had
MA
##ents
warrants
represents
Commitment
##duct
Rate
Intellectual
investigation
Per
Commitments
Dis
##ite
subm
agreed
Confidential
2016
know
Purchasers
addressed
Pri
##hief
Applicable
##arge
waives
invest
Sec
##ATI
exchange
PARTIES
supersedes
SHALL
affected
Grantee
##imum
regarding
Coun
del
nature
##formance
assess
Or
Upon
organization
With
accept
conduct
rate
relief
owned
occurr
records
agency
13
contrary
conflicts
FOR
##erger
concer
neither
##ory
##dequate
substantially
##isting
Fac
Indemni
plans
Deb
##rupt
making
Manag
harm
ERIS
Performance
ERISA
fee
kind
##vor
NE
##tention
##atement
##ish
now
##ia
thereafter
correct
work
asser
policy
assu
Purchase
dispute
remaining
consolidated
Share
reser
Such
confir
obtained
mut
sett
complete
Mortg
##CEED
Rep
having
indemnification
PROCEED
name
LI
arrangements
tru
regulatory
later
mis
cooper
also
PROCEEDING
##sequent
Partnership
fair
HEREBY
UN
violate
##anty
aud
title
waive
salary
disclose
At
##stance
Interest
##ily
Tra
##roker
underst
concerning
true
##AA
##NG
##paration
Finan
##ring
Chief
meaning
responsib
least
Neither
carry
Member
modification
furnished
prepaid
Group
over
consistent
HERETO
attached
40
##ident
cance
##IGH
interpretation
##ruptcy
litigation
press
assigned
director
##view
two
##IAL
STATE
holder
charges
prohib
periods
ord
##ness
##UN
earlier
Issuer
##ler
operations
fund
equitable
disch
sing
permit
satisfaction
RIGH
##ences
##UMENT
##uture
coverage
Ac
courier
ARIS
subsequent
authoriz
aut
future
file
distrib
##LE
##set
defense
separate
registration
preced
sche
##uses
warranty
##dules
Warrant
00
void
##vernight
Guaranty
##actor
occurred
delay
##ior
##ferred
years
course
Rights
her
waived
Indemnitee
abs
restrictions
acti
##ounting
Perm
##elf
overnight
Comp
consideration
performed
##denture
adequate
practi
##oma
##ist
paragraph
##tes
##erially
covenant
##RES
responsible
deb
exercis
DOC
Se
reports
pres
##mpanies
DOCUMENT
construction
materially
inde
##hibits
##ath
NEW
place
2017
acceler
WH
included
certificate
ARISING
##sement
entered
intent
page
##EM
##lass
##ORK
AP
annual
determination
##omatic
foreign
##vant
YORK
##ular
MAY
harmless
Ben
accrued
hand
##ATED
##ium
possible
ordin
During
LO
last
##ali
automatic
##ording
join
Notes
designated
EN
##ections
must
##ex
Service
##ix
reimburse
Commission
confidentiality
Directors
withhold
copies
vesting
##gn
trust
##IR
##orporated
participation
Gen
##iting
communication
##den
##mbers
JURY
standing
##fficient
lease
Indemnified
grant
position
satisfy
cont
Contr
three
option
boo
adversely
Lic
depos
maintained
free
up
administrative
##gra
conven
Facility
31
render
##FOR
##vile
privile
clause
death
see
company
##tib
anything
##ances
01
PER
hereafter
##tence
##apital
LOAN
Cour
##ultant
benefici
##PRES
applied
existence
##eal
imposed
San
control
##ared
##ta
exceed
timely
##eep
authorization
Reports
providing
##enior
##ars
##acts
##aged
##ession
Claim
review
Grantor
recogn
incorporated
relevant
TRIAL
five
Exhibit
Adv
accounting
##lacement
considered
favor
16
##if
Hol
COURT
acknowledge
automatically
powers
postage
Second
occurrence
General
##vidence
norm
Enti
##ata
##LAI
##LAIM
##ide
##alance
Agreements
letter
therewith
##ligible
businesses
Disc
GAA
GAAP
Other
corporation
##ires
Represent
##ival
On
##roll
supplement
Certi
##actions
preceding
##II
forfe
##see
##vities
commitments
decree
##abl
sufficient
becom
keep
qu
sec
Nothing
via
##DIC
##ously
IR
##MIT
##SE
vested
##als
results
bankruptcy
she
##ss
operation
Form
##withstanding
cost
notwithstanding
proced
em
om
First
OUT
ownership
evidence
activities
Initial
statute
IND
normal
Pled
##ack
continuing
Existing
Transactions
losses
trade
Market
commence
fullest
Certific
RES
administr
books
broker
##nal
injunction
Acqu
##gin
cle
##ial
serve
funds
Dec
##ip
commen
iden
##enue
##olved
Federal
unre
lap
offer
Financial
cancell
base
decision
off
investment
##bted
DE
dele
dates
Permitted
##adings
contro
payroll
Unless
Equity
establ
##ading
located
demands
ordinary
months
practices
vac
successor
By
Holdings
capac
##endar
THERE
prepared
certificates
report
previ
clear
##btedness
venue
##losure
times
avoid
Capital
unp
assignee
real
Consultant
conveni
email
##sements
##used
Related
reimbursement
##olven
##olvency
Assets
CONS
##ical
supersede
##ently
suits
differ
lapse
LL
Administr
##ivers
Trading
next
interpreted
accep
personally
approved
##erve
##posed
member
Certificate
December
sentence
known
efforts
##ood
Letters
returns
underta
disbur
##iving
satisfactor
##tible
limiting
means
##udic
employed
satisfactory
##etary
##ligence
##organization
##REV
Grant
##VES
prevent
regardless
HA
Rec
##oice
calendar
mailed
NOT
##ulting
Subs
notify
audit
Sw
WAIVER
options
invalidity
Distr
prohibited
unpaid
##other
AM
##SUs
##ATING
pat
another
##vail
RIGHT
Deliver
##nia
##very
refl
vacation
perf
Persons
market
Cali
##OCAB
RELATING
IRREV
IRREVOCAB
leg
##fornia
chan
covered
discharge
California
##iscal
409
procedures
extended
penal
creditors
word
others
uncon
filings
stated
Proceed
identi
balance
Servic
capacity
409A
##TED
settlement
##cent
reorganization
publicly
cooperate
IRREVOCABLY
Mar
single
uncondition
none
licenses
Delivery
##cul
##arily
##ators
bear
contains
ten
##fere
Regul
AS
##sc
responsibilities
##ote
##pend
##demark
operate
indemn
Registration
Trustee
Administrator
##ctive
##law
##EG
Amer
##leading
Po
##ending
dire
CLAIM
headings
modify
Payment
div
insolvency
Supp
##ISDIC
Amount
JURISDIC
Americ
JURISDICTION
##ATIONS
##ners
##atures
beli
persons
WAIVES
Court
##ID
misleading
becomes
financing
RESP
convenience
##ority
deal
ev
offi
Ins
Cash
office
Mortgage
can
##ste
currently
Assignment
whom
implied
IT
created
gro
stockholders
##scrow
Interests
LAWS
belie
##PLIC
disbursements
##isite
##ANCE
qualified
Swing
damage
Me
Pr
##ody
sit
indic
guar
##UD
Ow
You
##ational
annivers
prof
determine
conversion
exhibits
doub
Sp
percent
individual
negotiations
heir
closing
HAVE
contracts
max
City
light
una
##fying
recognized
Doll
AGENT
##itions
appoin
Borrowing
meanings
Without
herewith
companies
renewal
##mises
organ
excess
commission
heirs
##quid
preemp
maximum
##cription
increase
te
Arbitr
amendments
Pres
proposed
##vey
acceleration
##ane
##utable
price
unenforceability
engaged
mutually
##ABLE
avoidance
##velo
commer
most
IS
min
##rd
##andard
ALL
com
fun
money
acting
different
consummate
##ause
County
asserted
anniversary
Merger
Conver
doubt
##ural
partic
liable
particular
18
##BL
##cribe
section
##CL
Partner
ph
pled
vest
organizational
##ocket
##ISE
cancellation
requests
Thi
##ST
conclu
APPLIC
ended
##cially
##UL
CONT
reserves
President
Awards
pocket
sc
like
ability
Manager
prosp
associ
Compensation
Disclosure
tri
inf
thirty
unconditionally
advance
members
customary
participate
##utions
##velop
02
fiscal
Inde
acquire
Benef
##ORD
##OVER
contrib
requirement
negotiation
lis
##OW
released
license
ques
Oper
##gated
##cts
##ETHER
executive
unreason
Cor
##essee
injunctive
DIS
##olute
Services
class
protect
##ury
understood
insu
##ict
##WISE
extend
Required
Pay
omission
##raw
##ulti
consult
##elec
Third
Non
##TENT
##idend
acceptable
preparation
OTHERWISE
conting
##ANS
satisfied
absolute
exercisable
bond
ris
##rov
##bran
Days
WHETHER
prevail
need
##cumbran
Statement
advisors
##entive
initial
acts
excluding
Le
##try
owing
GOVER
##udited
confirm
words
GOVERN
TRANS
ENFOR
penalties
rev
merger
##PRESENT
REPRESENT
17
AD
involving
Arbitration
him
telec
##ime
requisite
signatures
op
##stall
creation
Premises
best
untr
eviden
show
Contract
schedules
complied
therefor
193
100
port
approvals
privilege
six
resulting
untrue
sold
District
##tim
convertible
indu
incur
internal
pages
##ACTION
##iron
impair
##viron
Stockholder
acquired
ON
infring
Require
TRANSACTION
preclu
indenture
repayment
##US
defend
Sellers
EXTENT
ACC
telecop
RSUs
##kes
contested
##gram
##df
said
dated
##hen
Price
ITS
##tary
##des
##FF
##ertain
jointly
##IRECT
##vel
itself
##ned
relations
##pendent
##vironmental
##ensed
Ann
SE
partnership
arrangement
##uarter
sales
##ITY
It
loan
##ANT
##ope
##isition
##ducts
SUB
subsection
estate
pdf
##vers
RESPECT
Debt
Off
gross
Escrow
orders
##emption
##not
calcul
assessments
Account
unaudited
previously
seek
indemnity
36
thereon
##eries
Separation
##hing
##olun
understand
organized
scope
Sanctions
GOVERNED
Guarantors
subscribe
APPLICABLE
Tex
Expo
submit
Dollars
##asing
LLC
insured
##tire
##olution
COM
stric
unreasonably
forum
accur
releases
SECTION
##laws
60
##line
##ENDER
disputes
working
liquid
Associ
##onduct
convey
nothing
Fee
##tru
dispar
##isconduct
Texas
ACCORD
choice
Entity
misconduct
references
preclude
ite
##lor
##tern
##land
managers
LENDER
certain
##NOW
negligence
established
##tirement
##TRU
pl
red
##orator
insur
judgments
##yp
discus
addresses
Indebtedness
contingent
Senior
##ECTION
distribution
preemptive
flow
##ruption
ACCORDANCE
caused
2015
might
##co
rest
##umul
clauses
AGREES
Insurance
guarant
sum
occurs
supplemented
Servicer
##END
03
PROV
##ranch
mailing
shareholders
indicated
relationship
materials
limitations
CONSTRU
adjustments
Value
##ys
instit
sets
secre
requires
##ough
transm
soon
representative
remainder
offices
UNDER
Pledg
obligated
Assignee
willful
##ALLY
Debtor
Jun
morator
moratorium
##TIG
sel
adjustment
Owner
us
##ince
Rest
Sale
Conversion
opp
##OL
susp
owns
conclusive
manually
controvers
04
Lessee
##irm
CONTR
restriction
incorporation
Incre
Exposure
great
##yste
obj
indemnified
LITIG
asset
accrue
practic
holders
##tal
##MIN
##raf
##orting
Schedules
preserve
resign
Preferred
promises
None
judic
eligible
##foli
lien
debts
Options
Indenture
decla
commencing
##tail
##OUT
install
tele
listed
##OF
minimum
##AIN
##folio
##DI
partial
finder
dividend
25
Des
##mium
##eti
Transfer
reduction
liens
##urrency
forms
reimbursed
##inion
allow
##prietary
beneficiary
LITIGATION
attemp
common
WITHOUT
reduce
Disability
PERMIT
##IRECTLY
CONSTRUED
Proceeding
includes
BOR
alleg
jurisdictions
prevailing
##ordin
CONTEM
HAS
Knowledge
Rece
06
body
##part
Director
according
fairly
##truct
##ORT
CONN
trial
##oting
involved
##eth
exist
##ROW
Vesting
##EST
Defa
21
Claims
permits
Holders
consummated
management
200
substance
transferred
nam
standard
##omic
trademark
deposit
PERMITTED
charge
consolidation
furnish
Pledgor
mortg
null
replacement
Product
COUN
Optionee
investig
legally
hour
##uro
Stat
announ
exercising
possession
Pat
opinion
Offer
rise
quarter
##up
##fications
call
##iss
Paragraph
severance
##aneous
##unity
Addition
legality
##ATIVE
Office
Action
PR
Notices
patent
LC
##ured
collateral
##conomic
recip
##venue
determines
##iti
##acter
##ERAL
US
Registr
DOCUMENTS
associated
Jan
##ationally
##iring
arise
judicial
Fair
events
##undred
designate
severally
License
pledge
well
makes
character
board
new
##enting
incons
portfolio
##ROWER
Ag
economic
##CC
dispos
independent
circumstance
BORROWER
borrow
deductions
debt
Association
##uary
##ech
revo
Design
##eed
irrepar
Report
forfeited
Euro
##IP
premium
affiliate
##ang
January
##uting
##alu
undertak
##ectus
contra
Representative
executing
TRANSACTIONS
##CON
##mption
recipient
intellectual
##uty
##ecti
##vered
contempor
partners
rendered
CONTEMPL
Perc
##CED
##onus
CONTEMPLATED
duty
##ida
Anti
When
hereinafter
##veness
create
engage
CONTRAC
Ma
Time
election
Incorporation
##ectiveness
Percent
deduction
risks
##hes
increased
nationally
rely
##IL
responsibility
things
served
prepayment
accepted
franch
assert
practicable
draf
develop
##lose
Expenses
submits
##ealth
Registrable
should
Defaulting
flows
about
authorizations
Operating
##urity
annum
##ugh
##lar
##ULL
begin
suffer
detail
profession
hours
##odi
reputable
participations
forfeit
##ught
notes
attention
copyr
properly
obtaining
##aging
administration
Polic
##cumbrances
regular
funding
shown
understands
fid
##uci
sought
Obligor
sitting
FULL
##01
applications
accountants
Released
effectiveness
exercised
March
CLAIMS
senior
##TIONALLY
##ICT
##ASED
Series
multi
##FI
##GES
##ARD
perfect
##ERTI
disability
Wa
ending
Swingline
self
##man
##ister
names
Statements
Placement
four
Equival
ENFORCE
every
tr
typ
conform
causes
executives
##claim
subsidiary
qualification
##umulative
data
##ESS
changes
mortgage
##raud
AMEND
confer
Ext
Assignor
CERTI
Eligible
Title
##dated
##ully
location
cumulative
##rim
decre
COURTS
Al
##QU
net
##limin
Environmental
prospective
##etition
intention
Participants
taking
June
Reci
##pient
##utory
acceptance
##ethod
Recipient
pertain
disclosing
documentation
expire
lie
continued
Supplement
method
inqu
Order
contraven
fiduci
Shareholder
LEG
Sever
##ie
##LED
counterclaim
exclusively
Priority
close
##ION
##EO
Proper
##elve
Warrants
##og
commitment
Benefici
favorable
commercially
irreparable
AR
facts
Unit
waivers
EV
volun
appeal
CONTRACT
From
##sures
transmitted
contemporaneous
FULLEST
Purchased
exists
alter
reporting
twelve
controversy
Join
voting
assist
jury
wire
##gy
##onven
##eng
Articles
LEGAL
American
##fully
##eeting
Princip
greater
er
Companies
inconven
Confidentiality
evidencing
CONNECTION
##chan
appear
compar
since
treat
disposition
lieu
AT
##utors
##sions
##ortunity
Entities
Commer
items
resignation
AMENDMENT
##fies
incident
purpor
##urchase
Asset
former
confirmation
undertakings
MAT
##lus
##TING
Capitalized
rat
##vation
administrators
Additional
retain
actually
portions
omitted
Speci
Waiver
inconvenient
VII
##ral
cooperation
mar
##ciation
Incentive
imposition
Secre
1934
##cement
##ables
commenced
Properties
##olvent
statutory
fails
##ystem
##ror
##from
Exhibits
attach
Fund
TORT
##ivil
fax
fiduciary
Severance
##RED
dom
stockholder
##respon
format
assume
##feree
objection
comparable
Agents
correspon
dischar
alleged
tre
provides
Prosp
Guaranteed
longer
Flor
##estic
total
privileges
Regulation
cannot
##KNOW
second
##UDG
Receiv
JUDG
500
violations
relate
LIB
##grams
Class
##PER
##FIC
periodic
Arrang
Florida
past
equival
poten
Set
##train
##airs
submitted
reflected
accurate
OBL
done
##ied
governing
##ada
EXPRES
##arget
Advis
Prospectus
OBLIG
EXPRESS
executors
government
capitalized
directed
proprietary
admin
acco
access
##changed
Year
fraud
##pte
assum
Septe
September
GU
exa
prohibit
installments
GUAR
fif
comb
intend
Subscription
Cause
Vice
plus
alloc
Retirement
RIGHTS
Members
Work
##aired
conte
owed
substit
changed
telecopy
##reciation
##inal
exce
entirety
insurers
05
50
##acy
Corruption
deems
awards
exchangeable
controll
opportunity
Principal
context
den
operating
UNCON
joint
liquidation
##DITIONALLY
Rules
consequ
whose
COMP
Extension
LIBOR
UNCONDITIONALLY
expressed
America
##jority
##ENCE
receiving
Investors
reduced
JUDGMENT
programs
deem
Percentage
Fore
Contrib
bind
ACKNOW
Counsel
audited
ACKNOWLED
CEO
##ental
Fur
mer
##app
delivering
artic
Assu
According
Attention
##ordinated
Further
these
mutual
Annual
Accordingly
Covered
##aches
status
##AND
##arks
strict
Ret
##IVE
##llary
##cillary
Amended
collection
deduct
posting
Advances
selected
lawful
disclosures
potential
##DF
bylaws
owner
##ROM
advisable
##echn
professional
PDF
therefrom
defa
earned
contractual
trustee
BASED
CA
wee
##lease
impaired
##vocation
singular
pertaining
restrain
CONF
assessable
treated
Line
##jections
signing
breaches
authorizes
90
Current
##fill
##reas
##ana
##TIVE
carri
RELATED
Original
##enty
resolved
##licit
##iry
Payments
El
##tarily
promul
question
never
pros
##pons
##ize
AGAIN
patents
Beneficiary
Secretary
EXPRESSLY
AGAINST
##OING
accounts
terminates
reviewed
declared
promulgated
Broker
meeting
##vested
vii
questions
WO
cease
Obligation
register
FOREG
attempted
FOREGOING
##avor
##AM
withholdings
Approv
STAT
THEREOF
##ULD
bring
monetary
reserved
Foreign
recently
Prior
dev
recover
##CLUD
plural
exemp
Liabilities
refus
Management
confirmed
confirms
authorize
Benefits
Offering
percentage
though
special
covering
FROM
Treas
##current
##zard
##idence
Stre
documented
relied
travel
II
Sign
ful
##AY
##vider
Provider
furtherance
occurring
discussions
Rule
##irable
because
monthly
schedule
##CLUDING
22
##writ
##chie
suc
injury
desirable
Guarantee
WOULD
medi
deed
ensure
taxable
##ISION
entities
relie
Disp
fulfill
##eb
##ecution
Products
relates
refusal
##istered
interfere
chall
OBLIGATIONS
CONFL
succeed
##pr
revocation
indebtedness
Equivalents
SO
sections
initi
concurrent
##cies
Good
Subscri
Requirements
premiums
##TEN
##abor
##agor
else
Mortgagor
Financing
##CLUS
sheet
FIN
bro
ela
INTER
twenty
presently
multip
elap
Lim
lender
##oen
anticip
Incremental
##partment
Subscriber
Flo
ine
secur
modifications
endors
deposited
Sanction
trademarks
##CLUSIVE
ABL
list
##ults
arbitrators
continuation
omit
Whenever
type
##ength
elapsed
achie
##ranche
participant
beginning
equivalent
while
receives
entering
likely
Requirement
##MINIS
ACKNOWLEDGES
Legal
##draw
INTO
inquiry
Nev
ADMINIS
Commercial
Ancillary
establish
##REDIT
Nevada
##vision
##eh
replace
SUIT
customarily
indust
valu
##IV
Exerc
REG
consultants
##FFECT
copyrights
CREDIT
IV
##hec
origin
##alth
Program
specify
acquisition
articles
##mptions
##ousand
##enewal
commercial
Sett
Street
ADMINISTR
length
##tenant
performing
settled
Sanctioned
##encies
##aster
Coven
subp
effectu
effecting
dilig
calculated
##NI
##here
##atural
##ices
priority
country
negotiate
adjusted
redemption
sound
##ICH
delayed
INDU
appoint
instituted
secrets
forfeiture
Sales
Consent
PROVISION
subpoen
INCLUDING
health
##ronting
absence
ENTER
Acquisition
Regulations
phys
inconsistent
COMPAN
##wealth
##edical
Trademark
WHICH
reflect
Benefit
National
##lit
restricted
issuable
previous
SER
hol
##mor
##off
##CI
projections
##teg
Real
##jected
Bankruptcy
Commonwealth
affairs
assumptions
situ
investigations
nonass
prompt
hundred
natural
generality
promise
calls
subpoena
24
##TOR
registr
assignments
BEEN
##ipment
##ised
##formed
Maturity
delegate
sixty
Right
##dul
unvested
expired
setting
publ
secu
tort
##INGS
named
securing
nonassess
products
resolution
Revenue
##TIC
PROPER
Aggregate
franchises
Exercise
nonassessable
##ICE
##enced
instructions
##ehic
Less
struct
product
##tical
annually
seeking
delegated
DISTR
##ternative
holding
Bonus
##ton
##bal
##lient
care
ineffective
Project
forec
remains
Restric
licensed
LLP
error
##tinu
containing
Restatement
succeeding
Settlement
COMPANY
##EE
##SON
##resenting
charter
Licensee
PERSON
restated
DISTRICT
##uration
##tenance
outside
##ific
##PUT
Subtenant
formation
commencement
believes
Lessor
Target
##oy
##BR
requiring
grants
severable
accepts
secure
##GH
instance
authorities
recordation
INDEM
Mortgagee
Designated
relieve
Master
found
Indi
identified
##lin
##UGH
representing
electronically
voluntarily
Receivables
Fronting
Nor
anti
examin
doll
definition
Expiration
##IDED
industry
Renewal
duration
##UM
##ONG
priv
effected
tes
##enn
##employ
integ
projected
##olve
obs
description
financially
##crip
possess
renewed
Advance
infringement
cure
draw
secured
sums
##ublic
affects
##ixed
attachment
rata
retained
continuance
SP
Tranche
##endi
##ters
conditioned
substantive
AMONG
DISPUT
treatment
combination
ADMINISTRATIVE
##lac
##encement
disco
processing
substantial
believe
commissions
discharged
devote
##endix
recent
Commencement
Terms
prohibition
FED
##TC
##hold
illegality
earliest
Licensed
FEDERAL
Fif
##ouse
content
assessment
Patent
MATTER
registrations
emb
diss
insp
effectively
irrevocable
decisions
DIRECTLY
incap
impro
adjudic
offering
##UAL
incentive
replac
prim
Internal
Appendix
Representatives
INDIRECTLY
##rovements
Plans
indemnifying
APP
##ilding
Limited
diligently
Min
UCC
aw
system
##ked
requesting
surv
Acquired
IP
##minated
maintenance
##empor
Treasury
07
##tof
##back
##USE
##erted
arises
perman
##ave
Register
loans
Restated
defaults
effectuate
##tofore
##ANTOR
teleph
MUT
##lements
##dian
Under
similarly
practice
EVENT
tempor
Depos
declar
PRIN
improper
##lain
##yn
attrib
split
Loss
Rent
##ari
proof
occup
##soli
converted
Cop
encumbrances
deliveries
repay
invoice
partner
managed
conveyance
##morand
ce
firm
employer
WAIVE
contribution
corresponding
##ehicle
42
Mon
##olo
produ
respectively
truth
Advisor
##ponsor
III
deri
##yond
beyond
area
referenced
invalidate
Eng
incidental
##CIPL
PRINCIPL
##national
pror
participating
qualify
disparage
situated
##solidated
28
##ECTIVE
Origin
dealing
assuming
Elect
REGARD
##vity
##ets
##ues
##NE
##utation
##agement
manif
warrant
Appreciation
Accru
protection
##UNDER
purported
##BIT
Sublease
notified
forever
injunctions
protest
PROVIDED
Deposit
ra
##EK
THEIR
offset
SEEK
announcement
unchanged
Reason
computed
invo
remit
2014
##duled
SAR
##doll
withdraw
constituting
Bylaws
##dollar
group
nine
##ROUGH
completed
support
360
revoke
ATTOR
##NEY
ATTORNEY
Currency
##inqu
Instru
carrying
omits
PRINCIPLES
Outs
fo
##irt
arm
level
reliance
Organization
CERTIFI
Dispute
Accrued
ina
program
##ilit
##ASE
several
omissions
29
MAN
##olly
Partners
advisor
##ocial
appointed
08
Ite
##teen
inserted
Short
lev
restrict
1933
disparaging
challen
aware
Corporate
##50
summ
ascribed
##portion
statutes
enforcing
Servicing
Assumption
Ju
elimin
##ling
##thern
aside
##ulent
Reserve
##comp
fraudulent
es
setoff
##ady
diligence
undertaking
domestic
temporary
Bo
facility
meas
surr
##FICATIONS
foot
BROUGH
Fil
##MPL
##uter
Thousand
represented
Investment
shareholder
Accounts
Eurodollar
Policies
weeks
surrender
BROUGHT
After
dil
scrip
##sign
##ention
##mple
confidence
Fees
virt
collect
Managing
Solvent
pred
##right
resc
enc
consistently
CAUSE
May
Sponsor
specifying
ASS
believed
evidenced
##appro
##oyal
Electronic
July
Apr
Sur
Consolidated
able
Department
purchases
activity
beneficiaries
exempt
April
##ich
##payment
sue
2018
Representations
ENFORCED
##issible
Policy
restraining
Four
Mass
##DA
adop
##izations
direction
REPRESENTED
dividends
23
Cana
Ter
##NER
Standard
trading
awarded
positions
brokerage
WAIVERS
ISSU
guarantee
COUNTER
structure
attributable
gender
##uf
##liance
##lying
therefore
compens
##andatory
extensions
##stead
##notes
Specified
footnotes
Ha
vote
##atis
##uid
##udi
##CA
##kers
##ential
##ready
##inance
Buyers
DEL
administered
virtue
##ufact
##uage
##ony
unk
note
Subland
reputation
sour
##nown
implement
already
superseded
Pledge
##anguage
Return
integr
Copy
Canadian
advice
Creditor
RELE
UNIT
suffered
prosecution
anticipated
##ificant
##morandum
Originator
manifest
unknown
Sublandlord
throughout
WILL
##cumbrance
Leases
SUBMIT
quarterly
conformity
WAY
et
language
##tts
entry
##ibility
Licens
Distrib
##aneously
exemption
assignable
##usetts
recovery
sheets
Joinder
##signed
chec
rating
Subordinated
recording
Suite
carried
multiple
physical
CH
##ores
##PT
orally
##achusetts
Banks
seven
Repurchase
##UNT
Grantors
Lead
Massachusetts
Multi
fe
ste
##GE
retirement
breached
Indemnitor
REPRESENTATIVE
STATES
originally
SERV
UNITED
##fers
##att
unable
deliverable
##ritory
completion
Contracts
borrowing
VI
##ino
respon
facilit
Building
Chair
Shareholders
##rimination
ratably
DISPUTE
PUR
##ug
majority
relative
SECUR
precedent
##tructuring
contravention
##echnolo
vehicle
##ric
##ne
##RIT
##FTER
appell
solicit
preferred
county
immediate
##mbership
affiliated
dollars
dissolution
inadequate
appellate
Fun
crim
##75
transferee
##ARI
manager
comments
Car
af
listing
remo
designed
subsequently
deno
permanent
AAA
Custom
Penn
my
marks
##ps
approve
import
resulted
CERTIFIES
##RITTEN
ARE
She
undersigned
Continu
HEREUNDER
availability
acknowledg
contest
appoints
risk
Annex
MUTUAL
Imm
civil
##aily
##gation
##DE
THINGS
##udge
acknowledged
Encumbrances
Consulting
cancel
Courts
One
estim
bu
Costs
##lobal
##cluded
deducted
Contractor
using
contravene
Floor
INDUCED
Fifth
Client
Net
##the
##isitions
whereby
197
KNOW
##CLAIM
202
Issuers
restrictive
sooner
Increase
##appropri
adopted
##oresaid
aforesaid
Mr
##nel
##lv
unf
heard
purchased
International
designee
separation
scheduled
contributions
##liminary
Chairman
Hundred
Your
pass
##tili
##andon
Transition
Mortgaged
shor
defici
heretofore
##ORY
necessity
abandon
controlling
##SO
incurr
distributions
announced
Licensor
social
##igu
transfers
prej
##inancing
development
criminal
HE
##ob
knowing
absent
##timony
drafting
marke
Arranger
intends
private
testimony
check
Civil
rul
##quali
submission
repurchase
waiving
finally
facilities
##vidual
AGREEMENTS
EXEC
accelerate
redee
CERTIFICATIONS
assistance
##zardous
Individual
EFFECT
cas
vari
yet
##ump
##isten
##ays
##igger
environmental
issuing
noncomp
Develop
CONSENT
45
Feb
Imp
did
##CP
##bigu
proportion
##utor
##ruary
simult
fam
prepare
deduc
letters
Maker
Penns
February
26
VOL
venture
purchas
inconsisten
incapable
Funding
Ill
##OY
##ancy
unused
lawsu
gives
determining
presentment
1401
Losses
VOLUNT
EMPL
UP
##raction
##Co
interim
##ventory
Prot
THEREBY
Alternative
##employer
EMPLOY
##na
##dent
##ines
THAN
##ANTY
Withhol
Margin
FINAL
SUBMITS
##attan
Global
bonus
##ober
##hattan
granting
locations
committee
Manhattan
investments
Covenants
Aug
WAR
bill
permissible
official
Deed
##ources
Indemnitees
customers
VIII
August
guid
lay
##ists
read
Coll
finance
##IGN
##TERMIN
DETERMIN
PROPERTY
obser
ninety
dilution
casual
CF
Follow
mas
medical
##SS
##lies
deferred
##statement
enable
invalidating
follows
managing
ordinance
perfection
item
appointment
Following
fre
encumbrance
ambigu
becoming
telecopier
However
Ph
lump
##son
Counter
distribute
merged
inconsistency
Pension
fraction
##itive
##UC
##UE
formed
life
Conditions
serving
##CEPT
charged
levi
leave
Char
LIMIT
misappropri
profits
published
contents
Based
GEN
fixed
lack
rent
##ylv
anyone
##acc
Inven
insist
recorded
Assigned
prorated
Outstanding
##ARILY
levied
##ylvan
lo
##iform
informed
limits
Att
perfected
penalty
Multiemployer
##inois
Pennsylvan
Illinois
Pennsylvania
Quali
SIT
str
##val
manage
Transferee
updated
Proceeds
Memorandum
365
Patents
bon
##where
##pts
##SA
forward
##unded
Excluded
complain
##ENS
198
marketable
text
infringe
drafted
COUNTERCLAIM
rates
utili
pursue
instrumental
operated
Defer
REIT
leasehold
##FORM
phr
##angible
margin
Approvals
predecess
VOLUNTARILY
Withholding
##rain
##PRE
##02
##sual
defenses
acquires
earn
MADE
investors
plac
##ILI
steps
shorter
knowingly
WARR
Div
eigh
hear
vers
asp
notification
FORUM
preser
Corp
secret
ARTIC
appealable
GUARANTOR
controlled
##yndic
Fourth
Oct
Sou
cases
##ace
Color
Stockholders
##ORS
Materials
contractors
relying
##ograph
laying
SITTING
ARTICLE
Southern
09
Balance
##amp
##aper
parent
consulting
Review
personnel
added
wholly
advances
maintains
franchise
Avenue
Use
##orough
##mptly
##asion
##loc
Promptly
impose
leases
reservation
methods
October
OP
Obligors
capitalization
holds
beneficial
Post
COUNTY
Approval
PROVISIONS
Customer
Dom
REC
RSU
##more
##ington
enj
payee
##ado
insurer
##echnology
escrow
##ok
##RING
consists
adver
afford
delinqu
distributed
declare
closely
adjudication
Colorado
Lending
determinations
relation
Pledged
CONFLIC
North
Hazardous
denominated
##theless
41
even
ge
##urances
provider
failed
prepay
calculation
developed
primary
declaration
truthful
DETERMINED
27
Gro
WRITTEN
sti
##aterial
ende
##ords
maturity
assurances
claiming
captions
followed
originals
assessed
ground
exception
SERVICE
redeem
utiliz
Ear
##WE
##entions
assigning
violates
Accounting
ENFORCEMENT
allocation
INDEMNI
49
##lish
instead
##antom
compr
returned
convert
trustees
indemnities
ARBIT
CONFLICT
casualty
advertis
ARBITR
Tw
national
occasion
COLL
Funds
administer
levies
instrumentality
CONFLICTS
He
inventions
purchasing
recoup
customer
presu
Acquir
##culine
INTERPRE
Items
Copyright
UPON
masculine
Avail
##VEN
##art
##ick
##illion
##endit
##ferences
##demnation
Liability
misstatement
absolutely
revoked
consequences
foreclosure
Development
Domestic
series
##iqu
##aff
##vement
##urate
exc
2013
individuals
allowed
embodi
Underwrit
MANNER
Surv
bar
holid
##sey
ado
##THING
equally
breaching
Disbur
Support
Contractual
portable
SET
GUARANTY
telephone
abandoned
##qualified
noncompliance
Jer
##credit
##JECT
##vember
##minine
November
materiality
Income
continues
144
auditors
feminine
##creditor
NON
##upon
##URE
stay
repaid
##INGLY
lists
nevertheless
inspection
marketing
La
Ohi
daily
how
##ield
##zation
proc
defer
unlaw
seq
##ystems
Joint
##oyalty
geograph
endeavor
Ohio
chief
num
##orrect
incorrect
refrain
identity
180
##udice
prejudice
recoupment
Acquiror
Borough
##ole
##ging
##MS
matured
elects
Releasees
paragraphs
accordingly
Arrangers
Furthermore
Standards
Jersey
Labor
Rata
ess
pru
##RA
##aring
Ref
discon
certification
designation
interpretations
rendering
showing
incurs
media
Restrictive
surviving
unfavor
##gies
##itness
##cements
##uman
preliminary
Employees
PERFORM
Dollar
Convertible
SUBJECT
guarantor
source
deficiency
frequ
##AFTER
##ltim
##orne
##abled
arre
Proprietary
##ICA
altered
BET
accelerated
exceeds
transmit
attempt
furnishing
Majority
##FIED
elsewhere
ceases
Returns
simultaneously
33
Bro
LE
rental
ultim
##FER
prove
depart
subdi
obligate
equipment
meet
HEREAFTER
##self
Authorities
cancelled
DEF
association
strictly
broad
discovery
ruling
##WEEN
unlawful
unfavorable
BETWEEN
Either
Fiscal
GIV
im
##EX
##acted
##ordination
INC
EXCLUSIVE
NOW
discussed
standards
challenges
integrated
prudent
##ris
anal
lawfully
manufact
HEREOF
##certain
suspension
decrees
family
Dividend
subdivision
Back
Final
##EL
##ower
defending
issues
view
spouse
improvements
successive
Noteholder
credited
Indemnification
offers
Pool
fifteen
Organizational
JAM
Mary
consultant
computing
competition
##ference
NOTHING
FORTH
Facilities
identification
trigger
deriv
KNOWINGLY
HEARD
BRING
experi
doing
##itals
supplements
NEG
copyright
Reviewer
arrears
JAMS
Maryland
OTC
Public
subordinated
Selling
Uniform
##troll
Indemnifying
comment
accuracy
correspond
response
PSUs
##mer
##charge
expires
some
##earch
convenient
accepting
inducement
ple
##currency
##CESS
##ater
consecutive
ORAL
taxing
Intercreditor
##ota
Debenture
assumed
assumption
functions
pledged
controversies
##issory
##naire
enjoin
Sa
sm
veri
##ME
Inventory
files
dispose
increases
Permits
##tibles
investigative
brokers
withdrawal
##rong
##vance
Controll
REQU
##ECTED
Records
comes
open
called
consequence
deductibles
##enditures
Cent
System
lending
sk
##fin
##bun
##EES
##lier
##iche
##acti
comprom
involun
addres
Resources
HEREIN
##apers
Country
domain
departure
Well
flo
ver
##SP
inacc
##ather
##itholder
paying
##ANK
199
contribute
oppos
opinions
MATER
substitute
concurrently
APPE
Minn
AB
##DUC
connected
Should
Unitholder
leased
##UTED
RESPECTIVE
decrease
aspect
MATERIAL
BANK
ke
##ak
accumul
recapital
assignees
PROCESS
162
reflecting
liquidated
Junior
Signatures
GENERAL
##bunal
kept
Modi
##IED
##WI
##onic
##reg
##rep
##enth
##ina
##orld
inoper
super
extr
##verage
reset
subro
##orporations
EXCEPT
Total
placement
Eurocurrency
assumes
Inventions
DAM
borne
mach
ter
##bear
insure
THEORY
lead
lesser
sells
401
rati
inoperative
DAMA
DEM
adequ
witness
##pted
##irc
applicability
##ensurate
##tending
involve
commensurate
Transferred
##ustodi
Matters
2019
alone
creditor
120
ACTIONS
Discharge
recognition
Practi
drawn
invoices
predecessors
procure
DEMAND
Di
Health
NY
Pur
wrong
##onor
##ined
##ale
units
##quar
resolve
##resp
underwrit
appra
applies
stop
Participating
##umbered
CONCLUSIVE
refund
Within
prescribed
Proceedings
Spin
needs
EVID
voluntary
Counterpar
GIVING
small
Bas
VEN
##rid
##gen
##plic
##itor
Proced
writings
invalidated
2010
accruing
preempted
Transferor
##ILITY
Wh
##argo
come
active
appreciation
##ligibility
exper
##oftw
duplic
##THERN
entitle
negative
##inances
advised
Equipment
ordinances
decreased
alteration
examination
Territory
removal
derivative
addressee
Wells
##WITH
##oftware
Five
dim
labor
##mpanied
underlying
##medi
##IND
significant
expression
Chan
CONTRO
restatement
appearing
accompanied
accumulated
ever
##cting
##just
##esota
conferred
forty
##venth
fines
whiche
forma
AGREE
receipts
maintaining
banker
DEAL
organizations
allocated
rescin
frequently
Minnesota
VENUE
whichever
AFF
ABR
Data
Fran
PB
Ques
##tionnaire
delivers
entirely
unconditional
Prime
profit
viii
occupancy
Refinancing
dimin
rescinded
Questionnaire
Ge
Hed
IX
mark
tender
##ism
##active
receiver
charitable
excluded
seeks
beneficially
offered
suspend
250
valuation
wages
##atever
##eria
agencies
save
consented
whatever
describ
elected
Regulatory
regularly
week
##ricted
lawsuit
observance
machine
##ustodian
Key
Port
back
##IVER
##itles
##state
##stricted
Add
forthwith
##riteria
definitions
Investments
subsections
JURISDICTIONS
tribunal
Debtors
Covenant
replaces
incurring
purchaser
correspondence
apprais
##lation
##SY
##let
REFER
neuter
immaterial
Events
COURSE
promote
mutatis
indefin
##SEL
summary
ASSIGN
fractional
delinquent
##respective
EVIDENCE
indefinite
AFFECT
Fargo
Medical
##onoun
##organ
short
##astern
Exce
Install
##titution
pronoun
head
196
division
prospects
##ternate
INDEMN
CHO
EXECUTED
Improvements
earnings
Disbursement
Body
si
##urer
assure
nomin
##tries
timing
##tainment
##venues
violated
##AIL
along
Releas
##UND
Accept
book
COMM
COUNSEL
Equivalent
accomp
lenders
replaced
##ique
EQU
Finance
Ho
Judg
Max
Vir
paper
sending
##vis
once
issuer
##andis
prin
instructed
engagement
mutandis
THERETO
dealings
SOU
achieve
DELIVER
strate
Virgin
Human
Quarter
Vested
##itially
##over
##IOR
##GC
instances
rein
retro
conce
mature
Participation
owners
nonp
irrespective
leasing
##LLER
presented
Consenting
reserve
canceled
identifying
guaranty
SELLER
select
greatest
Special
endorsements
SECURITY
##bearance
Installment
32
Six
currency
restructuring
##osen
defam
Amounts
##ARE
takes
communicated
acquiring
##contr
latest
settle
Payee
consultation
passage
guidance
hearing
ARBITRATION
SOUTHERN
mandatory
##lack
uns
unique
expenditures
vice
interpreting
traded
##LLATE
##ABILITY
advisory
banking
Distribution
Protection
APPELLATE
Basic
35
Mo
##mmod
disposed
counterparty
useful
##cery
Facsimile
deposits
publish
solicitation
Attn
##VENI
recapitalization
Chancery
Eastern
GR
der
##ken
prox
##ided
##license
stamp
protected
undertake
evalu
achievement
providers
excise
##quarters
indefinitely
papers
##HIP
##RI
##bers
initially
##lief
##stain
parts
Relief
##tentions
##ARY
communicate
institution
discharges
fifth
AFFILI
Virginia
nonpublic
Out
Ro
Ste
eligibility
##ics
##olina
##del
Adjust
prepar
discrimination
spin
membership
discretionary
corre
Receivable
fulfillment
eliminate
Filing
##yndication
Modification
software
web
##mn
disse
Affiliated
arbitral
complies
COBR
separately
Agency
Carolina
analys
skill
subrogation
COBRA
FUR
##PO
##EVER
Int
protective
##FORE
conveniens
NOTE
Operative
Instrument
facilitating
inaccur
headquarters
CL
Gather
MO
Mandatory
Since
VAL
West
gain
pun
##EA
##org
reformed
revenues
condemnation
exhibit
noted
##irms
##outh
##resentation
Employers
##elines
##ediately
faithfully
ITSEL
relationships
appears
invoic
Immediately
complaint
flood
Judgment
ITSELF
Black
LTI
bad
techn
titles
##ha
##jun
exchanged
propos
##own
claimed
signs
poli
Prepayment
workers
misrep
legis
tenant
uses
suspending
CONNECTED
fifty
##entioned
CONTROVER
retroactive
DIP
Red
corporations
petition
##ii
##VING
##ries
computer
executes
quot
phantom
##irmation
ratable
Contribution
measures
Filings
CONSENTS
numbers
Practices
simple
derog
Fail
Mich
Technology
Where
cured
lend
sustain
retention
OFAC
prices
releasing
##ott
investor
Acquisitions
identical
APPLICATION
accommod
Contributions
deeds
initiated
produce
Two
triggered
DAMAGES
wrongful
CHOICE
Aut
Bri
CASE
Ener
Gre
hig
systems
##POR
inform
##lim
##ders
respecting
compell
INV
alternative
collected
##SEQU
dealt
##ULES
substitution
INDUCE
APPLY
advertising
presumption
INTERPRETED
##DUCT
PBGC
Maximum
FURTHER
political
CONTROVERSY
Failure
South
fire
nd
sw
##IES
##11
##OG
##orage
motion
Litigation
advise
##feas
##ULT
LENDERS
USA
SARs
Continuation
afforded
quotation
75
BUT
home
##otion
##zon
remove
participants
##ideration
refinance
RELATIONS
Marke
buy
INDEMNIT
misrepresentation
IM
##ame
##orted
##urse
##ley
residence
proving
subcontr
recitals
repair
employs
Conn
##ATES
remarks
Deal
complying
##ferees
##STAND
366
##itization
PROPERTIES
LIMITATION
versa
embodies
essential
EQUITY
invoiced
400
sick
target
##jects
##UDIC
##ero
##utations
##endum
advan
Enter
presentation
PRIOR
telephonic
holidays
PO
So
dental
pension
size
##will
##cor
##CO
##ble
sure
hazard
##uston
Leaseback
recourse
Holding
Membership
Additionally
Alternate
endorsement
##lined
surrendered
compensate
acknowledgment
ambiguity
Qualified
describing
Houston
Bond
Estate
KIND
OB
##pul
##15
##din
sharing
These
Execution
disreg
terminations
Prof
##ATERAL
##vided
PART
Noteholders
accountant
acquisitions
independ
unrelated
Independent
guarantees
types
substituted
fulfilled
facilitate
RELATIONSHIP
RULES
air
criteria
emp
million
tif
##AG
respond
defects
EXIS
supplemental
administrator
prospectus
detailed
valuable
Trademarks
Sheet
bonuses
COLLATERAL
derogatory
Can
UK
Ver
hire
lod
##PM
##30
thereupon
disabled
affirm
##AWARE
Indemnity
qualifications
suspended
Depositor
DELAWARE
Georg
Energy
independently
Georgia
300
Ari
Wash
bi
bur
##lay
##inder
##ayer
##stone
##antage
##tel
dish
References
interruption
entitlement
CONSU
REM
##apter
disputed
Ordin
completely
indefeas
stricken
##ypot
excepted
possesses
various
EMPLOYEE
412
INDUCEMENT
Ordinary
FCP
gra
hypot
##au
##da
##arb
writs
INS
abatement
Liquid
Restructuring
Tenn
Consents
Consideration
annualized
controls
installment
example
1986
phrase
grounds
INDEMNIFIED
geographic
Green
FCPA
hypothec
PL
Rating
##mat
##amental
##ERS
##port
Appro
Authorized
1402
funded
##enging
Extensions
challenging
preservation
preparing
compelled
Tennessee
Bi
CB
ED
SN
our
usual
world
##lf
##LT
##JECTION
##entures
conjun
##igan
Park
states
transition
##orship
consummating
saleable
406
Licenses
sufficiently
Fundamental
Significant
INTERN
stipul
plead
##ridge
Washington
Age
DO
DES
TER
doc
late
##edic
##ans
##suant
premises
Produ
Resolution
refunded
Disabilities
discuss
Orders
RELEASED
##udget
Pursuant
Hedge
accomplish
webs
Hold
LP
client
hinder
##ins
prob
##icing
depend
safe
attend
severed
upd
legate
minim
unreasonable
usage
Americans
rather
mediation
physic
elimination
Availability
adopt
extra
conjunction
Voting
cri
##zz
##orti
##ishes
novation
goodwill
Issuance
processes
corruption
delegation
##IDITY
bonds
himself
##ordinary
boards
##ESSORS
Supplemental
prosec
Flood
observe
MATTERS
SECURED
Postal
4975
Addendum
Michigan
Dealer
EXISTING
37
Dri
Fam
clar
##mark
##HI
##LIG
sublease
renewals
Discrimination
Corrupt
counterclaims
SPEC
Instruments
Underwritten
NEGLIG
INTERNAL
Family
OW
##net
##ross
inclusive
##arded
Creditors
issuances
##ATOR
desires
describe
contractor
succession
Governors
generated
Express
increasing
MAK
##ealable
scan
Designation
Month
derived
ISSUER
Charges
utilized
opening
LTIP
OBJECTION
Be
Cal
Custodian
age
met
tear
##oted
reaff
department
##acks
##ago
signatory
##lessee
transferor
##EMENTS
advantage
001
##elfare
Comply
debtor
Institution
inducements
Associate
##etitive
##idav
bringing
##employment
summons
Deferred
WARRAN
Redemption
advanced
surety
doctr
Full
LOC
Secur
Te
average
mess
san
wear
##ITHER
##10
##xim
##VED
##ectives
##icago
consisting
##ffected
##iree
##ENE
##ENSE
INTEN
insolvent
approxim
supporting
procedure
Acquiree
fourth
##rorism
Advisory
territory
Acceptance
punitive
swap
FICA
Up
ix
##13
##LESS
exha
##tri
computations
define
Goals
exclude
contact
deleted
Supply
Supplier
guaranteed
Percentages
FINRA
dishonor
Approved
extraordinary
FL
JV
Omn
aid
##ification
##IB
##40
##anel
intentions
##acting
##dily
##using
notifies
assurance
Provided
became
accrual
effort
IRS
capacities
ADEA
telex
testi
phrases
##zona
Arizona
Qu
##eer
##tieth
acted
explicit
servic
##ANC
nonapp
##ffici
Chapter
Managers
Operator
1000
212
professionals
combined
exceptions
Retention
encumber
ASSER
misappropriation
comprising
Headings
Survival
experience
Sixth
AFFILIATES
VALIDITY
legislation
INTENTIONALLY
nonappealable
48
77
Ell
FIL
GP
HOL
Wil
##oking
##IE
##cumbered
##SR
##SC
##essation
stating
##ofar
##uality
##ibus
participated
Chicago
continuously
EXP
selling
Commissioners
identifies
advancement
suspected
bills
ambiguities
looking
discontinu
image
verbal
adequately
Counterparty
DELIVERED
GRANTOR
INVOL
disregarded
Versu
##fficiency
Foun
IF
Jo
Mer
Rock
dies
vend
##iries
##99
##ky
##OT
##gree
##iggy
##olver
entries
##paragraph
preven
Condition
abide
audits
THEREIN
Owned
impairment
SUBSEQU
institute
##raft
telegram
inquiries
merge
primarily
NEGLIGENCE
SUBSEQUENT
GSO
JPM
Main
Top
auth
mental
##ones
thousand
reti
##aining
##anta
##ounded
reasons
##TIT
cho
certifying
successful
101
Defin
##unicip
publicity
SUCC
affidav
enterpr
reducing
postpon
asserting
PROCEEDINGS
Seventh
ADD
telecopied
Commerce
initiate
1974
Controlled
Frank
##VENIENT
doctrine
Omnibus
##unicipal
62
Ta
municipal
solvent
##ixt
##pe
##urisdic
##lients
ascertain
unit
Provision
##bery
insofar
Unre
nonpayment
2012
COP
conducting
ACT
reimbursements
Forbearance
diffic
Expense
allowance
##echan
Contributor
valued
discovered
embody
experts
Securitization
sanctions
FI
PF
Put
##rodu
##alloc
##ulted
##acity
##olutions
transferees
reprodu
##izes
causing
commences
instruct
##atories
End
Releasing
licens
ends
Therefore
##SUANT
promissory
DEAC
bearing
purporting
survival
Item
##atisfied
PURCH
PURSUANT
Deferral
places
Ground
compromise
Road
MODI
probable
##iggyback
##urisdiction
difficult
Bloc
Eigh
MAIL
Rod
Royalty
mere
mechan
##way
##incial
##atch
##idents
sublet
Stand
reported
invol
defect
INCON
chosen
Enforce
certifications
refused
subscription
effects
Manufact
banks
Request
Trade
##RESS
##seeable
tenants
telef
undertaken
intentional
Money
levy
incurrence
ultimately
Blackstone
technical
Jurisdiction
Piggyback
##ren
##ian
##ati
##roy
##utral
research
##erior
Reimbur
Respons
arbitrate
transferable
Optional
Relevant
illness
accruals
150
clearing
clearly
Administration
Leased
accurately
##AINED
Assumed
multiplied
production
estimated
2020
administering
Surviving
deferral
##mediary
subcontract
affirmative
REMED
legatees
Versus
preventing
59
CD
DIRECT
FAT
city
half
land
line
role
##oto
##long
belong
sufficiency
Comb
extending
provincial
##tinue
##lue
##tholder
instruction
desire
impact
2011
monies
seal
BEFORE
obtainable
engaging
Requisite
##UNITY
authorizing
exceeding
recognize
Subsection
conveyances
initio
challenge
version
OPP
RECOG
PERFORMANCE
ultimate
Center
diminish
REFERENCE
SUCCESSORS
ADDRESS
INCONVENIENT
Responsible
FATCA
RECOGNI
600
87
85
Aud
Gold
XI
ali
cessation
judge
put
panel
ren
##PAR
##alse
und
unemployment
##ford
ener
pricing
CONDUCT
Documentation
SUP
##selves
Registered
possibility
themselves
Dispos
satisfying
freely
Claimholders
legend
pledges
SECTIONS
Paragraphs
consequential
adjudicated
Both
rescission
compensated
EXECU
##ENSES
divisions
proxy
Budget
Draw
Fid
Mail
clients
##ipt
##hest
##onci
##eness
reverse
provis
storage
subordination
##undering
constituted
mails
formal
Interim
refinancing
recognizes
objections
practical
1977
prepayments
discontinue
ASSIGNS
unsatisfied
inaccuracy
Auto
LOCATED
explicitly
Unrestricted
RECOGNITION
55
Ox
Prom
TI
TEX
dest
false
rated
send
vary
##opp
##20
##UP
##VP
ongoing
repairs
transact
pursuing
##elity
##termination
certifies
##oint
cancellations
delete
realized
insufficient
contingencies
achieved
Restriction
dollar
still
Available
##ircraft
Gatherer
##limit
website
SPECI
COPY
Cy
HC
Los
Long
Number
royalty
welfare
##TTER
unex
uncertain
##geles
##mmend
THEM
Angeles
##criptions
agreeing
decided
histor
documentary
continuous
Equal
Confirmation
knows
works
revised
REPRESENTATIONS
naming
##issan
Extended
equivalents
forecas
sources
estimates
LETTER
involuntary
Procedures
Exceptions
defamatory
disseminated
proposals
grace
TEXAS
destroy
Bill
Cle
DATE
Har
ICA
Meeting
Nas
fixt
zero
##wide
##pired
##funded
##GAR
##onent
##ison
cond
Sublimit
##osp
litig
##tics
exercises
contracting
whenever
monitor
sentences
Success
suitable
negotiated
DEEM
##otel
needed
STATUT
Disputes
Restrictions
##linical
##SOEVER
Charter
adoption
involuntarily
INDEMNITEE
##daq
##matured
DESC
Drive
SUPPL
proviso
Nasdaq
38
34
EITHER
Gas
Loc
Rents
Uta
down
job
tangible
##rors
##mentioned
##gement
##hn
##25
##Gen
##inn
realloc
enacted
##tees
pays
##lause
##osition
disclaim
##lessor
Shared
appropriately
collecting
Government
Revolver
Warrantholder
relinqu
promotion
ARISE
##ordinate
Receipt
Election
lawsuits
placed
eighth
RECE
opposite
EDGAR
Producer
approximately
authorship
DEEMED
Utah
Ab
Due
Es
Tr
Tri
afore
civ
pas
table
##HL
##bank
##encing
thing
noon
##range
additions
##uthorized
construe
principle
indemnifies
PARTIC
annex
neutral
##adline
Authorizations
302
Replacement
disbursement
dealer
secrecy
UNDERSTAND
alleging
Designations
errors
ceased
RELEASE
responding
Shelf
PERFORMED
weekly
Wherever
Canada
dependents
aforementioned
TEN
Wall
fault
vis
##wood
##IDER
##UY
##ze
##stop
entail
Sublessor
inclusion
##ivable
Rem
##ureau
signatories
destru
construing
violating
face
decide
Officers
entertainment
Disclosing
quoted
CONSIDER
Space
Nonqualified
investigating
irreparably
meetings
incapacity
English
purchasers
verification
underwriters
destruction
BUY
ML
Mis
PM
Pier
fring
technology
##menting
##pet
##ering
##alo
##orth
##ites
degree
##rand
##forfe
compul
perpet
terminating
goals
constitu
##ATSOEVER
##tility
wherever
enters
concern
Permit
WHATSOEVER
contesting
##ackage
Insolvency
calculating
mortgages
carrier
Treasurer
enterprise
PFG
Promissory
fringe
66
Dam
Million
PAT
Tys
har
tenth
##IRE
##AD
##lations
##MM
##FY
##rehen
##une
hereon
##rug
amending
Substances
compel
ORIG
foreseeable
##ALI
nonforfe
HEREWITH
assertion
cooperating
Compliance
handle
Certificates
induce
disparagement
SOUND
PERSONAL
##ILITIES
DEALINGS
accommodation
safety
##rehensive
ORIGIN
nonforfeitable
SOUNDING
64
83
Ci
Cap
DS
Fixed
Shi
##payer
##KE
##enger
##liers
theretofore
Subsequent
receivers
##vings
operates
coverages
designs
Governing
##raphic
refers
##TRUMENT
realization
unauthorized
Leave
conclusively
Receiving
Indiana
implementation
Early
Brokers
DEALING
printing
analysis
INSTRUMENT
EXPENSES
entails
Tyson
80
EFF
LIC
NAS
near
##gency
##CTION
##PC
##anes
##ectic
subparagraph
admission
expect
areas
Sublessee
Reference
Until
injur
acquies
principals
obtains
suppliers
amends
Competition
##timate
objectives
denied
Contributed
anticipate
examinations
produced
measured
##oyalties
Distributor
guidelines
manufacture
duplicate
retroactively
highest
Connectic
WARRANTIES
messenger
PURCHAS
Combination
condensed
Connecticut
Actions
AFTER
Cre
Nissan
Oil
TA
clos
##rights
##tter
##war
##inding
##isen
resale
Instead
Subordination
dissim
##TIAL
permission
Unen
owning
##amble
##onsin
Sup
Application
occurrences
accelerations
AGENTS
selection
2002
announcements
Europe
Northern
inspect
truthfully
##ECTIVELY
Terrorism
genders
Copyrights
RELEAS
removed
Qualifying
barg
viewed
strategies
update
John
forecasts
dissimilar
Aff
CALI
FUT
ILL
PTO
branch
peer
##mington
##gic
##cle
##int
##inter
##liation
detri
unaware
##riot
payables
##though
Start
arisen
##templated
Consu
finding
qualifying
WHO
##FORNI
##SETS
DEB
infringements
restates
Patriot
faxed
CAUS
endorsed
Outside
measure
etc
WARRANT
Gross
Procedure
Releasor
Adjustment
exhaust
Provisions
European
CALIFORNI
CALIFORNIA
65
750
JUDIC
SW
puts
syndication
##AGE
##ft
##STS
##OIS
##OTHER
##eration
often
##liquid
##dee
adm
reclass
Relations
Three
assignor
Cont
fine
##clusive
COSTS
Super
creating
##ABILITIES
Releasee
SHO
settlements
LIABILITIES
APA
depositions
undertakes
divul
restate
2007
borrowed
mortgagee
attachments
devise
estimate
Earned
holiday
geographical
Quarterly
Holdco
minimize
Wilmington
OPPORT
BUYER
receivership
JUDICIAL
##liquidated
Awar
Bra
Circ
FO
Mc
Op
Sarb
Wal
Whi
far
##writing
##bo
##60
##OVE
##tiff
intro
reve
##herence
##igital
##ilest
sublicense
object
transport
ANOTHER
connote
defraud
find
manual
transferring
Determination
Grants
##AID
reimburs
recordable
intangible
##istle
Former
HAD
licensees
Pledgors
USD
contemporaneously
deny
##licitation
SPA
encour
Phantom
INTERPRET
1964
CONSULT
prosecute
JPMorgan
FILE
licensing
##onciliation
Oxley
injuries
Consumer
OPPORTUNITY
Awardee
Sarbanes
800
Bre
Dall
DEC
Ir
Lt
PRE
Wisc
XII
lear
rounded
##itimate
##ored
##sory
##NC
##anties
better
reb
##stated
underfunded
##lumb
Sublicense
repurch
Constru
##ibly
##INOIS
descent
agreeable
REAS
WITHIN
supply
singly
autom
presence
Oncor
Ownership
Paying
sixtieth
infringes
##FFIC
finders
revokes
details
appeals
integral
ISSUING
Continuous
Collection
Backstop
supervision
conceived
Bribery
clarity
merely
Disposition
compulsory
ILLINOIS
Dallas
Ltd
Wisconsin
REASON
Case
Ford
Mic
eas
##ming
##usual
##HC
##RIP
inability
##isted
##roc
reach
reloc
resto
resident
##acsimile
adherence
Contemplated
INT
referring
nonex
implic
arbitrations
Defect
WAIVED
subscriptions
TRIED
die
handling
contributed
borrowings
exemptions
Engagement
levels
complaints
comprised
OTCQ
ABOVE
Diligence
Releasors
vendors
Reimbursement
Audit
civic
TENANT
PURCHASER
INTERPRETATION
43
Cut
LAND
Yield
##sw
##sh
##RT
##blow
##90
##MIS
##SED
##tici
##lex
parents
enlar
consist
##arest
specifications
nearest
leading
credits
Applicant
Trustor
##ishment
direc
indicate
calculations
contradic
purport
Years
Limit
DISPUTES
Engine
preserving
utilize
Markets
lodged
burden
critici
Rodman
telefacsimile
Harris
Damages
##istleblow
OTCQB
GRO
Medi
MEM
Sing
Sel
Syndication
Will
key
usu
##iott
##oGen
##uit
##cher
##cence
##80
##SI
##erv
rea
##gress
unusual
##tine
##pper
##teenth
stand
consulted
subjects
comprehensive
Committed
discount
waiting
committed
insuring
##imbursed
administratively
normally
Disclosed
conveyed
SPV
Fifty
declarations
PURPO
cancels
bona
ratified
Wholly
While
directives
usually
3rd
BENE
CAN
CIC
DI
DTC
Emer
Flow
Nu
Pac
Press
Tit
fide
##ea
##IA
##MP
##SING
##OTI
answ
##inc
##iture
##attel
##uri
proposes
unc
##hill
expedi
accident
Not
##ponso
perqu
community
Condemnation
Personal
remitted
whereupon
posted
deleg
Swap
directions
##oluntary
##DITION
draft
Beneficiaries
permanently
Underlying
raise
Survey
implemented
Pledgee
EMPLOYEES
eighteen
NEGOTI
nominee
indefeasibly
scanned
FILO
Founder
Unencumbered
##RIPTION
MEMB
##ponsored
CUS
EG
ME
Mor
MORT
NB
aro
lower
lacks
royalties
sponsored
##BB
##ADIC
##TA
##KF
theft
##cel
##leased
Columb
##iding
unto
unliquidated
##reshold
##tingu
dism
OFFIC
findings
taxation
noncon
elections
formul
publication
##astle
lea
##assment
##outine
prohibits
joinder
RESULT
unreimbursed
legitimate
##IDENT
1001
##company
CONTRADIC
debtors
article
carriers
drawing
##DAQ
lost
DEFEND
imaging
##SPC
adequacy
expert
COMMENCE
Eighth
Local
NASDAQ
FUTURE
devisees
MORTG
CONTRADICTED
70
Aircraft
Daily
Fed
GKF
Paper
Play
Systems
Tier
Way
fall
site
utility
##sight
##HAL
##IM
##FR
theory
inventory
##lementing
code
##ston
##rie
payout
##ounted
assent
competitive
international
whistleblow
##ANEO
imped
REV
damaged
BEHAL
factual
Preliminary
Thereafter
overall
oversight
404
Compound
Exposures
CONTEMPOR
2009
SERP
280
buil
Phase
OTCBB
Controlling
REQUIRE
duplication
physician
discontinuance
alien
Esq
nearly
acquiescence
Superior
WHOLE
enlargement
Playa
##ANEOUS
BEHALF
CONTEMPORANEOUS
Bid
Castle
ET
Firm
FEES
Over
Petition
Package
We
clinical
eight
##iam
##ade
##etit
##21
##67
##EP
##LORD
##MI
##45
##anti
##cell
concept
unsu
##seen
Communic
preamble
receivable
Union
imposs
goods
retali
Prep
engages
unrestricted
ISO
PRSUs
Reportable
CONTRACTS
Assuming
establishing
ATTORNEYS
acknowledgments
2021
eighty
essence
TERMS
##ansas
Beach
HOLD
postpone
TIME
monitoring
Trigger
reclassification
LANDLORD
impossible
Affected
Free
Farm
Hotel
Vac
War
hard
mand
##mi
##fection
##SID
##OD
##onst
device
##endices
disa
Nov
##ISH
Condu
Amend
##ECTS
##ATURE
remun
failures
operative
Summ
demonst
supplier
Official
Premium
advisers
compete
engine
Perfection
Disqualified
prohibiting
Acti
##IRD
16b
realize
difference
auditor
Owners
conclusions
insureds
COMPL
judici
Defaults
defame
ENTERING
drawings
422
deficiencies
##obile
distributees
COLLECTIVELY
numer
INCIDENT
underwriter
pronouns
analyses
Monthly
Elliott
Standby
belonging
DESCRIPTION
Abb
divulge
Single
71
Audited
EST
List
MD
NOR
Plain
XV
claw
la
quality
run
ww
##PI
##lary
##22
##61
##LI
##Med
##SION
##za
unmatured
resolutions
##achute
Excess
Inf
provisional
##ERC
##osing
interfer
interview
##fier
discounts
Projections
Cham
Notification
Nex
Reporting
protections
LOSS
AMER
photo
conclusion
infringing
conveys
##comm
##aluation
situation
privacy
REGARDING
building
proportionate
observed
reinstated
corrected
hazards
ASSERTED
subcontractors
reveal
Columbia
whistleblower
Beg
Fin
Opp
Pla
Vend
dra
honor
routine
we
##vill
##eased
##care
##ka
ancillary
##ink
##inning
##ortion
##iled
underwriting
##ained
attainment
Rein
interbank
Commencing
THEY
ACCEPT
although
designates
subsisting
supplies
Securityholders
imposts
differences
SUBST
usury
BORROWERS
developments
GUARANT
COUNTERPAR
Protected
DEFENSE
compromised
Liquidation
MAKES
affidavits
##ilestone
reimbursable
disagreement
Abbott
www
Chamber
Beginning
drafter
99
BRE
East
Mid
NATURE
Sch
bri
ll
rents
testing
water
##run
##ipp
##vants
extingu
##ictor
unil
residents
Borrowings
THIRD
Process
Unused
Scheduled
survey
neglig
Involuntary
consolidate
recommend
correctly
Attorney
Course
Claimholder
offending
emailed
ASSETS
Mezz
function
disparages
news
Workers
Goods
diligent
encumbered
famili
Invention
predecessor
delinquency
REQUEST
1967
sustained
Solicitation
##ortization
##HIBIT
servicing
##oppel
EFFECTIVE
nonexclusive
readily
Pacific
impede
remuneration
judicially
AMERICA
BREACH
Best
CITY
HAR
Mut
Morgan
PAY
Rich
Syndic
Vehicle
dat
house
ide
##ios
##vals
##wen
##wich
##point
##fidential
##PA
##day
##rea
##rill
Reorganization
intervals
##egoti
Anal
Ash
remote
##MENTAL
salaries
electing
outlined
ACQU
Incorporated
125
early
Assignees
supplied
committees
Disabled
Priv
ENTI
CONSTIT
Split
prospectively
##ORDIN
SUBORDIN
institutions
drafts
Joining
medium
predic
Immaterial
ARBITRATOR
NONEX
Counterparts
Whole
Portfolio
Greenwich
Calendar
reaffirms
Definitions
involves
Fidelity
SPECIFIC
HCM
##ospital
ORIGINAL
retaliation
INCIDENTAL
##ville
NONEXCLUSIVE
Bridge
CM
Cases
FCC
ID
Lu
Linn
Ol
Pl
Sim
Whe
cross
lessee
sender
vou
##ourn
##uity
##jection
##itably
toward
##aried
Cowen
depri
herefrom
##quare
Exec
##ORPOR
many
ordered
nond
deceased
0001
immune
Internet
designations
equals
Warranties
NOTI
applying
workout
LIABILITY
Acce
distributable
Comple
Format
identify
ADJ
induced
CONSTRUCTION
##written
discover
inspections
ISSUES
simultaneous
Underwriter
supervis
Spinco
actively
Exception
Adjusted
higher
indefeasible
testify
INVOLVING
subletting
energies
Cycle
harassment
transportation
criticize
answer
CUSIP
nonconfidential
negligent
Mutual
voucher
AW
Area
Care
DVP
Drug
Hy
NA
PNC
Social
Tim
Typ
World
bid
turn
vision
##mart
##tance
##plan
##RL
##TAIN
##MLESS
##WRITTEN
##estern
##edited
##isk
shared
##asi
##terling
Exc
Execu
Subleased
Nomin
##ONT
##vention
INJ
equitably
servants
necessarily
remedial
memorandum
##ustody
implementing
##CHAR
103
HEREON
factors
UNWRITTEN
authen
quasi
RESOL
NOTES
indicating
CONTAINED
DISCHAR
classes
prevails
insurable
2008
retains
SOLE
##drawn
structuring
SERVIC
##echnologies
embodied
ratifies
concepts
emptive
lodging
Bio
sealed
Pieris
DEBTOR
Construction
Micron
EGS
COUNTERPART
HARMLESS
Whether
ADJUDIC
authentic
51
Ban
Eff
FDA
His
High
Im
OCC
RB
custody
gas
##rals
##pting
##OSING
##FECTION
##XX
##oning
inher
##semb
##acqu
##lating
##ardless
##odd
##ONS
accorded
going
##venty
Anything
capable
Research
Device
Intermediary
covers
planning
##isclosure
refuses
recovered
Conflic
postal
permitting
PERFECTION
THEREUNDER
reportable
Reco
indicates
REPRESENTS
##lands
resigns
COMPE
Commercialization
establishment
Minimum
occupation
Depositary
withdrawn
Immun
prejudic
INDEMNIFY
transmitting
copyrightable
SpinCo
dissemin
Intangible
SNH
OWNER
Maintain
Shipper
arose
Vacation
##ISHED
clawback
Plaza
Vendor
datab
EBIT
FIR
Kell
Medic
Nin
Sterling
Techn
USE
Venture
mentioned
pend
##HS
##PE
##OUGH
indul
rever
codes
forbearance
##ternal
det
resources
##ocop
##awa
envelop
##ete
##rowth
##ounding
transpired
obligor
Reform
##ISTER
Prohib
Conduct
##urring
##ames
Deadline
REO
##preme
Supreme
Forfe
Regardless
collections
Directly
##otocop
Debentures
OUTFR
Acquiring
notifying
directive
divided
Meas
Prim
##ENDED
2001
alterations
appearance
periodically
relieved
REGISTER
proration
Boston
feas
LIMITED
Laundering
LEASE
manufacturing
##aterally
refundable
unsecured
empower
testifying
Taked
DIRECTORS
landlord
unexerc
fixtures
PARTICIP
PATENT
detrimental
contradicted
Mediation
Warren
##commit
ADJUDICATION
COMPETENT
ImmunoGen
pendency
envelope
OUTFRONT
REGISTERED
46
98
Clause
Dates
JSC
Jones
Mex
OPER
VER
nt
##ser
##HA
##ADA
##xy
##zed
##ordings
##arc
##cho
##sees
parking
##acies
incorpor
##ighting
##ignation
##lative
Station
recordings
##umeral
governance
counterparties
descrip
##ches
existed
Chase
designees
Enumeral
restricting
satisfies
Factor
harmful
Atl
exercisability
perfecting
anniversaries
Operations
STATEMENTS
examine
dissolved
rulings
submissions
misappropriate
stri
Broad
Same
verify
Portable
appraisal
defamation
DOES
OWN
##IEW
REMEDIES
uncertainties
Successor
finds
encourage
implication
NEGOTIATION
Morris
REVIEW
##cellaneous
demonstr
Opportunity
ACCEPTANCE
ideas
Older
vouchers
Ninth
indulg
Takeda
Mexic
descriptive
430
550
Cay
IMPL
Mul
Mac
More
NR
PA
PRES
Si
Str
Wood
blue
bureau
cent
cur
custodian
oil
winding
xii
##ious
##no
##av
##omin
##gers
##ho
##be
##dens
##81
##UST
##Sall
##enti
##ening
##anine
##alances
##issu
##artis
##ception
##dification
Indu
applicant
dist
reck
component
interference
##ENTIAL
##izing
##lank
##park
##parting
countries
Proxy
##andid
##ATT
##ticurrency
##ALS
Departing
RELY
##ront
publications
##souri
bodily
collective
threatens
303
estoppel
depositing
Secondary
offsets
Recitals
excessive
photocop
##rovement
##USIN
2000
Secrets
ACKNOWLEDGE
carefully
Book
enclosed
Collections
LaSall
Central
marked
strategic
inaccuracies
Gathering
##atio
UNDERSTANDS
Missouri
perpetual
CAUSES
Braz
repurchases
OFFICERS
Type
EBITDA
Forfeiture
Primary
##committee
Cayman
IMPLIED
Multicurrency
LaSalle
44
54
69
Aust
Access
BUSIN
Cel
Dry
Dodd
Evidence
Every
Food
Franch
Guid
Kansas
MIS
Phi
Pru
Ratio
budge
digital
ies
nar
wish
##mal
##ep
##HATT
##IARY
##BS
##bre
##98
##ULE
##FUL
##essel
##ander
##alent
##atent
revenue
reacqu
dependent
##unities
uniform
undrawn
##trust
subordinate
distin
##oses
##ferential
intern
preferences
invit
pursued
contemplating
space
desired
remedied
genu
COVEN
semi
affirms
Authorization
##spected
bankers
favoring
HAVING
reflects
modifying
unaffected
##veloper
ADV
liquidate
BOROUGH
FINANC
MANHATT
denomin
Floorplan
Collabor
Disbursements
subdivisions
##gene
physically
INVOLVE
Rockpoint
Enforceability
Manufacturing
renegoti
STATUTORY
LICENS
Contest
##book
Breach
relocation
PURPOSE
Emergency
uncured
280G
##etitor
unsuspected
Summary
ENTIRE
NOTICE
feasible
unexercised
BUSINESS
Celgene
MANHATTAN
375
7th
Ca
Field
Lighting
Pe
Pal
Sc
TP
Valuation
##rac
##omm
##come
##house
##fast
##NESS
##Lea
##31
##FE
##heless
##erated
Codification
##ically
##stell
underlined
incorporate
appar
##etheless
accredit
##eek
##TIN
##OND
wage
contempl
##ibles
##ewer
taxpayer
##ANTS
Banking
##URRED
certify
Dem
Dev
CONVENI
CONTIN
Goal
superseding
##adfast
Encumbrance
refuse
##ATIVES
Competitive
forfeitable
procedural
THEREFORE
unpatent
Reconciliation
guaranties
double
ONLY
Agencies
##angibles
exemplary
mediator
integrity
Annexes
markets
advertisement
Head
presumed
INCORPOR
diminution
Moving
Steadfast
retired
Golden
restored
Amendments
Plaintiff
Infring
CONSTITUT
predicated
Moreover
##Leaf
450
78
8th
Air
BO
Da
Dire
Eag
How
MER
Mood
PI
ROF
blank
mu
ro
zoning
##io
##tt
##ways
##favor
##dy
##jor
##GCL
##till
##ansion
##atements
##isites
external
##tinent
enroll
stored
##rude
disfavor
Stated
Strand
assisting
pertinent
savings
##field
prec
preference
constitution
serves
memorand
##ama
Resorts
##cession
##udged
Appeal
Chattel
adjudged
TRS
Consult
15th
seller
LIKE
trusts
Compete
##take
##arsh
licensee
revise
REPRESENTATIVES
60th
plain
restatements
oppose
allowable
PRIV
disposal
AMENDMENTS
merges
multiplying
MANAG
acknowledgement
billing
hearings
Earn
enjoining
NYSE
COMMON
##STANDING
Profession
CBS
TERMIN
##IEF
annexed
Remaining
PMH
constituent
Circuit
introdu
REASONABLE
MEMBER
buildings
Conduit
SUBSTAN
Mezzanine
SUBORDINATED
SPECIFICALLY
FIRST
empowered
Pruden
narrow
##ommunic
CONVENIENS
INCORPORATED
Infringement
Moody
PIK
disfavoring
memoranda
1st
350
501
Fort
HSR
Hawa
Know
Keep
MC
Orange
PSPC
Quality
Side
Sky
Santa
Tru
lines
mee
rd
##ration
##ified
##nd
##sing
##lits
##Trust
##NOT
##UTION
##VIR
inaction
##roportion
exact
coup
resort
##iles
##tra
consign
expand
intermediary
employers
##ego
##lander
preferential
invention
##duc
defe
##rame
Closings
splits
Sharing
finances
nonr
Resignation
failing
102
Arch
CONDITION
communicating
considers
disproportion
acquit
negotiating
Delay
RELIEF
ENVIR
keeping
Formation
guardian
Benefited
2005
revoking
Designee
intentionally
prosecu
INTEREST
Normal
CERTIFIED
KNOWN
aspects
appraisement
evaluation
Marketing
hypothecated
REMEDY
EXECUTION
historical
litigating
SUPPLEMENTS
##FFICULT
easements
CANNOT
DIFFICULT
Titling
unilaterally
Private
deprive
AWARD
Executives
budgets
denominator
Prudential
Hawaii
meets
coupled
ENVIRON
5f
56
Bayer
Blue
Certain
Clar
Ed
Eth
Kalo
Marks
RED
RENE
SA
Square
Ther
Tag
Ven
Wain
lab
##work
##wright
##graphic
##IENT
##paid
##Bank
##Bios
##FIT
##atform
##isp
reached
unan
##resolved
##irmed
arrange
Prov
Transmission
##udy
remedi
nonre
##aming
entitlements
entitling
definitive
Developer
exclusion
Forward
discrep
##ATIONAL
##ource
lessor
Withdraw
overd
renders
THEREWITH
NOTWITH
directs
##PLICATIONS
indication
DISC
Status
pledgee
Arrangement
defaulting
questioning
Signature
anticipation
##ehicles
##obe
textually
Lake
Brook
experienced
verb
Diego
Franc
evaluating
skills
CLOSING
IMPLICATIONS
hypothecate
FLSA
ASSERT
Definitive
affidavit
reproduction
Enforcement
SUPPLEMENT
CONSIDERED
CONSIDERATION
Creations
DECIDED
INTENDED
perquisites
numerator
LOSSES
Ashland
remotely
Kelley
Indust
Guidelines
Eagle
PRIVCO
nonrenewal
ENVIRONMENTAL
KaloBios
RENEW
Wainwright
NOTWITHSTANDING
5th
61
67
95
IL
King
Lou
LAY
Milestone
OS
Sto
WAS
Western
balances
slander
xi
##ship
##IO
##pes
##66
##OIN
##time
##oner
##any
##orse
##above
partially
resolving
##loit
Exchanged
staff
explan
explain
Storage
repeal
internet
employing
hereinabove
invested
Convey
Amgen
spe
approving
nonetheless
imprac
##CEP
seventh
##ousing
##isco
Optionholder
dispatch
completing
##ABL
qualifier
reductions
kinds
worker
Once
indemnit
##PLICATED
Arbitrator
phone
GOVERNING
partnerships
SUBSID
COMMIT
COMPLICATED
##ysis
installation
allowances
dispositions
AMENDED
altering
##FICATION
allocations
Worker
excepting
strictest
initiating
replacements
privately
abandonment
deductible
Attach
placing
Purpose
REFERRED
printed
proposal
POM
Profit
MODIFICATIONS
involvement
legends
EXECUTIVE
Sublicensees
laundering
Nexus
Richard
Syndicated
discoveries
NAIC
Drye
LIKELY
Francisco
LAYING
92
900
AF
Brow
Du
Den
Em
FAC
Gl
GMS
MB
Nant
Pa
Risk
RULE
SC
Vi
Writ
oath
wishes
##rat
##men
##vations
##water
##BAL
##lays
##TE
##35
##GI
##anger
##ints
##ineness
inception
##itch
##arting
##gregated
Cost
##ides
##hia
##olen
subc
disquali
Adobe
recon
Retrain
##fiable
##ague
constructive
expressing
Awarded
##URY
##reek
##vocable
Forced
conditional
PROHIBIT
Periods
12RT
consolidating
TRUST
EXCLUDING
estates
imposes
postmark
voidable
Component
prescribe
deposition
Capitalization
changing
RESPECTS
Thir
6011
secretary
Make
inquire
fiduciaries
purports
allocable
substitutions
promptness
draws
rescind
Continuing
variations
Attached
WARRANTY
stayed
opposed
ABS
Hedging
Motor
370
HOLDER
visit
Histor
RBT
revert
PARTICIPANT
VERBAL
distress
genuineness
Province
RENEWALS
Louis
COMMITMENT
Retraining
PROHIBITED
86
DER
FUL
Gu
Kite
Met
Ok
Pet
PSA
Position
SL
Sum
Technologies
audi
graphic
human
living
roll
tranche
xvi
##em
##ege
##week
##ses
##homa
##PS
##yan
##TUR
##32
##keep
##issed
relig
retentions
coordinate
across
subcommittee
##lahoma
disruption
##titute
Threshold
##ENTURE
Termin
approves
executions
points
financed
abilities
conflicting
Obligated
##axis
Cha
EnTrust
121
acquits
creates
Controls
##armace
Trustees
##ATIS
Mortgages
REPRESENTATION
10013
impairs
infringed
guarantors
commonly
quarters
ENFORCEABILITY
Advisors
accompany
IPO
ratings
redeemed
##dentures
CFO
itemized
misappropriating
270
tendered
Address
AFFILIATE
PLAN
attendant
Franklin
disclaims
closes
RELEASES
expediti
ESTABL
Times
Excise
prejudiced
Medicare
detached
renegotiate
Venaxis
Written
FULLY
Oklahoma
##armaceu
ESTABLISHED
AL
Cl
Crude
Creek
FR
File
Hill
Home
IW
Las
Lond
Log
Oak
Syn
TB
Table
Venue
Vessel
Wind
closed
eth
log
marsh
worth
##gro
##graph
##secured
##phia
##TD
##77
##ert
##ensual
##orn
reform
##ector
unfore
unissu
##ilton
##cienti
willing
willfully
##ladel
export
experti
distric
priorities
pursuit
Proposed
contemplation
##iber
INVES
claimant
dues
Unsecured
Matter
nonqualified
outcome
Newmark
unencumbered
compliant
ACCEP
BEING
acquir
EXERC
incremental
delisting
API
optionee
##tibank
##ableness
clean
##iversary
minor
associations
confirming
revision
ACCO
Anniversary
declares
2006
##changes
attaching
potentially
ADMINISTRATION
Copies
remittance
inadequ
Distributions
enjoy
##iques
Underwriters
##RAP
1991
DELIVERY
gains
techniques
##corp
Profits
prosecuted
choosing
Blocked
energy
Drawings
unexpired
RECEIV
annexes
646
Citibank
automobile
Prepetition
Acceler
Prohibited
Mexico
Philadel
prosecuting
Denver
Paul
subclause
accompanying
London
##ground
unissued
expertise
Philadelphia
72
79
Agre
Bureau
CSO
Corporations
Deri
DUT
FM
Found
GS
Henn
JOIN
Mark
Nation
Oreg
SY
Tort
VM
Val
Veg
card
efficient
fas
vol
ventures
##iff
##eting
##still
##IZ
##plus
##lished
##OUS
##41
##ery
##ont
##entives
##ann
too
anywhere
consequent
unass
online
allege
##tract
attained
store
start
amortization
##estation
Revocation
##efore
##tential
##loses
Convention
##rating
regulating
motions
Life
##urrencies
principally
##cribers
Intermedi
traden
presentations
localities
endorse
##ASS
Indemnitors
FOREVER
worked
misuse
herself
##IRED
optional
IRC
emotion
vacations
Potential
directing
Supporting
trials
Level
precluded
allegation
##ESSOR
Specifications
origination
240
##ario
Mont
Monitor
manifested
Depository
compensable
variances
Division
Twenty
Savings
inaccurate
1993
opposition
DAMAGE
Healthcare
##genics
burdens
stipulated
choose
Standstill
undisp
fixture
reallocation
promotional
RECEIP
Johnson
measurement
Supervis
William
BENEFIT
MORTGAG
XVII
interviews
GUARANTEE
disseminate
Atlanta
##epin
Palm
CONTINUE
SUBSTANTIVE
Withdrawal
overdue
EXERCISE
DUTY
Hennepin
Oregon
Vegas
fashi
undisputed
AU
Aus
Call
DD
Fax
FAA
Gaming
Mag
Nond
NATIONAL
OVER
PH
PREV
PLED
Power
Portion
Sant
Writing
curing
danger
torti
##ife
##aile
##atible
##tar
##tario
##oth
##vard
##etin
##ume
##gistered
##IX
##ITION
##front
##bridge
##Ex
##MO
##44
##GER
##YL
##inity
##ching
##mpson
concession
progress
forgoing
deadline
##unch
##hild
##acent
Inves
Included
expended
expects
expedited
tapes
investing
discloses
##ulletin
Propos
##INE
##anks
point
expresses
surplus
Defined
specificity
Taxpayer
completes
attestation
RELIED
protecting
delisted
UNKNOW
Seven
contacts
reviewing
Ontario
quanti
INDIRECT
INDENTURE
Declar
##udicial
Subscribers
Spouse
concluded
##ULAR
6060
patentable
##CONDUCT
Mae
begins
fidelity
domic
treas
denial
Retained
Signage
225
##lines
England
##udies
WILLFUL
2022
333
broadest
INCURRED
manufactured
MATERIALS
appraisals
proxies
##limited
updates
minimis
servicer
FILED
Fiduci
Clean
PARTICULAR
MLP
Miscellaneous
closest
bargaining
##interested
##MISSION
dismiss
leaves
Communication
supervisory
SERVICES
Conflict
##choate
##andidate
Franchise
MISCONDUCT
distinct
internationally
invitees
FINANCING
Collaboration
ROFO
Clara
inadequacy
Intermediate
emotional
RECEIPT
fashion
Santander
tortious
UNKNOWN
47
Ave
AFOR
Cat
Cant
Criteria
DV
FBR
Fann
GE
Gra
Hud
Iow
IHS
MK
NDA
Overs
QTS
Rose
SB
SD
TX
VIV
Wy
educ
field
gu
pictor
sear
vests
##rin
##rings
##rime
##car
##cker
##RUP
##AU
##AUSE
##fall
##PTO
##droc
##47
##KX
##XIM
##tigate
##anent
indentures
##rop
sug
##mples
shipp
nominated
##utch
unlimited
##ffers
##olis
happ
##lumn
studies
Insp
##rum
##rush
##usti
disinterested
reasonableness
##eft
compatible
intercompany
executor
lib
OFF
Projects
##ESTS
Conting
Unvested
determinable
##oming
remade
model
meals
##ANING
remained
Guarantees
arbitrable
105
SECOND
SUPER
Tenants
Intercompany
##apolis
sex
Appendices
##phax
restricts
##LLOW
##ulevard
convers
Delphax
##ASIS
Preferences
LIMI
##IGHT
Ack
Permanent
reviews
emer
INDIV
unregistered
clearance
Record
AMO
##scal
telecommunic
user
2004
hourly
USPTO
endorser
foreclose
examiner
##TCY
replacing
declaratory
Engage
Boulevard
unfair
2601
excuse
barred
Dividends
experiences
pleadings
sky
1990
BANKS
BANKRUP
Practice
nomination
accommodations
attendance
##ANCES
10005
Founders
Topic
retiring
Take
MODIFIED
destroyed
passive
concerns
DSKX
expectations
SWBS
FOLLOW
MEANING
families
Analysis
Completion
##TAINING
Bancorp
Measure
incorporates
Bookrun
COVENANTS
LICENSOR
TERMINATION
consignment
defeat
discrepancy
explanation
impractic
Historical
##TURN
unforeseen
district
Deriv
##hildren
Fiduciary
Hudson
Iowa
Oversight
VIVUS
pictorial
##drocarb
LIMITING
INDIVID
BANKRUPTCY
58
700
BA
Before
CC
CS
Card
CAS
EL
EM
FA
Gord
Growth
LB
MSA
Molen
QCP
Ra
Rick
SED
SIC
Sonic
TW
WP
Win
WERE
fronting
gif
lock
left
ment
miti
range
sponsor
search
yield
##az
##eath
##win
##HOL
##cil
##ymb
##55
##je
##36
##MC
##KING
##YS
##JC
##ergan
##eny
##rell
##essees
Coverage
##ayments
##erequ
depre
unwritten
unresolved
parachute
inco
hazardous
starting
sublessee
major
##ligh
##lad
timef
matures
obligating
recurring
repute
Reaff
region
##teness
##uel
Community
arch
##parral
##agon
performs
##ORID
##THOR
spent
spous
specifies
Transferees
Allergan
relet
nonc
binders
Newpark
CONSEQU
Granting
PARAG
decline
CODE
SUMM
conducts
Assist
regards
planned
PRODUC
adjourn
##empt
substanti
completeness
##DERS
MAIN
MAXIM
Gener
shelf
operational
percentages
influ
Benefitted
ONEM
SEL
allegations
Offered
ARME
INTERESTS
REGUL
occupy
Hazard
EMPLOYER
Counterpart
Grote
Safe
##akage
terrorism
DEMANDS
expressions
describes
accomplished
PARTNER
Liquidity
hypothecation
stipulate
critical
WARRANTS
Team
exhaus
Quin
vendor
Maintenance
SPECIFIED
uncertainty
##mmendation
history
STATUTE
constitutive
LICENSE
RELEASING
automated
Engineering
BENEFIC
delegable
dismissed
Activities
CMF
nondisclosure
Worldwide
Recommendation
Strate
Demand
constitutional
Delayed
##keeping
Chaparral
##RAPH
Supervisor
AUTHOR
Declaration
Catalent
searches
impracticable
mitigate
##ORIDA
PARAGRAPH
MAXIMUM
ARMEAU
2nd
715
89
Ap
Ax
AV
BIND
Bulletin
Ced
DU
DGCL
Dutch
Fer
Hand
Kent
Kind
LESSOR
MAND
Olin
OMISSION
Pub
Paid
SOW
TY
UGI
Vall
Vari
WF
amp
cit
high
umb
##ials
##oks
##vest
##Health
##AP
##Punch
##EOC
##UALLY
##ko
##tiles
##onents
tomb
##arn
##unk
##qua
restor
enum
encomp
##dio
##dies
conserv
adding
##performance
Stan
Star
assisted
composition
compiled
##ENCED
count
Programs
##ESSE
##ESTED
Content
##berg
INFORM
beneath
##everage
insider
prime
foreseen
improvement
Actual
Islands
Issue
Aron
COO
Taxing
participates
bodies
Sucker
superior
considering
continuations
adjacent
waste
Securityholder
Manit
Expenditures
increments
##ductory
13d
settling
##UNTS
president
WHERE
intents
upward
PERTAINING
Only
Marine
minus
181
contributes
TRANSFER
ONE
liquidator
rede
Descar
recipients
502
##ANDIS
Stream
Floating
CREDITOR
MUTATIS
MUTANDIS
Originators
Instructions
ISSUE
shorten
mask
Photo
##UCTION
4999
occasions
EXCLUSIVELY
INDEMNITEES
Bonds
CONSUL
worldwide
HoldCo
7700
ACTUAL
Blocker
relinquishment
GROUP
FedEx
Novartis
Platform
Similar
INJUN
apparent
DevCo
much
disproportionately
Email
disqualify
12101
PLEDG
conversations
Acknowled
LBIO
##jeure
##rella
Quintiles
BENEFICIARY
BINDING
Valley
ampli
umbrella
##ESSEE
SuckerPunch
Descartes
275
52
68
91
Ak
Bec
Berm
Blu
Cer
CPL
DMS
Domin
Fully
GROW
Ham
Housing
Judicial
LESSEE
Merc
Mad
NJ
Nations
PP
Pol
PEN
Page
Pip
Rosen
Sm
Sun
SIGN
TD
WRI
ZAI
brings
ec
ed
hospital
led
medic
pip
slo
solvency
##iance
##amin
##ots
##dom
##EB
##MD
##Mark
##xmor
##kins
##OM
##onings
##inations
inures
inchoate
##isys
shipment
asked
assemb
Cooper
column
##ectrum
Parachute
##trie
##rial
##rius
##ols
appendices
expiring
expiry
disapp
disappro
reposs
Through
##orem
components
##TIFF
##egment
##ENC
##party
##ISITION
##eline
prerequ
Terminal
##REE
nonperformance
modifies
grantee
RETURN
PARENT
SUFFIC
Forms
always
cashless
Assignors
##ourse
adviser
separable
reduces
asserts
##LEX
Representation
Formul
lapsed
establishes
disbursed
Recourse
Americas
DISCLAIM
extends
impairing
SEQ
calculate
submitting
PROVID
installed
##AINTIFF
##itiz
JUDGE
##applic
carries
STATEMENT
effectuating
compensatory
variation
casualties
##account
forwarded
deferrals
REQUESTED
ASSIGNEE
evaluate
##RIB
Brixmor
subcontractor
POST
PLAINTIFF
Parkway
##edicated
Merrill
litigated
relinquish
perpetuity
FOUND
introductory
learn
learned
##MISES
NuLeaf
formula
MORTGAGE
alienation
mandated
##LIFE
interferes
Finally
ACQUISITION
Hydrocarb
RESOLVED
Broadway
indulgence
reckonings
excessively
preca
introduced
Broward
Agreed
unasserted
tradenames
treasury
Cantor
happening
Contingent
FOLLOWING
depreciation
SUMMONS
Safety
TYPE
Contents
77002
Dominion
GROWLIFE
slogan
prerequisite
39
AK
Average
ALEX
Bur
Barc
Ce
CP
Cance
Clay
Currencies
DAY
EW
Element
Fo
FTI
GL
Germ
Halo
Hospital
Ire
KC
MT
Mit
Mill
MPT
Miam
MIGHT
Occ
OID
Pass
PSU
Roll
Site
TSR
YO
drug
firms
fewer
grie
hos
just
mal
val
##ras
##ray
##iana
##apt
##tz
##tree
##eo
##worth
##grie
##ham
##hood
##dle
##71
##hered
##ervic
##tix
invent
inad
intending
##atur
##istic
##chant
threshold
##lihood
##asance
devices
parcel
Pari
Exper
enh
suble
lawy
##owoc
expendit
##eemed
Stone
Study
reconciliation
repe
notifications
Reed
aggrie
solic
Credits
Constell
##rae
signific
Personnel
owes
Unmatured
##tisan
Reser
Obj
heading
publicize
COL
exclusions
advising
alternate
PROCED
Governance
considerations
reliable
arrangers
##LLC
impositions
##ACK
UNLESS
indebted
APPL
##vantage
upfront
CONSOL
##culation
##IDATED
tried
classified
PREC
Principles
OBLIGATION
allocate
securitization
SPC
424
Reasonable
diluted
collectors
Terad
important
billed
Lazard
refraining
Pooling
triggering
superv
Diam
significantly
IMP
CBRE
Production
FLORIDA
ascertainable
telefax
Trial
passed
TAX
CAUSED
McM
Walmart
denying
Limitation
standby
NBPC
Communications
engineering
COMPLE
COMPLAIN
bribery
PAYMENT
Splitco
towards
Technical
contemplate
plaintiff
unanim
Kingdom
Attachment
Glenn
Louisiana
DERs
##cientific
##IZED
Austin
domicile
libel
emergency
Reaffirmation
LICENSEE
DUTIES
enumerated
Manitowoc
Madison
disapprov
Formula
##applicable
precautions
ALEXION
Ireland
Miami
expenditure
aggrieved
Constellation
significance
390
Av
BEC
CRE
CAC
Craw
Camp
DC
Digital
Ele
Ever
Fen
Fis
FVE
Fitch
HF
Herm
HOW
ICC
LX
Late
Lock
Lang
Med
NHL
Old
Pere
RSA
Ryan
Tower
Veri
Valid
Wat
Words
aircraft
cy
docu
hiring
hotel
ss
sounding
ve
varied
##rent
##pite
##hab
##Tree
##SB
##kor
##OID
##GG
##XL
##XG
##ZARD
##ēz
##rex
##anus
inappropri
##itz
##isible
thus
##urers
conformance
pari
Extending
##etts
Integ
Substance
disad
compounded
##ilian
##ESAID
Amkor
Uncon
##uda
Alliance
remises
##ortunities
Guaranties
salaried
imply
10th
operator
##similes
##tigroup
REAL
seventy
Leasehold
112
1100
intangibles
wherein
supported
copying
##fulfill
Expansion
SHARE
Republic
408
prohibitions
Seventy
##alian
contacted
privileged
Discounted
offerings
HAZARD
divisible
Means
Spectrum
Arbitrators
ISP
likewise
##FFER
Associates
UNDERS
resigned
allowing
attempts
collateralized
reciproc
##QUIDATED
Principals
ATT
formerly
accessible
combinations
Working
Disputed
SUITS
SERVE
##TICES
possessed
420
Mondel
prorations
Electric
REGARDLESS
eliminated
integration
deducting
Collab
freight
INDEMNIFICATION
advertisements
Unitholders
extracts
witnesses
nominate
strategy
reinstatement
##RIOT
legislative
websites
MAKE
reaffirm
10004
discontinued
mechanics
alia
DESCRIB
PATRIOT
Citigroup
admitted
GROSS
expedient
DEFENDANT
falls
ETP
##antied
brief
DISCHARGE
database
databases
OPERATION
central
photocopy
Brazilian
GoldenTree
Consultants
DISCUS
Industry
indemnitee
Clark
JOINDER
DDR
AFORESAID
Fannie
SUPERSED
Measurement
Gordon
Ricketts
timeframe
CONSEQUENTIAL
influence
AUTHORIZED
Kindred
restoration
Bermuda
WRITING
repossession
Barclays
Cancell
valorem
Objectives
supervise
McManus
Crawford
Fiserv
LXRT
disadvantage
reciprocal
Mondelēz
DESCRIBED
515
81
BCA
Blv
Brand
DP
DT
Deemed
ES
Gri
HR
HL
Hub
Ida
Je
Listing
Lyn
Liber
PC
PV
Rh
RO
RCA
Sund
Satur
Telec
Victor
Xen
XIV
baile
euro
fri
overse
pill
pack
sense
syndic
symb
tion
##rate
##ralian
##night
##ader
##ogo
##vo
##vol
##ware
##IARI
##place
##BUR
##do
##dale
##TAINED
##DS
##enities
##alegal
##orter
inapplicable
##itated
##atable
##atri
##rog
Core
projects
##utee
paralegal
Paragon
underpayment
apportion
environ
##gee
attain
subtenant
##ocus
amic
##ERV
##ensive
computation
competitor
interrog
##umb
##lantic
##ticipated
##elp
Amenities
despite
warranted
poison
contracted
abro
##tish
successfully
electric
immunity
Force
Charge
Releases
disputing
30th
##ople
qualifies
##otes
Repayment
overpayment
Permal
##elfth
APAM
keeps
prevents
Substitute
AMMO
belief
Pride
unavail
Payout
revolving
ADVER
defendant
601
liquidating
LITIGATED
210
##anging
Alter
Alph
incidentally
LIBO
fulfilling
industries
Realty
Mining
423
summaries
setoffs
Box
1973
##tilities
proportionately
UPS
1981
preserved
##ampunk
frequent
analogo
##SPECTED
##repid
subrogated
White
tendering
reinvested
Step
Steampunk
Intrex
Intrepid
punct
British
biweek
reaffirmed
##IBLE
Quinter
encumbering
Goldman
passu
INSTRUMENTS
subparagraphs
TAKING
detriment
restore
perquisite
delegates
alienated
Prepayments
718
interfering
Reindel
familiar
DISCHARGES
Imaging
REVIEWED
PRESENT
Australian
Cahill
CONSTITUTE
explained
37067
TBIL
acquirer
VMRE
volume
60603
Rosehill
educational
##ladon
spouses
encompass
PLEDGOR
amplify
Because
Merck
hospitalization
Celadon
disapproval
Hermes
Perez
inappropriate
Unconsolidated
HAZARDOUS
Blvd
Idaho
Lynch
Liberty
Rhino
##IARIES
analogous
Intrexon
biweekly
Quintero
Bres
Batch
CEC
CME
CRL
EF
ESS
FB
FC
GRE
Jag
My
MAR
Nine
Point
Rental
Sy
SG
Sach
SEN
SAN
SUR
Sole
Software
UCP
Umat
VAT
Vist
Vote
budget
escal
hed
hired
mixed
nation
rank
##vin
##etic
##ument
##pro
##Car
##fund
##PAID
##bon
##dable
##72
##Vry
##VADA
##OSE
##49
##FROM
##head
##timm
##ream
##anol
##andem
##inson
##itance
##itech
top
##istics
##role
##urb
exchanges
##abama
##igration
##stock
unm
##ffin
##hire
They
##ubin
##dible
Intent
Intel
sublic
expo
Subparagraph
includible
##ountain
transit
Retrie
compil
samples
Employing
##ffiliated
##ATER
Assemb
##ARG
move
Guarantied
elements
DeVry
CONC
##ITNESS
Grand
consumer
directorship
SUN
damaging
injured
arranger
presents
attack
EXT
Warranty
145
NEVADA
Athen
debar
Separ
joined
ENTIT
##abling
IRREVOCABLE
Insider
minutes
contingency
ADDITION
redacted
instituting
opportunities
Registrar
developing
conforms
decreases
Alabama
##ogen
treaty
retaining
Specially
questioned
registering
recoveries
originated
healthcare
SERIES
##ilitation
adopts
Licensing
unfunded
noncompetition
EMPLOYMENT
CFR
GUARANTORS
Publication
plea
REQUIRED
wrongdo
CONTROL
KeyBank
backup
INDEMNITY
bookrun
correction
informal
##dership
IMM
stipulates
DESIGN
Calculation
Upgra
mechanism
590
bargain
Opco
CONSULTATION
PREMISES
PREPAID
XIII
Cutoff
Titan
704
Activity
MDXL
photographic
Effectiveness
inherent
inheritance
Techne
unpatented
BOTH
Professional
True
REDUCTION
Therap
label
Transmissions
OSHA
SUBSIDIARIES
Guide
FRB
IWTA
ACCEPTS
Valvol
DVGG
SDSP
sugges
shipping
models
Derivatives
noncons
substantiation
Handbook
medically
POSTAGE
Hydrocarbons
DAYS
Rollover
Expert
enhance
HFOL
##habilitation
Griffin
ADVERSE
Breslow
Sachs
Umatrin
Vistana
##timmune
##roleum
Retrieval
Assembly
ENTITLED
wrongdoing
Valvoline
BB
Bal
Cla
CRO
CAB
Children
Dyn
EC
FT
Fult
FHL
Flex
Fuel
Great
HIS
IA
JG
Leg
LTD
Lessees
Leverage
MG
Mun
MSR
MSPC
PU
Pas
PBR
RP
Rail
Rob
Surr
SCH
SSP
TC
TJC
User
Vers
Vehicles
Xero
bloc
cell
candidate
drill
help
ign
journ
justi
mor
side
vent
##rint
##ma
##ify
##oMed
##vine
##ezz
##uc
##gor
##gment
##gam
##put
##cos
##65
##TL
##Life
##33
##SM
##SD
##xx
##ki
##algam
inactions
##itect
##char
##changing
bears
reass
rejection
##lling
convic
Cogen
exoner
propri
##ectuses
forg
detract
##star
##stream
unde
##ermat
##rier
incumb
Exiting
stopp
consp
Inno
exposes
amalgam
Subtit
Substan
##usion
accounted
THOSE
##idian
Reins
##ultural
tail
##ONE
##egy
##izure
arms
soph
live
ORALLY
Pros
INST
Amortization
##ORAD
spend
validation
Anad
chattel
Unisys
##ATEMENT
constructed
Matching
orderly
imperm
Buil
CONTING
REP
declines
AGREED
##arko
seizure
interpretive
Region
##elds
PROT
BEL
Enanta
injure
##OCK
111
yourself
Assignments
301
304
refinan
investigate
thirds
managerial
generation
differs
##conn
imposing
concert
Managed
NEITHER
mistake
Attrib
Financed
Competitor
GenMark
Discount
Ono
Forma
lapsing
avoiding
Subservic
Pricing
Sprint
unaffiliated
preempt
minister
conclude
associates
inflic
contributing
revived
10022
sixth
plc
institutes
CONTRARY
attempting
alleges
Majeure
training
conferences
Specific
##ralia
OBLIGOR
initiation
##oenix
SPE
embezz
APPRO
Mineral
survives
Engaged
race
Phoenix
GENER
OPTION
RECOVER
4980
GIVEN
analy
recapitalizations
underwritten
shortfall
GRANT
buyer
EnteroMed
POSS
transitioning
SPECIAL
MAKING
388
Captions
Shields
Create
Affinity
admissible
manuals
Irvine
easement
Select
MEMBERS
extinguish
Nominee
Efforts
OCCUR
Brazil
Australia
##break
reacquired
unpatentable
Edge
Ethics
speak
logos
revisions
Foundry
BENEFITS
Investig
Proposal
telecommunication
##light
Kentuc
Variable
INFORMATION
Similarly
DMSI
Hamilton
assemble
Diamond
COMPLAINT
Vericel
Jeff
Sunday
Saturday
Victory
bailee
oversee
paralegals
SURV
exposure
Dynegy
Fulton
JGB
Surrender
Xerox
Cogentix
Subtitle
sophistic
Anadarko
CONTINGENT
ministerial
embezzlement
EnteroMedics
Kentucky
725
97
BR
Bon
Bun
Cin
Close
Dan
ETI
Fred
FITNESS
Fermat
Gi
GA
Hall
Ja
Jury
Lo
Linc
Mountain
NES
OC
Present
Please
QUAL
Rober
Sor
Sab
Sil
Sear
TES
UM
Wag
Welfare
borough
cable
cred
global
htt
losing
larc
ns
say
tandem
vide
##mit
##imp
##ias
##wa
##gest
##gaz
##ck
##cings
##face
##PRI
##lson
##19
##borne
##bras
##NING
##LA
##SES
##kee
##OUM
##48
##GETHER
##ertion
##erock
##reme
##inery
##oro
##chand
##cep
rejected
revocable
sha
##veill
##derson
Cook
noun
coordination
##terias
##lot
incidents
incentives
##oln
enabling
##die
attending
subhe
##owance
expend
ANCI
##titu
Those
comput
aggregated
intercreditor
arg
arri
THESE
caption
ware
##ram
INOL
##uarial
personam
Anderson
governs
Shar
Unpaid
##ATA
addressing
Asc
Asterias
TOGETHER
officials
##CHANT
Newco
numbering
##AIR
extreme
equityholders
regarded
China
Chosen
processed
##LLARY
recomm
transmissions
Nebras
190
renewing
STOCK
RELATE
NOTICES
Dispar
concerned
##UNI
Acts
ordinarily
31st
supplementary
Certified
Certification
RESUL
DEPO
deleting
THEREFROM
##iversity
Swiss
AML
AMID
Deliverables
team
coming
moneys
pharmaceu
Noncomp
Leasing
evidences
shows
SUBI
Offtake
discussion
selecting
Increased
television
2510
21F
collateralization
borrower
##odified
Wak
Commercially
marital
OBLIGORS
JUDGMENTS
merit
Retain
defaulted
Signing
Providers
SOOUM
endorsers
##ranches
foreclosing
attribution
occupied
ceasing
##olous
challenged
checks
##ricultural
Carry
Network
Individuals
Alternatively
bonded
DEFIN
ratio
negatively
Acceptable
publishing
institutional
Roth
spinoff
correlative
CLIENT
MOU
Blackridge
Micha
Automatic
4007
INSTIT
Ratings
##insic
clarification
chooses
postponed
Eighty
Rodney
Manufacturer
ADDRESSED
undue
Clear
Successors
downward
relinquishes
UNDERSTANDINGS
Wales
rebate
repurchased
PURPOSES
10019
Farmee
engineers
Lux
Executed
INJURY
strike
demonstrate
indulgences
curtail
Foods
##breach
accredited
accreditations
CONSTITUTES
David
MERGER
MERCHANT
Earnest
narrowly
Store
MetLife
auditing
Oaktree
RECEIVED
FMV
Monitoring
Nondisclosure
PREVAIL
Franchisee
Wyoming
reletting
Assistant
highly
Stanley
Bluerock
Smith
disapprove
SUFFICIENT
##apture
subleases
COLORAD
TAXES
Eleventh
ATTACH
Brands
environment
Jaguar
SENIOR
escalation
##fundable
unmodified
IMMUNITY
Passu
SCHED
exonerate
Attributable
infliction
APPROPRI
GENERALLY
SURVIVE
sophisticated
Bunge
Freddie
Giants
Jazz
Lincoln
UMHL
larceny
##veillance
nouns
ANCILLARY
extremely
Nebraska
MERCHANTABILITY
APPROPRIATE
801
Agree
Ba
BP
BD
Bran
Branch
Cu
Cub
Dig
Ev
Est
Eligibility
HIP
IASIS
JD
Jose
LMI
LACK
Mur
Mil
Mage
MPL
NM
Nav
OHI
Papers
PUNI
Raging
Sail
Spre
Shen
SVP
Test
Titles
Vest
WW
aver
blo
cG
cris
flu
growth
jun
otwithstanding
pe
package
vehicles
votes
xiv
##rated
##volous
##ugn
##ssive
##curring
##CB
##fish
##focus
##12
##601
##39
##MT
##Smart
##One
##zee
##42
##46
##rey
##alized
##orm
tot
##chures
##alling
##llan
##gressive
Coal
##idge
forbear
debit
##unding
uninc
Parts
##ria
Exempt
ent
##irad
##lub
subpar
subpart
magaz
advers
Subcontr
##usp
##ush
##ERO
reputations
##osed
##odity
Reloc
Remedi
Rehabilitation
##efield
compared
agricultural
interested
gov
##EDEC
##ports
Providence
Congress
viti
##ORE
##ECH
eventual
And
facie
duress
##ecessary
Committees
remise
##ARO
referencing
impugn
AGP
AGENS
##amity
outbreak
arbitrated
Issued
Boards
Defend
Commonly
Deason
Artisan
annul
chart
affixed
##isclosed
altern
Chris
Regis
designating
##phy
suitability
LAWSU
115
certificated
arranged
accrues
substances
##ivestit
Constitution
positive
Expedited
competence
calamity
##otts
##argets
Organ
correctness
workman
Atlantic
405
hands
##IRC
leaseback
315
Claimant
##IIA
unrealized
deletion
prevented
##culp
tenor
preempts
ALLEG
associate
##ultivation
SEPAR
PREDEC
##rimin
Also
pertains
##ogic
Adviser
Retail
questionnaire
registers
brochures
##ehring
COMPANIES
Benefitfocus
prima
occupants
raised
guaranteeing
Funded
myself
Sheets
acknowledgements
cancelation
HEP
misappropriated
logo
19890
414
utilizing
comprises
presume
1998
PBF
background
320
325
355
##POSED
Intangibles
Connector
4001
legatee
Drilling
Institutional
message
##IBUT
Meridian
reproduces
PURCHASE
MAILING
345
Pierce
666
harmed
bargained
OpCo
reborrow
Sublicensee
extinguished
recommendation
Plant
Hyatt
authenticated
xiii
reckless
Direction
Fortress
Ethanol
nonrefundable
nonrecurring
Conveyance
oaths
Thirty
Thirteenth
PetSmart
religious
expeditious
SYN
Bookrunners
gift
##HOLDERS
citations
##vestment
tombstone
Acknowledgment
PENAL
##itizens
Clayton
German
hostilities
parcels
repeated
Teradata
Fenner
Medgenics
cycle
Cancellation
disadvantageous
frivolous
Alterations
punctually
MARKE
nonconsensual
Munzee
moral
reassign
impermissible
BELOW
NESR
Sabby
Sears
video
##impaired
subheadings
Wakefield
Retainer
INSTITUTED
COLORADO
Digirad
HIPAA
Magellan
OHIO
PUNITIVE
Sailfish
crisis
junior
unincorporated
Relocation
Remediation
AGENSYS
LAWSUIT
PREDECESSORS
950
AH
Ade
ACH
Achie
Aval
Bar
Binding
CT
Cas
CAR
CDI
Clinical
Cush
DW
DSUs
DUE
Eight
EVER
FAIL
Hoc
Hemp
Live
Mir
NIL
PE
PJ
Pul
Pink
Rubin
STI
Sue
Struct
SCO
Solutions
Tenth
Tanks
Uses
Ward
XL
cast
dri
ere
fig
hon
hall
men
milestone
sort
spons
sewer
war
wra
wind
##marks
##nab
##nos
##ov
##option
##emb
##easance
##well
##scep
##sOne
##IATION
##cast
##hall
##BATEMENT
##CTIVE
##large
##dened
##ELL
##70
##34
##MG
##MES
##Site
##43
##FS
##JA
##ena
##revocable
org
##ora
inverse
##iter
##itan
##itate
##athered
suscep
reorgan
##alls
##liff
exculp
project
##idic
color
##sta
union
undi
##ulk
notation
notations
##ilis
##acking
##sured
##ried
##olitan
enables
enlarge
##mmoth
##cience
##rusOne
##ptus
##ctu
##ths
expansion
amorti
Adoption
recited
reconci
reply
##ositions
Notis
Remed
subjected
##ENGE
liken
defective
Progressive
Participations
owe
Una
University
##earned
##ATORY
##ticals
descriptions
##ALTH
remised
salable
nonbreach
financials
element
forming
transferability
defining
Defici
REBATEMENT
SUPRE
immunities
thirtieth
negate
Forty
##ounds
recordkeeping
##urnal
Entit
WIL
creditworth
Basel
display
ways
110
illust
subscribed
##TOOD
EXHIBIT
furniture
Constitu
##ourg
140
customs
##ALLENGE
FORM
LIENS
LIQUIDATED
canceling
couriered
WHEN
handled
INDEB
vacate
##TEDNESS
dividing
##IDENTIAL
##stein
Arbitrate
1866
concludes
Index
ADI
ONI
2003
USURY
##IPATED
Mammoth
##odities
Altimmune
Recipients
ATXG
fifteenth
CAP
singularly
restraint
CONFIDENTIAL
exempting
traveling
succeeds
SOJA
achieves
##TICIPATED
PERSONS
examiners
surviv
attributed
Instruction
collectability
CHALLENGE
stead
removing
passw
Imposition
Improvement
##utorily
VOLUNTARY
Protective
CFS
##SSB
Qualification
Deferrals
occasioned
NONE
BRINGING
compromises
APPEAL
extrinsic
refunds
ASSIGNMENT
##visable
GRAN
proxim
corrective
CLAUSE
Connor
advancing
CONSUMM
PLC
770
Ellin
Journal
enterprises
621
Manufacture
affirmatively
versions
851
CyrusOne
MLSA
ORIGINATOR
DSM
Affairs
SWP
Relationship
Brady
##box
Irrevocable
Constructive
keys
DIFFER
Surveys
NBT
formulas
4043
Triggering
Premiums
numerical
##SIONS
Processing
household
Execute
Conflicts
REVIEWING
Simpson
ENTIRELY
contemplates
MANAGERS
Earnings
remediation
9261
NantHealth
postmarked
religion
expeditiously
Hills
marshal
marshalling
INVESTIG
MORTGAGOR
XVIII
quantity
dismissal
##ropolitan
OFFSETS
AMOUNTS
INDIVIDUALLY
EMB
PRODUCTS
Strategic
Axi
conservator
CONSULTING
INJUNCTIVE
Rosenberg
DISCLAIMS
inadvisable
PROCEDUR
IMPRO
telefaxed
Collaborator
HLSS
packaging
##atriate
encompassing
GREEMENT
directorships
REDUCTIONS
Clauses
CROSS
PBRSUs
Versartis
amalgamation
Subservicer
TESARO
warehouse
Sharp
Michael
Luxemb
JDC
Murphy
Shentel
cGMP
fluctu
subparts
vitiating
alternatives
Adeptus
Avalon
Cushman
PJT
figures
susceptible
undivided
likeness
nonbreaching
Deficiency
SUPREME
INDEBTEDNESS
Luxembourg
63
650
615
Areas
Astell
BJ
Brush
CR
Dr
Dill
Er
EQ
EPC
Finn
Gmb
Holl
House
Holly
IMS
JSSB
Ke
KYL
Lex
Must
MHI
NL
Overnight
PICA
Rice
RMS
Ratable
Sol
Sold
SPL
Stri
Spark
Sports
Tes
Tender
TIT
Utility
Van
Wel
Worth
XXX
Youn
cate
crime
dict
divestit
ease
effic
fix
flex
garn
lar
mid
pati
ridic
tests
tack
voice
wal
##mond
##num
##vana
##west
##goner
##serve
##person
##ciled
##AULT
##lect
##ba
##bro
##85
##69
##TON
##TEL
##NTY
##79
##LP
##LINE
##DIS
##FC
##Gas
##heim
##retion
##anced
##anapolis
ing
ink
##arr
Cogn
exchanging
projection
##vera
dep
undu
unimpaired
##ques
resides
appended
Exit
ens
##dia
consenting
consensual
##illy
##ERT
##ERG
##ERNING
##ivo
Stations
Adam
recital
recapture
noticed
Reti
That
competing
liber
##fiers
goal
transacted
defended
caution
materialmen
##ulled
rightful
spec
equities
facto
necessitate
regulated
regulators
Transfers
##ollution
##utsche
conflicted
Resale
10D
##burg
indemnifications
##alfeasance
Deutsche
Granted
decides
receipted
Documentary
annulled
Taxable
servicemarks
seat
Salt
neglect
##iscrimination
transactional
##adrius
Enroll
threats
threatening
Manna
Tou
##TERN
Applications
##otech
latter
Council
OrLeaf
Indemnifiable
Repurch
LIABLE
cooperated
Travel
402
ARISES
distributing
distributee
delaying
debentures
contamin
Otherwise
REST
clearances
legible
RESPONS
whomsoever
Arbitrable
##BLIC
likelihood
Corn
Payday
confirmatory
ADR
grossly
certainty
Registry
newsp
detailing
fourteen
Although
Properly
##ogers
Forest
Contributors
merits
WOD
industrial
originating
Indianapolis
dissolve
Minne
temporarily
declaring
occupational
##olog
285
SEEKS
SEEKING
Books
##mplete
Surveillance
230
CHAR
VIEX
Carvana
Customs
2024
Charlot
1985
COUNTERCLAIMS
LEI
DEFAULT
verifying
floor
ratify
##quarie
appraisers
evaluated
##junctive
Autom
disregarding
INSERT
Biom
##ATORI
Caladrius
Teich
approximate
GPD
Reimbursements
CDOR
Dispositions
HCW
reallocate
reallocations
reallocated
visits
admit
Contested
Circle
Opinion
sublicensees
DECISION
Micro
relocate
Media
NBHC
Federated
Overstock
Conduent
photograph
Midstream
surveys
SOLELY
SERVICER
dissemination
Macquarie
Woods
TPG
blanket
enrollment
Therm
SUBSIDIARY
MBC
MBM
SLB
ethical
willingness
INVESTOR
ACCOUNT
cards
Montage
Cleaners
MKT
incomplete
Generally
PARTNERS
exhaustive
Starwood
redetermination
PPG
Burdened
EWSD
Occup
YOU
solicited
HOWEVER
DPW
abrogate
CONCERNING
debarred
Prosecution
refinanced
Waggoner
http
DEFINED
PREVAILING
NMAC
Spread
averaging
totally
adversary
annulment
ALLEGED
PENALTIES
Achievement
EVERY
reconcile
DIFFERENT
Axiom
Astellas
BJNTY
Brushy
Diller
Finnvera
GmbH
Holland
KYLK
Strike
TITLE
Young
efficacy
Cognate
unduly
liberally
Enrollment
Charlotte
photographs
BH
Bat
Bet
Cross
CIB
Cinc
CEOC
CIRC
Down
DONE
FEE
GEL
Grid
Grush
HG
Her
Hour
HLT
Iden
Kal
Kim
MON
Mell
MED
MIT
NHC
Och
Opt
PK
PLE
PIIA
Ridge
SR
SS
Sand
SAL
Segment
Treat
TECH
Ump
Vit
VOID
WES
Ziff
bulk
citi
dress
dedicated
frame
jp
laid
mi
ng
ny
pleading
sid
scientific
ts
tic
tend
##rub
##ike
##af
##trans
##tances
##tman
##oce
##vances
##eu
##wind
##sys
##shire
##CENT
##feg
##bs
##23
##89
##LUD
##kansas
##VOR
##FK
##Fusion
##onded
##ene
##inally
##inna
inhibit
inno
##itus
##atus
##ara
##aris
##chler
reject
reemployment
##greg
##liances
##asive
##ica
unam
unfulfill
unearned
residing
province
Partial
##olf
##irk
##illage
payor
##enda
adr
Subaccount
deliverables
##top
disks
Stam
Staff
repatriate
Noble
##ultz
##tenants
terminable
soil
##porter
statutorily
##INA
Ameri
##ORG
ANYTHING
spea
Anton
facsimiles
chair
Unfunded
regulator
##ollo
Alloc
financings
##ARK
memor
##MENTS
205
continental
Collateralized
additionally
Resolutions
##ccessful
arbitrability
1015
Deloit
Arkansas
##eduction
##solicitation
##actment
league
seques
judged
Appra
accountability
##ades
##UTE
collec
Assigns
adjoin
305
##tellig
generate
Previ
##ATELY
Expiry
SHMC
Facing
miscellaneous
overhead
schedul
Competing
##istar
ENCO
##IRM
contests
312
PERCENT
LOANS
DEED
vacated
avoids
Substitution
tenancy
ASC
ASP
closings
particularly
Levin
##times
precludes
##dfathered
liquidity
Conversions
telegraph
pledgees
disposing
typically
conference
Severed
Beneficially
merchand
mediations
broader
effectuated
ENTERED
registry
adjudicate
away
improperly
occupant
derives
eliminating
integrate
CHS
Multiparty
##neGas
criminally
Carve
Carrier
Customers
Shell
Developments
Withholdings
lifetime
loading
1988
margins
Reviewing
evenly
administers
derivatives
sometimes
##atherford
superced
Covenantor
nominees
SELLERS
CLASS
Weston
##EAD
accommodate
INVAL
##111
sureties
Arius
Greenwood
Tele
10007
7701
Merchant
JPMCB
mechanically
Auditor
Clearing
Rentschler
Tribunal
EFFECTIVELY
CONSULTANT
rebut
diem
Selected
Flowserve
lowered
Weatherford
##etitors
unsuccessful
hardship
NORTHERN
running
##Medex
Middle
Schultz
Excuse
RESOLUTION
Measures
apparatus
room
ArchCo
Hawaiian
remediated
verbs
Conveyed
868
xviii
Acceleration
GSK
burdensome
MagneGas
PHMD
SBA
fields
guests
FAVOR
Radio
Wintrust
Apollo
Cedar
MANDATORI
PhotoMedex
Cerner
CPLV
Polaris
Throughout
##ENCY
Passport
grievances
PRECLUD
unanimous
Integrated
ISP98
UNDERSTOOD
SUPERSEDE
Huber
VoteCo
hedging
nationwide
Separate
Upgraded
labeling
forgive
incumbent
INSTEAD
Specifically
QUALITY
Ascena
pharmaceutical
Noncompetition
Branded
MPLS
##riminatory
SYNTEL
NILT
SCOPE
honest
amortized
garnishment
##DISPUT
ensuring
Touche
Repurchased
contamination
Minneapolis
Cincinna
Grushko
Identi
Mellon
PLEAD
Umpqua
unfulfilled
Stamford
Antonio
Deloitte
sequestr
scheduling
ENCOMP
MANDATORILY
PRECLUDE
Cincinnati
440
525
713
898
Aur
AIP
Bay
BARG
Crow
Cam
CSI
Crime
Cultivation
Dil
Dade
DRL
Eco
EEOC
Fa
FN
FF
FG
FDIC
GM
Glo
GSS
Hers
HCH
Hong
HALL
Hilton
HSM
IRE
Jap
Jacks
JFK
Kong
Lab
Lath
Ms
Mall
Mobile
MGCL
NC
Never
NTC
Nater
Pers
Place
Peer
Q2
QU
QEP
RM
RG
Rogers
SIN
STR
Sier
Solvency
SAM
Source
Tor
TAR
Tangible
Targets
UTI
Verm
Ventures
Ware
Web
Wolver
WATER
Y2
cler
club
ff
jure
jeo
let
lot
large
malfeasance
pil
rounding
sens
tas
test
torts
ur
wide
zone
##rink
##ience
##atial
##tone
##ook
##gun
##gular
##glary
##RAN
##CAR
##NA
##EED
##701
##ji
##UF
##SH
##Star
##xic
##VC
##OME
##zel
##GED
##KEE
##KERV
##inent
##oring
##orum
##ita
##itative
##atche
begun
reformation
rearran
##urant
##like
##utler
deli
unper
unqualified
onto
resist
##losures
##aces
##acom
##tron
##licop
##away
Exclusive
##ird
##mma
##dient
study
subtit
exploit
##forming
##usting
recru
recons
Revenues
##ferage
##vient
##ENFOR
Commodity
##pardi
##iliation
invasive
performable
commits
commodities
authoritative
Cond
Consequent
Concurrent
Anticipated
addendum
Unwind
breakage
##terminations
construct
Allowance
metric
Materially
##cript
importing
##amb
captive
entitles
Respon
Resource
109
1099
##bury
operators
Devices
grantor
CONA
PARKERV
00001
monument
##reets
COH
SUE
SUSPECTED
##apid
segregated
advises
irregular
affording
affirmed
Forum
Regarding
demanded
collabor
##phase
basic
takeover
Incentives
dispatche
129
returning
adjusting
twelfth
arranging
307
personalty
TRA
contractually
Exchangeable
Preamble
bankrupt
separated
##ACOR
##armacy
Seconded
UNENFOR
overly
overtly
overbro
Active
voided
debenture
Genetic
##grap
310
Entire
Discretion
Disclosures
RESER
tenure
ASSU
indemnitor
Supplied
dealers
evades
sites
Own
Youji
Converted
1833
CONTAIN
insures
Payor
Lea
10036
defendants
CONTRIBUT
objecting
resignations
Statutes
Statutory
characteristics
newly
Euros
Antitrust
forfeitures
Waivers
conforming
##claimed
contravenes
ARRAN
EVEN
EVADA
volunte
discharging
denig
Elective
##prise
##TENANCE
ineligible
effectuation
secures
forecast
##UMST
incapac
withdraws
withdrawals
##atisf
step
##7544
KNOWING
Pharmaceu
look
bonding
##moreland
##WEALTH
comprise
Heli
Helicop
embodiment
1445
procured
transmittal
330
manufacturer
Savient
terror
France
Geosp
Acceptances
Westmoreland
compelling
burglary
stipulations
discussing
telexed
Ellis
##onesty
FIX
MODIFY
Block
mechanic
reno
litigations
Successive
Abs
civilly
expectation
##ilestones
learning
reaching
implications
436
criticiz
##urious
GUARANTEED
unilateral
recommendations
Attorneys
Syndicate
Lucos
Nominating
OCCUP
OWNERS
OPERATE
Atlas
striking
strikes
PAPER
photocopies
697
reacquire
COVENANT
ADVIS
LICENSED
Airborne
BOUND
##amai
Appeals
COMMONWEALTH
Professionals
SAFE
Brookline
SUPPLEMENTAL
Stores
Viol
Viacom
##ratz
TRUSTEE
Petroleum
audio
Terminated
Logitech
enjoyed
797
Nationals
MORTGAGEE
##YLON
Grade
Inspection
AMOUNT
INDIVIDUAL
WPPI
mentally
incomp
MAINTAINED
MAINTENANCE
REGULATION
AVAIL
Ceding
MANDATORY
WFM
shortened
Akamai
Pipeline
ledgers
Cooperation
AKDS
lawyers
APPLIED
BECAUSE
##itzer
SHAREHOLDERS
eurodollar
attaining
interrogatories
Alpha
FBMS
compilations
EXTEND
bookrunner
Balka
venturers
PROTECTION
Minerals
Bonuses
crediting
recommended
Clearance
blog
people
entran
magazines
FAILURE
exculpation
Constituent
92612
INVESTIGATION
fluctuating
EPCYLON
midnight
Retiring
CIBER
CIRCUMST
HGV
Treatment
##fegu
adjoining
8687544
Crown
HCHB
HALLAL
IRET
Jackson
Latham
Nevertheless
Natera
Pershing
SINHA
Sierra
Vermont
Wolverine
jeopardi
pilferage
rearrangement
unperformed
subtitles
Consequently
PARKERVISION
dispatched
UNENFORCE
overbroad
Geospatial
Lucosky
94
940
AX
Aon
AFI
Big
Bear
BAA
BPI
BASIS
CI
CFI
CIV
CSA
DB
Det
Dual
Dedicated
DATA
EAR
Fi
FH
Fre
Fres
Fire
FAS
Future
Fitness
FREE
Gar
GCP
GSC
Gehring
HB
Han
Hear
James
LM
Men
Ni
NV
OM
Pen
Pain
PHI
Panel
PSID
PLLC
RA
RATE
Royal
Royalties
Sen
SES
SENT
SIM
Satisf
Tos
TSA
UTA
Virt
Vacc
Water
YUM
airm
bail
batch
brand
ele
emin
fic
fill
front
grow
gave
gather
lin
miles
pollution
sty
square
segment
technologies
tanks
##ij
##ius
##ny
##nst
##ament
##amed
##atim
##aison
##tland
##ev
##ween
##western
##ca
##core
##cission
##har
##hare
##RC
##BA
##BES
##BUS
##Bio
##AX
##lon
##62
##51
##UB
##Logic
##SIT
##DIN
##ZO
##tiv
##tie
##titi
##tile
##este
##ancies
##alks
##ories
ind
##eco
##isa
anytime
bequ
retire
##mpress
conc
##veland
##aste
Coff
##aya
##teria
##eree
ons
##ulative
Paris
Parcel
##rich
##olk
##oles
Exemption
Exchanges
enactment
streets
subtr
subaccount
maker
payees
##rupted
THROUGH
THREE
disall
Standing
obliged
##arden
Referee
##tituted
complement
aged
intervention
##ilife
safegu
liaison
##agnos
invited
counts
receiv
discounted
Provid
Proportion
Planning
INF
##ewalks
Among
inside
insertion
chain
Unfore
Unilife
why
Transmit
##omer
referral
stocks
violative
motor
##REAT
nonuse
binder
imputed
##govel
furthering
Rescission
##URAC
outlet
Determinations
Arm
deciding
##ICO
annuity
actuarial
ACM
Apps
Regular
##hiba
Enright
Enzon
##VEY
Incorporate
Periodic
1280
circul
Assignable
twice
##PLP
##TOS
EXEM
##spective
##ASSING
1900
141
Confirm
##feteria
SHAR
##xtail
sellers
Requested
latent
Debts
LIEN
cooperative
##ilysys
Comprehensive
##ista
presenting
Commissioner
quorum
INDEP
Decree
DEA
delegee
Equityholders
disburse
Recover
Serviced
Martin
ASBES
evading
Insolvent
cannab
conversions
Spring
185
##STEM
prospectuses
classification
1938
##timated
SEACOR
Escrowed
Accountant
redress
##ENDENT
practiced
telegrap
calling
Fairway
characterization
Agios
Agilysys
multiemployer
##ESSION
conferring
decreasing
Alb
methodolo
##ogratz
Beneficial
Secret
allegedly
secondarily
mergers
Brokerage
specialties
Goodwin
originator
embarr
temporal
ceil
PRINCIPLE
radio
summar
diluting
Electronics
Terra
##atistical
Continuance
variance
Developing
452
Importer
Protest
utilities
marginal
##ographical
418
endeav
4971
##oley
334
DEFENSES
DEFECTS
images
INCRE
Backup
successively
Sample
verified
Controller
Modifications
procurement
Basis
diminished
appraiser
REFERRING
COMMENCED
reinstate
retrospective
358
359
3575
Moore
stamps
evaluations
Steipp
gainful
alternatively
##OGEN
Marketer
INDEMNITOR
Dealers
PRIORITY
grade
PLS
CBI
EDC
4069
stipulation
##inski
##nett
metropolitan
Tetra
480
GPI
EXPENSE
Mergers
Rockaway
625
Endo
mechanical
CDC
CDK
Mailed
formalities
AutoMD
TIFF
Cleveland
##Gene
Estimated
Tribe
UNDERSTANDING
MLS
Cimpress
806
acquiesced
SWING
reveals
Irgovel
##SITION
MET
around
OFFICER
leadership
Compounds
ISOs
HOLDS
Novogratz
MDC
Plains
Processor
Richmond
Simult
Complete
CareFusion
bidders
authenticity
Image
Recovery
NRG
PRESENCE
curable
internally
FINANCIAL
Demised
road
MCKEE
disproportionate
verbatim
Attachments
Duties
reconvey
PSAs
tranches
##emy
ethics
Accelerated
FMLA
Foundation
SYSTEM
SELECTED
OMISSIONS
Streamlined
CPLR
##ENCES
AKS
Foxtail
KCD
Mittman
lawyer
Reserves
Reserved
APPLIES
COMPLETE
Avon
Evercore
Watkins
documenting
##rento
DISCUSSIONS
KindredBio
symbol
##BURSED
apportioned
amicably
unavailable
pleaded
Therapeu
Fuels
MGT
RPAA
journals
##itectural
##charged
convicted
propriet
undeliver
Innovation
Substantially
Reinsurer
4980B
Investigator
overseeing
CinC
Sorrento
Silver
arrive
DEPOSIT
ATTACHMENT
11581
DWAC
STIP
Unaudited
creditworthiness
APPEALABLE
IMPROPER
Ernst
Lexington
depending
Adamis
speculative
Occupational
Between
SALE
TECHN
mitigation
sidewalks
collectible
merchandise
ENCOMPASSING
Aurora
Cambridge
RGP
clerical
sensitive
tasks
denigrate
Pharmaceuticals
incompet
Jacksonville
jeopardize
AXOGEN
AFIV
CIVIL
FHPI
FASB
GSCS
Heartland
Painter
Satisfaction
Toshiba
UTAH
airmail
eminent
fictiti
gathering
Coffee
Proportionate
Unforeseeable
Transmittal
##URACY
INDEPENDENT
ASBESTOS
cannabis
telegraphed
TetraLogic
Therapeutics
fictitious
340
4th
57
510
7A
82
850
875
930
Adient
BM
Ber
Boy
Bright
BGC
BOND
CN
CV
CLE
CRA
CSC
CPI
Candidate
Do
DN
DHL
Emp
EIG
Economic
Face
Fixt
Gap
GEO
GEE
Hur
Hun
Hard
Herc
KH
Kes
Kro
Krae
Lor
Lat
Lum
LAT
Miss
MIP
Miche
MMT
NCI
POL
PIP
PUC
PAID
QC
Ray
Rates
Ross
Sic
Spons
Sources
SAID
Scientific
Science
Somer
TL
TCE
TATE
TVP
Talent
Ul
VF
VW
VIR
WC
WT
Wealth
XM
XEC
aa
au
apart
branches
evic
gap
gwin
loyalty
mp
master
mention
nissan
pict
rum
slow
script
tell
tested
tiff
wound
wiring
##mG
##mir
##iers
##ifying
##ai
##tment
##ost
##outs
##ommod
##oots
##eligible
##wau
##utive
##gom
##gory
##IFY
##cars
##coming
##hur
##Rock
##Roots
##Cos
##batch
##down
##28
##86
##EEN
##UTIVE
##MA
##Dad
##VENT
##OOD
##zen
##zia
##GO
##GIN
##KM
##YRIS
##YME
##WC
##ZYME
##reet
##esy
##ano
##inogen
##alty
##oration
input
##itter
##atec
##rounding
sued
##mply
##therlands
coerc
##terior
dead
unint
##sever
##oco
Partic
Parking
undermin
##lick
enure
##ira
##irth
##lumber
street
Ineligible
##ruptions
##thqua
expose
exposed
##oft
Sublic
##usal
includable
THR
##ficit
maturing
matching
reasoned
recall
repetition
Reverse
##metic
##erald
##viation
aggreg
##forceability
interchange
intermedi
##egium
counted
issuers
ORDIN
confiden
Condens
##kewise
##ewis
doug
##ECTING
spoli
benefited
governments
Alleg
pool
courtesy
206
20th
##ANGE
nonsolicitation
Likewise
Affiliation
##amount
modifier
Bankers
Resid
106
104
##burgh
Israe
Obser
surrounding
Detri
##priate
REIM
##ICUM
box
GoDad
excludes
leap
segregate
ACTING
appropriation
affirmation
Applied
accountable
Choice
demanding
BELL
securityholder
securityholders
##phone
Businesses
relies
faithful
UnitedHealth
affiliation
tradable
earning
earthqua
Assigning
Revised
306
illeg
TRI
TRIB
##ABOL
Offices
committing
Next
Netherlands
Accommod
##ACITY
1519
protests
Orion
Orland
acceptances
PROCEEDS
cooperates
Groups
absences
SemG
prescription
presiding
WHOL
handwritten
##IRS
conventions
Certificateholders
AMYRIS
##vailing
marketplace
Insert
Prices
indictment
Owens
maxim
Presidents
pledging
contributory
Corning
Corrat
171
175
174
ADA
##henzia
Annuity
SUBTEN
platform
redes
usa
Resta
##OLVING
##OLOG
##OLUTE
Increases
objective
255
253
2500
depositary
furnishings
Janus
Macell
Major
##ILAR
##FIES
##ERTING
mortgagees
conferral
Supplementary
LEGALLY
appealed
inconvenience
appearances
retainer
Arrangements
050
506
merchant
restraints
recovering
recoverable
initiates
anticipates
values
Exercised
commercialization
ADMINISTRATOR
holdings
registrar
structures
structural
structured
Indirect
##link
Norge
SPIL
Tranches
Mintz
Registering
Undersigned
Deposits
proofs
425
4201
purportedly
Files
ASSOC
ASSERTING
Fourteenth
MassRoots
##GET
Carbon
Carlson
importance
1976
2026
Transitional
HEIRS
Impositions
##biguously
readable
Collegium
misappropriates
GENZYME
rentals
strength
Domain
415
groundwater
Twitter
COLLECTION
excused
144A
procuring
Refinery
Refusal
335
unlawfulness
very
ABOUT
BANKING
Differ
EVIDENCED
duplicative
profitability
Gevo
Host
Adjustments
CLRI
VALERO
Redee
informs
INVU
sworn
Enterprise
telephonically
airf
Greene
PLA
Appropriate
4063
4064
critic
suretyship
Quant
##ANCY
reproducing
licensor
CDS
Combined
8530
undisclosed
5500
Location
RECEIVE
Remo
PMC
Damage
803
Affinion
exhausted
Superv
Supervision
reimburses
Breakage
nonexempt
Selection
Selten
##MPTION
NEGOTIATED
leaving
10017
4042
Amendatory
demonstrating
photosta
SUBSTANCES
Schlumber
extinguishment
functional
ACQUIRE
ACQUIRED
supervisor
turning
OCCURRED
landlords
incorporating
NRS
Sirius
Accession
ADVANCE
Collaborative
DevCos
Plaintiffs
7872
Davis
roof
MANAGEMENT
##ommunications
564
DISCOVER
verbally
FACT
ABSOLUTE
rolls
Timeshare
ALSO
ACCOUNTS
enjoyment
Montgom
Williams
Magnum
Nondiscrimination
Investigation
MLPFS
Bookrunner
CCS
CASp
CASES
ELECTION
TWH
adjourned
REGULATIONS
Strategy
CONSULTED
INJUNCTION
SIGNING
ledger
learns
CPR
grievance
PRECED
unanimously
docusign
reaffirmations
ESIGN
PCT
Telecommunications
syndicate
CoreSite
amicable
electricity
unavailability
sublicens
Greatbatch
Railcars
Robinson
TCV
block
conspires
Regional
RECOVERY
GRANTEE
Jeffrey
Joseph
Milwau
SEPARATELY
Wardinski
displayed
CAPACITY
proximately
CRZO
XXXXX
category
divestiture
largest
ridicule
RESTATED
RESPONSIBLE
newspapers
CHARGES
Vitro
innovations
unambiguously
speaking
Cedarhur
Identified
BARGAINED
FNF
Hersha
SAME
ASSUMPTION
CONTRIBUTORY
volunteering
incapacitated
FIXED
OCCUPANCY
AVAILABLE
SENTENCE
SIMILAR
Vaccinogen
growing
bequest
complementary
safeguard
receivables
SHARES
METABOL
CRADA
Facebook
Hercules
KHK
Kesner
Kraeutler
Latest
LATENT
Sichenzia
Somerset
TCEH
XECUTIVE
rumors
coercion
unintended
Particle
Condensate
spoliation
Israeli
GoDaddy
BELLICUM
Orlando
SemGroup
WHOLLY
Corrato
##OLOGY
Macellum
photostatic
Schlumberger
Montgomery
Milwaukee
Cedarhurst
METABOLIX
475
53
530
799
720
802
93
ALT
Bor
Bil
Bax
BDIC
Che
Cen
Cessation
Citizens
DL
DOL
Et
EB
EFI
Educ
EIX
Fl
Fite
FTC
Fraction
FRA
FEP
FHA
Falls
Fried
GC
GMP
Grub
GOOD
HV
HCI
Hart
Jon
JCC
Justi
Kore
Knight
LT
LD
LV
LW
Lot
Lane
LNC
Lilis
Lamb
Lewis
Mal
Mate
Mult
MIN
Mine
MAC
Ner
NULL
Natural
NCA
Named
Of
PG
Pit
Poin
Pending
PPM
Plex
RS
RX
RENDER
Reduction
Son
TU
TAT
TCC
UEB
VA
Vantage
Vivo
Village
Visa
Wac
Wistar
Waste
ausp
black
birth
children
ee
fit
flan
fals
flight
grid
grat
nu
pers
sli
sister
tit
tresp
ut
uS
vehic
vessel
vague
wit
wom
wording
xv
##mers
##mont
##iCo
##noma
##necessary
##ajority
##table
##thes
##vect
##ety
##eague
##we
##wal
##ua
##uer
##uers
##gar
##Hook
##ILL
##ITIAL
##IOD
##RP
##RY
##RENT
##Credit
##PORT
##yte
##yris
##bec
##bound
##backs
##NR
##EAR
##LD
##MB
##Master
##Sp
##SX
##SEN
##Soft
##kind
##Vista
##ODI
##Work
##࿽s
##hearing
##erally
##enre
##rew
##esis
##esty
##edom
##aly
inst
##itt
##itects
##eck
##ecla
##atutory
##isor
##isse
##artial
##roock
##ceived
suffers
reward
reissu
rehearing
##lled
##lix
##lice
##tsburgh
const
##aser
Coles
propor
propose
##icop
##icmark
##str
##strong
##stones
##statutory
unsever
unnecessary
##ermajority
parte
resorting
notar
##ocyte
##ranet
proves
##such
##ighted
##erized
stage
Intra
Injunctive
##owers
##owne
##thur
##ofi
Sublet
Subcommittee
applicants
translation
Stay
Stroock
Adj
compound
##orsheim
##vie
##viano
interven
interpose
##agen
##agements
precon
waivable
Purchases
##ESEEN
Concession
INITIAL
claimants
taxed
jurisdictional
spre
benefitted
validated
Unresolved
Unclaimed
foresee
bread
informational
##atorily
##ARATIVE
abuse
nonfulfill
nonwa
Anyone
impartial
capabilities
##URTH
##URRENT
NewCo
arbitrary
10b
Deer
Array
Arthur
CONVEY
Grandfathered
RETAIN
locating
##ICY
COC
COVER
COCP
Intercept
Interlink
Assess
##pret
Suisse
Parental
responses
##pharmacy
Invalid
Enemy
Incident
continuity
displays
LAWFUL
12b
intranet
Revision
##emptions
##PLARY
##opers
TRAD
##TOM
supplementing
Neutral
##onetics
Prec
Exploit
finalization
engagements
##SUSPECTED
protoc
promised
competently
MAIT
135
13D
Facsimiles
workplace
UNFI
UNSUSPECTED
Travis
overtime
distributor
voidness
delays
preside
accelerating
##EMARK
APG
joins
contend
PERIOD
Sanofi
favorably
160
Disclos
Decision
Financials
deletions
emails
disbursing
Recall
identities
identifiers
Servicers
Maricop
Poor
Institute
organic
Presidential
minute
concluding
021
Payoff
Textron
##TRUST
##ysical
##OLINA
Increasing
Description
Transferring
chargeable
mortgaged
PRAC
Designees
Several
Severability
##LEDGE
ARA
comparative
substituting
503
COMPARATIVE
ACKNOWLEDGED
##arkson
224
##ebird
initiatives
Goodrich
FINES
INTERPO
inequ
Exercising
Settlements
##NIBUS
subpoenaed
##ICEL
foreclosed
##UMB
DISPUTED
Mint
Miner
IPI
Underwriting
4212
producing
remittances
groups
dilute
Haem
##rick
##psiCo
importation
acknowledging
1970
KNOWLEDGE
2025
##SOP
HEAR
noncompliances
2600
inconsistencies
##Coopers
WARN
readjust
Colleague
##IGNED
1980
##RINGEMENT
Twelfth
332
3313
Backed
someone
consecutively
enjoined
Sauers
addressees
floating
1999
territ
##ustodial
Portland
1968
CHOOSING
##UNDS
COMMERC
EQUAL
Judgments
Maxim
printo
328
Model
Room
preparer
memberships
##110
buying
IMAX
RELATIONSHIPS
REMAIN
gramma
safekeeping
NEGLIGENT
JVCO
##IBUTION
483
discontinuation
##OTA
FIF
Endocyte
MODIFICATION
Manufactured
CDTI
rendition
Oxenre
##203
histories
forecasted
LETTERS
383
disclaimed
compulsion
Capnia
permissions
Unenforceability
Supermajority
FUTA
658
SHOULD
APAs
divulged
FOURTH
McC
McL
encouraged
Irish
rebu
433
Limitations
GROUNDS
##oGenesis
Nuvect
uncons
accidental
CUSTOM
falling
4041
mandatorily
Summers
NORTH
XVI
interviewed
Nexeo
Reinvestment
Analog
nondis
Accepted
bidder
BioA
Highway
reversed
465
9867
VERICEL
##service
##andidates
RELYING
ADVICE
Cafeteria
People
PepsiCo
Scotts
##houseCoopers
CONTINU
Directing
ROFR
introduction
OrangeHook
Trusts
unanticipated
Brookman
Industrial
slanderous
repealed
FACTS
FACILITY
Glen
reconciled
Terminals
Addresses
Clarkson
Logicmark
Synthes
cleanup
RECEIVING
PREVENT
concessions
Proposition
GEORG
sexual
Cardinal
ELECT
lockbox
regional
architects
Assistance
Generators
SELECTION
exhausting
AVOID
Ference
Pubco
citation
##kouts
tombstones
conservators
COOK
PPSA
Pipelines
##OMA
PROVIDE
PROVIDES
FOUNDRY
formulae
KCM
YOUR
malic
malign
##tzman
COMPLETED
ValidSoft
UNDERSIGNED
interrogatory
Alphatec
Whitehall
Athene
DESIGNATED
FTP
FTAI
FHLBank
PUs
ignored
stoppages
livelihood
POSSIBLE
OCLL
Robert
Roberts
computerized
Disparaging
RESULTED
RESULTING
BDSI
Evaluation
##ormant
Subcontract
MARKETS
CAROLINA
Pulte
Entitlement
password
NBTB
EMBODI
PROCEDURES
Solar
Tesoro
Welch
walkouts
##ological
Automated
ThermoGenesis
KalVista
MONTH
SSN
AmeriCredit
chairman
Allocation
memorial
Previously
PERCENTAGE
ASPZ
Telephone
Radiopharmacy
Faith
Japan
Q2P
TARGET
reconsideration
Concurrently
Respondent
Leadership
ARRANGER
OMNIBUS
bailment
Providing
INFRINGEMENT
Armstrong
circulated
EXEMPLARY
Albany
embarrassment
Terrace
INCREMENTAL
TECHNOLOGY
BMW
Fixtures
Huron
Kroger
POLICY
VIRGIN
pictures
aggregating
intermediaries
confidentially
Observer
Detrimental
earthquake
Accommodations
SUBTENANT
Restaurant
Differential
Hostess
Etc
Florsheim
Fractional
FRAUD
Justice
Korea
Multnoma
Nerviano
NULLIFY
NCAP
Pittsburgh
Plexus
RXR
TUAA
UEBV
Wacker
auspices
flange
gratuit
trespass
uSell
vehicular
women
proportions
unseverable
intervene
precondition
breadth
nonfulfillment
nonwaivable
TRADEMARK
Maricopa
INTERPOSE
Haemonetics
COMMERCIAL
grammatical
Oxenreiter
Nuvectra
Scottsdale
GEORGIA
VIRGINIA
Multnomah
575
675
636
73
74
745
761
88
84
96
Ara
BAS
BTC
BSA
BPC
Baile
Branches
BPLP
COR
Carm
CDA
CCP
CORPOR
CPS
Ciber
Custodial
Dun
Domic
DSS
Dak
DPC
EJ
EAS
EIGH
ECC
Echo
Escal
Fro
GAL
Gray
Golf
Hess
Had
HUND
HFR
HHS
IC
IAC
JLL
Job
Kan
Kirk
LG
LINE
Mach
Mus
MAI
MEX
MUF
NS
NF
Nash
NALL
Name
Negoti
Necessary
Omin
OMIT
Pan
Pred
POR
Pron
PIV
PPA
QLT
QVC
RH
River
Rop
RRA
Rapid
SF
SJ
Sud
SAND
SMM
Still
Susp
SKM
Tress
TREAT
TSX
Ub
VARI
VTD
Vinson
Wage
Walth
WELL
XX
apartment
blu
cabled
citizens
da
ea
eastern
efficiency
frust
hum
ion
las
link
lessees
ms
milestones
ot
pet
peti
rod
round
ven
vic
voted
want
##rative
##mos
##ifications
##nut
##nove
##ah
##adel
##aMed
##oP
##ooth
##eled
##etics
##uy
##uments
##uously
##gion
##gorg
##siv
##sky
##IANCE
##ple
##cion
##cliff
##AMIN
##Purch
##Puy
##las
##lest
##yer
##dles
##days
##201
##83
##TTS
##Towne
##ND
##NSY
##78
##74
##jesty
##Us
##UCE
##LV
##Sc
##SIP
##Ds
##Drit
##VI
##OV
##Fron
##Gram
##YD
##York
##West
##JUN
##erink
##tier
##tise
##oneration
##ener
##reate
##annett
##inks
##orial
intellig
toxic
##attro
##chapter
thi
suing
##lewood
ask
Compan
Colon
exoneration
proto
##abi
##abank
##verted
##icuously
##imal
undated
unacc
unjust
uninter
##ffolk
##ulder
parity
residential
##ild
##pped
appur
appertain
##ante
##mming
##tex
##cier
station
storing
statistical
Innove
subtenants
makers
payche
adhere
adhered
##minex
##this
expanding
##ouns
##ERY
##ffectual
discip
disrep
disgorg
match
Aditech
##ensible
obligors
recreate
##osite
Subsidiar
Rejection
ANSY
ANTICIPATED
competitors
##orsement
##TIM
perceived
##ONIC
interruptions
##umes
##ENA
sake
litigate
##venteen
##eller
courses
discriminatory
write
ORDER
Prop
Proc
contempt
actionable
Concer
finished
##bert
##ENTLY
##rael
INCLUD
##INCO
Amyris
Anaya
Angion
addenda
instructs
Uncomm
button
Transport
relatives
Allied
##chez
##READ
Mattel
##INGTON
##ANIA
##ANTICIPATED
abstain
abstr
nontrans
##urrence
AGRO
elective
Resort
Residence
Lawyer
Island
Israel
surface
Defensive
Death
DePuy
CONE
CONDUC
CONJUN
##ITABLE
##rone
##edia
publicized
##ICAL
moreover
knowledgeable
Interpret
Goog
exclusiv
ACORD
##oustis
Suffolk
Saltzman
pencil
affix
conditionally
PROM
collision
bases
Enh
Ending
Enphase
Landmark
retail
maintainable
1111
1155
circ
consolidates
equaling
converting
Delta
attesting
EXPER
EXTEN
locality
##AST
##ASES
195
1940
posts
Together
carbon
died
postpaid
Requesting
promoting
Disaster
##itex
133
NEX
workmen
reservations
Representing
mista
Partnerships
UNDISPUT
UNANTICIPATED
Atmos
carryover
overstated
##UNIC
distributes
preceded
Complex
index
APO
LOI
END
ENERG
3121
Sanchez
accountings
1601
lettered
Disclaim
RESC
Equityholder
THEREFOR
avoided
Subsections
Swed
Ameris
Supplements
##IDE
##IDATE
Insurer
infirm
CoraMed
protectable
Payable
Payroll
Nonstatutory
prevailed
Leerink
GOVERNS
17g
1700
ADS
opened
10020
precluding
ACCURACY
Pricewater
Annually
SEVER
SUBS
362
##loration
redemptions
users
##OLATION
##folios
lienholder
telegraphic
##OFI
Desert
##tructure
Defaulted
217
214
nullify
##issipp
patented
characterized
Majesty
##odies
tracking
typical
conformed
cumulatively
Almir
Prospectuses
secondary
accessibility
examples
507
505
AmericaTowne
binds
restrains
Elkins
specialized
220
ineffectual
Settling
appointments
hundredth
Lessors
antitrust
##ennial
SPINCO
Fifteen
adjudicating
IPR
Registerable
##yne
occupies
repayments
Accrual
raising
Boulder
surrendering
CHC
CHICA
CHANC
features
VIOLATION
Carroll
listings
Mrs
passing
ruled
Imperial
260
GlobalMed
DETERMINATIONS
Pharm
misappropriations
Outstandings
##raine
preserves
##lock
INDEMNIFIES
Acquirer
##iquity
excised
Brog
departments
broadcast
Background
smooth
Centennial
##fined
1996
1997
1994
opposing
Modified
machinery
Diagnos
Purposes
##riding
Changes
suspends
ASSIGNOR
COMMUNIC
reins
reinvestment
326
defames
corrections
VALU
WestRock
invoicing
Greens
swing
POS
Vertex
biographical
dishonesty
##arbor
Liquidator
DOMES
TERM
##insurance
OBJECTIONS
doctrines
LOCAL
GRANTORS
Rockets
retires
postponement
unitary
COPIES
PFM
reproduced
Endorsement
licensors
Eighteen
MoneyGram
CDs
DIRECTED
871
EXECUTING
formality
555
HCSB
STATUTES
385
347
Locations
downs
Remote
Capacity
TAKE
Affidav
Contact
Circular
sublicensee
encourages
##rock
INTELL
432
##shop
Engineer
CANADA
Emergent
Nuo
EGIS
formulation
REVOLVING
REQUIREMENTS
Farmland
hardware
mandate
Nova
engineer
716
##LIER
revealed
Finished
routinely
Reinsured
GUARANTEES
disagreements
995
functionally
PAYABLE
Ashford
Priveco
SUBORDINATION
CMC
Luminex
nondisc
supervisors
answerback
##RLP
DEBTORS
PATENTS
##chester
demonstrated
center
curbs
##ominium
disturb
695
Franchisor
distinctions
Paltar
Scoti
TPB
Directions
enrolled
precise
Consultation
Consultancy
TERMINATE
MCRC
MCRLP
defeasance
acquittance
discrepancies
Brown
View
COMMITMENTS
xvii
ALREAD
IWMG
723
JOINT
volumes
consequently
IRCTC
DVDs
suggest
shipped
Inspections
Inspector
telecommunications
Derivative
CSG
##HOLDER
TRANSFEROR
TRANSFERRED
Photographic
Cerus
Polk
PENNSY
pipes
GLB
MTEM
Mills
PROCEDURE
BECOME
Integration
DISCUSS
Xenith
XenoP
eurocurrency
syndicating
apportionment
EFH
ESSI
ESSENCE
Symp
Syria
SANOFI
Solely
sublicenses
ADDITIONAL
suggesting
FHLBA
PUBLIC
drilling
journal
justification
##charges
propriety
stoppage
conspicuously
Substantial
Reinsurance
Buildings
##connection
analysts
9725
DanDrit
##keeper
computers
Disparagement
SCHEDULES
Agreeme
Cuattro
Cuba
Cubic
Estoppel
Navitus
WWP
Subcontracts
impugns
Defendants
Organic
workmanlike
recklessness
reassignments
sponsors
sponsorship
warning
wrap
wrapper
reorganizations
Remedies
survivor
GRANTED
GRANTING
marshaling
HollyFron
patient
Hours
MEDIATION
WESTERN
Apprais
INVALIDITY
honestly
sequestration
GSSI
Warehouse
deliber
irregularities
Helios
renovation
ADVISORS
entrance
Detail
EARLIER
Menzel
Virtu
subtracted
Confirmations
Recoverable
Secretaries
45202
endeavors
Simultaneously
Mississipp
Michelson
NCIF
PIPE
WTAM
##VENTH
deadlines
Residual
REIMBURSED
airfare
Supervising
INJUNCTIONS
Mateo
RENDERED
TATUM
TCCC
blackout
falsity
10b5
Precision
printout
FIFTH
unconscion
CUSTOMER
BioAmber
gratuitous
Bailey
Carmike
Dakota
EIGHTH
EchoStar
GALENA
HUNDRED
HFRM
Kirkland
Machines
MEXICO
MUFG
Nashville
Ominto
OMITTED
PORTION
Pronouns
PIVOT
Ropes
Sudan
SMMC
Stillwater
SKML
Tressler
Ubiquity
VARIED
VTDC
Waltham
bluebird
humiliation
petroleum
petitions
vicinity
##Purchaser
##LVANIA
Colonial
prototy
uninterrupted
appertaining
Innovel
disrepute
disgorgement
ANSYS
Angionetics
Uncommitted
nontransfer
CONJUNCTION
Google
exclusivity
mistakes
UNDISPUTED
ENERGY
infirmity
PricewaterhouseCoopers
Almirall
CHICAGO
CHANCERY
DOMESTIC
ALREADY
PENNSYLVANIA
XenoPort
HollyFrontier
Mississippi
3M
6111
760
721
735
815
A3
ATI
ARO
AIR
AAP
Bus
Bell
Band
BUC
Balances
Clo
CER
Cord
CANCE
CCO
Clients
CORE
Dial
DCP
Dover
Dormant
EUR
Fron
Frid
FERC
Fife
GT
Get
Gib
GTH
Gannett
HH
HO
Hon
Hen
Hes
Has
Hire
Hond
HMT
Hecla
IB
Its
Iran
Iron
JP
Jac
JER
JEX
Ko
Kat
Kve
Khar
Kabi
LR
Lin
Lion
Low
Lee
Light
Lind
Mu
MP
MN
MV
Mone
Marsh
Nass
NAC
NII
NPA
Names
OAC
OTE
Pi
P4
Perti
Pocket
Pope
PCA
PEA
Presentation
Pati
QE
RT
RL
Ren
Ree
Recur
Rack
RAM
RPA
RATA
SV
Sti
Sher
Sid
See
Sull
Sient
Stry
SSI
SATIS
Sector
Sny
Ty
TN
TM
TUP
Tiff
UA
Va
VORT
Voluntary
Wo
Whol
WFI
Wright
XOMA
YN
Zest
ap
cc
cat
cut
crude
currencies
dro
dock
diver
fr
fro
fel
fitness
fuel
gyp
garden
hi
hy
hat
hom
ic
kick
ln
leverage
mm
oconn
pm
rider
rich
ryan
seri
solution
tu
tent
tal
tant
tive
um
ub
va
wil
##rable
##rical
##nes
##nion
##noti
##aties
##aign
##ake
##azon
##oices
##ompson
##va
##vsky
##ga
##gart
##sen
##sable
##serv
##HR
##HB
##HINGTON
##IENCY
##pa
##pective
##cles
##cks
##hal
##haw
##Re
##RB
##RATED
##BAC
##At
##As
##CIP
##fil
##firms
##Pass
##PIB
##lmed
##yM
##yx
##yon
##bac
##bile
##boro
##disclosed
##24
##63
##602
##TAL
##TRO
##TOC
##Tech
##NES
##EQ
##EZ
##901
##Union
##qs
##Sys
##SORY
##SEMENTS
##Stone
##DD
##Disk
##Viv
##OE
##OUR
##FACTION
##GL
##KC
##K6
##WS
thePurchaser
##tilated
##tization
##onet
##onto
##entieth
##enius
##reen
##anotech
orient
##alinks
intra
##itas
tolled
##attie
##isher
##isms
##arke
reel
revoc
rewritten
reev
##mpshire
##greens
##lie
##veo
##asco
Cohn
Cott
codi
coordinated
##vertent
forced
##teran
##lyc
unw
unin
unso
unwill
##quor
##lous
##logic
provi
proven
##hier
##tinental
##ache
Parity
##tronic
##tralinks
##sum
##sub
##suit
##sulet
##licated
##licited
##aine
##oling
appendix
##awn
##antages
Extra
Exporter
##irit
##mmer
##ett
##eteer
##luenced
##cific
attor
conscienti
Ingre
Inactive
Insulet
subj
maps
majeure
##loyment
##mployment
##owed
payoff
##rued
##ptop
##lake
obli
explos
exploration
##ofthe
Subchapter
##uson
##togenics
##ficated
distingu
##ivan
##ensen
obligates
##oster
Nob
##medan
Realloc
##member
Thom
Threat
Thorn
Thompson
##atively
comports
composed
complicated
##vier
##struct
interception
##ceeding
CommSc
arty
##partisan
lif
libe
defease
camp
capped
materialman
discredit
ORK
Progenics
Procific
confined
##rav
##INQU
Amazon
Ambac
spaces
Ant
chapter
Unliquidated
Undisclosed
##ATUR
TransUnion
desist
##ALTA
##udents
TOTAL
Allen
##ARs
##ARS
moved
mobile
mem
meal
2050
ordering
##ertificated
nonvested
yearly
##cluding
invalidation
##amar
##CHEZ
capric
Newark
107
1010
Actuarial
transferrable
Isle
surcharges
numbered
Defense
DeCar
REF
READ
PARTIAL
declined
BYTOC
Taxation
electrical
availed
consummates
SUFFER
extensive
imminent
Interconnection
Going
charts
chartered
seventeen
advantages
ACTIVE
Assertion
Apple
throughput
##urna
collects
collaterally
Invoices
Enserv
1281
117
twentieth
creations
container
##LLUTION
WAIVING
consolidations
presentments
##otient
##opy
##ECTUAL
Delinqu
EXCESS
EXAD
Neuro
Manual
renews
Prem
Preced
RELATES
RELINQU
Expedia
NOF
SHACK
##ACA
1502
Discharged
1320
FORCE
fairness
UNLI
##idental
precedence
scheme
Seatt
##athon
##athan
APUS
handbook
joining
ENDERS
ServiceMaster
Commissions
Directorship
trustworth
3161
SanDisk
exceeded
167
163
qui
quit
quotient
##SET
##SEY
shell
OUTSID
offs
realizing
Certificateholder
satisfactorily
Recent
Substituted
Switzer
AMTRUST
AMBAC
Delivered
Marc
Marathon
##EGRATED
PoViv
divest
divested
situs
Citywide
ISH
mineral
##CLA
##ULENTLY
Corix
DISH
DISBUR
consultancy
revest
170
17th
untruth
inducing
SUBSC
369
364
conveying
##oratories
selectively
usbank
usurious
##irming
##AINS
allows
##ordinating
216
215
2101
depository
announce
USC
USED
borrowable
Makers
##mans
##oga
ARI
alters
assistant
treating
treaties
Works
postings
902
proscribed
exempted
refusals
Signs
##AYMENT
relieving
SOS
SOIL
Commercializing
valuations
Settled
subpoenas
##morgan
hundredths
examined
possessing
SPUD
substantively
Fifteenth
adjudicatory
primed
079
MUTUALLY
PRINCIP
Englewood
prorate
281
282
Origination
##ilitary
290
2943
Boise
Boots
234
ISSUED
Hampshire
DELAY
UNITS
WILLINGLY
SUBMITTED
Distributee
CHANGE
##ricing
PennyM
Shel
Immigration
2027
2023
cashier
455
##naSys
DETERMINATION
Charlest
strong
##029
4140
278
utilization
Twelve
presumptions
unlawfully
PERFORMABLE
broadly
##rison
corresponds
Samedan
verifiable
Centers
##SPP
GENERALITY
Counterparties
Who
diminishes
marking
backstop
CHOSEN
simpson
EQUITABLE
FinanceCo
Hoch
print
printers
DELIVERING
conceive
Sixty
351
Most
Movie
Roof
Steel
Intended
Intasco
CLSIP
VALUE
gained
proposing
informing
##derslice
Southwest
##feasance
75201
IMPOSED
Entertainment
POLLUTION
empted
CannaSys
REMIC
Greenhill
Bipartisan
CBOE
CBKC
EDT
4062
DOUB
accomplishing
Holdback
probability
clarify
Beattie
Tema
messages
sanction
swaps
servicers
773
Wilson
Wilshire
Versum
Merus
Rocky
Conditioned
authored
retiree
626
6223
reproduce
reproductions
Blocking
Reimbursable
DIRECTOR
diminishing
ADDRESSES
8599
Drawdown
Cyanotech
Warrantholders
Triview
RELEASEES
BUYERS
PMB
667
NASCAR
RELEASORS
DEBT
DEBTS
Walker
Walgreens
PREPAR
INTEGRATED
435
Yieldco
YieldCo
##shares
contradict
standpoint
Pacira
MEANS
builder
alienate
Weil
##455
Farmington
Warner
##ODY
laptop
##224
##LIMIN
Influenced
Reinvest
1251
predictions
Simonet
deprived
Executor
Accepting
Completed
Carey
Nomination
Nominees
authenticating
Banc
Histogenics
Highstar
Recogn
INDEMNIFYING
Medicaid
Prohibiting
462
Mexicana
NRZ
Woodward
##avy
##entile
photocopied
2000e
548
5449
6901
Foodservice
Phili
invitations
genuine
ADVANCES
787
mutilated
Appealed
plainly
MANAGING
Skyline
Architectural
CONDITIONAL
Tagged
Taggart
labeled
Brookfield
617
954
OSG
WASHINGTON
speech
impractical
indemnitees
AFC
NantWork
disqualifying
reconfirms
862
DERIV
SLP
Logistics
Synta
Synlogic
logs
ACCEPTING
acquiror
Paulson
efficiently
Grace
SBG
Wyse
education
OFFEND
Recordkeeper
Raise
##azmi
adjournment
Apache
Ferris
INFORMED
upwards
Acknowledgement
Akoustis
pipelines
pipeline
Cooperate
SUFFICIENCY
PROVIDING
slogans
CPPIB
Fox
GLDD
Germany
MTP
Occidental
inadvertent
soliciting
CONSOLIDATE
Teradyne
PAYMENTS
CREATION
CREATED
CREALTA
DCG
Watson
veteran
4204
Collabria
SUPERSEDES
817
StepStone
EFRI
FBM
FCX
Ninety
SANCHEZ
hedge
compilation
bookrunners
Upgrade
Therapy
IWTAs
Legion
blocked
conviction
Innovations
Build
POSSESSION
Selecta
OCCURRING
Investigating
Jefferson
Ciner
Sorensen
argument
arguments
STOCKHOLDER
DEPOSITION
curtailing
SCHEDULE
Baker
Evans
Establ
Christop
workmanship
SEPARATION
reborrowed
reborrowing
AHIT
Casino
CARs
PETRO
Structure
Remedial
Entitlements
EXHIBITS
passwords
CONSUMMATED
EMBODY
PROCEDURAL
Drag
EQT
EQM
Keown
NLO
SPLNG
Vanderslice
dictates
patients
Cornell
Kimb
VOIDABLE
jpmorgan
##IRMATION
supercede
8988
Glovsky
largely
recruiting
Condominium
metrics
collaboration
CONTAINING
Helicopter
terrorists
Absent
criticizes
Violation
CIRCUMSTANCE
UNENFORCEABILITY
Fresenius
HBD
Hanna
LMCE
Penalty
eleven
##estead
ceiling
SWINGLINE
proprietorship
undelivered
STIPUL
DNP
Empire
Lorraine
Sponsors
TVPC
Ultr
VFN
auction
eviction
interchangeable
redesign
criticism
7996
Borqs
BilCar
Cenveo
Grubb
Jonathan
MINNES
Points
Sonabank
nuis
titled
##rews
##ittle
spread
Deerfield
COVERED
Invalidity
Discloser
inequitable
33139
territorial
nondischarge
AVOIDANCE
conservatorship
FRAUDULENTLY
EASTERN
RHSS
XXII
unaccrued
Concern
Transportation
abstracts
CONDUCTED
Enhanced
NEXUS
ENDO
Disclaimer
RESCIND
Sweden
VALUABLE
Affidavit
INTELLECTUAL
Scotia
Symplmed
Appraisal
BUCs
CERCLA
Corden
Dialysis
Fronted
Friday
Getty
GTHC
Heska
Honda
Jacob
JERSEY
Kveton
Kharazmi
MVWC
Monetization
Nassau
P4HB
Pertile
Popeo
PEAK6
QEPM
Racketeer
Sidley
Sullivan
Sientra
Stryker
SATISFACTION
Snyder
TUPE
Tiffany
VORTEQ
Wholes
YNXG
frozen
felony
gypsum
homestead
oconnor
richard
tantamount
orientation
revocability
codified
unsolicited
unwilling
##tronics
attorn
explosion
Threaten
CommScope
libelous
capricious
DeCarlo
SUFFERED
Enservco
Delinquent
UNLIQUIDATED
Seattle
trustworthy
OUTSIDE
Switzerland
PoViva
DISBURSEMENTS
PennyMac
Charleston
MoviePass
DOUBT
Reinvestments
NantWorks
Christopher
MINNESOTA
1J
2D
398
520
545
535
740
8K
820
825
881
901
913
999
960
980
935
977
944
Ace
Ast
Amed
AAC
AID
AIV
Alex
AEP
Aviation
BEN
Bel
Brent
Behring
Bodies
Cz
Cri
Cure
Closed
CALL
Cents
CST
Cumulative
CPO
Chest
CJC
CWS
Crav
Don
DTI
DED
Dair
Ec
Ey
EU
Era
Emb
EIP
ECA
EPS
Erin
ELIMIN
FS
FD
FY
Fri
Fast
Fren
Finding
FAIR
Foley
GD
Gill
Gard
Giving
Ginn
HP
HK
Here
Hender
Hos
Holid
Harding
Hug
HCP
HYD
ICP
Kf
Kap
LK
Lap
Lights
LONG
LATER
Lyon
Little
Mi
Mel
Mast
MSUs
MEND
MPI
MTE
MPS
MASS
MSB
Migration
MSPP
Neg
NEC
Nap
NPS
NUMB
NGL
Oce
Ott
PW
Pra
Poss
PIC
Pack
PEG
PTC
PSP
Palo
Porter
Pounds
RD
Ran
Rat
Ration
Rim
Rout
Rider
Ride
ROW
RANTOR
RCP
Routine
SING
Sam
SOL
SDI
SSC
Symb
Tar
Tas
Tell
Tarran
Tank
TIC
Testing
Tech
Tempor
Tamp
Von
Vent
Valu
Wec
WIS
WEC
Wich
YEAR
ZA
ay
alig
bl
cul
cited
cents
click
dr
dise
dedic
ef
ece
ell
fed
food
fitch
gs
hc
homin
id
ith
jess
jose
lect
mig
ments
nts
pa
pt
pec
pecu
please
pump
plumb
rip
roles
serial
sew
wet
wired
warn
yos
##rig
##mc
##mate
##mail
##mics
##ik
##iary
##irie
##iGene
##ao
##aded
##aks
##oe
##otions
##oph
##overy
##equ
##elix
##wco
##wick
##uder
##uities
##uho
##gence
##gone
##ster
##smetic
##HG
##HEN
##Id
##IFICATIONS
##po
##pay
##pability
##plier
##pak
##cking
##housing
##RS
##RW
##BLE
##BPA
##Centive
##fo
##PECTIVE
##Pont
##ls
##len
##lat
##lature
##03
##bl
##dil
##82
##Tra
##TURE
##New
##NISHED
##95
##54
##510
##ja
##UES
##LR
##LO
##LW
##LIN
##LAND
##Sub
##SIN
##Source
##ket
##VERE
##Vivo
##OK
##Omics
##zo
##zmat
##FT
##GS
##GUMENT
##Kin
##Zen
##erion
ther
##ensure
anony
##enton
##ining
##inos
##ald
##ales
##alta
inference
inactive
##itee
tools
##eca
##ateness
##isbury
##arth
##aria
##arial
##cea
reen
reading
ready
rehire
##alla
##lle
##ller
shrink
##liar
##liament
##vell
##lete
##thers
##asable
##aski
Cola
Comer
Coca
Cooley
Cosmetic
##ids
##idos
##ayed
cous
coinsurance
##tery
##tering
##erepak
##igold
##iggers
##ico
##icks
detention
deterior
##unciation
##uniary
hereupon
##imilar
##imler
##stayed
undes
unstayed
##erman
parish
reside
resource
resume
##rants
proved
##acer
##ppealable
Parliament
undergo
underground
##sus
##olish
Exel
External
##deavor
entrust
maybe
##ignable
##cia
##ciences
attract
stolen
stake
students
consults
Initially
Intellig
Intralinks
InVivo
subleased
subtract
##mployee
adapt
##rupts
Borrowed
##thony
obso
Submission
Subtenants
disabilities
disrupt
disqualified
disjunctive
dismember
disrupts
Stuar
Adap
##istrib
repricing
##cipitated
##osimilar
##medex
##odes
Reorgan
ANTI
##efined
##mean
##via
##resentations
ages
interstate
interple
##umen
##egate
##ENTION
soli
##file
##agher
##ageny
##losky
precipitated
pursues
defensible
counties
stature
businessweek
wavier
Proven
Progress
##andal
##ESIS
config
confusing
Consoli
Continental
finish
##berger
##berta
##ENTS
##kel
##raZen
##INION
spill
sprink
counterfe
personId
servant
Anthony
factor
Unc
Unreg
addressor
regulate
break
Transoce
Transwestern
constructing
remarke
legalnoti
moving
208
207
203
##ANN
indivis
impacts
implies
Liquor
mailgram
AGER
##CHASE
Resolute
Results
formally
Acton
##ROCAR
Objections
Issuances
indemnifiable
beha
Deficit
Arden
CONVENIENT
##cribes
##edily
publically
annuities
COST
neut
SUDS
portr
##LYING
##ronics
Goody
##ape
copied
ACEC
ACTS
##olized
Salisbury
penulti
penciled
Appoint
Regener
Parents
ParentCo
##addle
conditioning
PRODUCT
PROFIT
counsels
Invoice
threaten
acquain
circumvent
##ACHUSE
refute
refurb
referee
##LLARS
TRLW
##TOFF
attn
attacks
EXAMIN
furnishes
Consistent
##ningstar
generic
generating
lessen
Toka
qualifiers
##ouch
STEP
Accumul
severe
amendatory
14th
1469
##conom
152
154
protects
##arman
promoted
promotions
Disa
##argeted
Withdrawn
130
138
1377
13224
NEM
workweek
LIE
misfeasance
Financier
overcome
overpaid
40th
##nesses
Acting
##LEUM
005
003
voiding
Permissible
Competitors
##RESPECTIVE
##EMENTION
ENDISPUT
Genomic
grantors
upcoming
convention
318
018
##tamin
##taking
1600
Discounts
Discover
Discovery
IRRESPECTIVE
Pledges
Certificated
RESTR
offend
differing
differently
Administrators
Swan
Swaine
Marvell
Marigold
Supported
##IDIA
indicia
Spare
Spok
Spacer
unappealable
organize
Presage
Preserve
commerce
ALLOW
pledgor
Thibert
##ULTS
##ULSORY
0245
DISPO
Leidos
ADH
1932
100ths
Announ
SEA
SEVENTH
SETOFF
loaned
36455
LLCs
607
609
60601
ACCORDINGLY
redefined
##coa
0347
UNDERTA
selections
Restoration
suspect
objects
Nonemployee
254
25th
Desk
06901
211
21st
announcing
PRA
LCs
economics
economically
##CONSIN
CONTRACTING
Maven
Timely
develops
Waived
track
triggers
Alto
Alberta
Alcoa
network
ARTIES
ARGUMENT
EVP
assistants
errone
comparison
marine
Secrecy
totality
Workshop
509
denoting
COMPULSORY
Elections
devoted
refusing
Signal
221
226
227
229
Guaranteeing
succeeded
##practi
SOVERE
initiative
ADMINISTER
Commercialize
##ehan
originates
##hereby
PROVISIONAL
nonassignable
DISTRIBUTION
careful
charters
securely
foundation
##lining
##linary
##ennan
inspected
Minority
awarding
0767
Undertaking
##ariff
repaying
429
4245
4219
raises
invoke
291
294
##linger
measuring
virtual
236
237
235
ISSUANCE
Hazmat
Pledgees
integrates
manifestly
CHARG
Multiplier
SERVED
PURPOR
Sheehan
Imminent
HELD
variable
proportional
262
##Coke
guideline
DETERMINE
observation
CFC
freedom
Qualifications
1989
earnest
##ographic
franchisees
OPINION
advertise
CONFLICTING
411
410
416
truthfulness
##lishing
Tweed
nationality
COLLECTING
embodiments
SETTL
Lauder
howsoever
Refund
frequency
LEASED
LEASES
manufacturers
verifications
floors
verdic
ABG
##aknesses
accumulate
Modifier
appraised
duplicates
laboratory
AFFIRM
##ismissed
ASSIGNED
pronouncement
simply
nominal
COMMENCES
paperwork
conception
conceives
327
3213
Stem
preparers
preparations
correcting
FURNISHED
misrepresentations
legislature
derogation
sustains
Brian
7501
Connected
Entergy
OBTAINED
EXIST
affirmations
Liquidated
Biot
Biogen
transitional
4068
DOLLARS
LPC
dependency
clarified
subleasehold
OWBPA
Bea
BeiGene
Upfront
FLIC
JVs
Quest
Quota
10006
777
choate
620
Endisp
Blocks
Enforceable
2011029
870
Audits
renoun
renunciation
undismissed
Oxford
Promotion
TIMES
sends
destroying
##ospitals
380
346
3401
relinquished
Estimate
Truth
visi
Remov
##MMF
ORIGINATING
648
TAK
measurements
651
7503
750510
SWM
McA
McKin
Open
DECLINE
PREJ
betterments
431
##shore
contradiction
##iott1
##uitant
NuGene
answering
Morningstar
707
build
Overland
Weiss
HOLDINGS
interfered
Vendors
weaknesses
993
Eastdil
Middles
Schm
Schadel
BREACHED
Analy
Analogic
IDT
discoverable
bids
BioS
BioCar
516
Effects
Imation
RBC
prejudices
prejudicial
Kelly
PARTICIPATE
Factory
Broadcast
demonstrably
NRF
Straddle
Woodcliff
##hoe
Inducement
Booklet
541
547
uniformly
Score
TPX
TPNA
MANAGER
Professions
SUBSTANTIAL
narrowing
Trucking
prosecutions
REDIT
remediate
SUPPLEMENTED
670
ILG
speedily
indemnitors
9286
DuPont
Emerald
NantOmics
TRUSTEES
rollover
Terminating
Window
cleaning
Valero
##ratings
tradename
PHYS
quantities
AFOREMENTION
Fannin
guide
585
Cardholder
FAULT
FAULTS
Winners
spousal
PRODUCTION
occupying
897
AxoGen
Publishing
Variances
Stanford
917
Small
Sunoco
SunCoke
TDG
Cooperating
395
hostile
malpracti
##rastructure
invented
repeat
Campus
EverBank
Validity
1126
briefly
HRG
symbolized
##atrix
SGX
##proceeding
CONCURRENT
SUNESIS
EXTENDED
Athena
Athenex
debarment
Flextronics
venturer
##xxxx
undefined
incumbency
REPAIR
analyst
OCCURR
Silgan
##rames
Carrying
Networks
Milbank
MARKET
Casinos
Mirror
Miramar
Pulaski
Structured
Wardwell
drive
drives
erected
##ova
reorganize
illustrative
survivors
proximate
Tesla
dictate
fixing
flexibility
walk
##baum
Cornish
BHGE
ticker
10154
Appraised
supercedes
sequestrator
Crimea
Dilutive
Ecoark
RMR
Toronto
testament
Condor
1294
RESERVING
Helicopters
terrorist
Absolute
criticizing
OWNERSHIP
PAPERS
Violations
blogs
CIRCUMSTANCES
UNENFORCEABLE
FiCentive
NVIDIA
styles
indors
concur
disallowance
disallowed
DEATH
methodology
methodologies
summarized
3587
reconveyance
incompetence
CLEAN
Hardware
Lumos
MIPA
VWAP
undermining
Sublicenses
TRIABLE
TRIBAL
merchantability
ASSOCIATION
Redeem
Removed
ABSOLUTELY
Investigational
PRECEDENCE
sublicensing
ALTA
Baxalta
Education
LTLLC
PGT
slip
vessels
reissues
CONVEYANCE
Exploitation
protocols
02199
readjustment
48331
##203701
McLennan
CONTINUED
memorialized
trespasses
76102
CORPORATION
Domiciled
EJMMF
Escalade
Hadley
ICANN
LGMG
Music
MAILED
NFM
Suspension
TREATMENT
citizenship
daimler
frustrate
msg
rodm
Companion
paycheck
disciplinary
Propco
Procter
Interpretation
affixing
circular
Diagnostic
COMMUNICATIONS
reinsurance
POSTED
nondiscriminatory
precisely
deliberations
unconscionable
CANCEL
GTM
NACR
RLHC
Stipul
Tyco
UAHC
riders
serious
tentatively
ubsidi
##hawk
reelection
reevalu
Extraordinary
Thomas
campaign
Premier
SOSARs
Bancshares
PETROLEUM
Ultrageny
redesignate
nuisance
Wholesale
Aceto
AstraZen
Amedisys
Brentwood
Behringer
Czerepak
Critical
Chestnut
Cravath
Donald
DEDUCTION
Dairy
Frija
French
GDPA
Gillett
Ginnie
Henderson
Hostile
Holidays
Hardinge
Hughes
HYDROCAR
KfW
LKQ
Lapse
Lightstone
MENDMENT
MASSACHUSE
Negative
NECESS
NUMBER
Ocean
Prairie
RDH
Rimlinger
Route
SINGLE
Symbion
Tellur
Tarrant
Temporary
Tampa
Wecast
WISCONSIN
Wichita
ZAIS
align
culpability
drag
elliott1
federally
fitchratings
hcwco
hominem
jessica
joseph
lectures
migrating
pecuniary
peculiar
plumbing
sewage
warnings
yospe
##NewYork
anonym
cousin
deterioration
Exelon
Externalization
entrusted
Intelligent
obsolete
dismemberment
Stuart
Reorganized
confusingly
Consolid
Transocean
indivisible
Goodyear
penultimate
Regeneron
refurbishment
TRLWT
Tokai
ENDISPUTE
Genomics
02451
SOVEREIGN
07677
CHARGING
SETTLEMENT
Endispute
2011029203701
7505107
McKinney
Middlesex
BioCardia
PHYSICAL
AFOREMENTIONED
malpractice
testamentary
Ultragenyx
AstraZeneca
HYDROCARB
MASSACHUSETTS
2A
5A
5110
610
631
732
8B
8A
860
915
910
920
9601
939
A5
AUS
Apartment
Audi
Airc
B1
Bion
Bock
BDI
Bart
Botts
CG
Cres
Cell
CAT
CIT
Cad
Claw
Citi
CCC
CSS
Club
Cliff
CUB
Click
Candidates
Dow
Docu
Dus
DEN
Dell
Dear
DUR
Dou
DBS
Drop
DLA
Deduction
EP
Even
ENG
Eric
ESOP
Fle
Flu
Fla
Fra
FCI
Fores
Fitz
Ga
Ger
Gain
Gla
Grom
Give
Gel
Gast
GAS
GAC
Gelf
GIVE
Grain
GEP
Grill
Gav
Gnos
GINA
Glyc
HT
HM
Hig
Hom
Harm
HIGH
Heal
HUD
HERC
HSB
HERO
Hospitals
Ix
Ivey
Ides
Jet
Kn
KN
Ken
Kur
Kle
Kul
Kins
KBS
L0
Les
Led
Lan
Last
LAB
LGE
Lots
LNR
MW
Mod
Mue
Mond
Mind
Mog
MDA
MSS
MVP
MUST
MSD
MORE
Mike
Milestones
Meck
MHR
NZ
Nus
NSO
Od
Our
Ora
Ocul
Outer
Oma
PS
Pes
Pent
Pion
Pow
Pine
Pice
PAA
POW
PIL
Plac
Pace
PASS
QP
Que
RC
Run
Rated
Rus
Ros
Rand
RAC
RBL
Rather
Rale
RSR
Rho
Sr
Sk
Sã
Sure
Said
Scri
SOC
Self
SIP
Steg
Save
Satisfied
Sonsin
SIX
Situs
SONIC
Tec
Tul
Trov
TIL
TPA
Todd
UE
Utilities
VR
VC
VO
Vare
VEND
WK
Wach
Wol
Wire
Winn
WRAP
WMB
WLR
Yo
YA
YES
Yok
ZON
Zone
ZIP
Zoning
ation
ail
alim
bb
bal
ble
bran
bund
chill
cultivation
candidates
df
db
eM
econom
fly
hous
hires
housing
honesty
harbor
ip
jj
kn
kin
ly
low
mic
mir
mind
migration
military
ni
nec
nter
nil
night
ol
old
peg
ration
rand
rmor
rapid
sees
sand
session
tac
try
tier
tables
targets
tiers
targeted
ue
utter
vandal
ward
yORK
##rence
##rine
##rpro
##male
##most
##iis
##iously
##ians
##nell
##afin
##avis
##tec
##turn
##vable
##vron
##eve
##eign
##ued
##utili
##group
##gerald
##glas
##guson
##sa
##sb
##say
##sgate
##sborne
##Helix
##IMENT
##IAC
##IATED
##pire
##pfer
##pime
##petition
##cas
##cord
##closure
##crine
##RX
##RAL
##Bs
##AK
##ACE
##CS
##Con
##CES
##fit
##fair
##Par
##PAYMENT
##lston
##lunk
##yah
##17
##14
##bach
##bus
##best
##bau
##dion
##dence
##26
##TF
##TES
##NY
##Ness
##Net
##EY
##EQU
##Earth
##97
##jury
##judicial
##UCED
##LS
##LAW
##Mobile
##Matrix
##St
##SN
##Sle
##Sign
##Don
##DUCED
##xo
##xus
##VEMENTS
##OZ
##zing
##FESSION
##WL
##Wal
##Ware
##Qu
##ZE
##heets
##tio
##tiX
##ona
##onier
##entis
animal
antec
##reign
##revoc
##reasing
##edent
##edite
##inw
##ineration
##almers
##orance
##orge
##orph
inim
intr
injected
##tional
##itation
##isable
##issive
##istence
##arable
##arium
##roe
##rod
##rofit
began
ree
reent
reement
rehi
reex
reapp
##mpling
##green
##grees
shut
ship
##tsorg
##tshal
concent
##ithmetic
##asar
##asure
##assed
##asys
##asley
##dern
bye
bylaw
Cogent
Coast
Coating
Cogin
prop
nolo
novo
notional
##utures
##utronics
cotermin
coinc
forgo
##terious
##icus
##ickers
##ician
deals
developer
deficit
##unto
herefor
##imation
##sted
##stal
acumen
##ffalo
parti
resid
resell
resisting
restitution
##loading
##essed
##tinum
##ilon
##acor
##acao
##achtree
##pps
##pping
##ppond
##fort
##forth
Partially
underpaid
##trix
##trial
##subs
##ainCo
##rix
##river
##riage
incineration
##aws
Extr
Extru
Export
Exchanging
Excluding
##irrevoc
hares
##ignated
##cientis
star
stages
Indic
Incy
Insure
Infin
Indentures
Inchoate
##ransmission
map
magn
##owner
paydays
##gents
##endere
##minars
##ministered
##tham
obey
expedite
##ofany
##ofthis
includ
##ERTED
THEN
THOUS
distance
disgor
##ivison
transcrip
translations
Starting
Adop
Administered
##enser
##ensatory
reclaim
repose
##odon
Ready
Reacqu
Reppond
asses
assuring
ANAL
##mel
tape
compounding
composite
##tenances
##TICE
##TITY
##TICL
##TIVI
##vior
##struction
##ression
interaction
interactions
interval
interface
##egments
##izer
##izon
arbit
arithmetic
executory
sampling
##agene
##agara
gopro
##venture
invasion
##ail™
connections
##ISES
discs
discour
discarding
discarded
##tempor
businesslike
comming
commodity
Progra
Consequ
Conformance
Concor
Contamin
Contempor
##kets
Planned
permissive
##rah
##rad
##rams
ING
bench
##INCE
Amorph
Amicus
Stockhol
viability
inser
insisting
insert
##ECM
##ECTIC
signer
signers
signage
##ffiliation
spending
countersign
benefiting
##wards
server
Andeavor
Animation
faces
chat
chicago
Eachparty
Shopp
Shriver
##ecessor
Unsubs
##ATEST
##ATORS
manners
necessitated
Asia
specially
specification
Transporter
determinant
##ollc
Alloy
##004
partly
##chell
motiv
meant
##REA
Matrix
2045
continually
##ANTITY
abolish
nonpre
implying
Liable
Lipime
Buffalo
##amus
##vington
furthermore
Lawsuit
##URITY
##URCHASE
arbitrative
108
Actua
Actavis
useable
definite
##RODUCED
Obstruct
Defects
Argen
grandfathered
##ITAL
Grantees
REA
REPL
REALI
declining
moneti
locate
##ICTED
COULD
capitalize
capitalizing
nexus
actuary
consumers
SUBLIC
Tenancy
prepares
prepetition
bought
equityholder
Interactive
Gores
Gotshal
Gotham
##apore
##apurna
leakage
seminars
ACA
ACTIVI
Assurance
negates
Appoin
##undancy
Chines
PROJECT
PROMO
PROMISES
PROPOSED
PROFESSION
##urne
responsive
##tilation
Entell
Entry
Enzo
Entsorg
retransmission
122
126
12th
1231
1274
trades
Notify
3089
refunding
Lawson
recovers
subservic
equalization
bounds
complex
##TRY
##TRIBUT
attaches
longest
supplying
endanger
##ourts
##gery
Indemnities
generates
lessors
Manges
Tools
Toxic
cargo
##oux
STATED
Accutronics
amongst
severing
severability
Prevailing
RELIANCE
143
1471
##ATEVER
advisability
Equities
Applicants
NOV
SHA
competes
##ACTER
##ACTED
##ACTURE
158
155
153
##othe
##otors
Perime
Disquali
137
FORESEEN
NEP
##ishable
assertions
policyholders
settles
misde
misuses
UNFOR
UNASS
Financer
##rington
meaningful
overriding
403
4055
precedes
##actory
Computation
Comptroll
Comparable
debited
presump
DOCUMENTATION
WHATEVER
##lassification
APH
##alife
withholds
contacting
contendere
optioned
upgra
convened
317
019
reviewer
168
Secondment
Ongoing
quick
Decreasing
lapses
deleterious
CONSERV
AMM
unconsolidated
unconverted
identifiable
Marina
bearer
Regulated
ASHS
ASIDE
divor
canon
Proration
##UDICE
Splunk
appointing
Prescribed
ISC
ISS
IStar
182
1801
PartnerRe
phones
scrub
tribal
trips
contributors
DISMIS
Nonetheless
contingently
##rovision
Leiden
Leak
TRANSPORT
172
10041
sixteen
Annapurna
salesmen
Italy
Offers
Offshore
Accountability
361
disparaged
ACCORDING
redundancy
flowing
PROVINCE
##yssey
UNDERLYING
041
installations
2520
061
0621
0648
CONNECTIC
218
investigated
investigatory
Offerings
PRSU
PRICE
wells
borrowers
##hester
##lari
suffering
copyrighted
typing
ARCA
ARTICL
CONTRACTUAL
Jointly
##engthe
ATM
ATTRIBUT
retainers
married
marriage
totaling
accessed
accessing
combine
50th
Contributing
CONFER
CONFIRMATION
909
specialists
Signed
fulfil
SOME
SOTF
Goodwill
Subscriptions
##CLUSION
FINANCE
Limits
Floors
endorsing
omitting
SUITABILITY
CREDITORS
IVA
commercializing
##hereof
##CIA
situations
241
243
delegatee
India
##linn
examining
privy
possessory
##terson
discovers
inspecting
improving
improved
APPOIN
survived
070
##diancy
correspondingly
Monroe
derive
287
289
28th
Depositors
remitting
remittable
MANUF
080
088
##lington
footage
dilutes
predict
Sponsoring
##approved
adopting
238
239
ISSUERS
Haven
Distributors
checking
CHATUR
feet
female
steam
stemming
denoted
Continued
1971
2028
marketed
noncompensatory
Developed
CONSENTED
267
265
purchasable
Protoc
billion
layoff
layouts
Colliers
observations
ambiguous
Phys
Physical
Counterclaim
##SAF
complained
eighteenth
FORUMS
ColorMatrix
OPPOSED
escrowed
Northwestern
geoph
Heavy
NONPAYMENT
deference
transmitter
336
3300
3340
departures
broaden
INCOME
Publicity
enjoins
Centre
1992
1995
oppositions
APPEALS
ABI
extracted
subrogee
401K
ratifying
HealthWare
Whistleblow
##argoed
Channel
AFFECTING
George
Portfolios
pronouncements
headquar
1963
nominating
booklet
nonprofit
Specialty
324
356
3500
Motion
Moores
stamped
Steven
VALID
Westchester
Westlake
##haus
RedEarth
informally
FURTHERANCE
##112
755
Markel
buyers
sickness
disregard
respondent
respondents
Cancer
Cannab
affirming
dishon
REMISES
Greenville
EDR
INTERNATIONAL
DOJ
DESIRE
doctor
probate
##zzy
371
372
373
374
##ATORIES
Beasley
Securing
Tea
Teij
Tepfer
##103
##104
##VEDI
Updated
##134
##IBILITY
Quasar
serviced
481
Wild
Merchand
##kyo
authors
retirants
10179
10178
SUCCESSOR
627
6231
municipality
MAILS
1504
CDO
CDRW
Centerbridge
856
855
renumbered
SUPPORT
Drawing
Longbau
Harvey
Harrah
Meetings
##osphere
disclaimers
Trident
##banks
visible
RemSle
RemainCo
MLSC
perpetually
660
642
833
807
EFFECTS
injurious
PURCHASING
Crest
closer
Affirmation
admits
reclassifications
devisee
McDon
Whiting
CONSULTANTS
8000
DECLIN
INTRODUCED
##shan
Singapore
Emergence
Nucor
answers
NEGOTIATIONS
MEI
Columbus
nonconforming
formulating
10018
REQUIREMENT
##219
retaliatory
Hotels
Vacations
mandamus
Novitex
714
laim
Infrastructure
Nexstar
Finders
Platinum
Midwest
surveyors
functioning
idea
ENTITY
CONSTITU
CONSTITUTION
CMO
FCCG
NOTIFIED
answered
Timber
Timoth
Executiv
RESOLVING
authentication
519
514
Highbridge
RBJ
inherently
FIRREA
detect
PARTICIPANTS
OWNED
demonstrable
Mexican
Simply
Sioux
Strengthe
Woodlands
centre
custodians
30346
44th
Guidance
reacquisition
reacquiring
uniformity
renegotiation
Peak
Peachtree
Headquarters
7820
Directive
enrolling
preclinical
narrowed
Fortnum
expanded
10282
CONDITIONS
guardians
Eddy
REDUCE
REDACTED
laboratories
overdraft
Industries
WASTES
explanations
explaining
AFS
Duke
FACILITIES
Historic
Metropolitan
Terminate
Chaouch
Oakwood
TBD
willingly
exportation
ACCEPTED
Accelerable
Paulo
726
791
GSIS
GSLP
Markit
VMW
VMware
##IZATION
Montreign
PHR
quantify
60606
treasurer
473
##ropic
OFFSET
582
CASH
EMERG
Gordmans
Radiancy
SEDIMENT
TWO
WPX
Winston
sponsoring
searching
##YSIS
##lights
timeframes
regions
regionally
architect
architectural
noncash
influencing
SELECT
891
Apax
Axon
Ferguson
WFS
encompassed
redetermin
redevelop
Photomedex
PLEDGORS
916
919
Akcea
SIGNATORIES
DISCLAIMED
##itizen
FOUNDED
GLBR
MTM
Mitchell
SiteHelix
invents
inventors
thresholds
subleasing
Diamante
COMPLAINTS
Eleven
Everi
HOWSOEVER
cycles
Cancelled
DPRX
DTV
ESLI
HRD
ROTH
ROIC
Telecom
Telecopy
Xenon
symbols
##ERVIC
abrogated
Alteration
punctual
PRESENTMENT
PRESENTLY
GREATEST
SGRP
ranking
topic
DESIGNATE
suggestions
enhancement
enhancements
Legend
Legacy
RPUs
cellular
drilled
ignorance
justified
justify
forgiv
REPAY
REPURCHASE
Regions
1114
refinancings
JGBWL
Surrendered
BRAND
GATHER
Loop
Loeb
teams
pharmaceuticals
downwards
ATTACHED
BPSR
BPCIA
BDO
Cuyah
Navig
Navistar
WWSAF
blood
forbearances
magazine
11525
Constitutional
Organized
Organizations
reassignment
AHFC
Unauthorized
creditworthy
CONSUMMATION
CONSUMMATE
IMPROVEMENTS
cGMPs
WelNess
categor
divestitures
flexible
##heimer
newspaper
##ologics
CHARACTER
Automobile
Biomet
Biomark
Biomass
DECISIONS
Microbe
Microphase
Thermon
PARTNERSHIP
Battery
Kalyx
MONI
MEDIA
tickets
##ORGAN
10152
Previous
INVALID
rooms
8983
Globus
Labs
QUANTITY
QEPFS
Warehousing
Webs
urge
irregularity
Discretionary
RESERVE
renovations
SAFETY
EXTENDS
EXTENDING
Bigfo
Biglari
DBD
Fiagon
Freight
Fresh
Garcia
Niagara
RAIT
SenSub
elev
linking
concurrence
ceilings
summarize
SYSTEMS
proprietor
undeliverable
Silverback
incompetent
Bergen
Boylston
CNO
PUCT
Rayonier
TLPL
WCAS
WCVC
gaps
mployment
undermine
ORDINARILY
ORDINARY
Allegation
illegitimate
maximize
ASSOCIATED
Redeeming
Removal
DISCOVERY
PRECEDING
sublicensable
80203
Chevron
DLC
EBP
HVAC
LVLT
Malays
perspective
instant
Adju
PRACTICES
PRACTICE
Mineracao
REMAINING
McCloy
rebuilding
rebuild
Glenmark
KCMH
malicious
maliciously
EMBODIED
EMBODIES
Arapa
CORP
Dunn
Frost
Jobs
NSNC
Negotiated
Panama
Predecessor
SJCC
SANDOZ
WELLS
venued
##OVAL
appurtenances
PROMPT
EXTENSIONS
SEVERALLY
SUBSERVIC
swingline
centerbridge
JOINTLY
Details
prototype
nontransferable
AROSE
Clover
HHMI
Linear
Lindsay
Muzzy
Piper
Patient
Reemployment
RAMIFICATIONS
Vapor
Wolosky
catasys
kickback
lnrpro
uninsured
Ingredion
obligee
distinguished
Nobilis
Reallocation
Thornton
lifting
memo
Neurocrine
RELINQUISH
1320a
untruthful
SUBSCRIPTION
PRINCIPAL
28277
Shelton
strongly
77381
PREPARATION
Recognizing
Establish
Kimbell
STIPULATES
Jacobson
1J0
9607
BENCH
Belg
Ecosphere
Eyegate
Embargoed
ELIMINATE
FSHC
Gardens
HKIAC
Napo
PWB
Packers
RCPC
Values
dedicate
##lenburg
##bluth
##allaher
Comerica
undesignated
Adaptimmune
solid
configuration
counterfeiting
remarketing
legalnotices
behavior
portray
acquainted
Accumulation
Disaffiliation
RESTRICTED
ALLOWED
Announcement
SETOFFS
erroneous
PURPORTED
Lauderdale
AFFIRMATIVE
Biotest
TAKEN
PREJUDICE
Analytics
ubsidiaries
DEDUCTIONS
NECESSARY
Tellurian
anonymously
HYDROCARBONS
Auditing
Bockius
Crescent
CATQ
Clawback
CSSFF
CUBIC
DURING
Douglas
EPR
Fleet
Fluids
Foresight
Fitzgerald
Glaxo
Gelson
Gastar
Gelfond
Gavilon
Gnosiis
Glycotech
HIGHEST
Healarium
HSBC
Ixia
KNOC
Kulr
Kinsale
L0S
Leslie
LGEI
Modular
Mueller
Monday
Mogul
Mecklenburg
Odyssey
Oramed
Oculus
Omaha
Pentair
Pioneer
Piceance
PILOT
PASSIVE
Rosati
Raleigh
RSRL
Rhode
São
Surety
Scripps
Stegodon
Sonsini
SIXTH
Tecogen
Tulsa
Trovagene
TILC
VCOC
Varex
VENDOR
WKSI
Winnick
ZONING
alimony
chilled
dfollc
eMail™
knew
lowest
micro
mirror
random
rmori
sandp
vandalism
##utilized
##bestos
antecedent
inimical
rehired
Cogint
coterminous
Extruders
##irrevocably
##cientists
Incyte
magnetic
obeyed
THOUSAND
disgorge
transcripts
Adopting
Reacquisition
ANALYSIS
arbitrating
Programmer
Concordia
Amorphous
chicagoventure
Unsubscribed
motivate
nonprevailing
LipimetiX
REALIZE
SUBLICENSE
ACTIVITIES
Chinese
PROFESSIONAL
Entellus
Entsorgafin
subservicing
Perimeter
UNFORESEEN
UNASSERTED
Comptroller
presumptive
06484
CONNECTICUT
ARTICLES
ATTRIBUTABLE
MANUFACTURE
CHATURVEDI
geophysical
HealthWarehouse
Cannabics
Teijin
RemSleep
CONSTITUTIONAL
Timothy
Strengthening
EMERGENCY
Cuyahoga
Bigfoot
Arapahoe
lnrproperty
1C
3P
4A
467
513
540
599
580
521
532
539
630
640
699
632
7b
710
790
767
741
734
762
763
811
810
813
890
821
841
846
885
9C
921
932
941
971
943
Aer
Ali
Ala
Auth
AIG
AAM
Avis
Aero
Away
AHL
AIRC
APLP
Auer
BT
BL
Blo
BIT
BOC
Bou
BROW
BEST
BIP
BRI
Barb
BOD
Blank
BVI
Birming
BSN
Cr
C2
CE
CQ
Cran
Cth
Civ
Chen
CFF
Chec
CWI
CPC
CMP
CIM
CGI
CURRENT
DR
Dal
Dur
Daw
DALL
DIL
Dental
DSA
Draft
DRP
DACA
Emm
Elan
EPL
ELE
ECON
ELLC
Fr
Fal
Far
Fas
Fant
FEC
FAR
Fact
Furn
Fide
Fraud
FIVE
Figu
FTE
Farr
Flinn
GI
GB
Gall
Gate
Gig
Gul
Gary
Glu
Gus
God
Glos
Gual
GENT
GST
Graf
GCA
Gaff
GGC
Glad
Hor
Hat
Hay
HEN
Hence
HAB
Hind
Hars
HFF
HAND
HCA
Hines
HRT
HSI
HIRD
HTD
HILL
Harbor
Ic
ICH
IOW
Jr
Jill
Jenn
JPT
Judge
Jame
JAG
JMC
JRC
KB
KK
KY
Kre
Kit
Kate
Kee
KEC
Kron
Kemp
Kenn
Karman
Lub
LIS
Lib
Lars
Lime
LTC
Language
Lines
Listed
LORIDA
Lacking
LSOP
LAST
MI
MR
MS
Mol
Miz
MEC
Mom
Murr
Mons
MIG
MAS
MIR
Misconduct
Method
MICH
MARY
MPC
MHC
Meek
MSM
Meste
MMA
Motors
NIS
NAR
NCL
OH
OIG
OMS
OMP
Ova
PT
Ple
Pun
Pty
Past
Pop
PAS
PMIT
Paired
PPC
Pollution
Puer
Powers
PAST
PACA
Rd
Rin
Ral
Ris
Rig
Roc
Row
RIS
RENT
Rank
Rom
Round
RISE
RRI
RRL
Rico
SI
Sac
Saw
Scrib
Solid
Semp
SANT
STRU
Sacks
SMB
Tall
Tere
Tel
Tear
Temp
TEG
Tak
Town
Troy
Tropic
Us
UF
VP
Vin
Vision
Vital
VRI
VNR
W2
WM
Wit
WOR
Wings
WORK
WEG
Winter
Week
WND
Xt
XS
YC
Yen
Yale
Zur
Zim
ach
ahead
ball
bus
blow
bars
bridge
backs
bulletin
ct
crit
cures
closure
candid
cliff
clock
dv
dMobile
ection
emission
egress
eQu
fold
founding
focus
foster
flat
futures
flights
gg
get
gold
glass
grain
gaming
hts
hence
hull
hook
ie
ist
jr
jam
jones
lu
lent
lith
lose
lading
loy
lighting
liter
lacking
mill
mentions
male
millage
nst
ntinu
oy
opt
oth
ould
py
pal
pain
pure
pag
pick
piggy
pounds
poling
rc
rce
rect
rain
raw
recu
rail
roster
sion
sol
seen
sight
soci
stru
solutions
segments
tro
ties
tick
talent
tariff
uch
vali
wi
win
wast
wires
xp
xx
za
zeal
##rations
##rally
##mith
##mill
##merc
##mco
##mada
##mouth
##ilo
##iors
##iel
##noun
##note
##nitee
##author
##aking
##akes
##aport
##tten
##town
##oK
##oter
##otive
##oves
##oters
##oha
##otics
##ooks
##vB
##vated
##vour
##wn
##wall
##wart
##uation
##uaries
##uction
##gs
##gis
##gill
##gizer
##san
##sary
##sad
##solution
##HX
##HOV
##pm
##pment
##payments
##pensive
##cl
##cable
##cated
##cend
##corporation
##cou
##creen
##centile
##hr
##hase
##hart
##RON
##RECT
##RANT
##RIGHT
##RONIC
##BC
##Blue
##AV
##Agra
##ADI
##CY
##Cell
##Care
##Cap
##CREDIT
##CURACY
##Courts
##fac
##fections
##fari
##fMark
##folk
##flix
##Ph
##lers
##lant
##lishes
##lisher
##lmada
##ylock
##1s
##1J
##bed
##ball
##bard
##bution
##bio
##born
##before
##dam
##64
##TP
##TMENT
##TLED
##NP
##NX
##7A
##702
##53
##UIS
##UIT
##LES
##Link
##38
##Main
##MAN
##MIC
##MORE
##MARK
##SIS
##SAL
##Six
##SIES
##Science
##Dx
##DUCE
##kin
##kie
##VN
##Val
##VANT
##Op
##OB
##OOR
##OKE
##zer
##zar
##zier
##zata
##Factory
##GRE
##GAN
##GATE
##GERS
##KINGS
##XIC
##JEX
##ée
##ères
##ña
##hein
##hetical
##ern
##era
##ervation
##erfections
##tia
##tiary
##tieri
##tivi
##enary
##enstein
##enheimer
##reation
##requ
##rective
##edings
##andi
##ancing
##anSix
##iner
##inhein
##alcul
##orated
##orters
##orsees
inuring
inex
inlet
ingress
inbound
##itol
##itage
##itory
took
town
##ecute
##eches
##ato
##ats
##aton
##ataly
##ishi
##menta
##mento
##arages
##ardia
##chy
anyway
##roit
##ropri
tha
beverage
behest
sun
sul
rewrit
rezon
retrie
rehabilitation
refile
##allel
##urable
##urities
##urface
sho
shal
condi
condemn
convin
##leg
##leen
##letion
withstanding
ascer
asbestos
Com
Cover
Codes
Covington
CoVal
Cotivi
exac
exam
exhib
excer
progra
proble
##abated
##abili
##abene
##idy
##idants
##utational
##utcher
##aylor
##ayne
core
coin
coordinating
##vereign
deviation
##uncated
##imals
##storm
unred
unac
unco
unob
unwa
unclaimed
unequ
unloading
unabated
##ermitted
##ffusion
ont
##ulu
##uling
##ulated
parks
partie
paramount
resub
residen
resta
resales
noteb
##load
##logis
##ocataly
##ranton
allot
##essory
##tina
##tination
##ilent
##ilty
##ilford
##acon
##acle
##forcable
Parker
undergone
##tington
##suing
##ainst
##rivers
##olves
##olulu
appliances
##awolf
##dell
ents
enough
enabled
ensuing
##irations
##iralty
##gel
##etarily
thereunto
##igned
##erich
##tekind
##ublished
sten
stations
stub
Invern
Intell
Initi
Inbound
subles
subordinating
subgroup
payouts
##ends
adam
##ruiter
##ptacle
##cture
##gentum
##mino
##that
obsc
objected
##livery
expropri
expirations
amus
Subfac
##usive
##usurious
inclusions
accession
##ountholder
##estate
##estanding
##ERJEX
THREAT
##tothe
##ordable
##eeGen
##ivor
##ivar
##idium
Studi
Statistical
Adver
recite
reconven
rechar
repudi
reporter
reputational
##osa
##osh
Novel
##ardan
##meda
##medied
Relmada
ANC
ANNE
ANGE
##efeller
##titled
##titta
##members
compe
compositions
##TISH
##TIBLE
perishable
percentile
terminals
interior
interferences
interrupted
##ENED
Commander
Commodities
##izable
##izone
##lans
##lants
forthright
##paragement
sovereign
lift
hereinbe
hereinbefore
effectually
prem
pretrial
preapproved
transacting
assignors
Credited
defray
##ISSION
OFFI
OFFER
receptacle
came
discrimin
ORS
ORDERS
ORGAN
Prostate
Prologis
##andler
##vening
rightfully
confers
authorised
Conven
Concent
Conforming
ConAgra
##berry
##ditional
##ramento
juris
INAC
INSP
Amster
Stocks
viable
taxpay
##OROUGH
Sellas
##ECLO
span
spans
spirit
servers
Sha
Shall
Shower
Uniting
Unutilized
Univar
Aspire
whome
whistle
TransAt
descend
destination
determinative
##ALABLE
construes
##tortion
##mentality
##olla
##uds
##udes
warranting
TOXIC
remakes
pose
##ARA
##orthe
mezz
simul
favour
##RETION
##REIT
##RETY
##REAM
##RETURN
204
2065
##ANG
##ANY
##ANTIES
abbre
abusive
nonjudicial
nonusurious
impedi
implements
impacting
imprison
impression
imperfections
##issions
Lior
mailings
##urric
Collateralize
AGGRE
invalidates
##aman
capability
##holding
Resp
Residential
Reserv
Reseller
Lawful
Lawrence
##URES
outright
outwe
Newell
Newman
Newton
Newmont
unenforcable
10Q
benefitting
Scheme
##ROI
Iscon
surveillance
##eywell
operable
Dean
Depart
Arlington
Argentum
height
CONVER
CONFOR
##ITS
##ITABILITY
polices
REVEN
REPOR
RETAINED
##rons
PARI
decep
decimal
monetarily
BYLAW
capitals
actuaries
SUST
SUSP
SUAs
SURETY
Tenet
Tenzing
Tenitory
entireties
immigration
Interference
Interstate
Intervening
leak
leasable
sem
thirteen
Sugar
##olition
Salaries
negligible
appropriateness
planner
Served
Forwar
alco
##undai
Cho
Chain
Chary
Church
Chug
Champ
Chardan
Chandler
demise
demolition
##adden
Optioned
##UTRAL
recordations
PROJECTION
PRODUCE
considerable
Ensure
Envision
Daylight
Incur
Incoter
Lienholder
irrevocability
1200
trait
traffic
11A
114
11th
1101
1125
intact
intestate
##oidance
processors
adjective
factually
##assing
##IGAN
##IGENCE
##LLP
##LLED
subsidize
subsurface
##oples
TRG
negotiable
EXAS
EXCEED
enforces
##space
supplants
endang
##ours
##ourcing
1941
1942
entertain
Manitex
Tokyo
##oupment
STAND
Accountholder
##inany
Preference
Prevention
Preferential
1400
diag
interpretative
whatso
Equitable
Confidants
##contemplated
NOK
separates
postpetition
##laimed
15c
156
157
1500
##SURE
##otas
##arma
Oral
Withhold
acceptability
131
134
1325
1345
1347
FORECLO
NEUTRAL
policyholder
assured
reserving
mutandi
namely
truly
trucks
missing
UNI
UNC
overr
4021
auto
distributors
distributive
002
Permian
Composite
debits
Sean
Sets
Seawolf
prescribes
##athleen
##EMPT
Bennett
handles
handbo
LOS
LOUIS
joinders
ENERJEX
Servicemembers
trusted
##IRMS
Genoce
Genoves
Contra
upkeep
319
314
3115
##FORTS
##tibility
011
##apitalized
Advanced
AdvanSix
161
169
164
1654
##ifies
lettergram
OnX
forfeits
quo
##MITY
##ssen
INDUS
RESOUR
cleared
##ips
unrecord
unremedied
offense
offeree
controverted
Equitypart
Bye
THEREON
unpublished
emailing
##ivership
Recapture
Recalls
Reclassification
Recreation
Recruiter
Recoupment
Reclaimed
SweeGen
pattern
patrons
perfects
legended
Marion
Marcum
##scap
##EGAL
Ameren
CLAIMED
Insofar
Cashless
cancer
impliedly
ITG
Memco
Prince
Prorated
indications
indicted
Spire
Spending
Spade
Springs
Spaces
Spirit
Arbitrations
ALLOC
comfort
fundings
particulars
188
184
18th
1850
##CLO
##STAINS
APPLICATIONS
##ULED
prospect
infrequ
020
##ORDS
Corrective
DISBURSED
DISCLO
##ictSp
Payees
consultations
Noncon
Nonsolicitation
Leo
Leinw
confirmations
176
177
179
1701
ADP
ADES
ADIA
ADEQU
##imetrix
evidentiary
portfolios
impairments
ACCR
##hene
##heny
Annuitant
SETS
363
6065
60602
plant
plenary
restating
restart
##ENDING
##ENDUM
034
selects
usable
CONTRIBUTION
resigning
##OFD
251
252
257
2535
Receiver
Receivership
060
depositories
nullifying
COUNTRY
PRN
LCA
collateralize
Janssen
characterize
characteristic
Against
Designating
##IPMENT
Percentile
Mau
seniority
Waiting
Wafers
##mann
truncated
typographical
CERTIFIC
Alt
Along
inquires
contraventions
ARC
ARCH
Frome
LEGALITY
Specification
##raltar
formats
Florham
Setoff
Advisers
accompanies
GUARANTIES
allocates
telecopying
059
Foreclosure
merging
Assumptions
restrained
908
Originals
##AMED
devises
specialty
Streaming
222
##print
SOX
SOUR
##TENESS
##TENTIAL
broom
INTERCREDIT
originate
commercialized
subplans
effectuates
Realized
RealNet
registries
registrars
PERSONALLY
##oyce
Norfolk
examinership
obsoles
SPP
embargo
dissent
Minor
078
076
074
Underpayment
##ynt
Rentable
Copia
4200
Monetary
deriving
prorata
Instructure
Instrumentality
footers
296
299
29th
082
##506
Juan
Jude
footnote
Filed
##MPLISHED
virtually
predatory
encro
enclosing
ASSESS
233
23219
noteholder
RELEVANT
CHR
CHF
steven
responded
facilitation
SECURING
##neam
Carn
Cargill
##DELS
cancelable
OneMain
buys
Netflix
##thetic
1978
passes
HEALTH
variants
Developers
456
Imputed
Implement
261
2698
Deeds
Augusta
layout
Collective
CFROI
freestanding
##accounts
lots
loaded
##vale
complaining
1983
##raints
##021
##027
##024
secretarial
##ography
090
RECO
RECOUR
RECORDS
gemc
277
2700
2790
Grove
Earth
499
##iqueness
Survivor
SETTLED
NONAP
Lazar
geography
prudence
##RAFT
unfavorably
arrearages
imaged
imitation
INCUR
manufactures
derivations
##mera
pleasure
Safari
Century
Centuri
veracity
versus
##SPITAL
APPEAR
ABVN
ABSTAINS
recapitalize
leads
ratification
Diffusion
wrongfully
smallest
Basket
VENUES
##itorial
evergreen
PBCA
Hedges
weekday
Portability
shortly
Excepted
Excepting
Releasers
##UNDUP
accomplishes
EQUIPMENT
##visual
princi
reincorporation
Specialist
32nd
restructurings
uniquely
357
354
Mohawk
Rook
Steward
CLSH
CLARA
MODELS
punch
CONTROVERSIES
quotations
derogates
accommodating
Autodes
Energen
Energizer
Greylock
FURTHERMORE
##117
757
754
7500
IMT
repairing
Connection
##eroa
POTENTIAL
pensions
##COM
airline
empowers
EXISTS
UKBA
##304
3001
3000
biological
biologics
bioha
grades
Liquidations
Bike
Biotech
Biosimilar
Biocataly
CBNA
EDPA
LPA
depends
updating
prosecutes
3700
37027
MAKER
Months
Bean
Beard
Beij
INTENTION
Upstream
FLUC
FLOOR
Omnimetrix
##IBOR
Quoted
488
485
778
GPS
GPHC
EXPP
Joel
Rockefeller
prevention
Conditional
Topco
10166
ADDENDUM
ascertaining
Unreleased
PFO
##allocated
licensable
Grounds
Rodino
mechanisms
596
lands
landscap
belongs
6000
Goldberger
XIX
Disposal
558
557
553
TIF
varying
COPYRIGHT
Cycl
HC2
##ospace
381
344
disclaiming
Trials
visual
visitor
MLA
662
PATRON
##MMOD
834
Capitol
##anese
Creation
Creative
Affordable
ILLEGAL
DEBENTURE
655
admiralty
reclassified
McG
Break
Brett
Irrespective
Iridium
PREIT
rebates
relocated
INTEND
implicate
437
434
contradicts
Willkie
standar
CANADI
uncertificated
uncapitalized
##hillips
delegor
delegating
10016
COMMENCEMENT
709
Federally
Wayn
Wayzata
whistleblowing
REVOKE
Overriding
Uniondale
Freeland
Farmor
Vacate
Activation
COMPLIANCE
judiciary
7121
launch
runs
Nexsan
Finco
Oppenheimer
weight
weighted
COUNTERPARTS
MidWest
bribe
waterfall
BREACHES
ACQUITS
Privacy
ENTITIES
draftsperson
IDL
IDGS
LuvB
Olshan
deprives
Hyundai
turned
1031
RESOLVE
authenticate
512
Medicine
##PEALABLE
detach
feasibility
468
466
986
983
JonesTra
OPERATING
incorporators
demonstration
demonstrates
Macerich
NRP
Siers
Strawn
Woodard
curative
##holic
30326
442
4400
MISO
invitation
renegotiations
Camino
Fields
Peterson
Peoples
Scott
Scranton
TPHX
accreditation
DevFactory
782
Airways
Dauman
Howard
mutilation
LIKEWISE
Earnout
narrowest
consigned
1026
Architect
Archrock
acquittances
Blueprint
Claren
Editas
SAF
Venoco
labour
##works
unannoun
Withdrawing
DISCRETION
614
6148
952
ILCS
WASTE
staffing
speeches
90025
AFG
Duval
Duchy
MBIA
Adobe™
reconstruction
constructively
TRUSTOR
863
Guilford
Metals
SLA
SLHC
2704
IWCO
Synacor
ethanol
districts
ACCOMPLISHED
ACCOMMOD
728
unassessed
Supervisory
DDTL
Faxed
Magri
PHH
PLEDGE
dangerous
quantified
3333
470
476
Gramerc
MKS
libr
Contingency
Takeout
##drocarbons
583
CSMC
ELECTS
TWC
TWW
WPG
Winchester
##enyon
Reaffirming
archived
CONSEQUENCES
substantiate
substantiating
Generator
exhaustion
AUTHORITY
89134
Fertitta
PubCo
Publisher
18100
Emailed
682
688
689
684
Poling
Pipe
Sunny
SIGNS
SIGNATURE
edit
medicine
##OMES
##OMIC
assembled
disapproving
disapproved
394
Burling
GLP
KCG
Mitsub
Miller
inventorship
enhanced
COLUMB
IMPORT
COMPLETENESS
Avoidance
Fenech
Medizone
##SBOROUGH
1127
4205
4203
briefing
photocopying
DISCUSSED
816
ESTIM
HLS
Hubbard
PVOG
ROA
ROOF
ROUNDUP
syndicated
tions
environments
attains
attainable
1981a
Stephen
familiarized
PRESENTED
encompasses
EFFORTS
FCRE
Myers
MyoK
SGR
nationals
##process
Subparagraphs
Separates
DESIGNEE
bargains
Titanic
Guidebook
suggests
nonconsecutive
BBEP
BBOFD
Baltic
IAHC
MGP
Railport
Robotics
TCN
TCG
Verso
drillers
helpful
##TLO
INSTANCE
Builder
PROTEST
Subservicing
SPEs
4980D
analytical
BRP
Bona
Danforth
Hallmark
OCS
OCUMENT
Wagman
https
##waives
argue
arrives
captioned
##ramiding
recommending
STOCKHOLDERS
Noncompete
Carryover
DEFINITION
curtailed
FMVs
SCHEDULED
80111
80112
peace
##ormally
Andrews
morality
9505
Barre
FAILS
Mirna
Structural
windfall
windstorm
illustration
illustrating
illustrate
Constituents
FORMED
77042
92614
Keane
Kevin
Lexaria
NLRB
larger
ridicules
##692
depletion
specim
Travelers
RESTATEMENT
RESPONSIBILITY
Occupancy
GmbHG
Bats
Batches
Herrington
SRS
SREC
Sandler
Vitamin
jpg
jpeg
ticking
innovation
speaks
Allocated
10153
ASPECT
Carveout
rebutting
rebuttable
Diluted
Dilution
Japanese
QUEST
STRAIN
STRICT
STRAINS
SourceHOV
TARRANT
ffili
letting
urgency
##irdre
exploitation
recruit
Response
ActiveSite
Owns
Leah
ARRANGERS
Helius
audiovisual
entrances
94304
94043
Bearing
DBNY
Detroit
Garage
NiSource
Penal
RATHER
Seniors
brands
linear
linked
style
Parcels
subtracting
Confirmatory
cooperatively
Recoveries
Springfield
endeavours
33401
Simultaneous
reconveyed
829
Boyalife
Brighton
CNNX
Huntington
Lori
Lumara
Raymond
Sponsorship
TVPSUs
VF1
VWR
evictions
Sublicens
interchangeably
1717
platforms
redesignation
merchantable
Greeneville
criticisms
80301
NRSRO
DISCOVERABLE
ALTUM
Baxter
DLSS
Educational
Friedman
GCT
GCTLO
HVF
Hartford
birthday
persists
utmost
##walker
##Spot
constable
constraints
notarize
Adjacent
INITIALING
Assessments
protocol
Minera
readjusted
McLe
ELECTRONIC
memorialize
888
9632
BASF
BASIC
CORRECT
PredictSp
SFr
SFAS
SJTC
SANDOVAL
lasts
intelligently
appurtenant
stationed
INCLUDED
INCLUDES
penciling
EXPERTS
EXTENSION
Pharma
PharmAt
disturbance
Millsites
journalist
97258
prototypes
nontransferability
Busines
EURIBOR
Gibson
Gibraltar
HOSPITAL
Honolulu
Honeywell
Henry
Koch
Katz
Lionsgate
Lowenstein
PCAOB
Recurrent
SV3
Sherwin
TMLP
diversion
fractions
hydrocarbons
tuition
talents
conscientious
conscientiously
subjective
Antol
Antares
10105
Precedent
Preceding
Marcus
minerals
ARIAD
07932
DELAYS
Hochman
Roofstock
Rooftop
Philips
DERIVED
Foxconn
spreads
Alexander
FYxx
Herein
Kaplan
LONGER
Littleton
Possessory
PSPIB
Samson
SOLD
Targa
Tasker
Ventana
disease
ripe
reenacted
##ickscreen
undergoes
adaptation
##meanor
interplead
sprinklers
Uncertificated
Unregistered
neutrals
Appointment
PROFITS
EXAMINATION
Discoveries
DISPOSAL
UNDERTAKINGS
##herebyirrevocably
verdict
renouncing
Removables
Schmitz
BioScrip
OCCURRENCE
MARKETABILITY
driveways
walkout
Redeemable
Stipulated
reevaluated
Cliffs
Dowdy
DENVER
Dearborn
Flamel
Frazier
Gamma
Grillo
JetBlue
Knife
Kurth
Kleinhein
Lanham
MWF
Nusbaum
PSs
Powell
POWER
Placed
Quebec
Skadden
UETA
Wolfe
Yokneam
balancing
houses
older
rapidly
tactics
##State
propound
coincident
residue
Extraction
Infiniti
##ofthisN
discouraging
commingle
Contaminant
Stockholm
Shoppe
Argentina
REAFF
PROMOTER
Disqualifying
misdemeanor
upgrades
CONSERVATION
DISMISSED
TRANSPORTATION
APPOINTS
08830
Physician
Counterclaims
##hauser
dishonored
Merchandising
Crestwood
CONSTITUENTS
redetermined
Navigant
categories
Website
Freshwater
elevator
Malaysia
Adjuvants
PROMPTLY
Belgian
randomly
3PBs
53202
Alimera
Alameda
Authorship
Avison
AIRCRAFT
Auerbach
Bloom
BITRETURN
BOCO
BROWARD
BRITISH
Barbara
Birmingham
Crutcher
CQG
CFFT
Check
CGIH
Durham
DALLAS
DILIGENCE
Emmis
ECONOMIC
Frères
Fantex
Factors
Figueroa
FTEs
Gallagher
GulfMark
Gluck
Gusrae
Glossary
Gualtieri
GrafTech
Gaffney
Horizon
HABITABILITY
Harsco
HILLSBOROUGH
Icagen
IOWA
Jamex
KBW
Kreider
Krona
Kenneth
LISTED
Limelight
MRGE
Mizuho
MomSpot
Murray
MIGR
MASTER
Methods
MICHIGAN
MARYLAND
Mesteña
NAROT
OvaScience
PTFI
Pleas
PASSU
Puerto
Riney
Ralcorp
Rowley
RISK
Sacramento
Sawmill
Scribante
Sempra
SANTA
SMBC
Terex
Tempe
Taken
Tropicana
UFJ
Vincent
VitalCare
WMLP
Wittekind
Weekly
WNDW
Xtant
XSense
YCIG
Zurich
ballots
blowing
criterion
candidacy
eQuickscreen
golden
jamsad
joneswalker
lithography
pyramiding
purely
rceabl
recuse
struck
troub
ticket
tariffs
wastes
##authorization
inexpensive
rewrite
rezoning
condemned
convincing
ascertained
Cotiviti
exactly
exhibition
excerpts
programming
unredacted
unwaived
notebooks
Inverness
sublessees
obscene
expropriation
amusement
Subfacility
THREATENED
Studio
recharacter
repudiated
Novelis
ANNEX
ANGELES
forthrightly
hereinbelow
OFFICE
INACCURACY
INSPECTION
Amsterdam
taxpayers
whomever
TransAtlantic
descendants
mezzanine
impediment
imprisonment
AGGREGATE
Reservations
outweigh
Isconova
Departure
CONVERTIBLE
CONFORMITY
deceptive
BYLAWS
SUSTAINED
Forwarder
alcoholic
Chugach
PROJECTIONS
Incoterms
endangers
handbooks
Genocea
Genovese
unrecorded
Equitypartner
Leinwand
ADEQUATE
60654
CERTIFICATE
INTERCREDITOR
RealNetworks
obsolescence
embargoes
RECOURSE
gemcabene
NONAPPEALABLE
Autodesk
biohazardous
Biocatalysts
Beijing
Cyclone
PATRONAGE
CANADIAN
LuvBuds
JonesTrading
unannounced
ACCOMMODATION
Gramercy
Sunnyvale
Mitsubishi
COLUMBIA
MyoKardia
PredictSpring
PharmAthene
Kleinheinz
jamsadr
1a
1R
1A
1L
3a
3b
3D
460
445
461
5C
567
531
680
6112
775
730
722
781
798
766
744
739
830
840
845
861
849
848
889
9th
925
967
945
922
961
931
9LP
AZ
Aes
Amp
Aeg
Alan
AUT
Ald
Avant
Aires
AEG
AIVER
AHS
ACEP
Alumn
Aqua
Asta
Alice
BC
Bed
Ball
Bli
But
Bol
Bla
BER
Blan
Brit
Bever
BAL
Bisc
Bry
Bring
Bath
Bex
BSE
Bacter
BASE
BHI
BMO
Barn
Bulk
Butler
BILL
BFT
Benton
BNP
Bacon
Cs
CU
Ces
Cit
Cher
Crom
Calid
Crit
CES
CAL
Cort
Clement
Cry
Cind
Cler
Cline
Cyp
Cup
Crim
CTIC
Clin
CEL
Catch
CIO
CIIA
Chester
Citizen
DQ
Dent
Dat
Derm
DENT
DTS
DSU
DIAL
Divers
Docket
DST
DCC
DMINIS
Duration
DOG
DRIP
Divestit
Darden
Denton
DAK
Ep
ER
Elimin
ECP
EEA
ECTION
Erie
EOD
EMISSION
Etz
Eaton
Ft
Fe
FP
Fit
FRE
Ferti
FUN
FEM
Feed
Finder
False
Frac
FPS
Fiber
FARG
FSH
FLLP
GH
GN
Gj
GW
Gun
Gerson
Gates
Gell
GEC
GCL
GTC
GSA
Greg
Glim
GTA
GAP
Garden
Ghase
Hn
Hu
HI
HS
Haw
HED
HIT
Hop
HII
Hack
HBL
Harget
Hick
Hale
Hans
Help
HNA
Hagen
HECM
Hurric
HCOM
IH
ICE
Isel
IMIT
IEE
Imple
IHC
IHG
Jere
Jim
Jeri
Jus
Jord
Jam
Jule
JANS
JDA
JTL
Jamb
Jaws
JCY
Joyce
Ka
KR
KL
KS
Kon
Kar
Kil
Kri
KER
Kos
Kra
KGE
KPM
Kinder
Kawa
Kno
KGS
Kallaher
Kenyon
LY
Lit
Lis
Lid
Lay
Lance
Lef
Lag
Lage
Laid
LIN
Lever
LESS
LWE
LMM
LSI
Litch
LMC
Lora
Lisa
LENDING
Mile
Mission
Moss
Map
MTS
Memp
MSU
MID
MST
MESS
Moy
Mob
MME
MWI
Mism
Mechan
MTA
MJC
MONE
Malfeasance
MYD
Military
MENTS
N9
NW
Nic
Nord
Nason
NAL
Nule
NSE
NBL
Nick
Nati
Naf
Neck
NATUR
Nivison
OK
OZ
Oro
OTS
OSU
OEM
OIP
OGE
OWE
OSP
Osh
Osborne
Pec
Ply
Pic
PAL
Pons
PTY
Pry
PAC
Pot
PNG
PEM
PST
PFI
PEO
Plus
PCI
PASE
PSS
PAGE
PSI
PTL
Potts
Positions
Phillips
Qs
QA
QF
Qor
QRS
RI
Rx
Rab
Rac
Rain
Rud
Ram
RAI
ROC
RTS
Renew
RTO
Roper
RATI
Rif
Rivers
Roy
Race
RATES
RICO
Ruling
Sn
Sl
SM
Sed
Sar
Sut
Slo
Secu
Sus
Some
Sound
SAB
SAS
SSU
SIL
SDA
SRA
Search
SIE
Sites
SIA
SFR
Sza
SXL
SSM
Slot
Surna
Sciences
Sothe
Scientists
Sourcing
TE
Tro
Tol
TOR
TEC
Tud
TUR
TSE
TCP
Tipt
TMM
Torn
Tandem
Turb
Towers
Tariff
Taylor
TANG
Ur
UAB
Upper
URL
UCB
VB
VS
Ves
Vol
VES
VALL
Vide
VSE
Vie
VION
Vale
Vint
VOIS
Vickers
VUIT
Wu
WA
WE
WY
Wed
Wing
WTI
WING
Wound
Wad
Warm
Wix
Wals
WOW
Weed
Wang
WRIT
WPC
WISH
WITNESS
Wickers
W1J
XPO
Ye
YB
Y5
YU
Ying
Yules
Zh
Zab
Zeal
Zack
Zyn
Zero
ZHG
aer
aug
ban
bit
boun
bili
band
bold
barge
burse
biding
born
cp
che
clu
cip
cumul
clin
censure
citizen
ding
dur
dig
dors
dual
docket
drain
damp
diversity
dba
dormant
eq
eX
eement
ether
empan
etr
edi
eliver
eason
edition
evid
esp
esc
eedings
fec
fab
fru
funder
few
ffe
farm
fite
feed
fenced
founded
fmi
gar
graph
gistered
gathered
green
glyc
hh
han
hur
hout
husetts
hole
host
hsb
ier
ire
iving
ible
ibution
je
jan
jet
jacks
joe
kg
kee
kathleen
lies
lidi
los
loyal
lob
lfair
mc
med
mance
mold
mine
mass
miche
missions
n°
nce
nder
ndi
nef
nival
neck
nivison
ou
omp
ood
ovision
othe
osborne
pS
pon
phi
plu
pull
poll
pond
piggyback
pany
ry
rer
ring
rig
rations
rosen
rander
ranks
ranging
rogers
son
sin
sab
sig
sized
says
sterling
sides
sligh
scientists
silent
srivers
ti
tt
ting
tate
tenses
tank
tight
tied
taneously
tins
tained
tio
tarn
utive
uant
ute
ucts
vT
vk
voc
vault
vents
vex
vided
wr
winter
walls
xer
xecutive
xxxxx
ys
yiel
##rise
##rates
##rass
##rist
##rpes
##my
##m1
##mes
##mation
##mendment
##mad
##mical
##mables
##mstein
##ih
##iQ
##iro
##ially
##ifer
##itis
##itim
##iMed
##nm
##ns
##nan
##nor
##nar
##nus
##nold
##nigan
##nibus
##nuson
##normally
##aus
##adem
##aker
##aug
##aWest
##agrees
##agents
##té
##tors
##tand
##tta
##tower
##thereof
##ox
##oly
##ogate
##okes
##ovation
##oaks
##ovia
##van
##vit
##vate
##vements
##vability
##vous
##vses
##eter
##etr
##ela
##eenth
##weg
##warding
##waste
##uin
##umed
##uous
##uang
##uilding
##uthern
##gon
##gments
##gible
##gged
##gical
##gwick
##grass
##sia
##side
##sites
##sbaum
##Holder
##HERE
##HENS
##HOUS
##HOMA
##IEN
##ITIES
##ILE
##IANT
##IENCED
##IATELY
##placement
##provision
##permitted
##cat
##cate
##cim
##cons
##ctible
##cup
##cling
##clay
##cross
##creek
##ckel
##ht
##his
##how
##hares
##horn
##RF
##RAC
##RSUs
##RIDE
##BQ
##Bro
##Bow
##BER
##BIN
##BCA
##BANK
##BERG
##BEAR
##AH
##Amendment
##Coun
##CUL
##CALLY
##C60
##CTUR
##fly
##fee
##finan
##funding
##faces
##ferman
##Pal
##Point
##lter
##ye
##yy
##yville
##ycling
##16
##05
##bar
##bst
##bess
##bow
##band
##biMed
##building
##ds
##date
##dig
##drum
##discrimination
##dTra
##distrib
##2C
##2N
##27
##240
##2Wal
##88
##68
##610
##Trans
##TLE
##TARY
##NAMED
##ET
##EFF
##EHOUS
##58
##5BQ
##jo
##jecting
##jurisdiction
##jamin
##UATED
##UBLIC
##Loc
##Law
##LOR
##Line
##300
##302
##MH
##Mar
##MUD
##MFF
##MADA
##Sight
##SAY
##South
##STOOD
##Documents
##DAR
##DCA
##xi
##xis
##xation
##xts
##kow
##krod
##kosh
##Vie
##OP
##zich
##zvous
##FH
##FA
##Fite
##Fitness
##FUND
##FAX
##FACE
##GING
##GIC
##GEE
##KG
##Kay
##KES
##KLY
##Kwest
##YX
##YAL
##XT
##XAR
##WATER
##WHERE
##JV
##Jets
##ébec
##été
##Zell
##ón
##öper
##hey
##heon
##heres
##heet
##erative
##erous
##erved
##eritas
##erdrum
##tiqu
##onth
##onard
##onom
##onberger
##onnell
##enh
##enac
##enos
##enex
##enoff
antib
##related
##reage
##rected
##rels
##ese
##ester
##esores
##esignation
##edo
##editable
##eddes
##edita
##ansions
##inated
##inspace
##alments
##altered
##alia
##alog
##orp
##orin
andthe
andagrees
inp
infor
invi
inferred
intim
infeas
##itu
tool
toler
tooling
##ecency
##iso
##iser
##isation
##islation
##mentary
##arton
##chants
##chmark
##child
anywise
##roon
thru
reee
reaches
reemploy
rejects
rewriting
rejecting
##allion
##ura
##urce
##urig
##urants
##ursing
##gregation
shif
shape
##lich
##lified
##lizer
##tsman
conced
contig
contention
##hert
##leaf
##therland
##asit
##asis
##asota
##deric
ase
asking
ascription
Cole
Coach
Copp
Cold
Coordin
Copper
Cozen
Coinsurance
Coöper
exe
exit
exits
exert
exterior
extortion
profile
##abilit
##idt
##idies
##idden
noting
##uta
##uters
##utman
##aynor
coach
##version
forb
forged
forgery
forwarding
##term
##terfly
##mpanyorthe
##lyn
##iced
##icted
##icare
Company࿽s
dear
deter
devi
degra
demean
##ung
##undings
##imization
##imonth
##stad
##stopp
##stagen
unl
untenant
uncor
untitled
uniqueness
uniQ
unaltered
isdi
actor
acreage
onerous
##ulty
##ultin
##ulte
##quis
##quive
##queti
##seau
park
parol
parishes
parallel
resche
resorts
restruct
restructure
resolves
resumed
notary
##lop
##ocator
##rant
##rance
##randa
##redict
alley
##essment
##tino
##tinno
##ils
##iling
##ilers
##ilates
##ilateral
##acher
##acion
##actical
##ppines
Parib
Parke
Parame
##trip
##tings
##sui
##suasion
##erster
##ersmith
##riously
##riott
##rift
##ribe
incite
##olate
##anto
##anted
Exterior
##def
##dex
##defined
##delivery
##dezvous
enrich
enemy
##mme
##mmatory
##mmins
##ething
##etown
##etches
hav
hamp
##ignment
##ubman
##ublish
##diz
##dius
##dium
##diak
##dized
##ciers
##ciated
##cious
##ciliation
stability
stores
stays
consisten
consisted
conscious
##illo
Into
Inner
Inclu
Injun
Insured
Including
InCon
Injury
Indern
Inaug
sublessor
subjection
suburb
subaccounts
subdistrib
haveall
##owing
##owners
payday
##endon
adobe
adheres
##ruthers
##pton
##lauses
##lapping
##lamation
##lammatory
expun
explo
expensive
expatriate
expansions
##ofsuch
##ofprocess
Subplan
##formable
##usa
##usatory
purifying
purpo
accidents
accusatory
##esta
##estar
##estability
##ERTAIN
applica
THER
THUS
##together
##ireo
Executive࿽s
disruptions
disbar
##ivida
transpor
transporter
transcript
maturation
maturities
Stud
Stap
Stamp
Admission
##ensack
##ceptable
recerti
recalcul
repre
replic
repror
repaired
republish
##osciences
Nom
##ardo
##medical
##poned
##tainable
Reass
Retire
Relay
Relative
ReWal
Regents
Rewards
Reauthorization
ANTON
##efire
##titutions
##ocks
Thinspace
Thacher
Thrift
##oree
comport
compounds
##TIS
##TIALLY
##TIME
##TIMM
##TIOUS
perils
persuasion
##ONY
##ONIX
##ONVEY
##ONAV
setzel
##viated
##byapplicable
##strued
interde
interact
interparty
interrelated
##umab
##eger
##egar
##ENDIC
##ENGER
##ENBERG
Communities
##lani
##lanese
arc
ary
array
THEOR
forthcoming
southern
sam
saves
sample
##aga
##ager
##agency
gotten
##venteenth
effectual
invests
pursuance
pursuits
##ailing
connectives
defence
defeased
counting
council
##ellers
##IST
cafeteria
representa
##EDOM
##EDIATELY
commute
commuting
commutation
theirs
Purchasing
ORROWER
Prod
Prote
Proof
Proved
Probed
ProSight
##ando
##venting
##ESTION
confisc
Conic
Conciliation
##ementsLoc
##ENTURES
Plano
##rau
INTENT
INFI
INQU
INVEN
INCLUSION
INEFF
##eway
##elsen
##demnitee
afterwards
##INATED
##INANC
Amsb
##ORTS
##ORAGE
##THST
##THOD
instigation
insistence
prenda
priced
##TIONATE
doe
signifying
spun
spot
spring
spok
spectrum
spokes
countersigned
counterpa
validate
servit
Antig
facsim
choses
chalmers
##ithers
Shane
Shady
film
Unity
Unusual
Unified
Unimpaired
Unearned
Unallocated
Undefined
##earing
mansion
maneu
forego
foregone
Asesores
regulates
wholes
brett
desiring
relaxation
##oms
##omiss
##omyx
Allow
Allian
##007
poly
financier
##ARTIS
referen
##orton
limitée
##ettered
moment
moody
modern
motors
meters
metering
##actionDocuments
##ustaWest
##REME
##REPAR
##REHENS
entice
Mathe
2040
2080
2081
2032
2034
releasable
abate
abrid
abnormally
##criber
nonb
nonob
nonquali
noneditable
imple
impending
imputation
impart
impacted
imparting
impounds
##ose™
LiL
Litig
Lioce
Lipton
mailbox
outstand
Materiality
Buenos
AGENCY
##club
##amon
Banker
##CHANGE
##CHLOR
caps
capita
##holdings
Buyout
furthers
Reset
Resident
Respective
Resellers
formas
##URI
##URA
##URED
##URANCE
##URIES
outlays
outplacement
Newfield
Newbridge
NewYork
avai
arbitratable
1060
Actuation
genetic
##vide
##hips
##burger
surcharge
surgery
Transactional
##CEO
Dep
Dele
Dept
Depo
Deirdre
Art
Arrow
Arising
Arps
Archer
Arista
Arnold
heat
heavy
##ITOW
##ITURE
##axton
REU
REJECTION
REORGAN
decor
decimals
0000
HEREFROM
##ICON
##ICAN
##ICKLY
##eductible
annua
annuitant
capitalizations
##source
##onsburg
consumption
consumables
communicates
SUs
SUED
##LYCHLOR
preprin
bourne
boilers
Interested
Interagency
##udgment
Gov
charging
irrig
##apes
seated
seism
seaport
ACAR
ACSC
judgement
##ousal
Assaf
irrecon
Suit
Sutherland
Salaried
penetr
plants
planners
Seres
Serve
supra
alph
alert
algor
altogether
Chad
Chalmers
##advance
Leasebacks
##eldman
recordkeep
PROSP
PROPOR
PROBLE
##urns
remedying
responsabilit
BEACH
BEGI
BEXAR
designing
##pharma
Encomp
##VELO
Lands
Landen
creditable
InvestLine
injures
injuction
##utionary
suite
suitably
generalized
retaking
##mba
##mbirk
124
1221
1283
traditional
118
119
113
1110
1161
11601
1162
11021
circulation
satisfactions
circumventing
Notified
Notifications
enforcementand
earmark
yours
##inetics
Revlon
##assas
308
309
containment
refuting
refining
refundings
refiling
##LLWATER
possibly
regist
##PLE
##PLES
##PLEA
corrupt
recov
subscribes
subscriber
##oping
##ophi
##optix
licensure
TRB
TRUE
TRMC
converts
##TRATIVE
##ABLY
Delays
EXCLUSION
EXCHANGE
effecti
Conservation
supports
endorsees
Officials
deduced
Neu
Neff
Nembirk
1915
1925
19103
renewable
shareholdings
##TERATIONS
STC
STD
STAY
STORAGE
RELATIVE
148
1450
1479
diaries
diagnos
Expected
##kering
Thereupon
Equally
Confirmed
NOISE
##ACED
1514
##otapes
Requests
latters
MAA
Peril
Percep
Perrig
Dispose
Disposed
Dissolution
##ATICALLY
Countries
deline
Orrick
OrbiMed
13I
13G
1300
1313
1334
1395
FORT
FORFE
FORBEAR
Indemnify
Debtholder
harming
harmony
NET
workforce
workings
truck
UNNAMED
Attainment
Traffic
Traded
Traurig
Memberof
overstatement
overcharged
overcoming
overturn
overpayments
overlapping
407
4050
4020
##UNE
##UNAL
permittees
Acord
Acorn
autonom
schema
schemes
007
009
voids
herby
heritage
heredita
paragraphing
Seventeenth
WHI
##EMP
APR
Benjamin
LOGG
LOGIC
LOYAL
##alification
ENDER
##IRY
leasebacks
conta
Contrac
optionally
freeze
upheld
convene
3101
015
0199
##apitalizations
beneficiar
Sanders
##arsdale
recognizing
Advise
16a
166
165
16601
##ift
Holt
letterhead
Onco
Onvia
##actionscontemplated
quire
quash
quote
quirk
##DICATION
IRA
IRREPAR
shelter
eman
emitted
omnibus
OUTSTANDING
##ackaged
Marketplace
RESORTS
##gins
Dechert
##ipe
unrevo
unreformable
decisional
DEIP
DEFIC
DEVELO
vacant
vacates
vacating
vacancy
vacatur
unpredict
realty
differenti
##iversal
Subsidy
Swift
patties
Calix
legitim
channel
Serviceco
Mart
Marino
Marcos
Maruho
Marquis
Marriott
tenements
ASSET
##pendence
##ctively
##EGO
CLAIMING
divide
##IDGE
Insight
Institutions
Cashman
Memor
Meik
Meagher
Prerequ
indices
indicative
guarantied
Spousal
appointee
teach
ISA
ISLAND
mining
ministr
Convert
particularity
187
1800
1813
1872
phase
pharmacy
##STREAM
APPLICABILITY
CONTENT
CONTAMIN
infused
inflammatory
027
025
023
0249
0289
02110
contributorily
Coral
Corners
Corona
Corroon
classify
##rawn
Leach
Leonard
revaluation
17A
173
1775
ADDITIONALLY
ADGE
ADAP
optical
##timal
infringer
preclusion
##USES
ACCESS
telecopies
SEIP
salesman
salesperson
SUBLE
Offeree
368
367
submittal
COMBIN
602
608
605
604
liquidations
Associated
certainly
redaction
redact
redep
insurability
insurances
ServicerRe
##ENDATIONS
035
0399
PROVEN
CONSTRUE
suspects
042
043
0463
practicing
##talis
##MINUTION
installing
##DIATION
2560
2566
2597
Transferors
commonwealth
##ordinates
06506
213
2135
nullifies
Patrick
Patheon
Offeror
##issibly
##ATIVELY
##itime
##itized
USES
USING
USDA
Registrations
Fairbanks
newton
Aggregated
AgustaWest
disposs
Designator
##hesda
sufferance
professionally
##013
##ERTISE
Wah
fourteenth
trash
tracks
trained
conformable
Altor
Almad
Aliso
##QUES
netting
netted
##ogg
ARP
ARL
ARCC
ARMADA
EVINE
EVOLVING
wireless
erm
ers
erf
erral
##chanan
comparing
comparably
treats
MATURITY
martin
faxing
periodicals
Advised
OBLIGATED
EXPRESSION
accesses
fiftieth
allocating
contem
contexts
056
504
5069
denies
COMPENS
COMPEL
COMPREHENS
Forecast
ACKNOWLEDG
CEOs
meritor
##apped
Assume
CAM
CAD
CAO
CONFIRMS
905
Elk
Elected
ElementsLoc
promulgation
questionna
registerable
##AMAR
STATUS
devoting
exemptive
exemplified
thought
specializes
228
223
2250
22nd
relieves
Dispenser
fulfills
SOP
FINALLY
broken
brothers
INTERPLEA
elapse
Flom
ineligibility
securitiz
achieving
achievements
industriously
lengthy
##NIQUES
##hereto
sounds
##office
##offrey
##CIES
242
248
247
registrable
publisher
##TICABLE
PROPERLY
chartering
##BRM
foundations
Norwood
Norweg
##UMBUS
##enne
possessive
drawable
SPIP
SPTL
SPILL
improve
adjudicative
APPENDIC
IPEX
071
07601
07302
attributes
Rentals
repays
421
428
4241
Monique
Monica
##ology
productive
288
286
284
2800
2822
2870
2828
28602
##UNDERSTOOD
radius
withdrawing
292
298
295
2900
MANITOW
089
085
##504
eliminates
domestication
Boone
measurable
Film
##MPLE
surrenders
dilatory
##rightto
ASSIST
Surgical
Fourteen
##DAMENTAL
231
232
2322
2331
2355
Canakin
Having
Hazel
##entials
Licensors
Distributing
CHASE
CHAIR
Bankshares
Multiple
SERVANT
facilitated
Chairperson
SECURITIES
##rico
solicitations
Carribe
Carruthers
removes
removable
Customary
Customizing
mysource
Shearman
NetJets
##theon
1979
19711
2029
unflat
unfettered
Hundredths
##SOURI
prejudgment
##oba
##obank
EXECUTE
EFFECTED
noncompete
noncompeting
457
45th
Implied
269
263
264
26th
UPSTREAM
##Companyorthe
Manhattanville
WAREHOUS
guides
reads
Collocator
observes
CFTC
itemization
freed
Photocop
Charles
Chartered
rentable
InvenTrust
SITE
SITUATED
string
1987
19801
instrumentalities
REITs
leaseholds
##025
earnout
eightieth
FourthAmendment
093
0922
parenthetical
franchisee
OPIS
OPIANT
Postponed
RECONVEY
affords
delinquencies
NorthMar
413
4100
geological
276
2701
2777
2723
stirpes
redeeming
utilizes
Earno
INDEMNITIES
490
498
493
trusteeships
advertisers
ARBITRATORS
COLLIN
Heights
barrier
barclay
Jerrick
Jernigan
1441
1442
1446
Lakind
LaCon
Lavan
howeve
incorrectly
arrested
331
339
3330
3332
Brooks
Broader
Brockel
LEY
LEAK
subdivide
Pools
Pooled
experiment
experimental
NEGATION
NEGATES
pleased
Saving
Savill
sketches
##bunals
Welltower
float
vered
ABX
ABILITY
MATERIALLY
PROCESSES
extract
machines
Healthland
HealthFusion
NYB
NY1
NYC60
Spinoff
smaller
##genbess
Wharton
duplicating
derivatively
dimension
laborers
CONTROLLED
AGREEING
AFFO
AFFAIR
Frankel
PBS
Geoffrey
tenders
Keying
backed
backstopp
Addison
Addenda
##lett
REFERENCED
##SELVES
AFFECTED
heads
Releaser
bookkeeping
COMMISSION
Judgement
SOUTH
Quarters
reinvest
conceal
321
323
Sixteen
unsold
352
353
3550
35203
Momenta
derogate
stamping
Outlet
Outlay
Stewart
Steiner
correlating
Intuit
CLTIC
MOVE
MOST
MOET
Westwood
gaining
Blackout
Blackba
Blackhawk
technique
politics
tenantability
Redesignation
##iii
sustaining
APPLYING
Southfield
Southside
Southcross
##118
##113
USAGE
7547
homeowner
IMH
subcontracting
POLYCHLOR
Memberships
OBJECT
OBTAIN
OBTAINING
independence
airplan
emplo
responds
CanFite
Canonsburg
Verisk
Verzich
WashREIT
biost
biosimilar
4120
41277
INDUCEMENTS
##auer
Greenberg
PLx
Bioptix
CBA
CBSI
SNY
conjunctively
DOMIC
##ansing
accomplishment
accomplishments
##insist
##insically
minimal
minimally
physicians
##ortized
378
376
377
Drip
Drilled
clarifying
scanning
Monthl
Belani
reaffirmation
Fuller
Securies
Teamin
messaging
##108
##105
approximates
Update
##139
##1346
FLIR
FLBCA
Québec
212610
ASSERTION
484
4849
776
7747
77024
Ellenoff
GPEG
Wilk
Wilka
##IEVE
##IEVES
EXPERTISE
discontinuing
Founding
IFC
IFRS
Joe
Merged
Merolla
Merchants
Rockland
Rockcreek
JPMORGAN
TopCo
10174
Definition
postpones
postponing
postponements
622
628
6225
62nd
Taking
Taft
Taubman
##peak
Provisional
Unreimbursed
ACTL
ACTUALLY
PFLLC
Rodin
INCONSIS
##atious
##atieve
##ativability
clearinghouse
REMEDIATION
593
59th
5901
CDP
Combinations
sealing
Centerview
CenterState
RECOGNIZ
873
858
857
8525
85004
alive
undis
undecla
undistrib
Mails
provisi
55th
5547
5551
##204
SPECIFICATIONS
Cycles
Longmont
THEMSELVES
historically
worksheets
Bills
Billing
Harper
Harwood
condomin
condenser
SUPPLIED
348
349
343
34th
34240
disclaimer
Abrams
Track
Traynor
Tribal
visa
ML1
ML4
PMAC
constituents
6600
harms
harassing
##MMENDATIONS
649
645
643
644
6466
64117
836
839
8371
8370
CiC
Cape
Captive
Caprock
Shiu
808
805
804
80504
NASD
PURCHASERS
Supersed
Johns
Affilates
Consumm
DEBENTURES
Grossman
656
6515
SWAP
reclassify
Supertel
Superfund
divulging
Circor
Optimal
Walnut
##bourne
reimbursing
SPACE
encouraging
Breaks
repurchasing
automotive
INTX
Cutter
##show
enlarging
Engineers
Harrison
Selective
Selma
Willis
##chers
##804
CICSP
DIEGO
DIMINUTION
Emeryville
Flower
NuStar
##inckrod
delegatable
METHOD
Moral
Morgenbess
OFFICES
noncontrib
formulations
leah
leaks
10014
DEFENDS
DEFENDING
705
703
Federative
Wayne
Waynes
impedes
impeding
built
builders
Firmwide
Overadvance
Wein
##212
Farming
mandates
mandating
mandrels
disagrees
Novo
remuner
Summit
Activated
COMPLEX
AbbVie
712
7102
ESTATE
NORM
##612
AMERICAN
Opposing
Opportunities
##kah
Reinstatement
Reinstated
SUBSTANCE
994
MidSouth
Scho
Schole
Schrier
Schulte
extinguishes
negligently
functionary
PAYE
PAYEE
datas
Ashmont
12555
SUBORDINATING
draftsman
predicted
HCMJV
Lucent
Lucas
Plas
Plate
Sims
crosses
Execut
nondiscrimination
sublettings
AWC
AWN
AW139
Career
Timefire
Types
Typenex
bidding
visions
INJURIES
DISCHARGED
SERVICERS
Biopharma
ADJUDICATED
518
517
Highland
Images
OCCV
EBITDAR
Kellogg
##awaiver
Prohibition
Prohibitive
unexercisable
469
9879
98004
OPERATED
##servance
Factoring
Morrison
430B
Macau
MacKay
NRD
NRFC
PA6
Simple
oilfield
##USTON
30328
estoppels
20006
2000ff
Bookings
EBITDAE
441
448
446
4401
4411
4430
4410
546
543
692
694
Accessories
Franchises
[...]
