{
  "version": "1.0",
  "truncation": null,
  "padding": null,
  "added_tokens": [
    {
      "id": 0,
      "content": "[PAD]",
      "single_word": false,
      "lstrip": false,
      "rstrip": false,
      "normalized": false,
      "special": true
    },
    {
      "id": 1,
      "content": "[UNK]",
      "single_word": false,
      "lstrip": false,
      "rstrip": false,
      "normalized": false,
      "special": true
    },
    {
      "id": 2,
      "content": "[CLS]",
      "single_word": false,
      "lstrip": false,
      "rstrip": false,
      "normalized": false,
      "special": true
    },
    {
      "id": 3,
      "content": "[SEP]",
      "single_word": false,
      "lstrip": false,
      "rstrip": false,
      "normalized": false,
      "special": true
    },
    {
      "id": 4,
      "content": "[MASK]",
      "single_word": false,
      "lstrip": false,
      "rstrip": false,
      "normalized": false,
      "special": true
    }
  ],
  "normalizer": {
    "type": "BertNormalizer",
    "clean_text": true,
    "handle_chinese_chars": true,
    "strip_accents": null,
    "lowercase": false
  },
  "pre_tokenizer": {
    "type": "BertPreTokenizer"
  },
  "post_processor": {
    "type": "TemplateProcessing",
    "single": [
      {
        "SpecialToken": {
          "id": "[CLS]",
          "type_id": 0
        }
      },
      {
        "Sequence": {
          "id": "A",
          "type_id": 0
        }
      },
      {
        "SpecialToken": {
          "id": "[SEP]",
          "type_id": 0
        }
      }
    ],
    "pair": [
      {
        "SpecialToken": {
          "id": "[CLS]",
          "type_id": 0
        }
      },
      {
        "Sequence": {
          "id": "A",
          "type_id": 0
        }
      },
      {
        "SpecialToken": {
          "id": "[SEP]",
          "type_id": 0
        }
      },
      {
        "Sequence": {
          "id": "B",
          "type_id": 1
        }
      },
      {
        "SpecialToken": {
          "id": "[SEP]",
          "type_id": 1
        }
      }
    ],
    "special_tokens": {
      "[CLS]": {
        "id": "[CLS]",
        "ids": [
          2
        ],
        "tokens": [
          "[CLS]"
        ]
      },
      "[SEP]": {
        "id": "[SEP]",
        "ids": [
          3
        ],
        "tokens": [
          "[SEP]"
        ]
      }
    }
  },
  "decoder": {
    "type": "WordPiece",
    "prefix": "##",
    "cleanup": true
  },
  "model": {
    "type": "WordPiece",
    "unk_token": "[UNK]",
    "continuing_subword_prefix": "##",
    "max_input_chars_per_word": 100,
    "vocab": {
      "[PAD]": 0,
      "[UNK]": 1,
      "[CLS]": 2,
      "[SEP]": 3,
      "[MASK]": 4,
      "!": 5,
      "#": 6,
      "$": 7,
      "%": 8,
      "&": 9,
      "(": 10,
      ")": 11,
      "*": 12,
      "+": 13,
      ",": 14,
      "-": 15,
      ".": 16,
      "/": 17,
      "0": 18,
      "1": 19,
      "2": 20,
      "3": 21,
      "4": 22,
      "5": 23,
      "6": 24,
      "7": 25,
      "8": 26,
      "9": 27,
      ":": 28,
      ";": 29,
      "=": 30,
      "?": 31,
      "@": 32,
      "[": 33,
      "\\": 34,
      "]": 35,
      "_": 36,
      "`": 37,
      "a": 38,
      "b": 39,
      "c": 40,
      "d": 41,
      "e": 42,
      "f": 43,
      "g": 44,
      "h": 45,
      "i": 46,
      "j": 47,
      "k": 48,
      "l": 49,
      "m": 50,
      "n": 51,
      "o": 52,
      "p": 53,
      "q": 54,
      "r": 55,
      "s": 56,
      "t": 57,
      "u": 58,
      "v": 59,
      "w": 60,
      "x": 61,
      "y": 62,
      "z": 63,
      "{": 64,
      "|": 65,
      "}": 66,
      "~": 67,
      "§": 68,
      "®": 69,
      "°": 70,
      "±": 71,
      "·": 72,
      "¼": 73,
      "½": 74,
      "¾": 75,
      "×": 76,
      "à": 77,
      "á": 78,
      "å": 79,
      "ç": 80,
      "è": 81,
      "é": 82,
      "í": 83,
      "ï": 84,
      "ø": 85,
      "ü": 86,
      "˜": 87,
      "̂": 88,
      "α": 89,
      "β": 90,
      "γ": 91,
      "δ": 92,
      "ε": 93,
      "η": 94,
      "θ": 95,
      "κ": 96,
      "λ": 97,
      "μ": 98,
      "ν": 99,
      "ξ": 100,
      "π": 101,
      "ρ": 102,
      "σ": 103,
      "τ": 104,
      "φ": 105,
      "ψ": 106,
      "ω": 107,
      "–": 108,
      "—": 109,
      "‘": 110,
      "’": 111,
      "“": 112,
      "”": 113,
      "•": 114,
      "′": 115,
      "″": 116,
      "™": 117,
      "⅓": 118,
      "⅛": 119,
      "→": 120,
      "∂": 121,
      "∇": 122,
      "∑": 123,
      "−": 124,
      "∩": 125,
      "≠": 126,
      "≡": 127,
      "≤": 128,
      "≦": 129,
      "≧": 130,
      "⊕": 131,
      "⊖": 132,
      "└": 133,
      "┘": 134,
      "═": 135,
      "□": 136,
      "##m": 137,
      "##t": 138,
      "##y": 139,
      "##r": 140,
      "##o": 141,
      "##l": 142,
      "##p": 143,
      "##i": 144,
      "##d": 145,
      "##n": 146,
      "##a": 147,
      "##b": 148,
      "##c": 149,
      "##f": 150,
      "##u": 151,
      "##h": 152,
      "##e": 153,
      "##s": 154,
      "##g": 155,
      "##z": 156,
      "##x": 157,
      "##k": 158,
      "##0": 159,
      "##2": 160,
      "##5": 161,
      "##v": 162,
      "##7": 163,
      "##4": 164,
      "##w": 165,
      "##q": 166,
      "##1": 167,
      "##j": 168,
      "##8": 169,
      "##σ": 170,
      "##3": 171,
      "##6": 172,
      "##9": 173,
      "##λ": 174,
      "##ω": 175,
      "##ü": 176,
      "##β": 177,
      "##α": 178,
      "##μ": 179,
      "##γ": 180,
      "##è": 181,
      "##δ": 182,
      "##π": 183,
      "##×": 184,
      "##−": 185,
      "##é": 186,
      "##ç": 187,
      "##≦": 188,
      "##ρ": 189,
      "##ï": 190,
      "##í": 191,
      "##φ": 192,
      "##±": 193,
      "##θ": 194,
      "##≧": 195,
      "##he": 196,
      "the": 197,
      "##in": 198,
      "##on": 199,
      "##er": 200,
      "##at": 201,
      "##ing": 202,
      "##ed": 203,
      "##or": 204,
      "##en": 205,
      "##es": 206,
      "an": 207,
      "in": 208,
      "##al": 209,
      "##ti": 210,
      "of": 211,
      "##ro": 212,
      "##ec": 213,
      "and": 214,
      "##ic": 215,
      "##it": 216,
      "to": 217,
      "##an": 218,
      "##re": 219,
      "##ar": 220,
      "##st": 221,
      "##et": 222,
      "##ent": 223,
      "##le": 224,
      "##ac": 225,
      "##tion": 226,
      "##ion": 227,
      "co": 228,
      "for": 229,
      "##el": 230,
      "con": 231,
      "##id": 232,
      "is": 233,
      "##ur": 234,
      "##is": 235,
      "##mp": 236,
      "##ation": 237,
      "##ly": 238,
      "##as": 239,
      "##em": 240,
      "##ir": 241,
      "##ect": 242,
      "pro": 243,
      "##ut": 244,
      "##ig": 245,
      "th": 246,
      "##od": 247,
      "##uc": 248,
      "##os": 249,
      "on": 250,
      "##ul": 251,
      "##ith": 252,
      "st": 253,
      "##ve": 254,
      "##ol": 255,
      "with": 256,
      "##ag": 257,
      "##ab": 258,
      "##ter": 259,
      "or": 260,
      "##us": 261,
      "##ess": 262,
      "##pp": 263,
      "comp": 264,
      "##lu": 265,
      "be": 266,
      "re": 267,
      "##ot": 268,
      "##ay": 269,
      "##il": 270,
      "##ow": 271,
      "##am": 272,
      "de": 273,
      "##un": 274,
      "cont": 275,
      "as": 276,
      "su": 277,
      "##hic": 278,
      "##ate": 279,
      "##ment": 280,
      "by": 281,
      "inc": 282,
      "at": 283,
      "en": 284,
      "are": 285,
      "##rom": 286,
      "##tic": 287,
      "pr": 288,
      "##ain": 289,
      "##ce": 290,
      "##ad": 291,
      "ac": 292,
      "tr": 293,
      "##ond": 294,
      "##ver": 295,
      "dis": 296,
      "from": 297,
      "whic": 298,
      "which": 299,
      "us": 300,
      "##lud": 301,
      "##ure": 302,
      "al": 303,
      "##oc": 304,
      "met": 305,
      "##able": 306,
      "##ated": 307,
      "includ": 308,
      "##ap": 309,
      "sec": 310,
      "##ans": 311,
      "ex": 312,
      "##vid": 313,
      "that": 314,
      "##ity": 315,
      "pl": 316,
      "##im": 317,
      "##ally": 318,
      "op": 319,
      "##ving": 320,
      "##age": 321,
      "##ri": 322,
      "sy": 323,
      "##vic": 324,
      "##her": 325,
      "##ign": 326,
      "##ating": 327,
      "##qu": 328,
      "provid": 329,
      "fir": 330,
      "##ition": 331,
      "res": 332,
      "ch": 333,
      "first": 334,
      "devic": 335,
      "##ber": 336,
      "le": 337,
      "meth": 338,
      "##if": 339,
      "whe": 340,
      "##ting": 341,
      "##stem": 342,
      "ad": 343,
      "one": 344,
      "system": 345,
      "method": 346,
      "sp": 347,
      "el": 348,
      "app": 349,
      "##um": 350,
      "rec": 351,
      "##ens": 352,
      "mo": 353,
      "##igh": 354,
      "trans": 355,
      "##ace": 356,
      "##ast": 357,
      "##ist": 358,
      "second": 359,
      "sign": 360,
      "device": 361,
      "##iz": 362,
      "##ach": 363,
      "ha": 364,
      "##om": 365,
      "##fer": 366,
      "##for": 367,
      "un": 368,
      "##ch": 369,
      "int": 370,
      "##ven": 371,
      "par": 372,
      "##cess": 373,
      "##ide": 374,
      "signal": 375,
      "##duc": 376,
      "##rol": 377,
      "form": 378,
      "##ine": 379,
      "##ts": 380,
      "##ted": 381,
      "##ater": 382,
      "includes": 383,
      "elect": 384,
      "control": 385,
      "sub": 386,
      "##ding": 387,
      "##etw": 388,
      "##pl": 389,
      "out": 390,
      "##erm": 391,
      "se": 392,
      "mem": 393,
      "compr": 394,
      "dat": 395,
      "##ous": 396,
      "inter": 397,
      "##ric": 398,
      "##ers": 399,
      "##ection": 400,
      "##osition": 401,
      "##form": 402,
      "having": 403,
      "##low": 404,
      "##ected": 405,
      "sh": 406,
      "can": 407,
      "sur": 408,
      "data": 409,
      "##vel": 410,
      "ar": 411,
      "##ial": 412,
      "det": 413,
      "##rou": 414,
      "so": 415,
      "por": 416,
      "com": 417,
      "##tive": 418,
      "##ang": 419,
      "##vention": 420,
      "##all": 421,
      "##irc": 422,
      "##ase": 423,
      "##ip": 424,
      "compris": 425,
      "##osed": 426,
      "##ther": 427,
      "conn": 428,
      "##ack": 429,
      "there": 430,
      "ass": 431,
      "##ati": 432,
      "least": 433,
      "surf": 434,
      "each": 435,
      "process": 436,
      "circ": 437,
      "##ates": 438,
      "invention": 439,
      "supp": 440,
      "##put": 441,
      "##ight": 442,
      "##ard": 443,
      "##een": 444,
      "##etween": 445,
      "suc": 446,
      "rece": 447,
      "##and": 448,
      "##uit": 449,
      "rel": 450,
      "##ication": 451,
      "he": 452,
      "between": 453,
      "##lement": 454,
      "pre": 455,
      "me": 456,
      "oper": 457,
      "str": 458,
      "sa": 459,
      "##der": 460,
      "may": 461,
      "##ator": 462,
      "po": 463,
      "##ermin": 464,
      "cl": 465,
      "into": 466,
      "position": 467,
      "##ower": 468,
      "##ock": 469,
      "##ural": 470,
      "##ener": 471,
      "such": 472,
      "##esent": 473,
      "##uct": 474,
      "##gh": 475,
      "provided": 476,
      "circuit": 477,
      "##yl": 478,
      "##atus": 479,
      "mod": 480,
      "surface": 481,
      "has": 482,
      "##cl": 483,
      "portion": 484,
      "##act": 485,
      "##str": 486,
      "recei": 487,
      "##ell": 488,
      "member": 489,
      "##ib": 490,
      "##ance": 491,
      "per": 492,
      "##th": 493,
      "where": 494,
      "appar": 495,
      "apparatus": 496,
      "##ore": 497,
      "val": 498,
      "im": 499,
      "##ff": 500,
      "lay": 501,
      "gener": 502,
      "##ular": 503,
      "end": 504,
      "##rough": 505,
      "##und": 506,
      "element": 507,
      "##ant": 508,
      "plural": 509,
      "imp": 510,
      "fi": 511,
      "##op": 512,
      "##ass": 513,
      "ph": 514,
      "##se": 515,
      "##og": 516,
      "##aterial": 517,
      "material": 518,
      "##ement": 519,
      "##ved": 520,
      "plurality": 521,
      "sel": 522,
      "produc": 523,
      "through": 524,
      "##ram": 525,
      "comm": 526,
      "ab": 527,
      "car": 528,
      "unit": 529,
      "contain": 530,
      "fil": 531,
      "##ub": 532,
      "##ary": 533,
      "em": 534,
      "des": 535,
      "acc": 536,
      "##de": 537,
      "##uring": 538,
      "##out": 539,
      "ext": 540,
      "##ence": 541,
      "present": 542,
      "##ong": 543,
      "rot": 544,
      "when": 545,
      "di": 546,
      "resp": 547,
      "##arg": 548,
      "layer": 549,
      "##ak": 550,
      "tw": 551,
      "##eed": 552,
      "##ust": 553,
      "reg": 554,
      "##ron": 555,
      "##tical": 556,
      "two": 557,
      "##ical": 558,
      "other": 559,
      "##end": 560,
      "tim": 561,
      "te": 562,
      "cor": 563,
      "suppor": 564,
      "##par": 565,
      "##enti": 566,
      "##ork": 567,
      "sc": 568,
      "##ech": 569,
      "##emb": 570,
      "dir": 571,
      "##formation": 572,
      "rem": 573,
      "discl": 574,
      "ins": 575,
      "transm": 576,
      "use": 577,
      "sens": 578,
      "up": 579,
      "man": 580,
      "cap": 581,
      "light": 582,
      "assemb": 583,
      "vol": 584,
      "##ue": 585,
      "##ecting": 586,
      "power": 587,
      "flu": 588,
      "ob": 589,
      "##ry": 590,
      "##enc": 591,
      "##ured": 592,
      "##so": 593,
      "##ient": 594,
      "dri": 595,
      "information": 596,
      "press": 597,
      "bl": 598,
      "##ves": 599,
      "output": 600,
      "stor": 601,
      "this": 602,
      "also": 603,
      "ser": 604,
      "arr": 605,
      "##mpl": 606,
      "dif": 607,
      "used": 608,
      "##ody": 609,
      "##ector": 610,
      "conf": 611,
      "said": 612,
      "appl": 613,
      "adj": 614,
      "including": 615,
      "li": 616,
      "##ile": 617,
      "struct": 618,
      "electric": 619,
      "##ft": 620,
      "##ied": 621,
      "it": 622,
      "##ased": 623,
      "controll": 624,
      "displ": 625,
      "comprises": 626,
      "##ative": 627,
      "moun": 628,
      "body": 629,
      "wherein": 630,
      "cur": 631,
      "being": 632,
      "loc": 633,
      "##tain": 634,
      "means": 635,
      "##hed": 636,
      "fl": 637,
      "##ations": 638,
      "disclosed": 639,
      "within": 640,
      "over": 641,
      "##ari": 642,
      "eng": 643,
      "##dition": 644,
      "sw": 645,
      "##ized": 646,
      "more": 647,
      "electro": 648,
      "mul": 649,
      "pat": 650,
      "sol": 651,
      "partic": 652,
      "red": 653,
      "fre": 654,
      "##tern": 655,
      "##vely": 656,
      "config": 657,
      "time": 658,
      "##agn": 659,
      "image": 660,
      "assembly": 661,
      "high": 662,
      "commun": 663,
      "sl": 664,
      "##ents": 665,
      "disp": 666,
      "compon": 667,
      "##ra": 668,
      "comprising": 669,
      "open": 670,
      "differ": 671,
      "eff": 672,
      "##les": 673,
      "att": 674,
      "##ep": 675,
      "connected": 676,
      "side": 677,
      "flow": 678,
      "##ies": 679,
      "multi": 680,
      "col": 681,
      "##ual": 682,
      "air": 683,
      "##ill": 684,
      "using": 685,
      "ind": 686,
      "cou": 687,
      "user": 688,
      "##ors": 689,
      "am": 690,
      "pi": 691,
      "##edi": 692,
      "fluid": 693,
      "hy": 694,
      "##ann": 695,
      "##ory": 696,
      "##res": 697,
      "poly": 698,
      "formed": 699,
      "display": 700,
      "def": 701,
      "no": 702,
      "##ably": 703,
      "reduc": 704,
      "coupl": 705,
      "substr": 706,
      "##iss": 707,
      "lo": 708,
      "input": 709,
      "pressure": 710,
      "volt": 711,
      "##echan": 712,
      "rad": 713,
      "set": 714,
      "sour": 715,
      "ret": 716,
      "hous": 717,
      "##ature": 718,
      "##ective": 719,
      "ag": 720,
      "vari": 721,
      "ca": 722,
      "dist": 723,
      "cell": 724,
      "##ound": 725,
      "##unc": 726,
      "allow": 727,
      "fram": 728,
      "emb": 729,
      "gas": 730,
      "##ner": 731,
      "rep": 732,
      "##rib": 733,
      "##ency": 734,
      "mechan": 735,
      "##est": 736,
      "bot": 737,
      "##per": 738,
      "swit": 739,
      "hol": 740,
      "##ically": 741,
      "ne": 742,
      "##eld": 743,
      "provides": 744,
      "br": 745,
      "##ite": 746,
      "curr": 747,
      "##amp": 748,
      "prot": 749,
      "voltage": 750,
      "housing": 751,
      "##ward": 752,
      "base": 753,
      "##one": 754,
      "wh": 755,
      "##ange": 756,
      "##unction": 757,
      "##ible": 758,
      "##ject": 759,
      "we": 760,
      "substrate": 761,
      "structure": 762,
      "fur": 763,
      "##ures": 764,
      "##ments": 765,
      "tub": 766,
      "remo": 767,
      "##ermined": 768,
      "##ording": 769,
      "##ane": 770,
      "water": 771,
      "line": 772,
      "current": 773,
      "arrang": 774,
      "communication": 775,
      "##iti": 776,
      "meas": 777,
      "she": 778,
      "comb": 779,
      "section": 780,
      "ve": 781,
      "##let": 782,
      "##hes": 783,
      "based": 784,
      "##ism": 785,
      "##eng": 786,
      "optical": 787,
      "main": 788,
      "##odi": 789,
      "temp": 790,
      "source": 791,
      "ax": 792,
      "conduc": 793,
      "comput": 794,
      "support": 795,
      "##amber": 796,
      "mov": 797,
      "pass": 798,
      "signals": 799,
      "##yp": 800,
      "##etwork": 801,
      "##roup": 802,
      "hyd": 803,
      "##gr": 804,
      "group": 805,
      "transmit": 806,
      "network": 807,
      "lin": 808,
      "memory": 809,
      "its": 810,
      "chamber": 811,
      "frame": 812,
      "vehic": 813,
      "##ud": 814,
      "exp": 815,
      "##int": 816,
      "wa": 817,
      "requ": 818,
      "##anti": 819,
      "##ail": 820,
      "##ind": 821,
      "id": 822,
      "not": 823,
      "##til": 824,
      "pred": 825,
      "bo": 826,
      "region": 827,
      "##ive": 828,
      "aut": 829,
      "tre": 830,
      "magn": 831,
      "##vent": 832,
      "##annel": 833,
      "##by": 834,
      "than": 835,
      "radi": 836,
      "during": 837,
      "##ages": 838,
      "further": 839,
      "##ire": 840,
      "embodi": 841,
      "impro": 842,
      "spec": 843,
      "typ": 844,
      "adjust": 845,
      "channel": 846,
      "##ior": 847,
      "switch": 848,
      "##ely": 849,
      "part": 850,
      "##ord": 851,
      "perform": 852,
      "##ge": 853,
      "##ility": 854,
      "operation": 855,
      "direction": 856,
      "##ros": 857,
      "wall": 858,
      "##ia": 859,
      "separ": 860,
      "liqu": 861,
      "num": 862,
      "##etic": 863,
      "##ose": 864,
      "dep": 865,
      "##ix": 866,
      "subst": 867,
      "##ution": 868,
      "temper": 869,
      "provide": 870,
      "vehicle": 871,
      "frequ": 872,
      "##lex": 873,
      "##ame": 874,
      "cons": 875,
      "##vity": 876,
      "liquid": 877,
      "##old": 878,
      "##of": 879,
      "##pper": 880,
      "valve": 881,
      "##ending": 882,
      "##oci": 883,
      "##air": 884,
      "gr": 885,
      "##ength": 886,
      "function": 887,
      "level": 888,
      "##ension": 889,
      "configured": 890,
      "associ": 891,
      "del": 892,
      "##ie": 893,
      "##ecti": 894,
      "then": 895,
      "##ph": 896,
      "pack": 897,
      "##ture": 898,
      "number": 899,
      "elements": 900,
      "mechanism": 901,
      "plate": 902,
      "mounted": 903,
      "relates": 904,
      "dr": 905,
      "lower": 906,
      "##ade": 907,
      "##ys": 908,
      "receiving": 909,
      "##pond": 910,
      "step": 911,
      "ref": 912,
      "##action": 913,
      "contact": 914,
      "metal": 915,
      "respon": 916,
      "##own": 917,
      "processing": 918,
      "act": 919,
      "dec": 920,
      "different": 921,
      "mon": 922,
      "##ump": 923,
      "hand": 924,
      "shap": 925,
      "sem": 926,
      "opening": 927,
      "cent": 928,
      "##ress": 929,
      "##ined": 930,
      "##otor": 931,
      "##ission": 932,
      "methods": 933,
      "adap": 934,
      "corres": 935,
      "sensor": 936,
      "particular": 937,
      "correspond": 938,
      "access": 939,
      "termin": 940,
      "resul": 941,
      "filter": 942,
      "inte": 943,
      "##anc": 944,
      "temperature": 945,
      "mic": 946,
      "##arge": 947,
      "providing": 948,
      "frequency": 949,
      "composition": 950,
      "value": 951,
      "medi": 952,
      "electron": 953,
      "##ired": 954,
      "non": 955,
      "devices": 956,
      "selected": 957,
      "carri": 958,
      "ver": 959,
      "##erg": 960,
      "identi": 961,
      "##por": 962,
      "##itor": 963,
      "##acter": 964,
      "##oun": 965,
      "all": 966,
      "heat": 967,
      "disposed": 968,
      "head": 969,
      "coupled": 970,
      "fo": 971,
      "application": 972,
      "39": 973,
      "cover": 974,
      "pul": 975,
      "object": 976,
      "##ling": 977,
      "substanti": 978,
      "low": 979,
      "containing": 980,
      "while": 981,
      "area": 982,
      "predet": 983,
      "do": 984,
      "##ule": 985,
      "dig": 986,
      "associated": 987,
      "storage": 988,
      "component": 989,
      "condition": 990,
      "load": 991,
      "##eter": 992,
      "predetermined": 993,
      "motor": 994,
      "forming": 995,
      "computer": 996,
      "##tim": 997,
      "without": 998,
      "seal": 999,
      "ho": 1000,
      "lock": 1001,
      "prefer": 1002,
      "conver": 1003,
      "##round": 1004,
      "##onduct": 1005,
      "electrical": 1006,
      "path": 1007,
      "have": 1008,
      "##val": 1009,
      "sha": 1010,
      "##izing": 1011,
      "equ": 1012,
      "hydro": 1013,
      "semic": 1014,
      "compound": 1015,
      "##ets": 1016,
      "incre": 1017,
      "##que": 1018,
      "##ick": 1019,
      "##onductor": 1020,
      "qu": 1021,
      "include": 1022,
      "bi": 1023,
      "##ectively": 1024,
      "##aced": 1025,
      "##ination": 1026,
      "char": 1027,
      "multip": 1028,
      "integr": 1029,
      "outer": 1030,
      "##aces": 1031,
      "identif": 1032,
      "block": 1033,
      "##ization": 1034,
      "thereby": 1035,
      "mix": 1036,
      "##ream": 1037,
      "add": 1038,
      "specif": 1039,
      "semiconductor": 1040,
      "##ring": 1041,
      "feed": 1042,
      "compar": 1043,
      "ther": 1044,
      "digit": 1045,
      "back": 1046,
      "gu": 1047,
      "##ox": 1048,
      "rol": 1049,
      "##ying": 1050,
      "##up": 1051,
      "##uf": 1052,
      "determin": 1053,
      "electrode": 1054,
      "##ulation": 1055,
      "type": 1056,
      "pair": 1057,
      "ed": 1058,
      "ox": 1059,
      "##ize": 1060,
      "substantially": 1061,
      "##ene": 1062,
      "##inal": 1063,
      "##struc": 1064,
      "thereof": 1065,
      "coll": 1066,
      "mat": 1067,
      "character": 1068,
      "about": 1069,
      "supply": 1070,
      "fix": 1071,
      "##ode": 1072,
      "terminal": 1073,
      "corresponding": 1074,
      "pan": 1075,
      "cat": 1076,
      "##ke": 1077,
      "##aging": 1078,
      "along": 1079,
      "according": 1080,
      "anal": 1081,
      "perm": 1082,
      "read": 1083,
      "inser": 1084,
      "film": 1085,
      "##lum": 1086,
      "addition": 1087,
      "autom": 1088,
      "##gram": 1089,
      "connection": 1090,
      "drive": 1091,
      "##fter": 1092,
      "work": 1093,
      "##ross": 1094,
      "##ier": 1095,
      "##mer": 1096,
      "thre": 1097,
      "actu": 1098,
      "##other": 1099,
      "##bon": 1100,
      "cyl": 1101,
      "micro": 1102,
      "ke": 1103,
      "##xim": 1104,
      "energ": 1105,
      "mach": 1106,
      "##ference": 1107,
      "sm": 1108,
      "##urn": 1109,
      "##iver": 1110,
      "##atic": 1111,
      "program": 1112,
      "transmission": 1113,
      "under": 1114,
      "shaft": 1115,
      "digital": 1116,
      "##ise": 1117,
      "##ank": 1118,
      "beam": 1119,
      "state": 1120,
      "relative": 1121,
      "util": 1122,
      "same": 1123,
      "embodiment": 1124,
      "transfer": 1125,
      "arranged": 1126,
      "movement": 1127,
      "##are": 1128,
      "caus": 1129,
      "design": 1130,
      "##ects": 1131,
      "##ration": 1132,
      "##ulating": 1133,
      "##its": 1134,
      "##gen": 1135,
      "acti": 1136,
      "cal": 1137,
      "field": 1138,
      "roll": 1139,
      "panel": 1140,
      "##ount": 1141,
      "conc": 1142,
      "electronic": 1143,
      "pattern": 1144,
      "top": 1145,
      "tube": 1146,
      "components": 1147,
      "extend": 1148,
      "##ake": 1149,
      "upper": 1150,
      "acid": 1151,
      "long": 1152,
      "desc": 1153,
      "response": 1154,
      "##ral": 1155,
      "indic": 1156,
      "upon": 1157,
      "wire": 1158,
      "any": 1159,
      "##tit": 1160,
      "another": 1161,
      "##ached": 1162,
      "well": 1163,
      "container": 1164,
      "axis": 1165,
      "both": 1166,
      "phase": 1167,
      "pump": 1168,
      "obtain": 1169,
      "bar": 1170,
      "inner": 1171,
      "sim": 1172,
      "order": 1173,
      "after": 1174,
      "speed": 1175,
      "arm": 1176,
      "cut": 1177,
      "members": 1178,
      "che": 1179,
      "##mal": 1180,
      "resist": 1181,
      "intern": 1182,
      "enc": 1183,
      "down": 1184,
      "##pt": 1185,
      "alk": 1186,
      "##ability": 1187,
      "compress": 1188,
      "##resent": 1189,
      "magnetic": 1190,
      "energy": 1191,
      "represent": 1192,
      "opp": 1193,
      "prin": 1194,
      "##to": 1195,
      "min": 1196,
      "##ten": 1197,
      "##asing": 1198,
      "prevent": 1199,
      "sing": 1200,
      "##ential": 1201,
      "##icient": 1202,
      "module": 1203,
      "if": 1204,
      "rele": 1205,
      "rotation": 1206,
      "fu": 1207,
      "##osure": 1208,
      "flex": 1209,
      "##oss": 1210,
      "bott": 1211,
      "off": 1212,
      "engine": 1213,
      "link": 1214,
      "adapted": 1215,
      "es": 1216,
      "inf": 1217,
      "single": 1218,
      "port": 1219,
      "fuel": 1220,
      "attached": 1221,
      "inst": 1222,
      "need": 1223,
      "ampl": 1224,
      "force": 1225,
      "ang": 1226,
      "##osite": 1227,
      "disc": 1228,
      "improved": 1229,
      "ring": 1230,
      "fac": 1231,
      "cle": 1232,
      "extending": 1233,
      "##te": 1234,
      "product": 1235,
      "tool": 1236,
      "##acent": 1237,
      "##astic": 1238,
      "capac": 1239,
      "multiple": 1240,
      "systems": 1241,
      "interf": 1242,
      "##ulated": 1243,
      "##tr": 1244,
      "##ously": 1245,
      "adjacent": 1246,
      "monitor": 1247,
      "jo": 1248,
      "##atter": 1249,
      "##ues": 1250,
      "##gan": 1251,
      "##led": 1252,
      "treat": 1253,
      "fe": 1254,
      "##mple": 1255,
      "phot": 1256,
      "##hing": 1257,
      "##ove": 1258,
      "##arm": 1259,
      "fiber": 1260,
      "mode": 1261,
      "amount": 1262,
      "via": 1263,
      "operating": 1264,
      "describ": 1265,
      "servic": 1266,
      "machine": 1267,
      "##aring": 1268,
      "##cc": 1269,
      "lens": 1270,
      "##way": 1271,
      "cre": 1272,
      "mess": 1273,
      "##uration": 1274,
      "bel": 1275,
      "syn": 1276,
      "sequ": 1277,
      "##vo": 1278,
      "##ides": 1279,
      "##less": 1280,
      "subs": 1281,
      "length": 1282,
      "generating": 1283,
      "located": 1284,
      "##sor": 1285,
      "wheel": 1286,
      "received": 1287,
      "deliver": 1288,
      "##ining": 1289,
      "##iod": 1290,
      "point": 1291,
      "##ird": 1292,
      "but": 1293,
      "period": 1294,
      "controller": 1295,
      "ma": 1296,
      "refl": 1297,
      "these": 1298,
      "##pend": 1299,
      "##rop": 1300,
      "##red": 1301,
      "cool": 1302,
      "##aking": 1303,
      "##pping": 1304,
      "log": 1305,
      "##des": 1306,
      "##ront": 1307,
      "allows": 1308,
      "made": 1309,
      "##itting": 1310,
      "##itive": 1311,
      "polymer": 1312,
      "maintain": 1313,
      "bottom": 1314,
      "applied": 1315,
      "thus": 1316,
      "medium": 1317,
      "targ": 1318,
      "##vot": 1319,
      "array": 1320,
      "pivot": 1321,
      "ro": 1322,
      "positioned": 1323,
      "scre": 1324,
      "##ness": 1325,
      "space": 1326,
      "cy": 1327,
      "gate": 1328,
      "ste": 1329,
      "##ome": 1330,
      "##ines": 1331,
      "capable": 1332,
      "pres": 1333,
      "sheet": 1334,
      "preferably": 1335,
      "##atively": 1336,
      "location": 1337,
      "##iting": 1338,
      "gro": 1339,
      "lim": 1340,
      "contin": 1341,
      "connector": 1342,
      "##olog": 1343,
      "desired": 1344,
      "steps": 1345,
      "front": 1346,
      "again": 1347,
      "test": 1348,
      "third": 1349,
      "##ufact": 1350,
      "##ium": 1351,
      "gl": 1352,
      "manufact": 1353,
      "measure": 1354,
      "##ether": 1355,
      "##elect": 1356,
      "vide": 1357,
      "##uted": 1358,
      "##istic": 1359,
      "color": 1360,
      "prepar": 1361,
      "treatment": 1362,
      "controlled": 1363,
      "their": 1364,
      "pol": 1365,
      "proper": 1366,
      "tra": 1367,
      "ge": 1368,
      "##alle": 1369,
      "interface": 1370,
      "##ood": 1371,
      "conve": 1372,
      "video": 1373,
      "mounting": 1374,
      "reference": 1375,
      "portions": 1376,
      "determining": 1377,
      "param": 1378,
      "##agement": 1379,
      "target": 1380,
      "pip": 1381,
      "stream": 1382,
      "er": 1383,
      "##rip": 1384,
      "fixed": 1385,
      "shaped": 1386,
      "conductive": 1387,
      "##struction": 1388,
      "##hen": 1389,
      "parti": 1390,
      "detection": 1391,
      "##medi": 1392,
      "stored": 1393,
      "transist": 1394,
      "carbon": 1395,
      "occ": 1396,
      "fol": 1397,
      "cam": 1398,
      "##inder": 1399,
      "##ult": 1400,
      "paralle": 1401,
      "##ror": 1402,
      "##roduc": 1403,
      "station": 1404,
      "pur": 1405,
      "##oy": 1406,
      "inde": 1407,
      "surfaces": 1408,
      "corr": 1409,
      "calc": 1410,
      "rate": 1411,
      "edge": 1412,
      "dim": 1413,
      "key": 1414,
      "##ece": 1415,
      "##ither": 1416,
      "##ilic": 1417,
      "controlling": 1418,
      "parallel": 1419,
      "##echn": 1420,
      "initi": 1421,
      "described": 1422,
      "##ug": 1423,
      "##ark": 1424,
      "##ful": 1425,
      "##ins": 1426,
      "distrib": 1427,
      "cells": 1428,
      "flexible": 1429,
      "##ases": 1430,
      "mob": 1431,
      "range": 1432,
      "band": 1433,
      "##jection": 1434,
      "extr": 1435,
      "pati": 1436,
      "disch": 1437,
      "small": 1438,
      "amplif": 1439,
      "techn": 1440,
      "enab": 1441,
      "various": 1442,
      "processor": 1443,
      "arrangement": 1444,
      "spring": 1445,
      "##ently": 1446,
      "attach": 1447,
      "continu": 1448,
      "against": 1449,
      "##ces": 1450,
      "##br": 1451,
      "internal": 1452,
      "##aining": 1453,
      "##isting": 1454,
      "##ware": 1455,
      "##ching": 1456,
      "free": 1457,
      "either": 1458,
      "prob": 1459,
      "##ited": 1460,
      "##osing": 1461,
      "##ially": 1462,
      "guide": 1463,
      "recording": 1464,
      "align": 1465,
      "receiver": 1466,
      "##con": 1467,
      "##ok": 1468,
      "mol": 1469,
      "organ": 1470,
      "respective": 1471,
      "carrier": 1472,
      "coun": 1473,
      "like": 1474,
      "activ": 1475,
      "##electric": 1476,
      "##rap": 1477,
      "artic": 1478,
      "detecting": 1479,
      "##abric": 1480,
      "exh": 1481,
      "cer": 1482,
      "only": 1483,
      "gre": 1484,
      "direct": 1485,
      "cross": 1486,
      "##ty": 1487,
      "tog": 1488,
      "minim": 1489,
      "extern": 1490,
      "receive": 1491,
      "values": 1492,
      "##itud": 1493,
      "active": 1494,
      "##tal": 1495,
      "three": 1496,
      "card": 1497,
      "##ivid": 1498,
      "transpor": 1499,
      "##ision": 1500,
      "generated": 1501,
      "fabric": 1502,
      "together": 1503,
      "address": 1504,
      "detector": 1505,
      "cr": 1506,
      "solution": 1507,
      "altern": 1508,
      "will": 1509,
      "wind": 1510,
      "##ately": 1511,
      "switching": 1512,
      "fast": 1513,
      "anti": 1514,
      "service": 1515,
      "##velop": 1516,
      "integrated": 1517,
      "individ": 1518,
      "##ice": 1519,
      "coating": 1520,
      "configuration": 1521,
      "##ger": 1522,
      "bearing": 1523,
      "##ules": 1524,
      "##ument": 1525,
      "chang": 1526,
      "mobile": 1527,
      "##vir": 1528,
      "bit": 1529,
      "seg": 1530,
      "sle": 1531,
      "central": 1532,
      "##io": 1533,
      "longitud": 1534,
      "##ulator": 1535,
      "clean": 1536,
      "sample": 1537,
      "las": 1538,
      "producing": 1539,
      "server": 1540,
      "patient": 1541,
      "##ily": 1542,
      "##lying": 1543,
      "content": 1544,
      "modif": 1545,
      "call": 1546,
      "wave": 1547,
      "code": 1548,
      "eas": 1549,
      "bus": 1550,
      "lead": 1551,
      "prim": 1552,
      "##acting": 1553,
      "outlet": 1554,
      "characteristic": 1555,
      "batter": 1556,
      "vis": 1557,
      "ach": 1558,
      "change": 1559,
      "board": 1560,
      "compounds": 1561,
      "##amic": 1562,
      "supporting": 1563,
      "achie": 1564,
      "##ities": 1565,
      "plu": 1566,
      "##hy": 1567,
      "##vol": 1568,
      "est": 1569,
      "been": 1570,
      "soft": 1571,
      "pist": 1572,
      "##ere": 1573,
      "##na": 1574,
      "connecting": 1575,
      "solid": 1576,
      "##ask": 1577,
      "core": 1578,
      "##ula": 1579,
      "play": 1580,
      "coupling": 1581,
      "dimension": 1582,
      "manner": 1583,
      "cry": 1584,
      "new": 1585,
      "radiation": 1586,
      "result": 1587,
      "cavity": 1588,
      "##ety": 1589,
      "particularly": 1590,
      "##tor": 1591,
      "##inding": 1592,
      "less": 1593,
      "rod": 1594,
      "slot": 1595,
      "size": 1596,
      "prior": 1597,
      "driving": 1598,
      "laser": 1599,
      "conditions": 1600,
      "track": 1601,
      "volum": 1602,
      "weight": 1603,
      "der": 1604,
      "##aps": 1605,
      "rear": 1606,
      "##fore": 1607,
      "heating": 1608,
      "piston": 1609,
      "hor": 1610,
      "external": 1611,
      "movable": 1612,
      "dy": 1613,
      "electrically": 1614,
      "##ges": 1615,
      "coil": 1616,
      "mold": 1617,
      "##over": 1618,
      "##vi": 1619,
      "chip": 1620,
      "##ering": 1621,
      "seat": 1622,
      "cond": 1623,
      "suit": 1624,
      "tank": 1625,
      "stand": 1626,
      "selectively": 1627,
      "follow": 1628,
      "reduced": 1629,
      "enh": 1630,
      "slid": 1631,
      "##ape": 1632,
      "##omer": 1633,
      "clock": 1634,
      "useful": 1635,
      "##actor": 1636,
      "##viron": 1637,
      "environ": 1638,
      "cylinder": 1639,
      "##xel": 1640,
      "materials": 1641,
      "cable": 1642,
      "##xt": 1643,
      "agent": 1644,
      "##ort": 1645,
      "determined": 1646,
      "web": 1647,
      "absor": 1648,
      "##fficient": 1649,
      "combination": 1650,
      "embodiments": 1651,
      "lif": 1652,
      "vertical": 1653,
      "##ograp": 1654,
      "pixel": 1655,
      "measuring": 1656,
      "prec": 1657,
      "##atically": 1658,
      "sk": 1659,
      "##atures": 1660,
      "##eve": 1661,
      "##resh": 1662,
      "deri": 1663,
      "##zz": 1664,
      "flo": 1665,
      "##sc": 1666,
      "onto": 1667,
      "lines": 1668,
      "oil": 1669,
      "defined": 1670,
      "##ale": 1671,
      "##tically": 1672,
      "empl": 1673,
      "##av": 1674,
      "poss": 1675,
      "toward": 1676,
      "above": 1677,
      "message": 1678,
      "bond": 1679,
      "inlet": 1680,
      "10": 1681,
      "locking": 1682,
      "produce": 1683,
      "battery": 1684,
      "prop": 1685,
      "adv": 1686,
      "generally": 1687,
      "phys": 1688,
      "##aw": 1689,
      "alkyl": 1690,
      "##ties": 1691,
      "ion": 1692,
      "plan": 1693,
      "layers": 1694,
      "install": 1695,
      "##idth": 1696,
      "generator": 1697,
      "specific": 1698,
      "kn": 1699,
      "remot": 1700,
      "med": 1701,
      "##amin": 1702,
      "implement": 1703,
      "clamp": 1704,
      "##iew": 1705,
      "lat": 1706,
      "star": 1707,
      "##ush": 1708,
      "##izes": 1709,
      "individual": 1710,
      "opposite": 1711,
      "##our": 1712,
      "spaced": 1713,
      "repl": 1714,
      "##raw": 1715,
      "handle": 1716,
      "##pped": 1717,
      "occur": 1718,
      "wr": 1719,
      "##ample": 1720,
      "shel": 1721,
      "actuator": 1722,
      "ball": 1723,
      "example": 1724,
      "around": 1725,
      "cylind": 1726,
      "##rel": 1727,
      "exec": 1728,
      "hal": 1729,
      "center": 1730,
      "angle": 1731,
      "fr": 1732,
      "##itu": 1733,
      "##ensity": 1734,
      "##urb": 1735,
      "pot": 1736,
      "closed": 1737,
      "respect": 1738,
      "therein": 1739,
      "bu": 1740,
      "regist": 1741,
      "concent": 1742,
      "silic": 1743,
      "moving": 1744,
      "suitable": 1745,
      "##usion": 1746,
      "parts": 1747,
      "common": 1748,
      "reducing": 1749,
      "variable": 1750,
      "volume": 1751,
      "passage": 1752,
      "transistor": 1753,
      "facil": 1754,
      "##ique": 1755,
      "stack": 1756,
      "elong": 1757,
      "formula": 1758,
      "dispens": 1759,
      "units": 1760,
      "face": 1761,
      "wireless": 1762,
      "transmitting": 1763,
      "##ually": 1764,
      "diam": 1765,
      "performance": 1766,
      "compositions": 1767,
      "induc": 1768,
      "##eters": 1769,
      "nozz": 1770,
      "shape": 1771,
      "si": 1772,
      "et": 1773,
      "cutting": 1774,
      "nor": 1775,
      "##cle": 1776,
      "inside": 1777,
      "item": 1778,
      "primary": 1779,
      "tiss": 1780,
      "convey": 1781,
      "sleeve": 1782,
      "storing": 1783,
      "mark": 1784,
      "##ning": 1785,
      "##aly": 1786,
      "develop": 1787,
      "##ipher": 1788,
      "##ute": 1789,
      "particles": 1790,
      "mixture": 1791,
      "logic": 1792,
      "turn": 1793,
      "motion": 1794,
      "##izon": 1795,
      "ends": 1796,
      "horizon": 1797,
      "communic": 1798,
      "rotor": 1799,
      "shif": 1800,
      "##rical": 1801,
      "generate": 1802,
      "disk": 1803,
      "environment": 1804,
      "##ink": 1805,
      "bas": 1806,
      "chem": 1807,
      "intermedi": 1808,
      "##wardly": 1809,
      "pad": 1810,
      "##active": 1811,
      "aud": 1812,
      "pers": 1813,
      "##eth": 1814,
      "plat": 1815,
      "series": 1816,
      "interior": 1817,
      "optim": 1818,
      "##sequ": 1819,
      "aper": 1820,
      "anten": 1821,
      "##ob": 1822,
      "orient": 1823,
      "##imin": 1824,
      "peripher": 1825,
      "loop": 1826,
      "sal": 1827,
      "ann": 1828,
      "##vers": 1829,
      "holding": 1830,
      "media": 1831,
      "monitoring": 1832,
      "hard": 1833,
      "tes": 1834,
      "encl": 1835,
      "receives": 1836,
      "allowing": 1837,
      "longitudinal": 1838,
      "##oses": 1839,
      "##omm": 1840,
      "cryst": 1841,
      "facilit": 1842,
      "##acement": 1843,
      "##ulate": 1844,
      "exch": 1845,
      "automatically": 1846,
      "plug": 1847,
      "doc": 1848,
      "##ption": 1849,
      "adhes": 1850,
      "therm": 1851,
      "##lumin": 1852,
      "pipe": 1853,
      "discharge": 1854,
      "reaction": 1855,
      "pulse": 1856,
      "##ced": 1857,
      "tele": 1858,
      "distance": 1859,
      "way": 1860,
      "transmitted": 1861,
      "case": 1862,
      "rati": 1863,
      "images": 1864,
      "pin": 1865,
      "##bo": 1866,
      "##chron": 1867,
      "node": 1868,
      "vir": 1869,
      "##acing": 1870,
      "##aged": 1871,
      "depos": 1872,
      "il": 1873,
      "asp": 1874,
      "applying": 1875,
      "blade": 1876,
      "novel": 1877,
      "independ": 1878,
      "rout": 1879,
      "electrodes": 1880,
      "effective": 1881,
      "placed": 1882,
      "produced": 1883,
      "cooling": 1884,
      "tissue": 1885,
      "thick": 1886,
      "##aper": 1887,
      "gear": 1888,
      "hum": 1889,
      "view": 1890,
      "##ield": 1891,
      "stage": 1892,
      "##ermine": 1893,
      "##apor": 1894,
      "##conn": 1895,
      "hole": 1896,
      "maxim": 1897,
      "hig": 1898,
      "move": 1899,
      "rotat": 1900,
      "effect": 1901,
      "combus": 1902,
      "removed": 1903,
      "delay": 1904,
      "equip": 1905,
      "some": 1906,
      "was": 1907,
      "introduc": 1908,
      "determine": 1909,
      "plane": 1910,
      "interconn": 1911,
      "roller": 1912,
      "sus": 1913,
      "##acts": 1914,
      "sampl": 1915,
      "door": 1916,
      "additional": 1917,
      "##iring": 1918,
      "##entially": 1919,
      "cataly": 1920,
      "ground": 1921,
      "later": 1922,
      "post": 1923,
      "hydrogen": 1924,
      "sequence": 1925,
      "screen": 1926,
      "amplifier": 1927,
      "sho": 1928,
      "resin": 1929,
      "carry": 1930,
      "request": 1931,
      "##ches": 1932,
      "bre": 1933,
      "##side": 1934,
      "uses": 1935,
      "radio": 1936,
      "four": 1937,
      "##pi": 1938,
      "poin": 1939,
      "##ole": 1940,
      "record": 1941,
      "separate": 1942,
      "##ath": 1943,
      "suppl": 1944,
      "obtained": 1945,
      "enhanc": 1946,
      "convention": 1947,
      "equipment": 1948,
      "##acu": 1949,
      "tor": 1950,
      "dyn": 1951,
      "remote": 1952,
      "detected": 1953,
      "sensing": 1954,
      "wafer": 1955,
      "making": 1956,
      "##row": 1957,
      "incor": 1958,
      "manufacturing": 1959,
      "turb": 1960,
      "rotating": 1961,
      "analy": 1962,
      "related": 1963,
      "combustion": 1964,
      "directed": 1965,
      "substit": 1966,
      "measurement": 1967,
      "whether": 1968,
      "##essel": 1969,
      "sealing": 1970,
      "vessel": 1971,
      "fin": 1972,
      "ful": 1973,
      "proxim": 1974,
      "respectively": 1975,
      "impl": 1976,
      "ratio": 1977,
      "thresh": 1978,
      "encod": 1979,
      "complet": 1980,
      "accord": 1981,
      "##idge": 1982,
      "sections": 1983,
      "inh": 1984,
      "orig": 1985,
      "charg": 1986,
      "threshold": 1987,
      "qual": 1988,
      "person": 1989,
      "here": 1990,
      "positions": 1991,
      "osc": 1992,
      "##ler": 1993,
      "oscill": 1994,
      "saf": 1995,
      "thread": 1996,
      "delivery": 1997,
      "accordance": 1998,
      "across": 1999,
      "plastic": 2000,
      "option": 2001,
      "equal": 2002,
      "exha": 2003,
      "gi": 2004,
      "##lis": 2005,
      "##ck": 2006,
      "##cop": 2007,
      "##verse": 2008,
      "antenna": 2009,
      "conventional": 2010,
      "reduce": 2011,
      "parameters": 2012,
      "leg": 2013,
      "box": 2014,
      "oxide": 2015,
      "designed": 2016,
      "nec": 2017,
      "buil": 2018,
      "incorpor": 2019,
      "exhaust": 2020,
      "resistance": 2021,
      "subsequ": 2022,
      "products": 2023,
      "channels": 2024,
      "counter": 2025,
      "software": 2026,
      "cust": 2027,
      "imaging": 2028,
      "audio": 2029,
      "thin": 2030,
      "dielectric": 2031,
      "real": 2032,
      "divid": 2033,
      "transport": 2034,
      "##uld": 2035,
      "##abil": 2036,
      "extends": 2037,
      "bec": 2038,
      "##vents": 2039,
      "simult": 2040,
      "synchron": 2041,
      "simultane": 2042,
      "##gre": 2043,
      "prof": 2044,
      "strip": 2045,
      "resulting": 2046,
      "applications": 2047,
      "programm": 2048,
      "##sion": 2049,
      "##stream": 2050,
      "membr": 2051,
      "model": 2052,
      "cylindrical": 2053,
      "table": 2054,
      "pharm": 2055,
      "atom": 2056,
      "rest": 2057,
      "circuitry": 2058,
      "##romagn": 2059,
      "glass": 2060,
      "error": 2061,
      "secured": 2062,
      "organic": 2063,
      "av": 2064,
      "them": 2065,
      "appro": 2066,
      "removing": 2067,
      "##phone": 2068,
      "drain": 2069,
      "presence": 2070,
      "##ici": 2071,
      "release": 2072,
      "intermediate": 2073,
      "large": 2074,
      "outside": 2075,
      "production": 2076,
      "recept": 2077,
      "return": 2078,
      "tubular": 2079,
      "nozzle": 2080,
      "possible": 2081,
      "required": 2082,
      "ul": 2083,
      "##ants": 2084,
      "whereby": 2085,
      "contains": 2086,
      "hydra": 2087,
      "adjustable": 2088,
      "respons": 2089,
      "thermal": 2090,
      "exc": 2091,
      "nit": 2092,
      "run": 2093,
      "##back": 2094,
      "greater": 2095,
      "cleaning": 2096,
      "##ma": 2097,
      "##ched": 2098,
      "hold": 2099,
      "rig": 2100,
      "colum": 2101,
      "driven": 2102,
      "communications": 2103,
      "spect": 2104,
      "command": 2105,
      "holder": 2106,
      "isol": 2107,
      "charge": 2108,
      "client": 2109,
      "rail": 2110,
      "const": 2111,
      "properties": 2112,
      "super": 2113,
      "characteristics": 2114,
      "fa": 2115,
      "##ablis": 2116,
      "compens": 2117,
      "window": 2118,
      "##co": 2119,
      "flat": 2120,
      "setting": 2121,
      "horizontal": 2122,
      "elimin": 2123,
      "column": 2124,
      "walls": 2125,
      "belt": 2126,
      "continuous": 2127,
      "accur": 2128,
      "scann": 2129,
      "linear": 2130,
      "draw": 2131,
      "cost": 2132,
      "supported": 2133,
      "camer": 2134,
      "higher": 2135,
      "circuits": 2136,
      "chemical": 2137,
      "zone": 2138,
      "datab": 2139,
      "groups": 2140,
      "preferred": 2141,
      "##cept": 2142,
      "##aceu": 2143,
      "increase": 2144,
      "mechanical": 2145,
      "hydraul": 2146,
      "self": 2147,
      "quanti": 2148,
      "attachment": 2149,
      "avail": 2150,
      "fluor": 2151,
      "sides": 2152,
      "remov": 2153,
      "polar": 2154,
      "distribution": 2155,
      "##ters": 2156,
      "##rix": 2157,
      "subject": 2158,
      "defining": 2159,
      "cop": 2160,
      "mass": 2161,
      "##ash": 2162,
      "matrix": 2163,
      "wavel": 2164,
      "establis": 2165,
      "inhib": 2166,
      "##aste": 2167,
      "##eler": 2168,
      "##use": 2169,
      "recess": 2170,
      "efficient": 2171,
      "inserted": 2172,
      "printing": 2173,
      "resour": 2174,
      "quality": 2175,
      "reser": 2176,
      "##ibr": 2177,
      "vacu": 2178,
      "retain": 2179,
      "##oid": 2180,
      "##ening": 2181,
      "##raft": 2182,
      "easily": 2183,
      "vacuum": 2184,
      "##alk": 2185,
      "regions": 2186,
      "##acted": 2187,
      "engagement": 2188,
      "pharmaceu": 2189,
      "structures": 2190,
      "noise": 2191,
      "##uffer": 2192,
      "standard": 2193,
      "##uck": 2194,
      "##ogen": 2195,
      "ink": 2196,
      "secondary": 2197,
      "prote": 2198,
      "packet": 2199,
      "herein": 2200,
      "##romagnetic": 2201,
      "instr": 2202,
      "composite": 2203,
      "near": 2204,
      "##odes": 2205,
      "before": 2206,
      "##oth": 2207,
      "drill": 2208,
      "piece": 2209,
      "buffer": 2210,
      "width": 2211,
      "instruction": 2212,
      "initial": 2213,
      "shell": 2214,
      "diameter": 2215,
      "aff": 2216,
      "##tif": 2217,
      "##itted": 2218,
      "analog": 2219,
      "rotary": 2220,
      "insulating": 2221,
      "sensors": 2222,
      "thickness": 2223,
      "rigid": 2224,
      "pe": 2225,
      "measured": 2226,
      "cycl": 2227,
      "sufficient": 2228,
      "secure": 2229,
      "physical": 2230,
      "tip": 2231,
      "distal": 2232,
      "platform": 2233,
      "adm": 2234,
      "##void": 2235,
      "plates": 2236,
      "emitting": 2237,
      "performed": 2238,
      "camera": 2239,
      "refr": 2240,
      "##ific": 2241,
      "diff": 2242,
      "adhesive": 2243,
      "mir": 2244,
      "consisting": 2245,
      "features": 2246,
      "performing": 2247,
      "synt": 2248,
      "silicon": 2249,
      "due": 2250,
      "they": 2251,
      "processes": 2252,
      "##oxy": 2253,
      "check": 2254,
      "mask": 2255,
      "##cent": 2256,
      "treating": 2257,
      "sat": 2258,
      "##00": 2259,
      "##ulf": 2260,
      "controls": 2261,
      "event": 2262,
      "##piece": 2263,
      "membrane": 2264,
      "##riction": 2265,
      "management": 2266,
      "##ax": 2267,
      "##ists": 2268,
      "dem": 2269,
      "capacitor": 2270,
      "virt": 2271,
      "given": 2272,
      "wavelength": 2273,
      "34": 2274,
      "##oly": 2275,
      "##uble": 2276,
      "oxy": 2277,
      "sever": 2278,
      "results": 2279,
      "database": 2280,
      "ir": 2281,
      "injection": 2282,
      "##ibration": 2283,
      "file": 2284,
      "local": 2285,
      "overl": 2286,
      "puls": 2287,
      "##osph": 2288,
      "##ugh": 2289,
      "spr": 2290,
      "difference": 2291,
      "retr": 2292,
      "package": 2293,
      "##acket": 2294,
      "relatively": 2295,
      "segment": 2296,
      "avoid": 2297,
      "##ographic": 2298,
      "document": 2299,
      "hydraulic": 2300,
      "following": 2301,
      "##jected": 2302,
      "forward": 2303,
      "crystal": 2304,
      "##set": 2305,
      "##ysis": 2306,
      "directly": 2307,
      "hollow": 2308,
      "enables": 2309,
      "constant": 2310,
      "pos": 2311,
      "estim": 2312,
      "foc": 2313,
      "##vision": 2314,
      "activity": 2315,
      "catalyst": 2316,
      "removal": 2317,
      "partially": 2318,
      "rf": 2319,
      "##hip": 2320,
      "bag": 2321,
      "certain": 2322,
      "formation": 2323,
      "analyz": 2324,
      "bro": 2325,
      "nan": 2326,
      "available": 2327,
      "selection": 2328,
      "adjustment": 2329,
      "##ances": 2330,
      "increased": 2331,
      "invol": 2332,
      "action": 2333,
      "reson": 2334,
      "transform": 2335,
      "accomm": 2336,
      "preventing": 2337,
      "absorb": 2338,
      "maximum": 2339,
      "accommod": 2340,
      "hing": 2341,
      "forms": 2342,
      "##orm": 2343,
      "##art": 2344,
      "thereon": 2345,
      "##ification": 2346,
      "lamp": 2347,
      "##ble": 2348,
      "working": 2349,
      "##rup": 2350,
      "short": 2351,
      "positioning": 2352,
      "blood": 2353,
      "levels": 2354,
      "deriv": 2355,
      "oxygen": 2356,
      "##erc": 2357,
      "carried": 2358,
      "automatic": 2359,
      "##tures": 2360,
      "enable": 2361,
      "tun": 2362,
      "imm": 2363,
      "potential": 2364,
      "##board": 2365,
      "simultaneously": 2366,
      "lum": 2367,
      "##ost": 2368,
      "##oad": 2369,
      "ray": 2370,
      "##ilar": 2371,
      "##ocket": 2372,
      "decre": 2373,
      "travel": 2374,
      "points": 2375,
      "operations": 2376,
      "functional": 2377,
      "anch": 2378,
      "driver": 2379,
      "torque": 2380,
      "place": 2381,
      "interp": 2382,
      "class": 2383,
      "##ave": 2384,
      "##jecting": 2385,
      "##etric": 2386,
      "parameter": 2387,
      "molec": 2388,
      "elongated": 2389,
      "##car": 2390,
      "##hem": 2391,
      "recover": 2392,
      "brake": 2393,
      "adjusting": 2394,
      "functions": 2395,
      "below": 2396,
      "conduit": 2397,
      "dynamic": 2398,
      "operable": 2399,
      "magnet": 2400,
      "cause": 2401,
      "limit": 2402,
      "normal": 2403,
      "##iciency": 2404,
      "winding": 2405,
      "converter": 2406,
      "##hyd": 2407,
      "panels": 2408,
      "##az": 2409,
      "##ings": 2410,
      "enter": 2411,
      "extension": 2412,
      "defl": 2413,
      "axial": 2414,
      "dimensional": 2415,
      "away": 2416,
      "separated": 2417,
      "even": 2418,
      "blocks": 2419,
      "pow": 2420,
      "##ires": 2421,
      "acceler": 2422,
      "conductor": 2423,
      "##ological": 2424,
      "article": 2425,
      "aperture": 2426,
      "require": 2427,
      "portable": 2428,
      "conveyor": 2429,
      "##iqu": 2430,
      "engage": 2431,
      "screw": 2432,
      "##oyed": 2433,
      "turbine": 2434,
      "paper": 2435,
      "##ded": 2436,
      "construc": 2437,
      "areas": 2438,
      "food": 2439,
      "identification": 2440,
      "alignment": 2441,
      "mirror": 2442,
      "transduc": 2443,
      "canc": 2444,
      "contacts": 2445,
      "##ified": 2446,
      "reduction": 2447,
      "##lock": 2448,
      "cycle": 2449,
      "insertion": 2450,
      "medical": 2451,
      "carrying": 2452,
      "casing": 2453,
      "sin": 2454,
      "similar": 2455,
      "changes": 2456,
      "aspect": 2457,
      "human": 2458,
      "those": 2459,
      "purp": 2460,
      "stop": 2461,
      "differential": 2462,
      "objects": 2463,
      "edges": 2464,
      "operator": 2465,
      "combined": 2466,
      "barri": 2467,
      "density": 2468,
      "row": 2469,
      "print": 2470,
      "repe": 2471,
      "advant": 2472,
      "original": 2473,
      "spray": 2474,
      "hel": 2475,
      "##ocol": 2476,
      "grap": 2477,
      "utilizing": 2478,
      "joint": 2479,
      "dise": 2480,
      "protection": 2481,
      "vapor": 2482,
      "##lation": 2483,
      "until": 2484,
      "comprise": 2485,
      "peripheral": 2486,
      "construction": 2487,
      "degre": 2488,
      "##akes": 2489,
      "anchor": 2490,
      "grow": 2491,
      "implant": 2492,
      "upd": 2493,
      "ear": 2494,
      "users": 2495,
      "##iform": 2496,
      "analysis": 2497,
      "ligh": 2498,
      "moved": 2499,
      "##ences": 2500,
      "feedback": 2501,
      "probe": 2502,
      "does": 2503,
      "retri": 2504,
      "needle": 2505,
      "admin": 2506,
      "metall": 2507,
      "signific": 2508,
      "electromagnetic": 2509,
      "relations": 2510,
      "testing": 2511,
      "substituted": 2512,
      "administ": 2513,
      "dc": 2514,
      "##mos": 2515,
      "stabil": 2516,
      "chain": 2517,
      "strength": 2518,
      "neg": 2519,
      "lab": 2520,
      "waste": 2521,
      "register": 2522,
      "supplied": 2523,
      "vary": 2524,
      "##urity": 2525,
      "contained": 2526,
      "engaging": 2527,
      "reques": 2528,
      "word": 2529,
      "##onic": 2530,
      "##anding": 2531,
      "transpar": 2532,
      "terminals": 2533,
      "mel": 2534,
      "tension": 2535,
      "proced": 2536,
      "##ylene": 2537,
      "generates": 2538,
      "efficiency": 2539,
      "compression": 2540,
      "uniform": 2541,
      "depend": 2542,
      "telephone": 2543,
      "responsive": 2544,
      "fer": 2545,
      "solvent": 2546,
      "instrument": 2547,
      "##lor": 2548,
      "enti": 2549,
      "lever": 2550,
      "transmitter": 2551,
      "protocol": 2552,
      "bore": 2553,
      "##ne": 2554,
      "complex": 2555,
      "acqu": 2556,
      "sym": 2557,
      "extended": 2558,
      "##voir": 2559,
      "##ropri": 2560,
      "achieved": 2561,
      "reservoir": 2562,
      "significant": 2563,
      "cab": 2564,
      "held": 2565,
      "##omp": 2566,
      "included": 2567,
      "expand": 2568,
      "mixing": 2569,
      "cathe": 2570,
      "capacit": 2571,
      "preparation": 2572,
      "modified": 2573,
      "##ton": 2574,
      "##ging": 2575,
      "##wise": 2576,
      "thereto": 2577,
      "exposed": 2578,
      "##itude": 2579,
      "barrier": 2580,
      "fold": 2581,
      "operated": 2582,
      "printed": 2583,
      "rotatable": 2584,
      "virtual": 2585,
      "tape": 2586,
      "spe": 2587,
      "decod": 2588,
      "##ared": 2589,
      "resil": 2590,
      "##part": 2591,
      "items": 2592,
      "friction": 2593,
      "##ucle": 2594,
      "rein": 2595,
      "##ceed": 2596,
      "dispers": 2597,
      "agents": 2598,
      "##ression": 2599,
      "appropri": 2600,
      "phosph": 2601,
      "##ology": 2602,
      "##ished": 2603,
      "select": 2604,
      "oxid": 2605,
      "annular": 2606,
      "bal": 2607,
      "success": 2608,
      "##oper": 2609,
      "correction": 2610,
      "gap": 2611,
      "plas": 2612,
      "dry": 2613,
      "selecting": 2614,
      "diss": 2615,
      "modules": 2616,
      "passing": 2617,
      "segments": 2618,
      "floor": 2619,
      "relationship": 2620,
      "tab": 2621,
      "disclosure": 2622,
      "host": 2623,
      "compart": 2624,
      "fibers": 2625,
      "positive": 2626,
      "##table": 2627,
      "##pro": 2628,
      "##inc": 2629,
      "connect": 2630,
      "recip": 2631,
      "receptac": 2632,
      "spl": 2633,
      "detect": 2634,
      "dam": 2635,
      "##unding": 2636,
      "site": 2637,
      "##eces": 2638,
      "compared": 2639,
      "optionally": 2640,
      "preparing": 2641,
      "emplo": 2642,
      "##gn": 2643,
      "trig": 2644,
      "alumin": 2645,
      "##uting": 2646,
      "##uch": 2647,
      "necess": 2648,
      "reinfor": 2649,
      "damp": 2650,
      "rap": 2651,
      "groove": 2652,
      "profile": 2653,
      "lid": 2654,
      "##rete": 2655,
      "elastic": 2656,
      "fire": 2657,
      "rapid": 2658,
      "##izer": 2659,
      "sear": 2660,
      "previ": 2661,
      "focus": 2662,
      "projection": 2663,
      "assign": 2664,
      "variety": 2665,
      "identifying": 2666,
      "##oxide": 2667,
      "articles": 2668,
      "transparent": 2669,
      "maintaining": 2670,
      "resid": 2671,
      "accum": 2672,
      "reproduc": 2673,
      "permit": 2674,
      "enabling": 2675,
      "game": 2676,
      "sulf": 2677,
      "vector": 2678,
      "characterized": 2679,
      "activated": 2680,
      "susp": 2681,
      "several": 2682,
      "led": 2683,
      "##pec": 2684,
      "##ention": 2685,
      "slide": 2686,
      "guid": 2687,
      "latch": 2688,
      "resilient": 2689,
      "vo": 2690,
      "supplying": 2691,
      "##ms": 2692,
      "##ish": 2693,
      "height": 2694,
      "openings": 2695,
      "permits": 2696,
      "arms": 2697,
      "timing": 2698,
      "sources": 2699,
      "catheter": 2700,
      "interval": 2701,
      "adjusted": 2702,
      "separation": 2703,
      "very": 2704,
      "##ender": 2705,
      "among": 2706,
      "##queous": 2707,
      "lateral": 2708,
      "rib": 2709,
      "bracket": 2710,
      "airc": 2711,
      "hot": 2712,
      "##terior": 2713,
      "ent": 2714,
      "caused": 2715,
      "index": 2716,
      "concentration": 2717,
      "safety": 2718,
      "##read": 2719,
      "##ishing": 2720,
      "make": 2721,
      "sn": 2722,
      "##ones": 2723,
      "locations": 2724,
      "quick": 2725,
      "causes": 2726,
      "rotational": 2727,
      "basis": 2728,
      "reli": 2729,
      "times": 2730,
      "holes": 2731,
      "cartr": 2732,
      "wear": 2733,
      "espec": 2734,
      "existing": 2735,
      "alloc": 2736,
      "especially": 2737,
      "gain": 2738,
      "workpiece": 2739,
      "accept": 2740,
      "security": 2741,
      "protr": 2742,
      "create": 2743,
      "skin": 2744,
      "entire": 2745,
      "bed": 2746,
      "##load": 2747,
      "transaction": 2748,
      "unique": 2749,
      "close": 2750,
      "##ogn": 2751,
      "retaining": 2752,
      "aircraft": 2753,
      "##ym": 2754,
      "processed": 2755,
      "aqueous": 2756,
      "separating": 2757,
      "conversion": 2758,
      "independently": 2759,
      "arc": 2760,
      "protective": 2761,
      "foot": 2762,
      "hook": 2763,
      "broad": 2764,
      "powder": 2765,
      "bur": 2766,
      "##gor": 2767,
      "predic": 2768,
      "##aster": 2769,
      "blad": 2770,
      "compressed": 2771,
      "ris": 2772,
      "##arn": 2773,
      "recogn": 2774,
      "format": 2775,
      "##ators": 2776,
      "added": 2777,
      "technique": 2778,
      "pharmaceutical": 2779,
      "bits": 2780,
      "##head": 2781,
      "store": 2782,
      "receptacle": 2783,
      "tel": 2784,
      "total": 2785,
      "sound": 2786,
      "reduces": 2787,
      "known": 2788,
      "apart": 2789,
      "##ern": 2790,
      "ra": 2791,
      "situ": 2792,
      "wide": 2793,
      "##zo": 2794,
      "forces": 2795,
      "circum": 2796,
      "offset": 2797,
      "feature": 2798,
      "planar": 2799,
      "##tivity": 2800,
      "depl": 2801,
      "diagn": 2802,
      "remain": 2803,
      "increasing": 2804,
      "ev": 2805,
      "infl": 2806,
      "visual": 2807,
      "condens": 2808,
      "sliding": 2809,
      "subsequent": 2810,
      "constructed": 2811,
      "nucle": 2812,
      "##ret": 2813,
      "structural": 2814,
      "sheets": 2815,
      "##valu": 2816,
      "limited": 2817,
      "proble": 2818,
      "customer": 2819,
      "scanning": 2820,
      "hub": 2821,
      "anim": 2822,
      "exhib": 2823,
      "exchang": 2824,
      "lamin": 2825,
      "engaged": 2826,
      "amin": 2827,
      "displayed": 2828,
      "generation": 2829,
      "authen": 2830,
      "simple": 2831,
      "exchange": 2832,
      "surro": 2833,
      "general": 2834,
      "discharg": 2835,
      "enclosure": 2836,
      "negative": 2837,
      "##lev": 2838,
      "##ili": 2839,
      "radially": 2840,
      "drum": 2841,
      "hydrox": 2842,
      "clamping": 2843,
      "authentic": 2844,
      "bene": 2845,
      "inver": 2846,
      "##elding": 2847,
      "photo": 2848,
      "good": 2849,
      "larg": 2850,
      "cooper": 2851,
      "utilized": 2852,
      "retrie": 2853,
      "evalu": 2854,
      "feeding": 2855,
      "utilizes": 2856,
      "facilitate": 2857,
      "appropriate": 2858,
      "trigger": 2859,
      "dom": 2860,
      "phen": 2861,
      "salt": 2862,
      "plasma": 2863,
      "vent": 2864,
      "##go": 2865,
      "interrup": 2866,
      "effects": 2867,
      "define": 2868,
      "determines": 2869,
      "steering": 2870,
      "dispensing": 2871,
      "shift": 2872,
      "building": 2873,
      "##iques": 2874,
      "transducer": 2875,
      "surrounding": 2876,
      "blow": 2877,
      "covering": 2878,
      "represents": 2879,
      "messages": 2880,
      "techniques": 2881,
      "##yr": 2882,
      "tray": 2883,
      "carb": 2884,
      "ep": 2885,
      "##hor": 2886,
      "##gu": 2887,
      "ens": 2888,
      "##carbon": 2889,
      "loss": 2890,
      "indicating": 2891,
      "smaller": 2892,
      "##line": 2893,
      "##verage": 2894,
      "prevents": 2895,
      "slots": 2896,
      "enhanced": 2897,
      "elev": 2898,
      "interference": 2899,
      "##andom": 2900,
      "write": 2901,
      "##ycl": 2902,
      "##ser": 2903,
      "outputs": 2904,
      "protein": 2905,
      "cartridge": 2906,
      "dop": 2907,
      "beh": 2908,
      "frames": 2909,
      "removable": 2910,
      "ey": 2911,
      "stim": 2912,
      "shut": 2913,
      "applic": 2914,
      "displaying": 2915,
      "tag": 2916,
      "most": 2917,
      "pulses": 2918,
      "pick": 2919,
      "heated": 2920,
      "cath": 2921,
      "ur": 2922,
      "##epti": 2923,
      "expans": 2924,
      "specifically": 2925,
      "synthes": 2926,
      "pic": 2927,
      "transistors": 2928,
      "converting": 2929,
      "causing": 2930,
      "necessary": 2931,
      "fing": 2932,
      "random": 2933,
      "wiring": 2934,
      "contr": 2935,
      "supports": 2936,
      "axially": 2937,
      "types": 2938,
      "drug": 2939,
      "sealed": 2940,
      "break": 2941,
      "charging": 2942,
      "clut": 2943,
      "sensitive": 2944,
      "embed": 2945,
      "##utes": 2946,
      "sto": 2947,
      "sets": 2948,
      "tempor": 2949,
      "jaw": 2950,
      "acous": 2951,
      "##atives": 2952,
      "constit": 2953,
      "equi": 2954,
      "beams": 2955,
      "##iv": 2956,
      "##asc": 2957,
      "next": 2958,
      "whose": 2959,
      "operational": 2960,
      "installed": 2961,
      "bound": 2962,
      "##itation": 2963,
      "exterior": 2964,
      "improve": 2965,
      "stress": 2966,
      "additionally": 2967,
      "facing": 2968,
      "aligned": 2969,
      "wo": 2970,
      "##ear": 2971,
      "##acy": 2972,
      "intensity": 2973,
      "die": 2974,
      "radial": 2975,
      "perman": 2976,
      "insert": 2977,
      "independent": 2978,
      "au": 2979,
      "##enu": 2980,
      "stable": 2981,
      "creating": 2982,
      "plant": 2983,
      "moves": 2984,
      "smo": 2985,
      "continuously": 2986,
      "voice": 2987,
      "fit": 2988,
      "status": 2989,
      "spac": 2990,
      "comprised": 2991,
      "atoms": 2992,
      "##iliary": 2993,
      "##ession": 2994,
      "presented": 2995,
      "loading": 2996,
      "varying": 2997,
      "suspension": 2998,
      "nut": 2999,
      "##mers": 3000,
      "coord": 3001,
      "amb": 3002,
      "exposure": 3003,
      "specified": 3004,
      "ceramic": 3005,
      "employed": 3006,
      "advantage": 3007,
      "bul": 3008,
      "computing": 3009,
      "installation": 3010,
      "resol": 3011,
      "closure": 3012,
      "improving": 3013,
      "vertically": 3014,
      "changing": 3015,
      "oscillator": 3016,
      "##ulates": 3017,
      "animal": 3018,
      "fem": 3019,
      "##jector": 3020,
      "##itter": 3021,
      "coated": 3022,
      "heater": 3023,
      "comparing": 3024,
      "patterns": 3025,
      "drop": 3026,
      "##icular": 3027,
      "contacting": 3028,
      "therefore": 3029,
      "correl": 3030,
      "pivotally": 3031,
      "bonding": 3032,
      "aux": 3033,
      "bone": 3034,
      "clu": 3035,
      "list": 3036,
      "pay": 3037,
      "##ison": 3038,
      "shield": 3039,
      "text": 3040,
      "paths": 3041,
      "molded": 3042,
      "compartment": 3043,
      "expansion": 3044,
      "##encies": 3045,
      "ultr": 3046,
      "##anes": 3047,
      "coe": 3048,
      "stator": 3049,
      "illumin": 3050,
      "approxim": 3051,
      "label": 3052,
      "auxiliary": 3053,
      "##lies": 3054,
      "##from": 3055,
      "##ites": 3056,
      "##aph": 3057,
      "operate": 3058,
      "perpend": 3059,
      "sched": 3060,
      "consum": 3061,
      "reading": 3062,
      "downstream": 3063,
      "perpendicular": 3064,
      "deform": 3065,
      "securing": 3066,
      "exceed": 3067,
      "therefrom": 3068,
      "tubes": 3069,
      "obtaining": 3070,
      "manufacture": 3071,
      "achieve": 3072,
      "hardware": 3073,
      "nodes": 3074,
      "pen": 3075,
      "circular": 3076,
      "##ications": 3077,
      "orientation": 3078,
      "diagnos": 3079,
      "domain": 3080,
      "gri": 3081,
      "nat": 3082,
      "##ompl": 3083,
      "##ather": 3084,
      "##roc": 3085,
      "prom": 3086,
      "##ament": 3087,
      "trail": 3088,
      "##ffic": 3089,
      "dest": 3090,
      "##arily": 3091,
      "ess": 3092,
      "steam": 3093,
      "##apeu": 3094,
      "oriented": 3095,
      "arch": 3096,
      "able": 3097,
      "flange": 3098,
      "multipl": 3099,
      "traffic": 3100,
      "mus": 3101,
      "relation": 3102,
      "packets": 3103,
      "##onal": 3104,
      "displacement": 3105,
      "substrates": 3106,
      "wheels": 3107,
      "easy": 3108,
      "deposited": 3109,
      "nitro": 3110,
      "##ef": 3111,
      "conj": 3112,
      "proximal": 3113,
      "metallic": 3114,
      "factor": 3115,
      "##ery": 3116,
      "emission": 3117,
      "scan": 3118,
      "player": 3119,
      "thermo": 3120,
      "larger": 3121,
      "ultras": 3122,
      "vel": 3123,
      "##sh": 3124,
      "##iter": 3125,
      "reactor": 3126,
      "multiplex": 3127,
      "threaded": 3128,
      "derivatives": 3129,
      "aluminum": 3130,
      "clip": 3131,
      "double": 3132,
      "##tis": 3133,
      "compact": 3134,
      "##ended": 3135,
      "pressur": 3136,
      "conducting": 3137,
      "molding": 3138,
      "growth": 3139,
      "##process": 3140,
      "amino": 3141,
      "lub": 3142,
      "socket": 3143,
      "til": 3144,
      "remaining": 3145,
      "pieces": 3146,
      "yield": 3147,
      "##sp": 3148,
      "##gical": 3149,
      "##oming": 3150,
      "imped": 3151,
      "remove": 3152,
      "recon": 3153,
      "electroly": 3154,
      "defines": 3155,
      "pairs": 3156,
      "representing": 3157,
      "subsc": 3158,
      "aid": 3159,
      "produces": 3160,
      "therapeu": 3161,
      "pixels": 3162,
      "implemented": 3163,
      "degree": 3164,
      "cathode": 3165,
      "##ively": 3166,
      "##hol": 3167,
      "##aches": 3168,
      "alarm": 3169,
      "grid": 3170,
      "tracking": 3171,
      "lubric": 3172,
      "##ough": 3173,
      "##here": 3174,
      "detach": 3175,
      "highly": 3176,
      "depth": 3177,
      "depending": 3178,
      "partial": 3179,
      "12": 3180,
      "rack": 3181,
      "##ilu": 3182,
      "algor": 3183,
      "modulation": 3184,
      "switches": 3185,
      "distributed": 3186,
      "full": 3187,
      "irr": 3188,
      "algorith": 3189,
      "failu": 3190,
      "purpose": 3191,
      "failure": 3192,
      "20": 3193,
      "bor": 3194,
      "tow": 3195,
      "rotated": 3196,
      "mount": 3197,
      "derived": 3198,
      "hinge": 3199,
      "manip": 3200,
      "solder": 3201,
      "treated": 3202,
      "printer": 3203,
      "coordin": 3204,
      "veloc": 3205,
      "leak": 3206,
      "transition": 3207,
      "rotate": 3208,
      "##wall": 3209,
      "##ised": 3210,
      "thereb": 3211,
      "accompl": 3212,
      "assemblies": 3213,
      "flowing": 3214,
      "consists": 3215,
      "partition": 3216,
      "lighting": 3217,
      "##dle": 3218,
      "##bol": 3219,
      "##hetic": 3220,
      "transverse": 3221,
      "suction": 3222,
      "gases": 3223,
      "conduct": 3224,
      "substance": 3225,
      "handling": 3226,
      "maintained": 3227,
      "resources": 3228,
      "tight": 3229,
      "##angular": 3230,
      "special": 3231,
      "compressor": 3232,
      "procedure": 3233,
      "found": 3234,
      "##ps": 3235,
      "##inary": 3236,
      "##arrow": 3237,
      "##odies": 3238,
      "half": 3239,
      "resource": 3240,
      "acoustic": 3241,
      "##ause": 3242,
      "##organ": 3243,
      "##arding": 3244,
      "##atile": 3245,
      "filled": 3246,
      "chambers": 3247,
      "##oxyl": 3248,
      "capacity": 3249,
      "graphic": 3250,
      "clutch": 3251,
      "vibration": 3252,
      "once": 3253,
      "adding": 3254,
      "string": 3255,
      "containers": 3256,
      "particle": 3257,
      "actual": 3258,
      "calculating": 3259,
      "minimum": 3260,
      "sized": 3261,
      "##uments": 3262,
      "##ened": 3263,
      "communicating": 3264,
      "cup": 3265,
      "##flow": 3266,
      "##vement": 3267,
      "modular": 3268,
      "selective": 3269,
      "identified": 3270,
      "infr": 3271,
      "quantity": 3272,
      "embedded": 3273,
      "fitting": 3274,
      "send": 3275,
      "##elf": 3276,
      "##asting": 3277,
      "hydrocarbon": 3278,
      "instructions": 3279,
      "acceptable": 3280,
      "##uth": 3281,
      "excess": 3282,
      "detects": 3283,
      "services": 3284,
      "prepared": 3285,
      "life": 3286,
      "therebetween": 3287,
      "aer": 3288,
      "page": 3289,
      "discloses": 3290,
      "reflected": 3291,
      "groo": 3292,
      "stationary": 3293,
      "recorded": 3294,
      "eye": 3295,
      "coefficient": 3296,
      "bol": 3297,
      "vers": 3298,
      "vibr": 3299,
      "##nel": 3300,
      "##inally": 3301,
      "chlor": 3302,
      "closing": 3303,
      "##ibility": 3304,
      "amplitude": 3305,
      "ambient": 3306,
      "##mon": 3307,
      "solar": 3308,
      "start": 3309,
      "dual": 3310,
      "lip": 3311,
      "##width": 3312,
      "stem": 3313,
      "spread": 3314,
      "seed": 3315,
      "integral": 3316,
      "microprocess": 3317,
      "divided": 3318,
      "##mosp": 3319,
      "picture": 3320,
      "##ered": 3321,
      "stri": 3322,
      "##romatic": 3323,
      "operates": 3324,
      "abs": 3325,
      "ability": 3326,
      "otherwise": 3327,
      "pie": 3328,
      "grad": 3329,
      "identifier": 3330,
      "internet": 3331,
      "towards": 3332,
      "periphery": 3333,
      "samples": 3334,
      "eth": 3335,
      "train": 3336,
      "assist": 3337,
      "deposition": 3338,
      "rollers": 3339,
      "opposing": 3340,
      "complete": 3341,
      "personal": 3342,
      "gol": 3343,
      "jet": 3344,
      "##ert": 3345,
      "impact": 3346,
      "locked": 3347,
      "releas": 3348,
      "elongate": 3349,
      "sampling": 3350,
      "##olymer": 3351,
      "fan": 3352,
      "junction": 3353,
      "pain": 3354,
      "composed": 3355,
      "surgical": 3356,
      "##through": 3357,
      "adapter": 3358,
      "keep": 3359,
      "would": 3360,
      "how": 3361,
      "##rors": 3362,
      "contamin": 3363,
      "##cep": 3364,
      "cann": 3365,
      "filling": 3366,
      "velocity": 3367,
      "fed": 3368,
      "##lic": 3369,
      "incl": 3370,
      "atmosp": 3371,
      "stra": 3372,
      "furn": 3373,
      "connections": 3374,
      "created": 3375,
      "lift": 3376,
      "rotatably": 3377,
      "##ising": 3378,
      "uns": 3379,
      "ports": 3380,
      "cancer": 3381,
      "sti": 3382,
      "yarn": 3383,
      "##ich": 3384,
      "##osens": 3385,
      "##umption": 3386,
      "collection": 3387,
      "because": 3388,
      "programmable": 3389,
      "##alkyl": 3390,
      "involves": 3391,
      "blades": 3392,
      "mut": 3393,
      "ow": 3394,
      "orth": 3395,
      "moist": 3396,
      "relay": 3397,
      "itself": 3398,
      "loaded": 3399,
      "bias": 3400,
      "comparison": 3401,
      "resistant": 3402,
      "reciproc": 3403,
      "essentially": 3404,
      "heter": 3405,
      "##itch": 3406,
      "##atory": 3407,
      "##portion": 3408,
      "starting": 3409,
      "fully": 3410,
      "custom": 3411,
      "impedance": 3412,
      "piezo": 3413,
      "ign": 3414,
      "lea": 3415,
      "effectively": 3416,
      "temperatures": 3417,
      "##lumination": 3418,
      "illumination": 3419,
      "symbol": 3420,
      "narrow": 3421,
      "session": 3422,
      "term": 3423,
      "##ming": 3424,
      "stability": 3425,
      "interest": 3426,
      "angular": 3427,
      "occup": 3428,
      "bandwidth": 3429,
      "fourth": 3430,
      "##ero": 3431,
      "##ild": 3432,
      "##rif": 3433,
      "valves": 3434,
      "teeth": 3435,
      "indication": 3436,
      "matching": 3437,
      "subsequently": 3438,
      "gra": 3439,
      "push": 3440,
      "rub": 3441,
      "##ged": 3442,
      "##enz": 3443,
      "stores": 3444,
      "since": 3445,
      "grooves": 3446,
      "art": 3447,
      "particulate": 3448,
      "configur": 3449,
      "foam": 3450,
      "measurements": 3451,
      "drilling": 3452,
      "bet": 3453,
      "sand": 3454,
      "##tle": 3455,
      "##cing": 3456,
      "contents": 3457,
      "##omes": 3458,
      "##plastic": 3459,
      "tubing": 3460,
      "indicative": 3461,
      "encry": 3462,
      "steel": 3463,
      "concentr": 3464,
      "straight": 3465,
      "##etry": 3466,
      "reset": 3467,
      "operatively": 3468,
      "##oph": 3469,
      "liner": 3470,
      "improvement": 3471,
      "typically": 3472,
      "clear": 3473,
      "calculated": 3474,
      "encoding": 3475,
      "##pass": 3476,
      "##zing": 3477,
      "##riber": 3478,
      "clos": 3479,
      "filtering": 3480,
      "indicator": 3481,
      "entry": 3482,
      "subscriber": 3483,
      "##band": 3484,
      "##ench": 3485,
      "proportion": 3486,
      "##iger": 3487,
      "alter": 3488,
      "correct": 3489,
      "search": 3490,
      "mid": 3491,
      "operative": 3492,
      "refriger": 3493,
      "pc": 3494,
      "##adi": 3495,
      "scale": 3496,
      "capt": 3497,
      "permanent": 3498,
      "##jor": 3499,
      "sum": 3500,
      "therethrough": 3501,
      "abut": 3502,
      "insp": 3503,
      "major": 3504,
      "natural": 3505,
      "##more": 3506,
      "##icy": 3507,
      "##ocy": 3508,
      "diode": 3509,
      "powered": 3510,
      "curved": 3511,
      "tree": 3512,
      "increases": 3513,
      "reflector": 3514,
      "restric": 3515,
      "pins": 3516,
      "copper": 3517,
      "##isf": 3518,
      "author": 3519,
      "furthermore": 3520,
      "actuated": 3521,
      "resistor": 3522,
      "joined": 3523,
      "introduced": 3524,
      "running": 3525,
      "affix": 3526,
      "pressurized": 3527,
      "therapeutic": 3528,
      "task": 3529,
      "##iers": 3530,
      "coax": 3531,
      "modes": 3532,
      "directions": 3533,
      "alkal": 3534,
      "conveying": 3535,
      "take": 3536,
      "account": 3537,
      "##aken": 3538,
      "attrib": 3539,
      "packaging": 3540,
      "damage": 3541,
      "rect": 3542,
      "##ident": 3543,
      "optic": 3544,
      "interfer": 3545,
      "##aker": 3546,
      "bridge": 3547,
      "consumption": 3548,
      "basic": 3549,
      "inhibit": 3550,
      "requirements": 3551,
      "fus": 3552,
      "final": 3553,
      "##pr": 3554,
      "##king": 3555,
      "insulation": 3556,
      "##grad": 3557,
      "requiring": 3558,
      "converted": 3559,
      "transferred": 3560,
      "discon": 3561,
      "reflective": 3562,
      "polymeric": 3563,
      "previously": 3564,
      "broadc": 3565,
      "resolution": 3566,
      "cri": 3567,
      "har": 3568,
      "##atable": 3569,
      "##ache": 3570,
      "##ometer": 3571,
      "dioxide": 3572,
      "capability": 3573,
      "assembled": 3574,
      "identify": 3575,
      "fixing": 3576,
      "bonded": 3577,
      "occurs": 3578,
      "faces": 3579,
      "mes": 3580,
      "##ester": 3581,
      "##ette": 3582,
      "surround": 3583,
      "porous": 3584,
      "overall": 3585,
      "##till": 3586,
      "capacitance": 3587,
      "phosphor": 3588,
      "wound": 3589,
      "zero": 3590,
      "##rum": 3591,
      "conductivity": 3592,
      "calibration": 3593,
      "destination": 3594,
      "microprocessor": 3595,
      "##amination": 3596,
      "left": 3597,
      "interaction": 3598,
      "inputs": 3599,
      "cellular": 3600,
      "vehicles": 3601,
      "frequencies": 3602,
      "alloy": 3603,
      "transferring": 3604,
      "replacement": 3605,
      "recovery": 3606,
      "evapor": 3607,
      "##acti": 3608,
      "chrom": 3609,
      "##ifying": 3610,
      "engages": 3611,
      "##anced": 3612,
      "represented": 3613,
      "wavegu": 3614,
      "dispenser": 3615,
      "apertures": 3616,
      "master": 3617,
      "##ex": 3618,
      "stations": 3619,
      "immedi": 3620,
      "biological": 3621,
      "property": 3622,
      "longitudinally": 3623,
      "etching": 3624,
      "stud": 3625,
      "transl": 3626,
      "modulated": 3627,
      "upstream": 3628,
      "sidewall": 3629,
      "actuating": 3630,
      "opposed": 3631,
      "geom": 3632,
      "removably": 3633,
      "##tes": 3634,
      "constr": 3635,
      "expl": 3636,
      "concern": 3637,
      "alternatively": 3638,
      "leading": 3639,
      "legs": 3640,
      "cass": 3641,
      "tire": 3642,
      "##with": 3643,
      "methyl": 3644,
      "transce": 3645,
      "schem": 3646,
      "passes": 3647,
      "floating": 3648,
      "authentication": 3649,
      "pus": 3650,
      "##ride": 3651,
      "##anted": 3652,
      "placing": 3653,
      "##ights": 3654,
      "sense": 3655,
      "##valent": 3656,
      "determination": 3657,
      "perme": 3658,
      "delivering": 3659,
      "priority": 3660,
      "##cohol": 3661,
      "ton": 3662,
      "##ons": 3663,
      "conven": 3664,
      "str1": 3665,
      "variations": 3666,
      "##roscop": 3667,
      "antib": 3668,
      "makes": 3669,
      "pepti": 3670,
      "aryl": 3671,
      "##gress": 3672,
      "writing": 3673,
      "simpl": 3674,
      "norm": 3675,
      "pads": 3676,
      "disease": 3677,
      "speech": 3678,
      "exchanger": 3679,
      "spacer": 3680,
      "average": 3681,
      "la": 3682,
      "##iance": 3683,
      "##lyc": 3684,
      "reception": 3685,
      "heart": 3686,
      "photosens": 3687,
      "button": 3688,
      "quickly": 3689,
      "female": 3690,
      "##ders": 3691,
      "##iness": 3692,
      "cold": 3693,
      "connectors": 3694,
      "ester": 3695,
      "ult": 3696,
      "approximately": 3697,
      "nitrogen": 3698,
      "gun": 3699,
      "interlock": 3700,
      "many": 3701,
      "barrel": 3702,
      "released": 3703,
      "##ography": 3704,
      "dependent": 3705,
      "fine": 3706,
      "alcohol": 3707,
      "spo": 3708,
      "##ensive": 3709,
      "valid": 3710,
      "fastening": 3711,
      "requests": 3712,
      "circumfer": 3713,
      "##atch": 3714,
      "intended": 3715,
      "pole": 3716,
      "fluids": 3717,
      "consist": 3718,
      "concrete": 3719,
      "representation": 3720,
      "execution": 3721,
      "archit": 3722,
      "accomplished": 3723,
      "normally": 3724,
      "vi": 3725,
      "##ever": 3726,
      "##orph": 3727,
      "##anch": 3728,
      "##static": 3729,
      "##ots": 3730,
      "##ope": 3731,
      "blank": 3732,
      "braking": 3733,
      "collecting": 3734,
      "linked": 3735,
      "rob": 3736,
      "##ription": 3737,
      "attaching": 3738,
      "immun": 3739,
      "dro": 3740,
      "right": 3741,
      "taken": 3742,
      "##rag": 3743,
      "##aling": 3744,
      "revers": 3745,
      "fill": 3746,
      "regulator": 3747,
      "neut": 3748,
      "mixed": 3749,
      "salts": 3750,
      "routing": 3751,
      "dial": 3752,
      "que": 3753,
      "##empl": 3754,
      "stro": 3755,
      "passed": 3756,
      "coolant": 3757,
      "molecular": 3758,
      "conductors": 3759,
      "golf": 3760,
      "fail": 3761,
      "weld": 3762,
      "##inyl": 3763,
      "offer": 3764,
      "##ider": 3765,
      "templ": 3766,
      "count": 3767,
      "leads": 3768,
      "interconnected": 3769,
      "piezoelectric": 3770,
      "rectangular": 3771,
      "sending": 3772,
      "envelop": 3773,
      "exit": 3774,
      "intake": 3775,
      "perfor": 3776,
      "diaph": 3777,
      "outputting": 3778,
      "filters": 3779,
      "##ways": 3780,
      "compensation": 3781,
      "fluores": 3782,
      "##hydro": 3783,
      "finger": 3784,
      "moisture": 3785,
      "rubber": 3786,
      "transceiver": 3787,
      "15": 3788,
      "##zed": 3789,
      "inters": 3790,
      "respond": 3791,
      "acids": 3792,
      "introducing": 3793,
      "peak": 3794,
      "assigned": 3795,
      "thermoplastic": 3796,
      "architect": 3797,
      "diaphrag": 3798,
      "fat": 3799,
      "sent": 3800,
      "elast": 3801,
      "outwardly": 3802,
      "shock": 3803,
      "suppress": 3804,
      "transmits": 3805,
      "instant": 3806,
      "sequentially": 3807,
      "technology": 3808,
      "fastener": 3809,
      "fraction": 3810,
      "suspend": 3811,
      "squ": 3812,
      "##ster": 3813,
      "apply": 3814,
      "algorithm": 3815,
      "events": 3816,
      "iron": 3817,
      "##atial": 3818,
      "##ager": 3819,
      "heav": 3820,
      "attenu": 3821,
      "permitting": 3822,
      "automated": 3823,
      "monitored": 3824,
      "encoded": 3825,
      "ultra": 3826,
      "##icial": 3827,
      "cook": 3828,
      "##ulsion": 3829,
      "therewith": 3830,
      "emitted": 3831,
      "pull": 3832,
      "encaps": 3833,
      "##brid": 3834,
      "lifting": 3835,
      "employing": 3836,
      "binding": 3837,
      "##ee": 3838,
      "##anges": 3839,
      "recognition": 3840,
      "fib": 3841,
      "tum": 3842,
      "##arp": 3843,
      "##luor": 3844,
      "bypass": 3845,
      "flows": 3846,
      "ions": 3847,
      "halogen": 3848,
      "crystall": 3849,
      "neck": 3850,
      "earth": 3851,
      "fact": 3852,
      "projecting": 3853,
      "strain": 3854,
      "linkage": 3855,
      "roof": 3856,
      "etc": 3857,
      "##ethyl": 3858,
      "accuracy": 3859,
      "diseases": 3860,
      "##zym": 3861,
      "codes": 3862,
      "adver": 3863,
      "cord": 3864,
      "opened": 3865,
      "ammon": 3866,
      "blocking": 3867,
      "fixture": 3868,
      "activation": 3869,
      "plun": 3870,
      "incorporated": 3871,
      "satisf": 3872,
      "doped": 3873,
      "cache": 3874,
      "hybrid": 3875,
      "keys": 3876,
      "rails": 3877,
      "accurate": 3878,
      "absorbing": 3879,
      "diaphragm": 3880,
      "ped": 3881,
      "welding": 3882,
      "##tile": 3883,
      "states": 3884,
      "spin": 3885,
      "obser": 3886,
      "displays": 3887,
      "mechanically": 3888,
      "integer": 3889,
      "##ounts": 3890,
      "enhance": 3891,
      "propell": 3892,
      "depositing": 3893,
      "bow": 3894,
      "ic": 3895,
      "map": 3896,
      "pil": 3897,
      "stret": 3898,
      "tri": 3899,
      "capture": 3900,
      "flux": 3901,
      "drives": 3902,
      "performs": 3903,
      "biom": 3904,
      "room": 3905,
      "fabricating": 3906,
      "transformer": 3907,
      "successive": 3908,
      "benef": 3909,
      "irradi": 3910,
      "mac": 3911,
      "##yn": 3912,
      "##bal": 3913,
      "##ulations": 3914,
      "compati": 3915,
      "training": 3916,
      "cho": 3917,
      "spatial": 3918,
      "files": 3919,
      "combin": 3920,
      "tools": 3921,
      "programming": 3922,
      "isolation": 3923,
      "establish": 3924,
      "significantly": 3925,
      "diagnostic": 3926,
      "still": 3927,
      "##po": 3928,
      "##after": 3929,
      "reverse": 3930,
      "##amine": 3931,
      "##ung": 3932,
      "exerc": 3933,
      "subjected": 3934,
      "saw": 3935,
      "manually": 3936,
      "folded": 3937,
      "render": 3938,
      "touch": 3939,
      "trad": 3940,
      "connects": 3941,
      "alternating": 3942,
      "acceleration": 3943,
      "mam": 3944,
      "enzym": 3945,
      "swing": 3946,
      "switched": 3947,
      "extraction": 3948,
      "toner": 3949,
      "refer": 3950,
      "##rial": 3951,
      "mouth": 3952,
      "shi": 3953,
      "pressing": 3954,
      "voltages": 3955,
      "identity": 3956,
      "transporting": 3957,
      "accommodate": 3958,
      "wires": 3959,
      "##als": 3960,
      "tooth": 3961,
      "manual": 3962,
      "combining": 3963,
      "readily": 3964,
      "needed": 3965,
      "logical": 3966,
      "propag": 3967,
      "employs": 3968,
      "equipped": 3969,
      "affixed": 3970,
      "gel": 3971,
      "gam": 3972,
      "##hole": 3973,
      "##onduc": 3974,
      "adsor": 3975,
      "appear": 3976,
      "emitter": 3977,
      "overla": 3978,
      "cabin": 3979,
      "electrolyte": 3980,
      "bacter": 3981,
      "ii": 3982,
      "sensiti": 3983,
      "shoe": 3984,
      "##ascular": 3985,
      "suspended": 3986,
      "cush": 3987,
      "mand": 3988,
      "male": 3989,
      "reacting": 3990,
      "incoming": 3991,
      "diseng": 3992,
      "corros": 3993,
      "slur": 3994,
      "matter": 3995,
      "absorption": 3996,
      "infrared": 3997,
      "plunger": 3998,
      "cushion": 3999,
      "duct": 4000,
      "grip": 4001,
      "taper": 4002,
      "wet": 4003,
      "anode": 4004,
      "##rem": 4005,
      "##imeter": 4006,
      "flash": 4007,
      "iden": 4008,
      "covers": 4009,
      "coils": 4010,
      "completely": 4011,
      "isolated": 4012,
      "discharging": 4013,
      "fash": 4014,
      "##ude": 4015,
      "##rot": 4016,
      "child": 4017,
      "spacing": 4018,
      "extrem": 4019,
      "variation": 4020,
      "inserting": 4021,
      "folding": 4022,
      "addresses": 4023,
      "visc": 4024,
      "penet": 4025,
      "fashion": 4026,
      "gar": 4027,
      "##ense": 4028,
      "signature": 4029,
      "insulator": 4030,
      "slip": 4031,
      "accordingly": 4032,
      "actuation": 4033,
      "links": 4034,
      "rings": 4035,
      "minimize": 4036,
      "visible": 4037,
      "communicate": 4038,
      "facilitates": 4039,
      "efficiently": 4040,
      "repeated": 4041,
      "wra": 4042,
      "##water": 4043,
      "##orting": 4044,
      "##asive": 4045,
      "prost": 4046,
      "adher": 4047,
      "phone": 4048,
      "retention": 4049,
      "repair": 4050,
      "networks": 4051,
      "alternate": 4052,
      "thermally": 4053,
      "spectrum": 4054,
      "elastomer": 4055,
      "mammal": 4056,
      "30": 4057,
      "lang": 4058,
      "sink": 4059,
      "##draw": 4060,
      "iss": 4061,
      "strap": 4062,
      "brush": 4063,
      "predef": 4064,
      "substantial": 4065,
      "analyzing": 4066,
      "phenyl": 4067,
      "50": 4068,
      "aromatic": 4069,
      "binary": 4070,
      "cred": 4071,
      "mill": 4072,
      "##tally": 4073,
      "##escop": 4074,
      "withdraw": 4075,
      "##herical": 4076,
      "thereafter": 4077,
      "relie": 4078,
      "caps": 4079,
      "collar": 4080,
      "fields": 4081,
      "indicates": 4082,
      "indicia": 4083,
      "join": 4084,
      "medic": 4085,
      "deflection": 4086,
      "cassette": 4087,
      "convenient": 4088,
      "mating": 4089,
      "stent": 4090,
      "stages": 4091,
      "static": 4092,
      "orif": 4093,
      "##ellent": 4094,
      "manif": 4095,
      "serial": 4096,
      "biasing": 4097,
      "errors": 4098,
      "alternative": 4099,
      "100": 4100,
      "induced": 4101,
      "dynam": 4102,
      "safe": 4103,
      "guiding": 4104,
      "bulk": 4105,
      "ultrasonic": 4106,
      "releasably": 4107,
      "orifice": 4108,
      "hang": 4109,
      "##amm": 4110,
      "relating": 4111,
      "pumping": 4112,
      "sequences": 4113,
      "dimensions": 4114,
      "laterally": 4115,
      "pharmaceutically": 4116,
      "damper": 4117,
      "synthesis": 4118,
      "better": 4119,
      "scheme": 4120,
      "fall": 4121,
      "ip": 4122,
      "##ld": 4123,
      "##link": 4124,
      "chass": 4125,
      "numer": 4126,
      "grating": 4127,
      "carriage": 4128,
      "purch": 4129,
      "frag": 4130,
      "##neum": 4131,
      "protrusion": 4132,
      "telescop": 4133,
      "promot": 4134,
      "mandrel": 4135,
      "predefined": 4136,
      "chassis": 4137,
      "mail": 4138,
      "##yond": 4139,
      "##ryl": 4140,
      "##ental": 4141,
      "beyond": 4142,
      "##imen": 4143,
      "preform": 4144,
      "percent": 4145,
      "hyper": 4146,
      "distor": 4147,
      "axle": 4148,
      "covered": 4149,
      "fabrication": 4150,
      "documents": 4151,
      "established": 4152,
      "problem": 4153,
      "problems": 4154,
      "bodies": 4155,
      "pneum": 4156,
      "##osis": 4157,
      "truck": 4158,
      "emerg": 4159,
      "corner": 4160,
      "rolling": 4161,
      "delivered": 4162,
      "presc": 4163,
      "washing": 4164,
      "molecules": 4165,
      "conjunction": 4166,
      "identical": 4167,
      "placement": 4168,
      "serves": 4169,
      "multic": 4170,
      "branch": 4171,
      "discrete": 4172,
      "polarization": 4173,
      "capacitors": 4174,
      "balance": 4175,
      "dissol": 4176,
      "ensure": 4177,
      "furnace": 4178,
      "advertis": 4179,
      "ice": 4180,
      "##vation": 4181,
      "##order": 4182,
      "##anium": 4183,
      "##oscop": 4184,
      "modulator": 4185,
      "##assemb": 4186,
      "volatile": 4187,
      "mechanisms": 4188,
      "excellent": 4189,
      "lumin": 4190,
      "melt": 4191,
      "smooth": 4192,
      "gripping": 4193,
      "##oxylic": 4194,
      "template": 4195,
      "18": 4196,
      "taking": 4197,
      "##aim": 4198,
      "##eline": 4199,
      "complement": 4200,
      "polys": 4201,
      "bars": 4202,
      "waveform": 4203,
      "stacked": 4204,
      "etch": 4205,
      "slurry": 4206,
      "her": 4207,
      "tit": 4208,
      "##rate": 4209,
      "coding": 4210,
      "##ational": 4211,
      "thr": 4212,
      "##ulus": 4213,
      "shared": 4214,
      "pool": 4215,
      "obj": 4216,
      "polymers": 4217,
      "great": 4218,
      "supplies": 4219,
      "synchronization": 4220,
      "approach": 4221,
      "eliminating": 4222,
      "telec": 4223,
      "waveguide": 4224,
      "neutral": 4225,
      "bump": 4226,
      "reactive": 4227,
      "show": 4228,
      "soil": 4229,
      "collaps": 4230,
      "solids": 4231,
      "incorporating": 4232,
      "accurately": 4233,
      "derivative": 4234,
      "bolt": 4235,
      "architecture": 4236,
      "ga": 4237,
      "gene": 4238,
      "tail": 4239,
      "##asp": 4240,
      "##uture": 4241,
      "exper": 4242,
      "resis": 4243,
      "notif": 4244,
      "magnets": 4245,
      "semi": 4246,
      "risk": 4247,
      "exceeds": 4248,
      "own": 4249,
      "broadcast": 4250,
      "photosensitive": 4251,
      "langu": 4252,
      "pub": 4253,
      "pitch": 4254,
      "rates": 4255,
      "##lay": 4256,
      "##aff": 4257,
      "##ats": 4258,
      "##ables": 4259,
      "regulating": 4260,
      "directing": 4261,
      "soluble": 4262,
      "separator": 4263,
      "corresponds": 4264,
      "comparator": 4265,
      "executing": 4266,
      "television": 4267,
      "viewing": 4268,
      "drawing": 4269,
      "synthetic": 4270,
      "##bing": 4271,
      "##eti": 4272,
      "##edient": 4273,
      "devi": 4274,
      "##apy": 4275,
      "scatter": 4276,
      "collector": 4277,
      "representative": 4278,
      "##train": 4279,
      "limiting": 4280,
      "crank": 4281,
      "commands": 4282,
      "fault": 4283,
      "diffusion": 4284,
      "leakage": 4285,
      "configurations": 4286,
      "fitted": 4287,
      "gen": 4288,
      "rock": 4289,
      "sil": 4290,
      "fore": 4291,
      "##ull": 4292,
      "spind": 4293,
      "dispos": 4294,
      "##orders": 4295,
      "gran": 4296,
      "deck": 4297,
      "##ancing": 4298,
      "reader": 4299,
      "slidably": 4300,
      "shifting": 4301,
      "charged": 4302,
      "cables": 4303,
      "rapidly": 4304,
      "deploy": 4305,
      "atmosphere": 4306,
      "ignition": 4307,
      "##exp": 4308,
      "concerns": 4309,
      "burn": 4310,
      "duration": 4311,
      "ether": 4312,
      "##emp": 4313,
      "##work": 4314,
      "reag": 4315,
      "##ands": 4316,
      "photor": 4317,
      "abr": 4318,
      "bright": 4319,
      "expression": 4320,
      "boot": 4321,
      "decision": 4322,
      "collected": 4323,
      "films": 4324,
      "mapping": 4325,
      "streams": 4326,
      "business": 4327,
      "cylinders": 4328,
      "drawn": 4329,
      "spool": 4330,
      "lith": 4331,
      "ter": 4332,
      "toler": 4333,
      "exempl": 4334,
      "protecting": 4335,
      "improves": 4336,
      "query": 4337,
      "keyboard": 4338,
      "changed": 4339,
      "becomes": 4340,
      "refractive": 4341,
      "lumen": 4342,
      "rules": 4343,
      "##bit": 4344,
      "##uff": 4345,
      "##wave": 4346,
      "##herent": 4347,
      "hair": 4348,
      "particip": 4349,
      "coup": 4350,
      "reflecting": 4351,
      "##greg": 4352,
      "dispersion": 4353,
      "version": 4354,
      "disconn": 4355,
      "critical": 4356,
      "dynamically": 4357,
      "distortion": 4358,
      "rim": 4359,
      "##arning": 4360,
      "##urable": 4361,
      "stat": 4362,
      "reach": 4363,
      "##iles": 4364,
      "shown": 4365,
      "flame": 4366,
      "##ribed": 4367,
      "criter": 4368,
      "proximity": 4369,
      "rows": 4370,
      "drying": 4371,
      "heavy": 4372,
      "combinations": 4373,
      "ingr": 4374,
      "##iling": 4375,
      "##aceable": 4376,
      "shor": 4377,
      "regard": 4378,
      "regener": 4379,
      "appliance": 4380,
      "aggreg": 4381,
      "care": 4382,
      "sheath": 4383,
      "extracting": 4384,
      "copolymer": 4385,
      "resonator": 4386,
      "decoding": 4387,
      "raised": 4388,
      "trailer": 4389,
      "ingredient": 4390,
      "round": 4391,
      "##ze": 4392,
      "conform": 4393,
      "##urated": 4394,
      "provision": 4395,
      "##osity": 4396,
      "supplement": 4397,
      "sensed": 4398,
      "managing": 4399,
      "electrostatic": 4400,
      "amounts": 4401,
      "decomp": 4402,
      "##ressed": 4403,
      "slider": 4404,
      "sufficiently": 4405,
      "schedul": 4406,
      "inspection": 4407,
      "immediately": 4408,
      "envelope": 4409,
      "thrust": 4410,
      "dust": 4411,
      "emp": 4412,
      "wed": 4413,
      "##icity": 4414,
      "##actic": 4415,
      "##irable": 4416,
      "project": 4417,
      "disorders": 4418,
      "protect": 4419,
      "individually": 4420,
      "followed": 4421,
      "moveable": 4422,
      "retainer": 4423,
      "proteins": 4424,
      "bending": 4425,
      "pocket": 4426,
      "ram": 4427,
      "##bin": 4428,
      "##letion": 4429,
      "react": 4430,
      "provider": 4431,
      "intr": 4432,
      "subm": 4433,
      "waves": 4434,
      "numbers": 4435,
      "machines": 4436,
      "enabled": 4437,
      "environmental": 4438,
      "##ommun": 4439,
      "administration": 4440,
      "reliability": 4441,
      "kit": 4442,
      "wor": 4443,
      "##ulder": 4444,
      "trim": 4445,
      "##omers": 4446,
      "diver": 4447,
      "controllable": 4448,
      "mainten": 4449,
      "bio": 4450,
      "chips": 4451,
      "nozzles": 4452,
      "interconnection": 4453,
      "should": 4454,
      "shoulder": 4455,
      "spectral": 4456,
      "entering": 4457,
      "hydroxy": 4458,
      "manifold": 4459,
      "maintenance": 4460,
      "11": 4461,
      "cd": 4462,
      "hom": 4463,
      "tet": 4464,
      "ster": 4465,
      "meter": 4466,
      "outward": 4467,
      "loads": 4468,
      "integrally": 4469,
      "match": 4470,
      "fabricated": 4471,
      "modifying": 4472,
      "implementation": 4473,
      "developing": 4474,
      "eliminate": 4475,
      "symm": 4476,
      "previous": 4477,
      "sulfur": 4478,
      "behav": 4479,
      "mer": 4480,
      "mos": 4481,
      "venti": 4482,
      "yet": 4483,
      "##bor": 4484,
      "##fin": 4485,
      "##sm": 4486,
      "inv": 4487,
      "##olar": 4488,
      "acting": 4489,
      "recycl": 4490,
      "indust": 4491,
      "##aneous": 4492,
      "decor": 4493,
      "accessible": 4494,
      "shelf": 4495,
      "development": 4496,
      "retained": 4497,
      "decoder": 4498,
      "reliable": 4499,
      "however": 4500,
      "stiff": 4501,
      "stroke": 4502,
      "sensitivity": 4503,
      "language": 4504,
      "exemplary": 4505,
      "cul": 4506,
      "polyp": 4507,
      "distinc": 4508,
      "releasing": 4509,
      "occurr": 4510,
      "proximate": 4511,
      "securely": 4512,
      "decrease": 4513,
      "degrees": 4514,
      "telecommun": 4515,
      "benz": 4516,
      "glyc": 4517,
      "sector": 4518,
      "ta": 4519,
      "##fts": 4520,
      "##isition": 4521,
      "stock": 4522,
      "##ventive": 4523,
      "claim": 4524,
      "insulated": 4525,
      "upwardly": 4526,
      "##ancy": 4527,
      "hydroph": 4528,
      "influ": 4529,
      "calculation": 4530,
      "ballo": 4531,
      "interconnect": 4532,
      "dividing": 4533,
      "purposes": 4534,
      "administering": 4535,
      "dissip": 4536,
      "spindle": 4537,
      "##ta": 4538,
      "deformation": 4539,
      "incident": 4540,
      "entit": 4541,
      "optically": 4542,
      "translation": 4543,
      "processors": 4544,
      "heal": 4545,
      "extract": 4546,
      "precur": 4547,
      "behind": 4548,
      "applicable": 4549,
      "bub": 4550,
      "buck": 4551,
      "go": 4552,
      "last": 4553,
      "py": 4554,
      "##ley": 4555,
      "##used": 4556,
      "cand": 4557,
      "specimen": 4558,
      "utility": 4559,
      "photoc": 4560,
      "reflection": 4561,
      "initially": 4562,
      "resultant": 4563,
      "developer": 4564,
      "horizontally": 4565,
      "polarity": 4566,
      "retracted": 4567,
      "accommodating": 4568,
      "beneath": 4569,
      "corrosion": 4570,
      "tapered": 4571,
      "##ground": 4572,
      "##inity": 4573,
      "##ano": 4574,
      "##anol": 4575,
      "restor": 4576,
      "upward": 4577,
      "cav": 4578,
      "measures": 4579,
      "book": 4580,
      "grain": 4581,
      "origin": 4582,
      "immers": 4583,
      "interposed": 4584,
      "procedures": 4585,
      "remains": 4586,
      "sends": 4587,
      "constrain": 4588,
      "queue": 4589,
      "25": 4590,
      "dna": 4591,
      "##rous": 4592,
      "interactive": 4593,
      "upr": 4594,
      "electroc": 4595,
      "indicate": 4596,
      "job": 4597,
      "##ethylene": 4598,
      "resonance": 4599,
      "hinged": 4600,
      "oxidation": 4601,
      "nucleic": 4602,
      "evaluation": 4603,
      "temporarily": 4604,
      "bank": 4605,
      "econ": 4606,
      "latter": 4607,
      "##bar": 4608,
      "##upl": 4609,
      "##ken": 4610,
      "injected": 4611,
      "##etary": 4612,
      "cour": 4613,
      "compl": 4614,
      "intra": 4615,
      "servo": 4616,
      "protected": 4617,
      "passageway": 4618,
      "optimized": 4619,
      "words": 4620,
      "inverter": 4621,
      "orthog": 4622,
      "entity": 4623,
      "econom": 4624,
      "ap": 4625,
      "hem": 4626,
      "net": 4627,
      "wood": 4628,
      "inventive": 4629,
      "acts": 4630,
      "##rist": 4631,
      "##ibly": 4632,
      "radical": 4633,
      "therapy": 4634,
      "utilization": 4635,
      "prevented": 4636,
      "describes": 4637,
      "proposed": 4638,
      "remotely": 4639,
      "developed": 4640,
      "strips": 4641,
      "interpol": 4642,
      "updated": 4643,
      "residual": 4644,
      "health": 4645,
      "oc": 4646,
      "##ience": 4647,
      "##uent": 4648,
      "applies": 4649,
      "weigh": 4650,
      "exposing": 4651,
      "biased": 4652,
      "readable": 4653,
      "microwave": 4654,
      "molten": 4655,
      "green": 4656,
      "become": 4657,
      "##oidal": 4658,
      "shutter": 4659,
      "dropl": 4660,
      "##point": 4661,
      "pig": 4662,
      "tap": 4663,
      "##ystem": 4664,
      "ones": 4665,
      "##ateg": 4666,
      "##ries": 4667,
      "rectif": 4668,
      "filtered": 4669,
      "carries": 4670,
      "header": 4671,
      "activating": 4672,
      "minimal": 4673,
      "dye": 4674,
      "fract": 4675,
      "optimal": 4676,
      "holds": 4677,
      "demod": 4678,
      "retract": 4679,
      "pneumatic": 4680,
      "balloon": 4681,
      "fund": 4682,
      "gates": 4683,
      "##igation": 4684,
      "syring": 4685,
      "signaling": 4686,
      "assess": 4687,
      "commerc": 4688,
      "black": 4689,
      "attr": 4690,
      "sectional": 4691,
      "cards": 4692,
      "registration": 4693,
      "concentric": 4694,
      "programmed": 4695,
      "paint": 4696,
      "objective": 4697,
      "nm": 4698,
      "upl": 4699,
      "##oti": 4700,
      "##iac": 4701,
      "degrad": 4702,
      "spherical": 4703,
      "perimeter": 4704,
      "throughout": 4705,
      "rotates": 4706,
      "grinding": 4707,
      "convert": 4708,
      "cooled": 4709,
      "polishing": 4710,
      "rods": 4711,
      "route": 4712,
      "##abilities": 4713,
      "acquisition": 4714,
      "expanded": 4715,
      "absence": 4716,
      "robot": 4717,
      "behavior": 4718,
      "gase": 4719,
      "mal": 4720,
      "vit": 4721,
      "var": 4722,
      "##oalkyl": 4723,
      "##nor": 4724,
      "##ories": 4725,
      "##reg": 4726,
      "strong": 4727,
      "##eller": 4728,
      "division": 4729,
      "amine": 4730,
      "coupler": 4731,
      "separately": 4732,
      "longer": 4733,
      "##ilicon": 4734,
      "occurring": 4735,
      "##versely": 4736,
      "incorporates": 4737,
      "split": 4738,
      "damping": 4739,
      "alkali": 4740,
      "mesh": 4741,
      "overlapping": 4742,
      "gaseous": 4743,
      "fet": 4744,
      "##ext": 4745,
      "progress": 4746,
      "bead": 4747,
      "exer": 4748,
      "##fort": 4749,
      "prep": 4750,
      "mean": 4751,
      "multimedi": 4752,
      "##rest": 4753,
      "party": 4754,
      "additive": 4755,
      "latching": 4756,
      "executed": 4757,
      "melting": 4758,
      "guided": 4759,
      "correlation": 4760,
      "##ocyan": 4761,
      "coaxial": 4762,
      "multimedia": 4763,
      "slow": 4764,
      "tone": 4765,
      "##aft": 4766,
      "##enoid": 4767,
      "beg": 4768,
      "##elling": 4769,
      "##ryst": 4770,
      "magnitude": 4771,
      "##ivers": 4772,
      "cutter": 4773,
      "bottle": 4774,
      "##teb": 4775,
      "joining": 4776,
      "maintains": 4777,
      "arrays": 4778,
      "road": 4779,
      "minimizing": 4780,
      "playing": 4781,
      "absorber": 4782,
      "facilitating": 4783,
      "inhibiting": 4784,
      "estimated": 4785,
      "reinforced": 4786,
      "allocated": 4787,
      "gravity": 4788,
      "upright": 4789,
      "cast": 4790,
      "nick": 4791,
      "ramp": 4792,
      "##tration": 4793,
      "##den": 4794,
      "##fo": 4795,
      "##gl": 4796,
      "##urr": 4797,
      "trench": 4798,
      "tex": 4799,
      "neu": 4800,
      "whole": 4801,
      "patterned": 4802,
      "downward": 4803,
      "periodically": 4804,
      "turning": 4805,
      "ribs": 4806,
      "contrast": 4807,
      "circumferential": 4808,
      "aug": 4809,
      "cp": 4810,
      "dental": 4811,
      "hose": 4812,
      "raw": 4813,
      "rather": 4814,
      "were": 4815,
      "##stit": 4816,
      "reel": 4817,
      "suited": 4818,
      "undes": 4819,
      "flight": 4820,
      "directional": 4821,
      "accessory": 4822,
      "alkoxy": 4823,
      "angles": 4824,
      "communicates": 4825,
      "establishing": 4826,
      "focusing": 4827,
      "ribbon": 4828,
      "applicator": 4829,
      "exercise": 4830,
      "occurrence": 4831,
      "candid": 4832,
      "zones": 4833,
      "spaces": 4834,
      "##izable": 4835,
      "intell": 4836,
      "strut": 4837,
      "##illary": 4838,
      "discr": 4839,
      "periods": 4840,
      "fasten": 4841,
      "##volution": 4842,
      "columns": 4843,
      "recipient": 4844,
      "exhibit": 4845,
      "takes": 4846,
      "usage": 4847,
      "interm": 4848,
      "serving": 4849,
      "calibr": 4850,
      "correcting": 4851,
      "##ugated": 4852,
      "aligning": 4853,
      "encoder": 4854,
      "superc": 4855,
      "compensating": 4856,
      "eliminates": 4857,
      "reinforcing": 4858,
      "##organic": 4859,
      "fluorescent": 4860,
      "prescribed": 4861,
      "binder": 4862,
      "fuse": 4863,
      "harm": 4864,
      "lt": 4865,
      "##be": 4866,
      "##ks": 4867,
      "spir": 4868,
      "unlock": 4869,
      "##ucture": 4870,
      "serve": 4871,
      "curv": 4872,
      "gluc": 4873,
      "humid": 4874,
      "help": 4875,
      "graph": 4876,
      "deployed": 4877,
      "advantageously": 4878,
      "syringe": 4879,
      "nickel": 4880,
      "past": 4881,
      "##cence": 4882,
      "##ead": 4883,
      "##esist": 4884,
      "sharp": 4885,
      "##iph": 4886,
      "abnor": 4887,
      "presentation": 4888,
      "requires": 4889,
      "princ": 4890,
      "float": 4891,
      "deposit": 4892,
      "advantages": 4893,
      "middle": 4894,
      "industrial": 4895,
      "abnormal": 4896,
      "lic": 4897,
      "pet": 4898,
      "sizes": 4899,
      "##uding": 4900,
      "##idges": 4901,
      "##urities": 4902,
      "firing": 4903,
      "phases": 4904,
      "scr": 4905,
      "branc": 4906,
      "who": 4907,
      "passive": 4908,
      "grasp": 4909,
      "accessing": 4910,
      "conditioning": 4911,
      "seals": 4912,
      "designated": 4913,
      "extracted": 4914,
      "built": 4915,
      "intervals": 4916,
      "situated": 4917,
      "boundary": 4918,
      "gradient": 4919,
      "polysilicon": 4920,
      "bund": 4921,
      "ol": 4922,
      "uv": 4923,
      "injecting": 4924,
      "inorganic": 4925,
      "##tible": 4926,
      "##itten": 4927,
      "##ises": 4928,
      "##tered": 4929,
      "context": 4930,
      "pop": 4931,
      "extent": 4932,
      "overc": 4933,
      "##isms": 4934,
      "centrif": 4935,
      "mixtures": 4936,
      "crack": 4937,
      "decreasing": 4938,
      "deformable": 4939,
      "curing": 4940,
      "home": 4941,
      "ole": 4942,
      "##vant": 4943,
      "##unch": 4944,
      "##ify": 4945,
      "##thal": 4946,
      "selects": 4947,
      "corn": 4948,
      "flag": 4949,
      "##hesis": 4950,
      "lenses": 4951,
      "springs": 4952,
      "modification": 4953,
      "marker": 4954,
      "build": 4955,
      "simultaneous": 4956,
      "copy": 4957,
      "##azine": 4958,
      "connectable": 4959,
      "accumulator": 4960,
      "reproducing": 4961,
      "burner": 4962,
      "consumer": 4963,
      "detachably": 4964,
      "coordinate": 4965,
      "cooking": 4966,
      "precursor": 4967,
      "ever": 4968,
      "much": 4969,
      "nam": 4970,
      "sites": 4971,
      "##word": 4972,
      "reaches": 4973,
      "debr": 4974,
      "detail": 4975,
      "##ipt": 4976,
      "hex": 4977,
      "##ogram": 4978,
      "regarding": 4979,
      "curve": 4980,
      "subsystem": 4981,
      "##avor": 4982,
      "market": 4983,
      "turned": 4984,
      "aspects": 4985,
      "##ogenic": 4986,
      "speaker": 4987,
      "compatible": 4988,
      "credit": 4989,
      "complementary": 4990,
      "debris": 4991,
      "bath": 4992,
      "##mark": 4993,
      "##we": 4994,
      "priv": 4995,
      "##ifier": 4996,
      "emulsion": 4997,
      "locating": 4998,
      "hyp": 4999,
      "allowed": 5000,
      "passages": 5001,
      "shapes": 5002,
      "programs": 5003,
      "movements": 5004,
      "infection": 5005,
      "precision": 5006,
      "excitation": 5007,
      "nitride": 5008,
      "recesses": 5009,
      "requested": 5010,
      "expandable": 5011,
      "discharged": 5012,
      "square": 5013,
      "couple": 5014,
      "criteria": 5015,
      "fif": 5016,
      "hist": 5017,
      "od": 5018,
      "vic": 5019,
      "##otive": 5020,
      "##eral": 5021,
      "##irection": 5022,
      "lik": 5023,
      "##ectivity": 5024,
      "carriers": 5025,
      "quad": 5026,
      "lengths": 5027,
      "physi": 5028,
      "replaced": 5029,
      "enclosed": 5030,
      "records": 5031,
      "enhancing": 5032,
      "receptor": 5033,
      "satell": 5034,
      "avoiding": 5035,
      "functionality": 5036,
      "##shaft": 5037,
      "tilt": 5038,
      "graphical": 5039,
      "##icycle": 5040,
      "dil": 5041,
      "wing": 5042,
      "##aled": 5043,
      "##itors": 5044,
      "##entric": 5045,
      "coded": 5046,
      "enough": 5047,
      "acet": 5048,
      "univers": 5049,
      "seating": 5050,
      "cargo": 5051,
      "##encing": 5052,
      "microb": 5053,
      "downwardly": 5054,
      "finally": 5055,
      "resonant": 5056,
      "allocation": 5057,
      "proportional": 5058,
      "captured": 5059,
      "factors": 5060,
      "brightness": 5061,
      "orthogonal": 5062,
      "ded": 5063,
      "stic": 5064,
      "##fet": 5065,
      "##ury": 5066,
      "##osen": 5067,
      "unc": 5068,
      "sampled": 5069,
      "costs": 5070,
      "cannot": 5071,
      "encryp": 5072,
      "garment": 5073,
      "cavities": 5074,
      "40": 5075,
      "jacket": 5076,
      "##luent": 5077,
      "prevention": 5078,
      "colors": 5079,
      "look": 5080,
      "species": 5081,
      "instance": 5082,
      "pipes": 5083,
      "alternately": 5084,
      "catalytic": 5085,
      "update": 5086,
      "bill": 5087,
      "ecc": 5088,
      "pall": 5089,
      "##get": 5090,
      "##olet": 5091,
      "contrib": 5092,
      "interle": 5093,
      "selector": 5094,
      "diodes": 5095,
      "attemp": 5096,
      "boom": 5097,
      "association": 5098,
      "monitors": 5099,
      "foil": 5100,
      "pulling": 5101,
      "mixer": 5102,
      "description": 5103,
      "patients": 5104,
      "fastened": 5105,
      "tracks": 5106,
      "demand": 5107,
      "elevated": 5108,
      "elastomeric": 5109,
      "distinct": 5110,
      "jack": 5111,
      "mot": 5112,
      "must": 5113,
      "put": 5114,
      "##erior": 5115,
      "toil": 5116,
      "spot": 5117,
      "moment": 5118,
      "artif": 5119,
      "saving": 5120,
      "axes": 5121,
      "electronically": 5122,
      "periodic": 5123,
      "pivoting": 5124,
      "preset": 5125,
      "manufactured": 5126,
      "slidable": 5127,
      "induction": 5128,
      "tunnel": 5129,
      "laminated": 5130,
      "sandw": 5131,
      "cabinet": 5132,
      "emergency": 5133,
      "##layer": 5134,
      "bicycle": 5135,
      "cement": 5136,
      "dos": 5137,
      "hier": 5138,
      "mag": 5139,
      "##uate": 5140,
      "##etrical": 5141,
      "sug": 5142,
      "##och": 5143,
      "unload": 5144,
      "sole": 5145,
      "receipt": 5146,
      "layout": 5147,
      "##rought": 5148,
      "flip": 5149,
      "solenoid": 5150,
      "redund": 5151,
      "radius": 5152,
      "mono": 5153,
      "adaptive": 5154,
      "specification": 5155,
      "facility": 5156,
      "called": 5157,
      "boards": 5158,
      "introduction": 5159,
      "completed": 5160,
      "transactions": 5161,
      "coefficients": 5162,
      "viscosity": 5163,
      "resistive": 5164,
      "deployment": 5165,
      "course": 5166,
      "##stituted": 5167,
      "hierar": 5168,
      "bend": 5169,
      "bra": 5170,
      "lad": 5171,
      "ps": 5172,
      "##ampl": 5173,
      "##cement": 5174,
      "##esis": 5175,
      "inwardly": 5176,
      "##rob": 5177,
      "beverage": 5178,
      "contour": 5179,
      "moreover": 5180,
      "integration": 5181,
      "smart": 5182,
      "bands": 5183,
      "calls": 5184,
      "optimum": 5185,
      "##going": 5186,
      "stimulation": 5187,
      "club": 5188,
      "cluster": 5189,
      "##activ": 5190,
      "relief": 5191,
      "photoresist": 5192,
      "##rystall": 5193,
      "every": 5194,
      "bent": 5195,
      "ble": 5196,
      "den": 5197,
      "sac": 5198,
      "##icated": 5199,
      "formulation": 5200,
      "bring": 5201,
      "##odium": 5202,
      "depression": 5203,
      "needs": 5204,
      "sequential": 5205,
      "presel": 5206,
      "pipeline": 5207,
      "externally": 5208,
      "cardiac": 5209,
      "transported": 5210,
      "nanop": 5211,
      "inflamm": 5212,
      "schedule": 5213,
      "inclined": 5214,
      "titanium": 5215,
      "deviation": 5216,
      "wedge": 5217,
      "toilet": 5218,
      "brought": 5219,
      "dose": 5220,
      "nh": 5221,
      "##bles": 5222,
      "##wing": 5223,
      "see": 5224,
      "##ogene": 5225,
      "filament": 5226,
      "##ronic": 5227,
      "passeng": 5228,
      "boost": 5229,
      "verification": 5230,
      "implementing": 5231,
      "profiles": 5232,
      "scanner": 5233,
      "checking": 5234,
      "wavelengths": 5235,
      "estimate": 5236,
      "analyzed": 5237,
      "tablet": 5238,
      "jaws": 5239,
      "symbols": 5240,
      "encryption": 5241,
      "closely": 5242,
      "appearance": 5243,
      "greatly": 5244,
      "nav": 5245,
      "##ipp": 5246,
      "##orts": 5247,
      "##tions": 5248,
      "##othing": 5249,
      "exist": 5250,
      "interch": 5251,
      "capabilities": 5252,
      "metals": 5253,
      "caller": 5254,
      "environments": 5255,
      "advanced": 5256,
      "virus": 5257,
      "returned": 5258,
      "payment": 5259,
      "explos": 5260,
      "varied": 5261,
      "universal": 5262,
      "eccentric": 5263,
      "ham": 5264,
      "kind": 5265,
      "pyr": 5266,
      "##bag": 5267,
      "##zone": 5268,
      "##hest": 5269,
      "##inning": 5270,
      "##amide": 5271,
      "transformation": 5272,
      "##roll": 5273,
      "##ipolar": 5274,
      "throughput": 5275,
      "expected": 5276,
      "packages": 5277,
      "converts": 5278,
      "##ologically": 5279,
      "detectors": 5280,
      "##rown": 5281,
      "exhibits": 5282,
      "crystalline": 5283,
      "60": 5284,
      "ce": 5285,
      "vinyl": 5286,
      "##cd": 5287,
      "##che": 5288,
      "##ars": 5289,
      "conical": 5290,
      "##ided": 5291,
      "##osit": 5292,
      "firm": 5293,
      "chuck": 5294,
      "prem": 5295,
      "perf": 5296,
      "apparatuses": 5297,
      "manager": 5298,
      "capillary": 5299,
      "movably": 5300,
      "utilize": 5301,
      "few": 5302,
      "wash": 5303,
      "stabilizing": 5304,
      "retrieval": 5305,
      "contaminants": 5306,
      "geometry": 5307,
      "interlocking": 5308,
      "joints": 5309,
      "public": 5310,
      "fasteners": 5311,
      "13": 5312,
      "mis": 5313,
      "yo": 5314,
      "##light": 5315,
      "##sis": 5316,
      "injector": 5317,
      "##standing": 5318,
      "##iding": 5319,
      "##ays": 5320,
      "contamination": 5321,
      "chair": 5322,
      "##ife": 5323,
      "unitary": 5324,
      "dies": 5325,
      "flanges": 5326,
      "integrity": 5327,
      "precise": 5328,
      "tested": 5329,
      "nano": 5330,
      "##hemical": 5331,
      "projections": 5332,
      "##entioned": 5333,
      "wearer": 5334,
      "terms": 5335,
      "capturing": 5336,
      "pedal": 5337,
      "preselected": 5338,
      "fresh": 5339,
      "tang": 5340,
      "tend": 5341,
      "##ian": 5342,
      "##view": 5343,
      "##tively": 5344,
      "seam": 5345,
      "circulation": 5346,
      "impar": 5347,
      "airflow": 5348,
      "monomer": 5349,
      "instead": 5350,
      "root": 5351,
      "properly": 5352,
      "synchronous": 5353,
      "anchoring": 5354,
      "reciprocating": 5355,
      "attribute": 5356,
      "tumor": 5357,
      "shielding": 5358,
      "centrifug": 5359,
      "zinc": 5360,
      "##tin": 5361,
      "##nas": 5362,
      "could": 5363,
      "##idirection": 5364,
      "accep": 5365,
      "restrain": 5366,
      "unw": 5367,
      "arri": 5368,
      "modulating": 5369,
      "emit": 5370,
      "displaced": 5371,
      "electroph": 5372,
      "increment": 5373,
      "guard": 5374,
      "linking": 5375,
      "preser": 5376,
      "mobility": 5377,
      "possess": 5378,
      "loops": 5379,
      "interconnecting": 5380,
      "diffus": 5381,
      "pickup": 5382,
      "aeros": 5383,
      "peptide": 5384,
      "spiral": 5385,
      "satellite": 5386,
      "motors": 5387,
      "fly": 5388,
      "lig": 5389,
      "mm": 5390,
      "six": 5391,
      "tong": 5392,
      "##off": 5393,
      "##xy": 5394,
      "##els": 5395,
      "##agon": 5396,
      "entr": 5397,
      "subtr": 5398,
      "##ermost": 5399,
      "meet": 5400,
      "electricity": 5401,
      "liquids": 5402,
      "compares": 5403,
      "microorgan": 5404,
      "interfaces": 5405,
      "creates": 5406,
      "pivoted": 5407,
      "convex": 5408,
      "turns": 5409,
      "screening": 5410,
      "uniformly": 5411,
      "snow": 5412,
      "condenser": 5413,
      "ultrasound": 5414,
      "leaving": 5415,
      "disposable": 5416,
      "princip": 5417,
      "bis": 5418,
      "ozone": 5419,
      "rich": 5420,
      "##itic": 5421,
      "##vis": 5422,
      "tox": 5423,
      "trace": 5424,
      "cantile": 5425,
      "##anging": 5426,
      "impurities": 5427,
      "##ubstituted": 5428,
      "regular": 5429,
      "slight": 5430,
      "framework": 5431,
      "characters": 5432,
      "armature": 5433,
      "knife": 5434,
      "anne": 5435,
      "posts": 5436,
      "oscillation": 5437,
      "recessed": 5438,
      "cycles": 5439,
      "overlap": 5440,
      "fingers": 5441,
      "animals": 5442,
      "tasks": 5443,
      "harves": 5444,
      "dic": 5445,
      "dut": 5446,
      "##vable": 5447,
      "prol": 5448,
      "online": 5449,
      "##ushing": 5450,
      "##otrop": 5451,
      "##itives": 5452,
      "automotive": 5453,
      "machining": 5454,
      "flexibility": 5455,
      "##inescent": 5456,
      "employ": 5457,
      "advance": 5458,
      "execute": 5459,
      "conveyed": 5460,
      "optional": 5461,
      "cyclic": 5462,
      "focal": 5463,
      "blower": 5464,
      "mutually": 5465,
      "ammonia": 5466,
      "penetr": 5467,
      "3d": 5468,
      "ejection": 5469,
      "gaps": 5470,
      "mil": 5471,
      "name": 5472,
      "##bore": 5473,
      "inexp": 5474,
      "##ices": 5475,
      "##artic": 5476,
      "consequ": 5477,
      "trap": 5478,
      "chosen": 5479,
      "##iper": 5480,
      "regulation": 5481,
      "##enced": 5482,
      "flap": 5483,
      "microscop": 5484,
      "biop": 5485,
      "microphone": 5486,
      "glob": 5487,
      "policy": 5488,
      "ski": 5489,
      "plants": 5490,
      "diffr": 5491,
      "dispersed": 5492,
      "stopping": 5493,
      "reagent": 5494,
      "nanopartic": 5495,
      "ease": 5496,
      "pages": 5497,
      "tens": 5498,
      "##enyl": 5499,
      "inert": 5500,
      "##mpt": 5501,
      "##ockets": 5502,
      "##clus": 5503,
      "polyester": 5504,
      "heads": 5505,
      "shafts": 5506,
      "matches": 5507,
      "electronics": 5508,
      "wellbore": 5509,
      "esc": 5510,
      "pivotal": 5511,
      "probability": 5512,
      "servers": 5513,
      "webs": 5514,
      "written": 5515,
      "protruding": 5516,
      "arcuate": 5517,
      "epit": 5518,
      "sidewalls": 5519,
      "adsorb": 5520,
      "cage": 5521,
      "sodium": 5522,
      "inj": 5523,
      "toy": 5524,
      "asc": 5525,
      "pressed": 5526,
      "defects": 5527,
      "magneti": 5528,
      "pulley": 5529,
      "hopper": 5530,
      "guides": 5531,
      "underlying": 5532,
      "solutions": 5533,
      "transportation": 5534,
      "isolating": 5535,
      "compensate": 5536,
      "absorbent": 5537,
      "circumference": 5538,
      "##yclic": 5539,
      "diagnosis": 5540,
      "fatty": 5541,
      "commercial": 5542,
      "90": 5543,
      "cig": 5544,
      "cured": 5545,
      "give": 5546,
      "tv": 5547,
      "##med": 5548,
      "##fig": 5549,
      "##arb": 5550,
      "##isely": 5551,
      "engines": 5552,
      "attack": 5553,
      "##iaz": 5554,
      "substances": 5555,
      "speeds": 5556,
      "internally": 5557,
      "subset": 5558,
      "corrected": 5559,
      "extrud": 5560,
      "attachable": 5561,
      "precip": 5562,
      "shifted": 5563,
      "##obic": 5564,
      "highest": 5565,
      "superior": 5566,
      "helical": 5567,
      "residue": 5568,
      "reproduction": 5569,
      "retrieved": 5570,
      "temporary": 5571,
      "illuminated": 5572,
      "trailing": 5573,
      "lubricant": 5574,
      "detachable": 5575,
      "decorative": 5576,
      "cantilever": 5577,
      "casting": 5578,
      "soc": 5579,
      "##iety": 5580,
      "##uge": 5581,
      "##ker": 5582,
      "inves": 5583,
      "thi": 5584,
      "stap": 5585,
      "stere": 5586,
      "alph": 5587,
      "metric": 5588,
      "recom": 5589,
      "und": 5590,
      "consider": 5591,
      "lowered": 5592,
      "accessed": 5593,
      "verteb": 5594,
      "backing": 5595,
      "concurr": 5596,
      "physically": 5597,
      "synchronizing": 5598,
      "riser": 5599,
      "vicinity": 5600,
      "14": 5601,
      "menu": 5602,
      "##ious": 5603,
      "ans": 5604,
      "##aryl": 5605,
      "enl": 5606,
      "##heric": 5607,
      "operably": 5608,
      "curtain": 5609,
      "share": 5610,
      "bioc": 5611,
      "fixedly": 5612,
      "bearings": 5613,
      "precisely": 5614,
      "responses": 5615,
      "eliminated": 5616,
      "updating": 5617,
      "##ymm": 5618,
      "cannula": 5619,
      "pilot": 5620,
      "propagation": 5621,
      "candidate": 5622,
      "magazine": 5623,
      "##idirectional": 5624,
      "jud": 5625,
      "##zation": 5626,
      "##vascular": 5627,
      "##enum": 5628,
      "##icate": 5629,
      "##olic": 5630,
      "price": 5631,
      "acryl": 5632,
      "transversely": 5633,
      "parking": 5634,
      "clin": 5635,
      "abstr": 5636,
      "##dehy": 5637,
      "overhead": 5638,
      "airbag": 5639,
      "lowering": 5640,
      "##violet": 5641,
      "actuators": 5642,
      "fruit": 5643,
      "registers": 5644,
      "enclosing": 5645,
      "charges": 5646,
      "firearm": 5647,
      "interrupt": 5648,
      "equivalent": 5649,
      "illuminating": 5650,
      "ultraviolet": 5651,
      "enzyme": 5652,
      "curvature": 5653,
      "quadr": 5654,
      "interchange": 5655,
      "dock": 5656,
      "pure": 5657,
      "rat": 5658,
      "void": 5659,
      "##imp": 5660,
      "##cin": 5661,
      "##oline": 5662,
      "disab": 5663,
      "plenum": 5664,
      "arter": 5665,
      "straps": 5666,
      "filtration": 5667,
      "assembling": 5668,
      "##ept": 5669,
      "currently": 5670,
      "concave": 5671,
      "divider": 5672,
      "decreases": 5673,
      "##etrically": 5674,
      "acquired": 5675,
      "compartments": 5676,
      "inflatable": 5677,
      "cooperating": 5678,
      "ethyl": 5679,
      "harness": 5680,
      "consistent": 5681,
      "##onductive": 5682,
      "capsule": 5683,
      "ventilation": 5684,
      "amp": 5685,
      "bask": 5686,
      "his": 5687,
      "lit": 5688,
      "my": 5689,
      "marg": 5690,
      "##ives": 5691,
      "##cher": 5692,
      "throt": 5693,
      "##veness": 5694,
      "circulating": 5695,
      "filler": 5696,
      "timer": 5697,
      "structured": 5698,
      "polyc": 5699,
      "defect": 5700,
      "retard": 5701,
      "weak": 5702,
      "conduction": 5703,
      "additives": 5704,
      "backup": 5705,
      "automob": 5706,
      "pivotable": 5707,
      "##ologies": 5708,
      "amplified": 5709,
      "coatings": 5710,
      "sleep": 5711,
      "reinforcement": 5712,
      "goods": 5713,
      "merch": 5714,
      "retractable": 5715,
      "centrifugal": 5716,
      "best": 5717,
      "don": 5718,
      "mig": 5719,
      "##ds": 5720,
      "##uents": 5721,
      "##gate": 5722,
      "##zer": 5723,
      "##ket": 5724,
      "invent": 5725,
      "cosm": 5726,
      "##idine": 5727,
      "##olith": 5728,
      "##mentation": 5729,
      "##rometer": 5730,
      "shr": 5731,
      "layered": 5732,
      "defin": 5733,
      "disturb": 5734,
      "white": 5735,
      "background": 5736,
      "transfers": 5737,
      "polymerization": 5738,
      "calcium": 5739,
      "arrangements": 5740,
      "receivers": 5741,
      "optimization": 5742,
      "oscillating": 5743,
      "##olymers": 5744,
      "overlay": 5745,
      "avoided": 5746,
      "rfid": 5747,
      "rays": 5748,
      "lights": 5749,
      "coaxially": 5750,
      "attributes": 5751,
      "##assembly": 5752,
      "dosage": 5753,
      "far": 5754,
      "pse": 5755,
      "sor": 5756,
      "##bility": 5757,
      "##kn": 5758,
      "##irect": 5759,
      "projected": 5760,
      "##tering": 5761,
      "##owled": 5762,
      "asymm": 5763,
      "metering": 5764,
      "##cho": 5765,
      "surve": 5766,
      "##ackets": 5767,
      "scene": 5768,
      "##aries": 5769,
      "brackets": 5770,
      "conducted": 5771,
      "boat": 5772,
      "hydroly": 5773,
      "feeder": 5774,
      "colored": 5775,
      "counting": 5776,
      "ballast": 5777,
      "antennas": 5778,
      "##pieces": 5779,
      "windows": 5780,
      "instruments": 5781,
      "peer": 5782,
      "pulsed": 5783,
      "tensioning": 5784,
      "carboxylic": 5785,
      "epoxy": 5786,
      "occupant": 5787,
      "tetra": 5788,
      "telecommunications": 5789,
      "encrypted": 5790,
      "blu": 5791,
      "crown": 5792,
      "find": 5793,
      "ju": 5794,
      "tin": 5795,
      "##down": 5796,
      "##jecti": 5797,
      "##ingu": 5798,
      "##eding": 5799,
      "##itt": 5800,
      "##urf": 5801,
      "##ason": 5802,
      "projecti": 5803,
      "##aments": 5804,
      "attain": 5805,
      "alert": 5806,
      "impul": 5807,
      "containment": 5808,
      "confir": 5809,
      "amorph": 5810,
      "defective": 5811,
      "couples": 5812,
      "hands": 5813,
      "limits": 5814,
      "geographic": 5815,
      "purity": 5816,
      "planes": 5817,
      "medication": 5818,
      "dispensed": 5819,
      "router": 5820,
      "ferromagnetic": 5821,
      "acquiring": 5822,
      "selectable": 5823,
      "elevator": 5824,
      "unsubstituted": 5825,
      "refrigerant": 5826,
      "inhibitors": 5827,
      "simplified": 5828,
      "perforated": 5829,
      "tolerance": 5830,
      "##foil": 5831,
      "olig": 5832,
      "##weight": 5833,
      "yoke": 5834,
      "pseud": 5835,
      "paw": 5836,
      "tie": 5837,
      "warm": 5838,
      "##oor": 5839,
      "##ertain": 5840,
      "##ored": 5841,
      "forced": 5842,
      "##urs": 5843,
      "unders": 5844,
      "desirable": 5845,
      "variables": 5846,
      "neigh": 5847,
      "currents": 5848,
      "auto": 5849,
      "##ancial": 5850,
      "mini": 5851,
      "gateway": 5852,
      "##gery": 5853,
      "esters": 5854,
      "commonly": 5855,
      "financial": 5856,
      "printhead": 5857,
      "evacu": 5858,
      "promo": 5859,
      "musical": 5860,
      "stir": 5861,
      "lithium": 5862,
      "intellig": 5863,
      "af": 5864,
      "miss": 5865,
      "nose": 5866,
      "vac": 5867,
      "##aque": 5868,
      "ant": 5869,
      "##ions": 5870,
      "##urally": 5871,
      "standing": 5872,
      "deep": 5873,
      "opens": 5874,
      "import": 5875,
      "scal": 5876,
      "swe": 5877,
      "differenti": 5878,
      "varies": 5879,
      "adapt": 5880,
      "energized": 5881,
      "simulation": 5882,
      "calculates": 5883,
      "minimized": 5884,
      "players": 5885,
      "inducing": 5886,
      "cancell": 5887,
      "retrieving": 5888,
      "reconfig": 5889,
      "surrounded": 5890,
      "evaporator": 5891,
      "issu": 5892,
      "multicast": 5893,
      "uplink": 5894,
      "dedicated": 5895,
      "ratche": 5896,
      "bind": 5897,
      "cases": 5898,
      "future": 5899,
      "oh": 5900,
      "##my": 5901,
      "##ipping": 5902,
      "##fl": 5903,
      "##onom": 5904,
      "##anth": 5905,
      "##ulative": 5906,
      "trip": 5907,
      "distingu": 5908,
      "adjusts": 5909,
      "doors": 5910,
      "##aret": 5911,
      "travers": 5912,
      "simp": 5913,
      "etched": 5914,
      "marking": 5915,
      "enhancement": 5916,
      "transformed": 5917,
      "classification": 5918,
      "deflector": 5919,
      "stabilized": 5920,
      "vectors": 5921,
      "laminate": 5922,
      "unsat": 5923,
      "alkaline": 5924,
      "dissolved": 5925,
      "interpolation": 5926,
      "droplets": 5927,
      "discrimin": 5928,
      "physiological": 5929,
      "cigaret": 5930,
      "##dehyde": 5931,
      "basket": 5932,
      "brow": 5933,
      "fro": 5934,
      "gather": 5935,
      "ner": 5936,
      "tors": 5937,
      "##tress": 5938,
      "##fram": 5939,
      "enters": 5940,
      "recirc": 5941,
      "formulations": 5942,
      "##thane": 5943,
      "##asses": 5944,
      "pressures": 5945,
      "blend": 5946,
      "fluct": 5947,
      "drag": 5948,
      "termination": 5949,
      "microc": 5950,
      "indicated": 5951,
      "resistors": 5952,
      "poles": 5953,
      "amplification": 5954,
      "crosslink": 5955,
      "halide": 5956,
      "intermediates": 5957,
      "bladder": 5958,
      "cooperate": 5959,
      "stopper": 5960,
      "hydrocarbons": 5961,
      "leaf": 5962,
      "peptides": 5963,
      "welded": 5964,
      "abrasive": 5965,
      "claimed": 5966,
      "passenger": 5967,
      "tensile": 5968,
      "answ": 5969,
      "cosmetic": 5970,
      "22": 5971,
      "##function": 5972,
      "##warding": 5973,
      "forth": 5974,
      "##uss": 5975,
      "sust": 5976,
      "##adium": 5977,
      "distil": 5978,
      "alread": 5979,
      "plating": 5980,
      "transient": 5981,
      "##plate": 5982,
      "sharing": 5983,
      "arbit": 5984,
      "impeller": 5985,
      "veget": 5986,
      "computed": 5987,
      "computation": 5988,
      "computers": 5989,
      "ques": 5990,
      "download": 5991,
      "induct": 5992,
      "restriction": 5993,
      "scanned": 5994,
      "inverted": 5995,
      "evaluating": 5996,
      "manipulation": 5997,
      "excessive": 5998,
      "advertisement": 5999,
      "bundle": 6000,
      "aerosol": 6001,
      "inexpensive": 6002,
      "already": 6003,
      "16": 6004,
      "200": 6005,
      "aim": 6006,
      "cation": 6007,
      "pa": 6008,
      "sque": 6009,
      "vascular": 6010,
      "##net": 6011,
      "##ata": 6012,
      "coin": 6013,
      "##tice": 6014,
      "##imide": 6015,
      "##astr": 6016,
      "##oprop": 6017,
      "twist": 6018,
      "freely": 6019,
      "##echanical": 6020,
      "packing": 6021,
      "reflect": 6022,
      "trajector": 6023,
      "calculate": 6024,
      "extrusion": 6025,
      "minimizes": 6026,
      "replaceable": 6027,
      "diffic": 6028,
      "lamps": 6029,
      "multiplicity": 6030,
      "lubricating": 6031,
      "tower": 6032,
      "chloride": 6033,
      "permeable": 6034,
      "bowl": 6035,
      "rendering": 6036,
      "tradition": 6037,
      "luminance": 6038,
      "culture": 6039,
      "influence": 6040,
      "##iphatic": 6041,
      "global": 6042,
      "amorphous": 6043,
      "simply": 6044,
      "fig": 6045,
      "fam": 6046,
      "hence": 6047,
      "nature": 6048,
      "pd": 6049,
      "paste": 6050,
      "rope": 6051,
      "wt": 6052,
      "##bs": 6053,
      "coinc": 6054,
      "##eling": 6055,
      "oral": 6056,
      "exclus": 6057,
      "##ifer": 6058,
      "##ometric": 6059,
      "clad": 6060,
      "presenting": 6061,
      "score": 6062,
      "typical": 6063,
      "pathway": 6064,
      "##uplex": 6065,
      "matched": 6066,
      "mattress": 6067,
      "rolls": 6068,
      "angled": 6069,
      "purification": 6070,
      "cleaner": 6071,
      "played": 6072,
      "follower": 6073,
      "clamped": 6074,
      "adhesion": 6075,
      "threads": 6076,
      "saturation": 6077,
      "tuning": 6078,
      "windings": 6079,
      "implantation": 6080,
      "foldable": 6081,
      "burst": 6082,
      "buried": 6083,
      "coordinates": 6084,
      "absol": 6085,
      "##onducting": 6086,
      "purchase": 6087,
      "##oscope": 6088,
      "cpu": 6089,
      "humidity": 6090,
      "stick": 6091,
      "torsion": 6092,
      "fluctu": 6093,
      "bat": 6094,
      "duc": 6095,
      "ef": 6096,
      "fish": 6097,
      "hull": 6098,
      "ranges": 6099,
      "vane": 6100,
      "##box": 6101,
      "##whe": 6102,
      "coal": 6103,
      "##utable": 6104,
      "deactiv": 6105,
      "tractor": 6106,
      "surgery": 6107,
      "imping": 6108,
      "transmiss": 6109,
      "solub": 6110,
      "combines": 6111,
      "expanding": 6112,
      "ready": 6113,
      "encomp": 6114,
      "mineral": 6115,
      "breast": 6116,
      "recovered": 6117,
      "retrieve": 6118,
      "dependence": 6119,
      "successful": 6120,
      "resiliently": 6121,
      "hydroxyl": 6122,
      "photovol": 6123,
      "ethylene": 6124,
      "hetero": 6125,
      "altered": 6126,
      "authorization": 6127,
      "ammonium": 6128,
      "##ynchron": 6129,
      "ingredients": 6130,
      "worn": 6131,
      "sandwic": 6132,
      "hammer": 6133,
      "enlarg": 6134,
      "dum": 6135,
      "merc": 6136,
      "rank": 6137,
      "tick": 6138,
      "##ball": 6139,
      "often": 6140,
      "forwarding": 6141,
      "##idin": 6142,
      "##idal": 6143,
      "styl": 6144,
      "completion": 6145,
      "practic": 6146,
      "usable": 6147,
      "##omy": 6148,
      "paras": 6149,
      "modem": 6150,
      "pertain": 6151,
      "endless": 6152,
      "cores": 6153,
      "effecting": 6154,
      "airfoil": 6155,
      "radar": 6156,
      "idle": 6157,
      "partly": 6158,
      "shaping": 6159,
      "terminating": 6160,
      "pulled": 6161,
      "rolled": 6162,
      "wells": 6163,
      "relevant": 6164,
      "##tex": 6165,
      "##cont": 6166,
      "tanks": 6167,
      "chemically": 6168,
      "plugs": 6169,
      "implanted": 6170,
      "membranes": 6171,
      "inhibitor": 6172,
      "analyzer": 6173,
      "spraying": 6174,
      "vibrations": 6175,
      "collapsible": 6176,
      "shorter": 6177,
      "polypepti": 6178,
      "branched": 6179,
      "private": 6180,
      "redundant": 6181,
      "##rystalline": 6182,
      "unwanted": 6183,
      "squee": 6184,
      "000": 6185,
      "bin": 6186,
      "bipolar": 6187,
      "##top": 6188,
      "##bling": 6189,
      "##elet": 6190,
      "##idence": 6191,
      "though": 6192,
      "rech": 6193,
      "memories": 6194,
      "relate": 6195,
      "flush": 6196,
      "visually": 6197,
      "achieving": 6198,
      "pistons": 6199,
      "gears": 6200,
      "washer": 6201,
      "estimation": 6202,
      "stops": 6203,
      "repeti": 6204,
      "snap": 6205,
      "restricted": 6206,
      "prosthesis": 6207,
      "experi": 6208,
      "##taic": 6209,
      "##ogeneous": 6210,
      "entrance": 6211,
      "photovoltaic": 6212,
      "az": 6213,
      "day": 6214,
      "let": 6215,
      "oven": 6216,
      "rule": 6217,
      "##ustr": 6218,
      "##ga": 6219,
      "coherent": 6220,
      "cone": 6221,
      "proof": 6222,
      "##odet": 6223,
      "##imination": 6224,
      "resins": 6225,
      "electrom": 6226,
      "##actory": 6227,
      "carton": 6228,
      "controllers": 6229,
      "polyethylene": 6230,
      "report": 6231,
      "boil": 6232,
      "refresh": 6233,
      "locks": 6234,
      "journ": 6235,
      "photograp": 6236,
      "initiate": 6237,
      "amplifiers": 6238,
      "tester": 6239,
      "enhances": 6240,
      "finish": 6241,
      "rigidly": 6242,
      "constituent": 6243,
      "smoke": 6244,
      "infrastr": 6245,
      "spreading": 6246,
      "abutment": 6247,
      "antibodies": 6248,
      "hydrophilic": 6249,
      "intermitt": 6250,
      "interlea": 6251,
      "sacrif": 6252,
      "neighbor": 6253,
      "ratchet": 6254,
      "dummy": 6255,
      "batch": 6256,
      "race": 6257,
      "ranging": 6258,
      "wrap": 6259,
      "warning": 6260,
      "##mic": 6261,
      "##rated": 6262,
      "##hood": 6263,
      "reus": 6264,
      "##ript": 6265,
      "learning": 6266,
      "##ister": 6267,
      "strateg": 6268,
      "email": 6269,
      "scroll": 6270,
      "live": 6271,
      "indirect": 6272,
      "decry": 6273,
      "workpieces": 6274,
      "compressive": 6275,
      "distributing": 6276,
      "certif": 6277,
      "individuals": 6278,
      "induce": 6279,
      "synchronized": 6280,
      "immob": 6281,
      "traveling": 6282,
      "molecule": 6283,
      "engageable": 6284,
      "administered": 6285,
      "oxidizing": 6286,
      "raising": 6287,
      "exhibiting": 6288,
      "refrigeration": 6289,
      "extremely": 6290,
      "scheduling": 6291,
      "glucose": 6292,
      "navigation": 6293,
      "tongue": 6294,
      "automobile": 6295,
      "pawl": 6296,
      "cate": 6297,
      "crop": 6298,
      "duplex": 6299,
      "mar": 6300,
      "rise": 6301,
      "sight": 6302,
      "##ivel": 6303,
      "##dm": 6304,
      "##ns": 6305,
      "##cut": 6306,
      "concept": 6307,
      "##ifies": 6308,
      "diab": 6309,
      "swivel": 6310,
      "##eph": 6311,
      "housed": 6312,
      "identifies": 6313,
      "simulated": 6314,
      "photodet": 6315,
      "creation": 6316,
      "rough": 6317,
      "coiled": 6318,
      "potentially": 6319,
      "platen": 6320,
      "models": 6321,
      "chemicals": 6322,
      "involving": 6323,
      "enterpr": 6324,
      "##iquely": 6325,
      "prediction": 6326,
      "hanger": 6327,
      "gauge": 6328,
      "regardless": 6329,
      "ladder": 6330,
      "traditional": 6331,
      "absolute": 6332,
      "categor": 6333,
      "casc": 6334,
      "fence": 6335,
      "nom": 6336,
      "suture": 6337,
      "##otic": 6338,
      "##iable": 6339,
      "##ault": 6340,
      "##vd": 6341,
      "##inated": 6342,
      "tom": 6343,
      "##ppers": 6344,
      "contacted": 6345,
      "acyl": 6346,
      "aliphatic": 6347,
      "mould": 6348,
      "detent": 6349,
      "heel": 6350,
      "flue": 6351,
      "serially": 6352,
      "industr": 6353,
      "shear": 6354,
      "radiating": 6355,
      "deceler": 6356,
      "compressing": 6357,
      "targeted": 6358,
      "activate": 6359,
      "batteries": 6360,
      "dimensioned": 6361,
      "planetary": 6362,
      "installing": 6363,
      "disks": 6364,
      "reactions": 6365,
      "decreased": 6366,
      "conduits": 6367,
      "ferr": 6368,
      "decoded": 6369,
      "tabs": 6370,
      "nutri": 6371,
      "muscle": 6372,
      "multiplexed": 6373,
      "atmospheric": 6374,
      "concentrations": 6375,
      "abutting": 6376,
      "surrounds": 6377,
      "exerted": 6378,
      "shrink": 6379,
      "industry": 6380,
      "baff": 6381,
      "kept": 6382,
      "land": 6383,
      "trough": 6384,
      "iner": 6385,
      "inward": 6386,
      "##icing": 6387,
      "stain": 6388,
      "spark": 6389,
      "unl": 6390,
      "unf": 6391,
      "asset": 6392,
      "closes": 6393,
      "dried": 6394,
      "differing": 6395,
      "effected": 6396,
      "polyure": 6397,
      "waiting": 6398,
      "pulp": 6399,
      "catch": 6400,
      "targets": 6401,
      "corrugated": 6402,
      "modify": 6403,
      "outlets": 6404,
      "rearward": 6405,
      "balls": 6406,
      "buoy": 6407,
      "personnel": 6408,
      "polarized": 6409,
      "actions": 6410,
      "frictional": 6411,
      "condensation": 6412,
      "breaker": 6413,
      "payload": 6414,
      "keeping": 6415,
      "pushed": 6416,
      "permeability": 6417,
      "trading": 6418,
      "notification": 6419,
      "degradation": 6420,
      "##ocyanate": 6421,
      "diesel": 6422,
      "duty": 6423,
      "little": 6424,
      "unsaturated": 6425,
      "done": 6426,
      "ket": 6427,
      "pell": 6428,
      "sun": 6429,
      "tether": 6430,
      "win": 6431,
      "##lip": 6432,
      "##hz": 6433,
      "##kes": 6434,
      "##roelectric": 6435,
      "token": 6436,
      "conce": 6437,
      "##agonal": 6438,
      "orific": 6439,
      "##ilized": 6440,
      "alone": 6441,
      "recorder": 6442,
      "moiety": 6443,
      "surfact": 6444,
      "clo": 6445,
      "##ube": 6446,
      "adjo": 6447,
      "mountable": 6448,
      "flop": 6449,
      "##itized": 6450,
      "electrons": 6451,
      "##time": 6452,
      "collision": 6453,
      "photographic": 6454,
      "slee": 6455,
      "cleaned": 6456,
      "advancing": 6457,
      "aspir": 6458,
      "delayed": 6459,
      "successively": 6460,
      "multiplexer": 6461,
      "algorithms": 6462,
      "releasable": 6463,
      "clearance": 6464,
      "pushing": 6465,
      "antibody": 6466,
      "intersection": 6467,
      "encapsulated": 6468,
      "spinning": 6469,
      "electrochemical": 6470,
      "diffuser": 6471,
      "impulse": 6472,
      "photodetector": 6473,
      "orifices": 6474,
      "35": 6475,
      "45": 6476,
      "80": 6477,
      "cmos": 6478,
      "dip": 6479,
      "pit": 6480,
      "ply": 6481,
      "slud": 6482,
      "sorting": 6483,
      "##aut": 6484,
      "##bed": 6485,
      "##enes": 6486,
      "##ionic": 6487,
      "stamp": 6488,
      "##ols": 6489,
      "review": 6490,
      "exists": 6491,
      "locate": 6492,
      "what": 6493,
      "removes": 6494,
      "inserts": 6495,
      "capacitive": 6496,
      "##henyl": 6497,
      "initiated": 6498,
      "activities": 6499,
      "ionic": 6500,
      "diamond": 6501,
      "wafers": 6502,
      "returns": 6503,
      "settings": 6504,
      "affect": 6505,
      "balancing": 6506,
      "hooks": 6507,
      "nuclear": 6508,
      "graphics": 6509,
      "improvements": 6510,
      "optics": 6511,
      "offers": 6512,
      "gaming": 6513,
      "bacteria": 6514,
      "iii": 6515,
      "protrusions": 6516,
      "advertising": 6517,
      "projects": 6518,
      "invasive": 6519,
      "license": 6520,
      "olefin": 6521,
      "corners": 6522,
      "inflammatory": 6523,
      "nanoparticles": 6524,
      "alpha": 6525,
      "throttle": 6526,
      "infrastructure": 6527,
      "cn": 6528,
      "echo": 6529,
      "lap": 6530,
      "sender": 6531,
      "ze": 6532,
      "##bic": 6533,
      "##bac": 6534,
      "##gers": 6535,
      "##wire": 6536,
      "##enzo": 6537,
      "antim": 6538,
      "##tigu": 6539,
      "projector": 6540,
      "reached": 6541,
      "##unk": 6542,
      "sup": 6543,
      "enric": 6544,
      "transpond": 6545,
      "##chlor": 6546,
      "assum": 6547,
      "scrap": 6548,
      "grill": 6549,
      "associating": 6550,
      "##phal": 6551,
      "feet": 6552,
      "pivotably": 6553,
      "easier": 6554,
      "playback": 6555,
      "executes": 6556,
      "pointer": 6557,
      "quantit": 6558,
      "recovering": 6559,
      "tables": 6560,
      "accumulation": 6561,
      "accumulated": 6562,
      "remainder": 6563,
      "elevation": 6564,
      "stopped": 6565,
      "permanently": 6566,
      "drops": 6567,
      "circumferentially": 6568,
      "telescoping": 6569,
      "promote": 6570,
      "rectifier": 6571,
      "unloading": 6572,
      "##tinu": 6573,
      "##frame": 6574,
      "enterprise": 6575,
      "24": 6576,
      "dump": 6577,
      "fusion": 6578,
      "jam": 6579,
      "kin": 6580,
      "landing": 6581,
      "rights": 6582,
      "wid": 6583,
      "##cs": 6584,
      "contigu": 6585,
      "throm": 6586,
      "##uls": 6587,
      "subjecting": 6588,
      "positional": 6589,
      "presents": 6590,
      "blind": 6591,
      "differences": 6592,
      "multilayer": 6593,
      "retail": 6594,
      "baseband": 6595,
      "combine": 6596,
      "notch": 6597,
      "adjustments": 6598,
      "delet": 6599,
      "handles": 6600,
      "collim": 6601,
      "purified": 6602,
      "silica": 6603,
      "communicated": 6604,
      "annulus": 6605,
      "buffers": 6606,
      "cycloalkyl": 6607,
      "involved": 6608,
      "stabilizer": 6609,
      "labor": 6610,
      "situation": 6611,
      "hydroxide": 6612,
      "manipulated": 6613,
      "benefits": 6614,
      "wrapping": 6615,
      "fragments": 6616,
      "rocker": 6617,
      "slightly": 6618,
      "ascertain": 6619,
      "abstract": 6620,
      "definition": 6621,
      "##wheel": 6622,
      "inerti": 6623,
      "fal": 6624,
      "iter": 6625,
      "ide": 6626,
      "lug": 6627,
      "lung": 6628,
      "pacing": 6629,
      "punch": 6630,
      "##ycle": 6631,
      "##ested": 6632,
      "##acryl": 6633,
      "fork": 6634,
      "##istical": 6635,
      "##uter": 6636,
      "##lution": 6637,
      "reform": 6638,
      "disorder": 6639,
      "##ift": 6640,
      "parent": 6641,
      "##roller": 6642,
      "relax": 6643,
      "five": 6644,
      "##odyn": 6645,
      "##illed": 6646,
      "##itively": 6647,
      "expose": 6648,
      "discover": 6649,
      "probes": 6650,
      "bushing": 6651,
      "replace": 6652,
      "stacking": 6653,
      "sales": 6654,
      "viewed": 6655,
      "vessels": 6656,
      "boxes": 6657,
      "linearly": 6658,
      "availability": 6659,
      "growing": 6660,
      "registered": 6661,
      "leds": 6662,
      "ensures": 6663,
      "repeatedly": 6664,
      "empty": 6665,
      "bucket": 6666,
      "constraints": 6667,
      "auger": 6668,
      "antagon": 6669,
      "difficult": 6670,
      "sludge": 6671,
      "dram": 6672,
      "get": 6673,
      "nr": 6674,
      "ure": 6675,
      "coag": 6676,
      "##idaz": 6677,
      "proceed": 6678,
      "compan": 6679,
      "retic": 6680,
      "chute": 6681,
      "shrou": 6682,
      "arrow": 6683,
      "lightweight": 6684,
      "expressed": 6685,
      "bob": 6686,
      "##oxid": 6687,
      "##upon": 6688,
      "oxides": 6689,
      "##titude": 6690,
      "infusion": 6691,
      "crypt": 6692,
      "finished": 6693,
      "estimating": 6694,
      "repeating": 6695,
      "phosphate": 6696,
      "predicted": 6697,
      "configurable": 6698,
      "fusel": 6699,
      "crankshaft": 6700,
      "statistical": 6701,
      "dissipation": 6702,
      "assessment": 6703,
      "##ipple": 6704,
      "##otropic": 6705,
      "important": 6706,
      "trajectory": 6707,
      "family": 6708,
      "date": 6709,
      "stit": 6710,
      "##then": 6711,
      "##oupl": 6712,
      "##gst": 6713,
      "##ital": 6714,
      "##lustr": 6715,
      "asynchron": 6716,
      "##adata": 6717,
      "metadata": 6718,
      "##omen": 6719,
      "seism": 6720,
      "interact": 6721,
      "shad": 6722,
      "coron": 6723,
      "configuring": 6724,
      "slides": 6725,
      "polyg": 6726,
      "combust": 6727,
      "coverage": 6728,
      "hood": 6729,
      "encoun": 6730,
      "magnetically": 6731,
      "messaging": 6732,
      "amplifying": 6733,
      "articulated": 6734,
      "marks": 6735,
      "illustr": 6736,
      "quantities": 6737,
      "retains": 6738,
      "affected": 6739,
      "rigidity": 6740,
      "masking": 6741,
      "requirement": 6742,
      "screws": 6743,
      "transducers": 6744,
      "balanced": 6745,
      "tags": 6746,
      "deformed": 6747,
      "authorized": 6748,
      "chromat": 6749,
      "falling": 6750,
      "scattered": 6751,
      "pallet": 6752,
      "sandwiched": 6753,
      "parasitic": 6754,
      "false": 6755,
      "afor": 6756,
      "nip": 6757,
      "pile": 6758,
      "ske": 6759,
      "vul": 6760,
      "##equ": 6761,
      "##sy": 6762,
      "##atom": 6763,
      "deb": 6764,
      "exact": 6765,
      "spi": 6766,
      "spati": 6767,
      "recl": 6768,
      "##aching": 6769,
      "##struct": 6770,
      "##antum": 6771,
      "regulated": 6772,
      "directs": 6773,
      "##enches": 6774,
      "mounts": 6775,
      "slit": 6776,
      "indent": 6777,
      "inputting": 6778,
      "retro": 6779,
      "house": 6780,
      "brace": 6781,
      "passiv": 6782,
      "separates": 6783,
      "consid": 6784,
      "micron": 6785,
      "quantum": 6786,
      "##structed": 6787,
      "designs": 6788,
      "chest": 6789,
      "downlink": 6790,
      "discs": 6791,
      "delivers": 6792,
      "##electronic": 6793,
      "inductor": 6794,
      "tests": 6795,
      "saturated": 6796,
      "tungst": 6797,
      "accelerator": 6798,
      "constructing": 6799,
      "borehole": 6800,
      "complexity": 6801,
      "searching": 6802,
      "blowing": 6803,
      "bulb": 6804,
      "##amental": 6805,
      "fused": 6806,
      "fibrous": 6807,
      "adhering": 6808,
      "silver": 6809,
      "##binant": 6810,
      "bubbles": 6811,
      "compli": 6812,
      "extruded": 6813,
      "recombinant": 6814,
      "clinical": 6815,
      "cloud": 6816,
      "contiguous": 6817,
      "dur": 6818,
      "fits": 6819,
      "lcd": 6820,
      "pel": 6821,
      "pockets": 6822,
      "ue": 6823,
      "##eu": 6824,
      "##zard": 6825,
      "##role": 6826,
      "##ecu": 6827,
      "##ulph": 6828,
      "##olec": 6829,
      "##oting": 6830,
      "##ception": 6831,
      "trif": 6832,
      "spro": 6833,
      "sput": 6834,
      "##ensities": 6835,
      "hazard": 6836,
      "shun": 6837,
      "ship": 6838,
      "str2": 6839,
      "living": 6840,
      "displaceable": 6841,
      "effluent": 6842,
      "attaches": 6843,
      "inputted": 6844,
      "agit": 6845,
      "watermark": 6846,
      "consecu": 6847,
      "drink": 6848,
      "hydrochlor": 6849,
      "belong": 6850,
      "marked": 6851,
      "##ician": 6852,
      "spectrometer": 6853,
      "requesting": 6854,
      "##proof": 6855,
      "yields": 6856,
      "foundation": 6857,
      "discontinu": 6858,
      "wrapped": 6859,
      "withdrawn": 6860,
      "conveniently": 6861,
      "fifth": 6862,
      "browser": 6863,
      "sacrificial": 6864,
      "reusable": 6865,
      "seismic": 6866,
      "tungsten": 6867,
      "500": 6868,
      "dot": 6869,
      "nas": 6870,
      "vanes": 6871,
      "zo": 6872,
      "##oys": 6873,
      "##chic": 6874,
      "##si": 6875,
      "##vinyl": 6876,
      "##ont": 6877,
      "##esium": 6878,
      "##rost": 6879,
      "comfort": 6880,
      "pref": 6881,
      "destr": 6882,
      "outputted": 6883,
      "cellul": 6884,
      "emboss": 6885,
      "reposition": 6886,
      "housings": 6887,
      "##ectiveness": 6888,
      "##ressing": 6889,
      "microm": 6890,
      "pumps": 6891,
      "simulate": 6892,
      "alkenyl": 6893,
      "needles": 6894,
      "technical": 6895,
      "modifications": 6896,
      "diameters": 6897,
      "conveyance": 6898,
      "optimizing": 6899,
      "routine": 6900,
      "realized": 6901,
      "holders": 6902,
      "superimp": 6903,
      "copolymers": 6904,
      "demon": 6905,
      "avoids": 6906,
      "sinus": 6907,
      "chains": 6908,
      "focused": 6909,
      "reproduced": 6910,
      "urging": 6911,
      "drugs": 6912,
      "bores": 6913,
      "chlorine": 6914,
      "##print": 6915,
      "immediate": 6916,
      "adhered": 6917,
      "180": 6918,
      "recycling": 6919,
      "stiffness": 6920,
      "weighted": 6921,
      "pigment": 6922,
      "artificial": 6923,
      "consequently": 6924,
      "epitax": 6925,
      "sustain": 6926,
      "distillation": 6927,
      "sleeves": 6928,
      "01": 6929,
      "70": 6930,
      "fins": 6931,
      "just": 6932,
      "now": 6933,
      "pw": 6934,
      "rs": 6935,
      "##rally": 6936,
      "##ihood": 6937,
      "##arse": 6938,
      "cot": 6939,
      "##ulant": 6940,
      "##ocyclic": 6941,
      "secures": 6942,
      "hearing": 6943,
      "clay": 6944,
      "clothing": 6945,
      "emits": 6946,
      "director": 6947,
      "curable": 6948,
      "flavor": 6949,
      "freed": 6950,
      "##anning": 6951,
      "monolith": 6952,
      "actually": 6953,
      "acidic": 6954,
      "carbonate": 6955,
      "calling": 6956,
      "##botic": 6957,
      "maximize": 6958,
      "clients": 6959,
      "checks": 6960,
      "nanot": 6961,
      "transforming": 6962,
      "updates": 6963,
      "ferroelectric": 6964,
      "evaluated": 6965,
      "interruption": 6966,
      "losses": 6967,
      "spacers": 6968,
      "emissions": 6969,
      "concentrated": 6970,
      "vivo": 6971,
      "scattering": 6972,
      "burning": 6973,
      "history": 6974,
      "hierarchic": 6975,
      "microorganisms": 6976,
      "annealing": 6977,
      "concurrently": 6978,
      "shroud": 6979,
      "ec": 6980,
      "herm": 6981,
      "law": 6982,
      "mate": 6983,
      "miti": 6984,
      "ten": 6985,
      "wrist": 6986,
      "inherent": 6987,
      "##rog": 6988,
      "##elihood": 6989,
      "##urance": 6990,
      "##ilox": 6991,
      "asphal": 6992,
      "always": 6993,
      "exam": 6994,
      "uniquely": 6995,
      "##inear": 6996,
      "##plane": 6997,
      "shank": 6998,
      "strand": 6999,
      "others": 7000,
      "conflic": 7001,
      "overlying": 7002,
      "effectiveness": 7003,
      "digitally": 7004,
      "initiating": 7005,
      "cere": 7006,
      "achieves": 7007,
      "clamps": 7008,
      "stacks": 7009,
      "annot": 7010,
      "viewer": 7011,
      "##olefin": 7012,
      "finishing": 7013,
      "implantable": 7014,
      "##ompati": 7015,
      "assignment": 7016,
      "inverting": 7017,
      "##yrene": 7018,
      "altering": 7019,
      "responding": 7020,
      "instantaneous": 7021,
      "irradiation": 7022,
      "immersion": 7023,
      "undesirable": 7024,
      "cracking": 7025,
      "likelihood": 7026,
      "prolifer": 7027,
      "social": 7028,
      "cigarette": 7029,
      "arbitr": 7030,
      "polyurethane": 7031,
      "spatially": 7032,
      "demonstr": 7033,
      "cf": 7034,
      "late": 7035,
      "tile": 7036,
      "##ned": 7037,
      "proxy": 7038,
      "providers": 7039,
      "sports": 7040,
      "unaut": 7041,
      "intervention": 7042,
      "canister": 7043,
      "therefor": 7044,
      "strings": 7045,
      "scram": 7046,
      "senses": 7047,
      "obstruction": 7048,
      "slope": 7049,
      "quer": 7050,
      "volumes": 7051,
      "possibility": 7052,
      "##amino": 7053,
      "replacing": 7054,
      "posterior": 7055,
      "mirrors": 7056,
      "tunable": 7057,
      "protocols": 7058,
      "relationships": 7059,
      "indexing": 7060,
      "stripping": 7061,
      "crimp": 7062,
      "stretch": 7063,
      "shorten": 7064,
      "grasping": 7065,
      "ceiling": 7066,
      "toxic": 7067,
      "vertebral": 7068,
      "fuselage": 7069,
      "destruc": 7070,
      "unauthor": 7071,
      "cum": 7072,
      "categ": 7073,
      "dog": 7074,
      "graft": 7075,
      "hos": 7076,
      "hitch": 7077,
      "mr": 7078,
      "wick": 7079,
      "wiper": 7080,
      "##most": 7081,
      "##yle": 7082,
      "##rant": 7083,
      "##ov": 7084,
      "##dr": 7085,
      "##athing": 7086,
      "antic": 7087,
      "cobal": 7088,
      "##asis": 7089,
      "##iled": 7090,
      "dead": 7091,
      "prac": 7092,
      "alle": 7093,
      "examination": 7094,
      "spout": 7095,
      "spinal": 7096,
      "transc": 7097,
      "cart": 7098,
      "slab": 7099,
      "slave": 7100,
      "protects": 7101,
      "weap": 7102,
      "gray": 7103,
      "packaged": 7104,
      "integrating": 7105,
      "downhole": 7106,
      "compressible": 7107,
      "rotationally": 7108,
      "cyano": 7109,
      "distribut": 7110,
      "organization": 7111,
      "activates": 7112,
      "##volatile": 7113,
      "##scre": 7114,
      "executable": 7115,
      "drainage": 7116,
      "returning": 7117,
      "wastewater": 7118,
      "appropriately": 7119,
      "stresses": 7120,
      "domains": 7121,
      "gripper": 7122,
      "tightly": 7123,
      "contaminated": 7124,
      "broadcasting": 7125,
      "immune": 7126,
      "suppressing": 7127,
      "granular": 7128,
      "reaching": 7129,
      "regeneration": 7130,
      "beginning": 7131,
      "mercury": 7132,
      "baffle": 7133,
      "asynchronous": 7134,
      "hierarchical": 7135,
      "unauthorized": 7136,
      "category": 7137,
      "cobalt": 7138,
      "00": 7139,
      "aber": 7140,
      "aft": 7141,
      "might": 7142,
      "nail": 7143,
      "san": 7144,
      "tamp": 7145,
      "walk": 7146,
      "##af": 7147,
      "##ffer": 7148,
      "##uk": 7149,
      "##wr": 7150,
      "##held": 7151,
      "##onium": 7152,
      "##agen": 7153,
      "disrup": 7154,
      "exampl": 7155,
      "ellip": 7156,
      "assay": 7157,
      "valu": 7158,
      "##aked": 7159,
      "tear": 7160,
      "manage": 7161,
      "distances": 7162,
      "gasket": 7163,
      "##engthen": 7164,
      "magnesium": 7165,
      "adjustably": 7166,
      "nonvolatile": 7167,
      "blocked": 7168,
      "specifying": 7169,
      "feeds": 7170,
      "characterizing": 7171,
      "microcont": 7172,
      "implements": 7173,
      "buy": 7174,
      "routes": 7175,
      "suscep": 7176,
      "safely": 7177,
      "options": 7178,
      "fluorine": 7179,
      "involve": 7180,
      "deflecting": 7181,
      "cooperates": 7182,
      "interrupting": 7183,
      "multiplication": 7184,
      "music": 7185,
      "vibrating": 7186,
      "beneficial": 7187,
      "compatibility": 7188,
      "experience": 7189,
      "foreign": 7190,
      "population": 7191,
      "namely": 7192,
      "explosive": 7193,
      "biopsy": 7194,
      "interchangeable": 7195,
      "transmissive": 7196,
      "enlarged": 7197,
      "bobbin": 7198,
      "skew": 7199,
      "examples": 7200,
      "aver": 7201,
      "dome": 7202,
      "dark": 7203,
      "gast": 7204,
      "ms": 7205,
      "mg": 7206,
      "mother": 7207,
      "mentioned": 7208,
      "os": 7209,
      "pent": 7210,
      "pill": 7211,
      "raster": 7212,
      "ti": 7213,
      "##ony": 7214,
      "##atin": 7215,
      "##oring": 7216,
      "##allow": 7217,
      "##regn": 7218,
      "##stock": 7219,
      "##ids": 7220,
      "##isp": 7221,
      "stow": 7222,
      "##ote": 7223,
      "ash": 7224,
      "##adle": 7225,
      "##addle": 7226,
      "trenches": 7227,
      "metab": 7228,
      "methodology": 7229,
      "subassembly": 7230,
      "pouch": 7231,
      "hash": 7232,
      "impregn": 7233,
      "extra": 7234,
      "dihydro": 7235,
      "respir": 7236,
      "drift": 7237,
      "solvents": 7238,
      "reporting": 7239,
      "wax": 7240,
      "specially": 7241,
      "##erged": 7242,
      "backward": 7243,
      "reads": 7244,
      "readout": 7245,
      "undergo": 7246,
      "teleph": 7247,
      "humans": 7248,
      "hydraulically": 7249,
      "crystals": 7250,
      "tuned": 7251,
      "similarly": 7252,
      "metallization": 7253,
      "damaged": 7254,
      "assigning": 7255,
      "entries": 7256,
      "constituted": 7257,
      "advantageous": 7258,
      "correlated": 7259,
      "seeds": 7260,
      "fluorescence": 7261,
      "attenuation": 7262,
      "irradiated": 7263,
      "trimming": 7264,
      "undesired": 7265,
      "calibrating": 7266,
      "graphite": 7267,
      "microscope": 7268,
      "precipit": 7269,
      "pseudo": 7270,
      "recharge": 7271,
      "nominal": 7272,
      "microcontroller": 7273,
      "boss": 7274,
      "bird": 7275,
      "dys": 7276,
      "fun": 7277,
      "fishing": 7278,
      "gold": 7279,
      "ly": 7280,
      "naph": 7281,
      "vend": 7282,
      "##pective": 7283,
      "##cus": 7284,
      "##tip": 7285,
      "##tig": 7286,
      "##tiv": 7287,
      "##iture": 7288,
      "thor": 7289,
      "ord": 7290,
      "resting": 7291,
      "outd": 7292,
      "seated": 7293,
      "interrog": 7294,
      "coming": 7295,
      "commut": 7296,
      "maneu": 7297,
      "weft": 7298,
      "weights": 7299,
      "##etically": 7300,
      "handheld": 7301,
      "adaptable": 7302,
      "identifiers": 7303,
      "topology": 7304,
      "robotic": 7305,
      "continues": 7306,
      "manufactur": 7307,
      "##virus": 7308,
      "rearwardly": 7309,
      "halves": 7310,
      "ratios": 7311,
      "excited": 7312,
      "cyclo": 7313,
      "segmented": 7314,
      "bags": 7315,
      "uniformity": 7316,
      "contract": 7317,
      "clust": 7318,
      "yarns": 7319,
      "gamma": 7320,
      "hanging": 7321,
      "##oscopic": 7322,
      "reagents": 7323,
      "recycled": 7324,
      "glycol": 7325,
      "texture": 7326,
      "textile": 7327,
      "polycrystalline": 7328,
      "intelligent": 7329,
      "vacc": 7330,
      "solubility": 7331,
      "neighboring": 7332,
      "adjoining": 7333,
      "transponder": 7334,
      "trifluor": 7335,
      "consecutive": 7336,
      "bay": 7337,
      "cu": 7338,
      "gt": 7339,
      "sr": 7340,
      "warp": 7341,
      "##rane": 7342,
      "##pm": 7343,
      "##gs": 7344,
      "##inant": 7345,
      "##inery": 7346,
      "##etes": 7347,
      "coarse": 7348,
      "##ithm": 7349,
      "##tics": 7350,
      "exits": 7351,
      "##lows": 7352,
      "shower": 7353,
      "sco": 7354,
      "##encil": 7355,
      "flushing": 7356,
      "microf": 7357,
      "pumped": 7358,
      "releases": 7359,
      "belts": 7360,
      "##hene": 7361,
      "freezing": 7362,
      "slotted": 7363,
      "markers": 7364,
      "enclose": 7365,
      "turbul": 7366,
      "substituent": 7367,
      "receptors": 7368,
      "fluoride": 7369,
      "copying": 7370,
      "standards": 7371,
      "##ught": 7372,
      "alumina": 7373,
      "entirely": 7374,
      "exceeding": 7375,
      "clips": 7376,
      "tightening": 7377,
      "customized": 7378,
      "interfering": 7379,
      "construct": 7380,
      "biometric": 7381,
      "viscous": 7382,
      "issues": 7383,
      "collapsed": 7384,
      "statistic": 7385,
      "mosfet": 7386,
      "sectors": 7387,
      "superconducting": 7388,
      "scrub": 7389,
      "likely": 7390,
      "diffraction": 7391,
      "injury": 7392,
      "##arboxylic": 7393,
      "##owledge": 7394,
      "projectile": 7395,
      "affor": 7396,
      "cancellation": 7397,
      "cladding": 7398,
      "zeol": 7399,
      "reticle": 7400,
      "19": 7401,
      "cuff": 7402,
      "favor": 7403,
      "iod": 7404,
      "sale": 7405,
      "##rect": 7406,
      "##zen": 7407,
      "inform": 7408,
      "##tigh": 7409,
      "coat": 7410,
      "reed": 7411,
      "prong": 7412,
      "disl": 7413,
      "usually": 7414,
      "electromagn": 7415,
      "assets": 7416,
      "##elled": 7417,
      "##ople": 7418,
      "divers": 7419,
      "insol": 7420,
      "obl": 7421,
      "polyimide": 7422,
      "loud": 7423,
      "variant": 7424,
      "brain": 7425,
      "##grade": 7426,
      "conser": 7427,
      "centrally": 7428,
      "editing": 7429,
      "collect": 7430,
      "insertable": 7431,
      "inflation": 7432,
      "stepped": 7433,
      "crossing": 7434,
      "skill": 7435,
      "audible": 7436,
      "flatten": 7437,
      "people": 7438,
      "irreg": 7439,
      "stabilize": 7440,
      "reliably": 7441,
      "recognized": 7442,
      "randomly": 7443,
      "multiplexing": 7444,
      "pcb": 7445,
      "##roscopic": 7446,
      "observation": 7447,
      "biomass": 7448,
      "macro": 7449,
      "mammalian": 7450,
      "numerous": 7451,
      "promoting": 7452,
      "disposal": 7453,
      "ethernet": 7454,
      "decomposition": 7455,
      "world": 7456,
      "hydrophobic": 7457,
      "demodulation": 7458,
      "##otide": 7459,
      "prepare": 7460,
      "harmonic": 7461,
      "unlocked": 7462,
      "infections": 7463,
      "sugar": 7464,
      "disabled": 7465,
      "underside": 7466,
      "fluctuations": 7467,
      "surfactant": 7468,
      "freedom": 7469,
      "irregular": 7470,
      "300": 7471,
      "ba": 7472,
      "mast": 7473,
      "punc": 7474,
      "ridge": 7475,
      "μm": 7476,
      "##met": 7477,
      "##ren": 7478,
      "##iances": 7479,
      "##hel": 7480,
      "anterior": 7481,
      "##ishes": 7482,
      "compare": 7483,
      "##unching": 7484,
      "suffer": 7485,
      "traction": 7486,
      "usb": 7487,
      "unused": 7488,
      "former": 7489,
      "outc": 7490,
      "deterior": 7491,
      "##assium": 7492,
      "whenever": 7493,
      "##akers": 7494,
      "drivers": 7495,
      "appliances": 7496,
      "flaps": 7497,
      "arranging": 7498,
      "expensive": 7499,
      "terminated": 7500,
      "micros": 7501,
      "biode": 7502,
      "cutout": 7503,
      "trapped": 7504,
      "guidewire": 7505,
      "molds": 7506,
      "lifted": 7507,
      "propulsion": 7508,
      "generators": 7509,
      "knob": 7510,
      "potassium": 7511,
      "silicone": 7512,
      "tissues": 7513,
      "pinion": 7514,
      "delays": 7515,
      "##comp": 7516,
      "##hydride": 7517,
      "stabilization": 7518,
      "allocating": 7519,
      "inflated": 7520,
      "triggered": 7521,
      "conjugated": 7522,
      "irrigation": 7523,
      "robust": 7524,
      "pillow": 7525,
      "shipping": 7526,
      "disengaged": 7527,
      "extreme": 7528,
      "symmetrical": 7529,
      "ventil": 7530,
      "telecommunication": 7531,
      "pyro": 7532,
      "restoring": 7533,
      "originating": 7534,
      "overcome": 7535,
      "bringing": 7536,
      "escape": 7537,
      "enriched": 7538,
      "##odynamic": 7539,
      "bidirectional": 7540,
      "da": 7541,
      "ht": 7542,
      "iv": 7543,
      "lying": 7544,
      "wider": 7545,
      "##mun": 7546,
      "##hous": 7547,
      "##wear": 7548,
      "##oral": 7549,
      "tobac": 7550,
      "coins": 7551,
      "forwardly": 7552,
      "##eless": 7553,
      "##uling": 7554,
      "##agg": 7555,
      "revolution": 7556,
      "plus": 7557,
      "places": 7558,
      "spine": 7559,
      "##oms": 7560,
      "unm": 7561,
      "shot": 7562,
      "arg": 7563,
      "scaling": 7564,
      "displace": 7565,
      "polyvinyl": 7566,
      "loos": 7567,
      "neural": 7568,
      "bragg": 7569,
      "boiling": 7570,
      "lowest": 7571,
      "sealant": 7572,
      "extendable": 7573,
      "opposit": 7574,
      "infant": 7575,
      "pivots": 7576,
      "faster": 7577,
      "primarily": 7578,
      "horn": 7579,
      "preceding": 7580,
      "knowledge": 7581,
      "starter": 7582,
      "facilities": 7583,
      "wirelessly": 7584,
      "inductive": 7585,
      "gives": 7586,
      "pharmac": 7587,
      "runs": 7588,
      "compensated": 7589,
      "drawer": 7590,
      "refractory": 7591,
      "masks": 7592,
      "retractor": 7593,
      "accommodated": 7594,
      "entertain": 7595,
      "sintered": 7596,
      "helps": 7597,
      "splitter": 7598,
      "predict": 7599,
      "predicting": 7600,
      "situations": 7601,
      "ensuring": 7602,
      "doping": 7603,
      "labels": 7604,
      "multiplier": 7605,
      "heterocyclic": 7606,
      "fibre": 7607,
      "bacterial": 7608,
      "medicament": 7609,
      "granules": 7610,
      "aggregate": 7611,
      "unlocking": 7612,
      "milk": 7613,
      "inventory": 7614,
      "frozen": 7615,
      "diabetes": 7616,
      "pwm": 7617,
      "cotton": 7618,
      "distributor": 7619,
      "tobacco": 7620,
      "oppositely": 7621,
      "75": 7622,
      "cc": 7623,
      "durable": 7624,
      "fair": 7625,
      "glu": 7626,
      "jump": 7627,
      "mang": 7628,
      "morph": 7629,
      "ple": 7630,
      "rup": 7631,
      "sip": 7632,
      "wake": 7633,
      "##pc": 7634,
      "##ipper": 7635,
      "##dy": 7636,
      "##inate": 7637,
      "##onyl": 7638,
      "##ste": 7639,
      "incision": 7640,
      "entrain": 7641,
      "prism": 7642,
      "exiting": 7643,
      "spent": 7644,
      "arithm": 7645,
      "meat": 7646,
      "cloth": 7647,
      "ended": 7648,
      "endoscope": 7649,
      "##oped": 7650,
      "accident": 7651,
      "overflow": 7652,
      "effic": 7653,
      "polyolefin": 7654,
      "packed": 7655,
      "computerized": 7656,
      "collagen": 7657,
      "actuate": 7658,
      "glove": 7659,
      "suitably": 7660,
      "knee": 7661,
      "latent": 7662,
      "lattice": 7663,
      "starch": 7664,
      "fourier": 7665,
      "inhal": 7666,
      "##ibrill": 7667,
      "extensions": 7668,
      "early": 7669,
      "entities": 7670,
      "condensed": 7671,
      "trays": 7672,
      "contraction": 7673,
      "##shield": 7674,
      "manipulating": 7675,
      "strike": 7676,
      "restricting": 7677,
      "intersecting": 7678,
      "mouthpiece": 7679,
      "supplemental": 7680,
      "droplet": 7681,
      "restraint": 7682,
      "adsorbent": 7683,
      "donor": 7684,
      "marine": 7685,
      "zoom": 7686,
      "funnel": 7687,
      "##tight": 7688,
      "dupl": 7689,
      "eg": 7690,
      "fung": 7691,
      "ni": 7692,
      "pn": 7693,
      "pal": 7694,
      "sulph": 7695,
      "vor": 7696,
      "zirc": 7697,
      "##ml": 7698,
      "##rain": 7699,
      "##iber": 7700,
      "##kyl": 7701,
      "##60": 7702,
      "##orted": 7703,
      "anatom": 7704,
      "##icrob": 7705,
      "conference": 7706,
      "##abor": 7707,
      "##othed": 7708,
      "##ady": 7709,
      "##quin": 7710,
      "adequ": 7711,
      "unkn": 7712,
      "##chy": 7713,
      "subc": 7714,
      "subter": 7715,
      "sew": 7716,
      "surge": 7717,
      "prehe": 7718,
      "pouring": 7719,
      "##ylon": 7720,
      "##ellular": 7721,
      "##illing": 7722,
      "default": 7723,
      "weather": 7724,
      "lining": 7725,
      "magnification": 7726,
      "monoxide": 7727,
      "biologically": 7728,
      "obtains": 7729,
      "simulating": 7730,
      "minor": 7731,
      "flexure": 7732,
      "poll": 7733,
      "extracts": 7734,
      "organized": 7735,
      "cardio": 7736,
      "persist": 7737,
      "optimize": 7738,
      "ways": 7739,
      "deposits": 7740,
      "breaking": 7741,
      "analyte": 7742,
      "approaches": 7743,
      "spectra": 7744,
      "virtually": 7745,
      "broken": 7746,
      "luminescent": 7747,
      "entered": 7748,
      "splitting": 7749,
      "triggering": 7750,
      "conjug": 7751,
      "tiles": 7752,
      "bolts": 7753,
      "assisted": 7754,
      "resetting": 7755,
      "closer": 7756,
      "geometric": 7757,
      "propellant": 7758,
      "stretching": 7759,
      "benefit": 7760,
      "rendered": 7761,
      "penetration": 7762,
      "prosthetic": 7763,
      "steril": 7764,
      "immersed": 7765,
      "compliance": 7766,
      "licens": 7767,
      "detailed": 7768,
      "fifo": 7769,
      "penetrating": 7770,
      "blue": 7771,
      "boiler": 7772,
      "deceleration": 7773,
      "antimicrob": 7774,
      "asphalt": 7775,
      "##ranean": 7776,
      "biodegrad": 7777,
      "entertainment": 7778,
      "antimicrobial": 7779,
      "bic": 7780,
      "bab": 7781,
      "cure": 7782,
      "educ": 7783,
      "gps": 7784,
      "libr": 7785,
      "rare": 7786,
      "##dd": 7787,
      "##bound": 7788,
      "##inum": 7789,
      "inject": 7790,
      "inverse": 7791,
      "##asion": 7792,
      "style": 7793,
      "bear": 7794,
      "except": 7795,
      "recomm": 7796,
      "unn": 7797,
      "outboard": 7798,
      "sewing": 7799,
      "arth": 7800,
      "strands": 7801,
      "peroxide": 7802,
      "impart": 7803,
      "electrolum": 7804,
      "patch": 7805,
      "polym": 7806,
      "lost": 7807,
      "##oney": 7808,
      "note": 7809,
      "functioning": 7810,
      "##phyl": 7811,
      "monomers": 7812,
      "motorc": 7813,
      "collects": 7814,
      "fixation": 7815,
      "permitted": 7816,
      "bellows": 7817,
      "cooler": 7818,
      "steer": 7819,
      "purge": 7820,
      "##brush": 7821,
      "antigen": 7822,
      "shelter": 7823,
      "silicide": 7824,
      "pointing": 7825,
      "incorporation": 7826,
      "fluoro": 7827,
      "localized": 7828,
      "estimates": 7829,
      "accommodates": 7830,
      "##carb": 7831,
      "anchored": 7832,
      "accumulating": 7833,
      "protrud": 7834,
      "stimulating": 7835,
      "naturally": 7836,
      "tilting": 7837,
      "lubrication": 7838,
      "specialized": 7839,
      "assistance": 7840,
      "keeps": 7841,
      "customers": 7842,
      "pcm": 7843,
      "reversible": 7844,
      "observed": 7845,
      "referred": 7846,
      "herbic": 7847,
      "bumps": 7848,
      "participant": 7849,
      "scheduled": 7850,
      "odor": 7851,
      "hierarchy": 7852,
      "imparting": 7853,
      "question": 7854,
      "ticket": 7855,
      "polypeptide": 7856,
      "maneuver": 7857,
      "subterranean": 7858,
      "21": 7859,
      "gift": 7860,
      "jets": 7861,
      "mim": 7862,
      "saddle": 7863,
      "tur": 7864,
      "talk": 7865,
      "van": 7866,
      "##tc": 7867,
      "##rin": 7868,
      "##land": 7869,
      "inn": 7870,
      "##arbon": 7871,
      "forcing": 7872,
      "##emia": 7873,
      "##ementioned": 7874,
      "prophyl": 7875,
      "##ushes": 7876,
      "dehyd": 7877,
      "inches": 7878,
      "methanol": 7879,
      "adop": 7880,
      "##omb": 7881,
      "##omal": 7882,
      "mems": 7883,
      "##though": 7884,
      "##opolymer": 7885,
      "carp": 7886,
      "filaments": 7887,
      "##illance": 7888,
      "bridges": 7889,
      "waterproof": 7890,
      "radiator": 7891,
      "delim": 7892,
      "decoupl": 7893,
      "alloys": 7894,
      "dough": 7895,
      "energizing": 7896,
      "patterning": 7897,
      "purifying": 7898,
      "dimethyl": 7899,
      "initiates": 7900,
      "initiator": 7901,
      "windshield": 7902,
      "deriving": 7903,
      "paddle": 7904,
      "routed": 7905,
      "finite": 7906,
      "modeling": 7907,
      "nearly": 7908,
      "depends": 7909,
      "carbide": 7910,
      "carboxyl": 7911,
      "##linear": 7912,
      "temporal": 7913,
      "constituting": 7914,
      "labeled": 7915,
      "boron": 7916,
      "partitions": 7917,
      "leaves": 7918,
      "beta": 7919,
      "fails": 7920,
      "pedest": 7921,
      "enzymes": 7922,
      "withdrawal": 7923,
      "shows": 7924,
      "bubble": 7925,
      "funds": 7926,
      "bleed": 7927,
      "perfluor": 7928,
      "fewer": 7929,
      "asymmetric": 7930,
      "surveillance": 7931,
      "inductance": 7932,
      "outdoor": 7933,
      "ejecting": 7934,
      "gall": 7935,
      "hap": 7936,
      "ut": 7937,
      "##mation": 7938,
      "##uzz": 7939,
      "##sim": 7940,
      "##enic": 7941,
      "##esting": 7942,
      "##align": 7943,
      "confer": 7944,
      "conges": 7945,
      "##irt": 7946,
      "##odied": 7947,
      "##ulin": 7948,
      "conto": 7949,
      "traces": 7950,
      "trunk": 7951,
      "##vert": 7952,
      "##rium": 7953,
      "spots": 7954,
      "##oma": 7955,
      "suppression": 7956,
      "accomp": 7957,
      "framing": 7958,
      "brid": 7959,
      "##lets": 7960,
      "networking": 7961,
      "refining": 7962,
      "digitized": 7963,
      "hoop": 7964,
      "equil": 7965,
      "microcomp": 7966,
      "encirc": 7967,
      "facsim": 7968,
      "treatments": 7969,
      "coloring": 7970,
      "crude": 7971,
      "newly": 7972,
      "seats": 7973,
      "occurred": 7974,
      "persons": 7975,
      "databases": 7976,
      "quantif": 7977,
      "affecting": 7978,
      "catalysts": 7979,
      "interpret": 7980,
      "limiter": 7981,
      "formats": 7982,
      "raise": 7983,
      "phenomen": 7984,
      "##spe": 7985,
      "cups": 7986,
      "gradually": 7987,
      "inclusion": 7988,
      "irradiating": 7989,
      "medicine": 7990,
      "percentage": 7991,
      "homogeneous": 7992,
      "fundamental": 7993,
      "neuro": 7994,
      "struts": 7995,
      "kinds": 7996,
      "firmly": 7997,
      "invest": 7998,
      "stirring": 7999,
      "photograph": 8000,
      "tomography": 8001,
      "quantitative": 8002,
      "durability": 8003,
      "sprock": 8004,
      "##ompatible": 8005,
      "arbitrary": 8006,
      "practical": 8007,
      "insoluble": 8008,
      "loudspe": 8009,
      "accompan": 8010,
      "facsimile": 8011,
      "bri": 8012,
      "brist": 8013,
      "dp": 8014,
      "fri": 8015,
      "germ": 8016,
      "##oresis": 8017,
      "anis": 8018,
      "##itable": 8019,
      "coff": 8020,
      "##idden": 8021,
      "thro": 8022,
      "##mented": 8023,
      "although": 8024,
      "opaque": 8025,
      "span": 8026,
      "une": 8027,
      "positionable": 8028,
      "whereupon": 8029,
      "imidaz": 8030,
      "##endant": 8031,
      "insulative": 8032,
      "powering": 8033,
      "controllably": 8034,
      "curves": 8035,
      "##raz": 8036,
      "effector": 8037,
      "pier": 8038,
      "##estinal": 8039,
      "computational": 8040,
      "depressed": 8041,
      "correspondence": 8042,
      "digits": 8043,
      "correspondingly": 8044,
      "concer": 8045,
      "cryogenic": 8046,
      "bonds": 8047,
      "halo": 8048,
      "adhesives": 8049,
      "substituents": 8050,
      "implants": 8051,
      "incorporate": 8052,
      "divides": 8053,
      "superp": 8054,
      "analyzes": 8055,
      "hinges": 8056,
      "travels": 8057,
      "deflected": 8058,
      "powers": 8059,
      "elastically": 8060,
      "photoelectric": 8061,
      "aids": 8062,
      "border": 8063,
      "ethanol": 8064,
      "waveguides": 8065,
      "perforations": 8066,
      "satisfy": 8067,
      "toothbrush": 8068,
      "rounded": 8069,
      "economical": 8070,
      "oct": 8071,
      "weighting": 8072,
      "calibrated": 8073,
      "microbial": 8074,
      "billing": 8075,
      "misalign": 8076,
      "magnetization": 8077,
      "docking": 8078,
      "migration": 8079,
      "ducts": 8080,
      "stainless": 8081,
      "considered": 8082,
      "hydrochloride": 8083,
      "belonging": 8084,
      "queries": 8085,
      "baby": 8086,
      "microcomputer": 8087,
      "coffee": 8088,
      "aw": 8089,
      "brom": 8090,
      "gram": 8091,
      "rain": 8092,
      "ven": 8093,
      "##ptic": 8094,
      "##hal": 8095,
      "##sel": 8096,
      "##ked": 8097,
      "##ics": 8098,
      "##acet": 8099,
      "##acem": 8100,
      "##tional": 8101,
      "prompt": 8102,
      "orders": 8103,
      "contempl": 8104,
      "aler": 8105,
      "restr": 8106,
      "##izers": 8107,
      "unexp": 8108,
      "##char": 8109,
      "shallow": 8110,
      "pores": 8111,
      "prel": 8112,
      "saved": 8113,
      "modulus": 8114,
      "##clusion": 8115,
      "eman": 8116,
      "lie": 8117,
      "lies": 8118,
      "locally": 8119,
      "disposing": 8120,
      "fluidly": 8121,
      "gasoline": 8122,
      "centering": 8123,
      "motorized": 8124,
      "specifies": 8125,
      "backrest": 8126,
      "indicators": 8127,
      "representations": 8128,
      "minute": 8129,
      "engineering": 8130,
      "instances": 8131,
      "angi": 8132,
      "distribute": 8133,
      "counts": 8134,
      "addressed": 8135,
      "wavef": 8136,
      "started": 8137,
      "##book": 8138,
      "introducer": 8139,
      "atomic": 8140,
      "nitric": 8141,
      "platforms": 8142,
      "positively": 8143,
      "analyze": 8144,
      "accelerometer": 8145,
      "cancel": 8146,
      "guidance": 8147,
      "interrupted": 8148,
      "dopant": 8149,
      "synthesized": 8150,
      "boundaries": 8151,
      "reconstruction": 8152,
      "therapeutically": 8153,
      "vibrator": 8154,
      "inclination": 8155,
      "##ichlor": 8156,
      "subscribers": 8157,
      "evaporation": 8158,
      "attenuated": 8159,
      "satisfied": 8160,
      "propeller": 8161,
      "triangular": 8162,
      "establishment": 8163,
      "radicals": 8164,
      "fracture": 8165,
      "attractive": 8166,
      "begins": 8167,
      "lookup": 8168,
      "electrophot": 8169,
      "exclusive": 8170,
      "effort": 8171,
      "azim": 8172,
      "electromechanical": 8173,
      "compliant": 8174,
      "nasal": 8175,
      "cereb": 8176,
      "allevi": 8177,
      "rechargeable": 8178,
      "zeolite": 8179,
      "arithmetic": 8180,
      "unknown": 8181,
      "throat": 8182,
      "2d": 8183,
      "bases": 8184,
      "cad": 8185,
      "cros": 8186,
      "cult": 8187,
      "eject": 8188,
      "gant": 8189,
      "lact": 8190,
      "mp": 8191,
      "mc": 8192,
      "null": 8193,
      "plum": 8194,
      "rating": 8195,
      "tires": 8196,
      "##tre": 8197,
      "##rates": 8198,
      "##ners": 8199,
      "##ew": 8200,
      "##iner": 8201,
      "##inic": 8202,
      "##itary": 8203,
      "too": 8204,
      "orn": 8205,
      "compos": 8206,
      "deal": 8207,
      "true": 8208,
      "triaz": 8209,
      "##omach": 8210,
      "##ometry": 8211,
      "##atern": 8212,
      "interacting": 8213,
      "intercep": 8214,
      "deton": 8215,
      "whereas": 8216,
      "##ubes": 8217,
      "emuls": 8218,
      "regulate": 8219,
      "##ends": 8220,
      "scope": 8221,
      "caption": 8222,
      "sling": 8223,
      "amide": 8224,
      "embodied": 8225,
      "hologram": 8226,
      "autonom": 8227,
      "differently": 8228,
      "accesses": 8229,
      "nonlinear": 8230,
      "##ounding": 8231,
      "works": 8232,
      "##inescence": 8233,
      "continue": 8234,
      "erase": 8235,
      "calculations": 8236,
      "follows": 8237,
      "replic": 8238,
      "centered": 8239,
      "dispense": 8240,
      "conveyors": 8241,
      "thermos": 8242,
      "breathing": 8243,
      "fauc": 8244,
      "nearest": 8245,
      "peel": 8246,
      "absorbed": 8247,
      "operators": 8248,
      "ventur": 8249,
      "url": 8250,
      "constituents": 8251,
      "woven": 8252,
      "perpendicularly": 8253,
      "coordinated": 8254,
      "transitions": 8255,
      "golfer": 8256,
      "furniture": 8257,
      "owner": 8258,
      "majority": 8259,
      "blanket": 8260,
      "fingerprint": 8261,
      "responds": 8262,
      "choice": 8263,
      "milling": 8264,
      "genes": 8265,
      "disconnected": 8266,
      "intrins": 8267,
      "fracturing": 8268,
      "upload": 8269,
      "harmful": 8270,
      "##ository": 8271,
      "ligand": 8272,
      "principal": 8273,
      "encompass": 8274,
      "categories": 8275,
      "ferrule": 8276,
      "pellets": 8277,
      "aforementioned": 8278,
      "retrof": 8279,
      "concerning": 8280,
      "gantry": 8281,
      "17": 8282,
      "27": 8283,
      "dense": 8284,
      "evid": 8285,
      "rh": 8286,
      "wand": 8287,
      "##oter": 8288,
      "##chem": 8289,
      "##eable": 8290,
      "##gb": 8291,
      "##jet": 8292,
      "anhydride": 8293,
      "inactive": 8294,
      "##ecess": 8295,
      "ischem": 8296,
      "##ultip": 8297,
      "stone": 8298,
      "##olin": 8299,
      "##olid": 8300,
      "revol": 8301,
      "reason": 8302,
      "##rome": 8303,
      "dish": 8304,
      "meta": 8305,
      "##ansm": 8306,
      "exting": 8307,
      "opto": 8308,
      "leave": 8309,
      "adder": 8310,
      "seconds": 8311,
      "##ermeable": 8312,
      "seen": 8313,
      "come": 8314,
      "clot": 8315,
      "imag": 8316,
      "ablation": 8317,
      "rotors": 8318,
      "timed": 8319,
      "obvi": 8320,
      "hyg": 8321,
      "polyamide": 8322,
      "nox": 8323,
      "brakes": 8324,
      "mainly": 8325,
      "grade": 8326,
      "draining": 8327,
      "decim": 8328,
      "handover": 8329,
      "converters": 8330,
      "keyp": 8331,
      "underne": 8332,
      "topical": 8333,
      "##ropylene": 8334,
      "carbonyl": 8335,
      "camshaft": 8336,
      "calculator": 8337,
      "fabrics": 8338,
      "buses": 8339,
      "dyes": 8340,
      "skid": 8341,
      "replaces": 8342,
      "platinum": 8343,
      "exclud": 8344,
      "establishes": 8345,
      "virtue": 8346,
      "grown": 8347,
      "acquire": 8348,
      "damaging": 8349,
      "synthesizing": 8350,
      "embedding": 8351,
      "deforming": 8352,
      "phosphorus": 8353,
      "laid": 8354,
      "launch": 8355,
      "failed": 8356,
      "stretched": 8357,
      "macrob": 8358,
      "##balance": 8359,
      "disengage": 8360,
      "numerical": 8361,
      "sterile": 8362,
      "cultiv": 8363,
      "benzyl": 8364,
      "photoconductive": 8365,
      "branches": 8366,
      "hypot": 8367,
      "premises": 8368,
      "arrival": 8369,
      "##urface": 8370,
      "adaptation": 8371,
      "recirculation": 8372,
      "cationic": 8373,
      "pertains": 8374,
      "journal": 8375,
      "intermittently": 8376,
      "passivation": 8377,
      "cellulose": 8378,
      "mitig": 8379,
      "weapon": 8380,
      "susceptible": 8381,
      "efficacy": 8382,
      "unnecess": 8383,
      "motorcycle": 8384,
      "uneven": 8385,
      "restraining": 8386,
      "wavefront": 8387,
      "azimuth": 8388,
      "extingu": 8389,
      "underneath": 8390,
      "dt": 8391,
      "ejected": 8392,
      "fec": 8393,
      "gum": 8394,
      "hip": 8395,
      "mn": 8396,
      "men": 8397,
      "mism": 8398,
      "rom": 8399,
      "riv": 8400,
      "sided": 8401,
      "vap": 8402,
      "vending": 8403,
      "vision": 8404,
      "wired": 8405,
      "##ivity": 8406,
      "##fill": 8407,
      "##ses": 8408,
      "##hex": 8409,
      "##inter": 8410,
      "##ataly": 8411,
      "##alc": 8412,
      "##rote": 8413,
      "##anting": 8414,
      "things": 8415,
      "##ults": 8416,
      "stay": 8417,
      "bevel": 8418,
      "##aming": 8419,
      "disable": 8420,
      "##apse": 8421,
      "spill": 8422,
      "##izations": 8423,
      "claw": 8424,
      "modulate": 8425,
      "regulates": 8426,
      "instit": 8427,
      "upstanding": 8428,
      "##arium": 8429,
      "defibrill": 8430,
      "setup": 8431,
      "password": 8432,
      "notes": 8433,
      "verifying": 8434,
      "adds": 8435,
      "##structing": 8436,
      "mathem": 8437,
      "designating": 8438,
      "cuts": 8439,
      "chel": 8440,
      "screens": 8441,
      "initiation": 8442,
      "alkylene": 8443,
      "ionization": 8444,
      "shifts": 8445,
      "orientations": 8446,
      "encloses": 8447,
      "thermost": 8448,
      "demultip": 8449,
      "evenly": 8450,
      "powders": 8451,
      "repeat": 8452,
      "lighter": 8453,
      "fermentation": 8454,
      "oxidant": 8455,
      "exchanging": 8456,
      "fittings": 8457,
      "angularly": 8458,
      "correctly": 8459,
      "reversing": 8460,
      "suppressed": 8461,
      "showing": 8462,
      "resistivity": 8463,
      "emph": 8464,
      "discrimination": 8465,
      "sugges": 8466,
      "possesses": 8467,
      "staple": 8468,
      "sweep": 8469,
      "kinase": 8470,
      "cryptographic": 8471,
      "combustor": 8472,
      "encountered": 8473,
      "monolithic": 8474,
      "pyroly": 8475,
      "adequate": 8476,
      "##uzzle": 8477,
      "brief": 8478,
      "venturi": 8479,
      "demultiplex": 8480,
      "32": 8481,
      "cm": 8482,
      "cit": 8483,
      "cem": 8484,
      "eight": 8485,
      "fum": 8486,
      "finding": 8487,
      "gover": 8488,
      "kits": 8489,
      "mist": 8490,
      "native": 8491,
      "om": 8492,
      "pane": 8493,
      "ren": 8494,
      "##oint": 8495,
      "##ptive": 8496,
      "##gener": 8497,
      "##hema": 8498,
      "##ato": 8499,
      "##eto": 8500,
      "coher": 8501,
      "onset": 8502,
      "##olester": 8503,
      "reacted": 8504,
      "##otes": 8505,
      "##ocular": 8506,
      "secret": 8507,
      "learn": 8508,
      "##anged": 8509,
      "connectivity": 8510,
      "healing": 8511,
      "sail": 8512,
      "##cles": 8513,
      "desp": 8514,
      "slice": 8515,
      "##eptor": 8516,
      "flowable": 8517,
      "aggl": 8518,
      "repository": 8519,
      "depletion": 8520,
      "dress": 8521,
      "adaptor": 8522,
      "heats": 8523,
      "quar": 8524,
      "##oxic": 8525,
      "machinery": 8526,
      "underwater": 8527,
      "keyword": 8528,
      "attachments": 8529,
      "oils": 8530,
      "latches": 8531,
      "registering": 8532,
      "baseline": 8533,
      "##version": 8534,
      "breath": 8535,
      "toroidal": 8536,
      "analytical": 8537,
      "thresholds": 8538,
      "equalization": 8539,
      "giving": 8540,
      "cameras": 8541,
      "drilled": 8542,
      "checked": 8543,
      "fertil": 8544,
      "expands": 8545,
      "plasm": 8546,
      "recognizing": 8547,
      "condensing": 8548,
      "ventric": 8549,
      "interrupter": 8550,
      "consumed": 8551,
      "muscles": 8552,
      "partitioning": 8553,
      "spreader": 8554,
      "buttons": 8555,
      "dialkyl": 8556,
      "attenuator": 8557,
      "falls": 8558,
      "numeric": 8559,
      "genetic": 8560,
      "claims": 8561,
      "harvesting": 8562,
      "stereo": 8563,
      "acrylic": 8564,
      "merchand": 8565,
      "crosslinked": 8566,
      "practice": 8567,
      "immobilized": 8568,
      "superimposed": 8569,
      "epitaxial": 8570,
      "impregnated": 8571,
      "##house": 8572,
      "macroblock": 8573,
      "benzo": 8574,
      "dosing": 8575,
      "icon": 8576,
      "jew": 8577,
      "lack": 8578,
      "maps": 8579,
      "ridges": 8580,
      "sch": 8581,
      "##but": 8582,
      "##fluor": 8583,
      "##hib": 8584,
      "##eg": 8585,
      "##ints": 8586,
      "##eric": 8587,
      "##ettes": 8588,
      "##acer": 8589,
      "##lyl": 8590,
      "byte": 8591,
      "##ocation": 8592,
      "##ime": 8593,
      "fired": 8594,
      "rests": 8595,
      "adverse": 8596,
      "sphere": 8597,
      "moly": 8598,
      "##omethyl": 8599,
      "outflow": 8600,
      "##ermal": 8601,
      "sea": 8602,
      "canal": 8603,
      "pore": 8604,
      "impermeable": 8605,
      "##opyr": 8606,
      "extens": 8607,
      "diluent": 8608,
      "twice": 8609,
      "scent": 8610,
      "assemble": 8611,
      "agon": 8612,
      "holographic": 8613,
      "neur": 8614,
      "brushes": 8615,
      "delta": 8616,
      "feedstock": 8617,
      "ordering": 8618,
      "esd": 8619,
      "synd": 8620,
      "##henol": 8621,
      "##oking": 8622,
      "minimally": 8623,
      "antioxid": 8624,
      "centralized": 8625,
      "lasers": 8626,
      "##hyth": 8627,
      "horm": 8628,
      "latency": 8629,
      "viral": 8630,
      "shoes": 8631,
      "substitution": 8632,
      "equalizer": 8633,
      "counters": 8634,
      "isolate": 8635,
      "retransm": 8636,
      "##carri": 8637,
      "foods": 8638,
      "sulfate": 8639,
      "wideband": 8640,
      "constitute": 8641,
      "towing": 8642,
      "junctions": 8643,
      "occupied": 8644,
      "studs": 8645,
      "pusher": 8646,
      "propelled": 8647,
      "beads": 8648,
      "meaning": 8649,
      "intellect": 8650,
      "petrole": 8651,
      "microorganism": 8652,
      "sweet": 8653,
      "winch": 8654,
      "coronary": 8655,
      "chromatography": 8656,
      "shunt": 8657,
      "latex": 8658,
      "valuable": 8659,
      "vendor": 8660,
      "anatomical": 8661,
      "conjugate": 8662,
      "library": 8663,
      "protrudes": 8664,
      "contoured": 8665,
      "bridging": 8666,
      "prelimin": 8667,
      "electrophotographic": 8668,
      "thermoset": 8669,
      "petroleum": 8670,
      "aest": 8671,
      "bim": 8672,
      "bell": 8673,
      "mower": 8674,
      "mhz": 8675,
      "rins": 8676,
      "ripple": 8677,
      "tones": 8678,
      "voc": 8679,
      "##tling": 8680,
      "##ych": 8681,
      "##uder": 8682,
      "##well": 8683,
      "##atching": 8684,
      "##ests": 8685,
      "convolution": 8686,
      "##isation": 8687,
      "##ashing": 8688,
      "##oser": 8689,
      "reve": 8690,
      "##otyp": 8691,
      "atm": 8692,
      "enfor": 8693,
      "##romic": 8694,
      "acute": 8695,
      "exert": 8696,
      "methacryl": 8697,
      "##rolling": 8698,
      "formulated": 8699,
      "##inetic": 8700,
      "deterg": 8701,
      "strengthen": 8702,
      "##structure": 8703,
      "desk": 8704,
      "diox": 8705,
      "confined": 8706,
      "collet": 8707,
      "setpoint": 8708,
      "age": 8709,
      "protector": 8710,
      "##itizing": 8711,
      "sheave": 8712,
      "walled": 8713,
      "##ounting": 8714,
      "equation": 8715,
      "catal": 8716,
      "ordered": 8717,
      "technologies": 8718,
      "organisms": 8719,
      "##itudes": 8720,
      "cryogen": 8721,
      "standby": 8722,
      "##avail": 8723,
      "starts": 8724,
      "frust": 8725,
      "hardness": 8726,
      "torch": 8727,
      "themsel": 8728,
      "copies": 8729,
      "inhibition": 8730,
      "reserve": 8731,
      "retraction": 8732,
      "magneto": 8733,
      "limitation": 8734,
      "negoti": 8735,
      "acquires": 8736,
      "frictionally": 8737,
      "dispersing": 8738,
      "eyes": 8739,
      "urge": 8740,
      "breakdown": 8741,
      "electrolytic": 8742,
      "reciprocal": 8743,
      "##ophosph": 8744,
      "interferometer": 8745,
      "consistency": 8746,
      "failures": 8747,
      "tumors": 8748,
      "##ynyl": 8749,
      "adsorption": 8750,
      "luminous": 8751,
      "tailored": 8752,
      "participants": 8753,
      "disconnect": 8754,
      "reactant": 8755,
      "constrained": 8756,
      "concentrically": 8757,
      "vitro": 8758,
      "acetate": 8759,
      "contribution": 8760,
      "attempt": 8761,
      "inflammation": 8762,
      "tangential": 8763,
      "accepting": 8764,
      "principle": 8765,
      "precipitation": 8766,
      "metrics": 8767,
      "voids": 8768,
      "twisted": 8769,
      "proliferation": 8770,
      "manufacturer": 8771,
      "entrained": 8772,
      "cardiovascular": 8773,
      "sprocket": 8774,
      "intrinsic": 8775,
      "unnecessary": 8776,
      "vapors": 8777,
      "molyb": 8778,
      "intellectual": 8779,
      "themselves": 8780,
      "05": 8781,
      "had": 8782,
      "les": 8783,
      "lan": 8784,
      "old": 8785,
      "tand": 8786,
      "tib": 8787,
      "wings": 8788,
      "yaw": 8789,
      "##man": 8790,
      "##tension": 8791,
      "##bone": 8792,
      "##sing": 8793,
      "##inance": 8794,
      "inqu": 8795,
      "invo": 8796,
      "toothed": 8797,
      "##leys": 8798,
      "##igu": 8799,
      "##odic": 8800,
      "stre": 8801,
      "atop": 8802,
      "attitude": 8803,
      "##ading": 8804,
      "tract": 8805,
      "plated": 8806,
      "methane": 8807,
      "##umb": 8808,
      "##umin": 8809,
      "##fortable": 8810,
      "unidirectional": 8811,
      "seq": 8812,
      "soap": 8813,
      "selectivity": 8814,
      "schema": 8815,
      "polyn": 8816,
      "agric": 8817,
      "currency": 8818,
      "##olded": 8819,
      "adapting": 8820,
      "conditioned": 8821,
      "##valid": 8822,
      "equally": 8823,
      "increments": 8824,
      "quatern": 8825,
      "comparable": 8826,
      "edible": 8827,
      "workflow": 8828,
      "machined": 8829,
      "mapped": 8830,
      "limb": 8831,
      "colorant": 8832,
      "polished": 8833,
      "volumetric": 8834,
      "restore": 8835,
      "fluorinated": 8836,
      "subjects": 8837,
      "inkjet": 8838,
      "widths": 8839,
      "classes": 8840,
      "helic": 8841,
      "receptacles": 8842,
      "necessity": 8843,
      "formatted": 8844,
      "authenticating": 8845,
      "buildings": 8846,
      "stimulus": 8847,
      "pictures": 8848,
      "##anese": 8849,
      "essential": 8850,
      "##ocytes": 8851,
      "chromium": 8852,
      "chrominance": 8853,
      "explo": 8854,
      "concerned": 8855,
      "cassettes": 8856,
      "convenience": 8857,
      "alcohols": 8858,
      "refers": 8859,
      "##assembled": 8860,
      "flywheel": 8861,
      "disabling": 8862,
      "retardant": 8863,
[...]
