{
  "version": "1.0",
  "truncation": null,
  "padding": null,
  "added_tokens": [
    {
      "id": 0,
      "content": "[PAD]",
      "single_word": false,
      "lstrip": false,
      "rstrip": false,
      "normalized": false,
      "special": true
    },
    {
      "id": 1,
      "content": "[UNK]",
      "single_word": false,
      "lstrip": false,
      "rstrip": false,
      "normalized": false,
      "special": true
    },
    {
      "id": 2,
      "content": "[CLS]",
      "single_word": false,
      "lstrip": false,
      "rstrip": false,
      "normalized": false,
      "special": true
    },
    {
      "id": 3,
      "content": "[SEP]",
      "single_word": false,
      "lstrip": false,
      "rstrip": false,
      "normalized": false,
      "special": true
    },
    {
      "id": 4,
      "content": "[MASK]",
      "single_word": false,
      "lstrip": false,
      "rstrip": false,
      "normalized": false,
      "special": true
    }
  ],
  "normalizer": {
    "type": "BertNormalizer",
    "clean_text": true,
    "handle_chinese_chars": true,
    "strip_accents": null,
    "lowercase": false
  },
  "pre_tokenizer": {
    "type": "BertPreTokenizer"
  },
  "post_processor": {
    "type": "TemplateProcessing",
    "single": [
      {
        "SpecialToken": {
          "id": "[CLS]",
          "type_id": 0
        }
      },
      {
        "Sequence": {
          "id": "A",
          "type_id": 0
        }
      },
      {
        "SpecialToken": {
          "id": "[SEP]",
          "type_id": 0
        }
      }
    ],
    "pair": [
      {
        "SpecialToken": {
          "id": "[CLS]",
          "type_id": 0
        }
      },
      {
        "Sequence": {
          "id": "A",
          "type_id": 0
        }
      },
      {
        "SpecialToken": {
          "id": "[SEP]",
          "type_id": 0
        }
      },
      {
        "Sequence": {
          "id": "B",
          "type_id": 1
        }
      },
      {
        "SpecialToken": {
          "id": "[SEP]",
          "type_id": 1
        }
      }
    ],
    "special_tokens": {
      "[CLS]": {
        "id": "[CLS]",
        "ids": [
          2
        ],
        "tokens": [
          "[CLS]"
        ]
      },
      "[SEP]": {
        "id": "[SEP]",
        "ids": [
          3
        ],
        "tokens": [
          "[SEP]"
        ]
      }
    }
  },
  "decoder": {
    "type": "WordPiece",
    "prefix": "##",
    "cleanup": true
  },
  "model": {
    "type": "WordPiece",
    "unk_token": "[UNK]",
    "continuing_subword_prefix": "##",
    "max_input_chars_per_word": 100,
    "vocab": {
      "[PAD]": 0,
      "[UNK]": 1,
      "[CLS]": 2,
      "[SEP]": 3,
      "[MASK]": 4,
      "!": 5,
      "\"": 6,
      "$": 7,
      "%": 8,
      "&": 9,
      "'": 10,
      "(": 11,
      ")": 12,
      "*": 13,
      "+": 14,
      ",": 15,
      "-": 16,
      ".": 17,
      "/": 18,
      "0": 19,
      "1": 20,
      "2": 21,
      "3": 22,
      "4": 23,
      "5": 24,
      "6": 25,
      "7": 26,
      "8": 27,
      "9": 28,
      ":": 29,
      ";": 30,
      "=": 31,
      "?": 32,
      "@": 33,
      "A": 34,
      "B": 35,
      "C": 36,
      "D": 37,
      "E": 38,
      "F": 39,
      "G": 40,
      "H": 41,
      "I": 42,
      "J": 43,
      "K": 44,
      "L": 45,
      "M": 46,
      "N": 47,
      "O": 48,
      "P": 49,
      "Q": 50,
      "R": 51,
      "S": 52,
      "T": 53,
      "U": 54,
      "V": 55,
      "W": 56,
      "X": 57,
      "Y": 58,
      "Z": 59,
      "[": 60,
      "]": 61,
      "`": 62,
      "a": 63,
      "b": 64,
      "c": 65,
      "d": 66,
      "e": 67,
      "f": 68,
      "g": 69,
      "h": 70,
      "i": 71,
      "j": 72,
      "k": 73,
      "l": 74,
      "m": 75,
      "n": 76,
      "o": 77,
      "p": 78,
      "q": 79,
      "r": 80,
      "s": 81,
      "t": 82,
      "u": 83,
      "v": 84,
      "w": 85,
      "x": 86,
      "y": 87,
      "z": 88,
      "##T": 89,
      "##E": 90,
      "##P": 91,
      "##S": 92,
      "##4": 93,
      "##0": 94,
      "##M": 95,
      "##o": 96,
      "##u": 97,
      "##r": 98,
      "##i": 99,
      "##n": 100,
      "##g": 101,
      "##f": 102,
      "##t": 103,
      "##N": 104,
      "##R": 105,
      "##A": 106,
      "##I": 107,
      "##O": 108,
      "##L": 109,
      "##v": 110,
      "##d": 111,
      "##e": 112,
      "##c": 113,
      "##p": 114,
      "##a": 115,
      "##h": 116,
      "##s": 117,
      "##k": 118,
      "##H": 119,
      "##l": 120,
      "##m": 121,
      "##D": 122,
      "##G": 123,
      "##x": 124,
      "##y": 125,
      "##Q": 126,
      "##K": 127,
      "##j": 128,
      "##7": 129,
      "##U": 130,
      "##Y": 131,
      "##b": 132,
      "##C": 133,
      "##5": 134,
      "##z": 135,
      "##w": 136,
      "##F": 137,
      "##6": 138,
      "##1": 139,
      "##2": 140,
      "##q": 141,
      "##3": 142,
      "##8": 143,
      "##V": 144,
      "##X": 145,
      "##B": 146,
      "##9": 147,
      "##W": 148,
      "##Z": 149,
      "##J": 150,
      "##er": 151,
      "##he": 152,
      "##in": 153,
      "##an": 154,
      "##on": 155,
      "the": 156,
      "##ed": 157,
      "##en": 158,
      "##es": 159,
      "##or": 160,
      "##ar": 161,
      "##at": 162,
      "##al": 163,
      "in": 164,
      "##is": 165,
      "##ing": 166,
      "##nd": 167,
      "of": 168,
      "##it": 169,
      "##as": 170,
      "##ou": 171,
      "##ic": 172,
      "to": 173,
      "##id": 174,
      "##ion": 175,
      "##om": 176,
      "##il": 177,
      "##ay": 178,
      "##el": 179,
      "##ent": 180,
      "and": 181,
      "##re": 182,
      "##st": 183,
      "on": 184,
      "##et": 185,
      "##ad": 186,
      "##ec": 187,
      "##ur": 188,
      "##ol": 189,
      "##am": 190,
      "##ut": 191,
      "th": 192,
      "##ot": 193,
      "sa": 194,
      "for": 195,
      "##ir": 196,
      "said": 197,
      "##ter": 198,
      "##ro": 199,
      "##th": 200,
      "be": 201,
      "##ac": 202,
      "##le": 203,
      "19": 204,
      "##ig": 205,
      "st": 206,
      "##ers": 207,
      "##ill": 208,
      "##ve": 209,
      "##ts": 210,
      "##and": 211,
      "199": 212,
      "##os": 213,
      "##ul": 214,
      "The": 215,
      "##ra": 216,
      "##im": 217,
      "##us": 218,
      "re": 219,
      "##ver": 220,
      "##ow": 221,
      "wh": 222,
      "##ce": 223,
      "##day": 224,
      "was": 225,
      "at": 226,
      "##ly": 227,
      "##ation": 228,
      "##ia": 229,
      "##ld": 230,
      "##ch": 231,
      "1996": 232,
      "##em": 233,
      "##est": 234,
      "##ain": 235,
      "##ith": 236,
      "##ew": 237,
      "##ri": 238,
      "08": 239,
      "##ak": 240,
      "with": 241,
      "an": 242,
      "##00": 243,
      "##ear": 244,
      "##ere": 245,
      "##un": 246,
      "##rom": 247,
      "##ag": 248,
      "con": 249,
      "##ian": 250,
      "is": 251,
      "##ap": 252,
      "##ist": 253,
      "##op": 254,
      "##igh": 255,
      "that": 256,
      "as": 257,
      "##our": 258,
      "from": 259,
      "he": 260,
      "##oc": 261,
      "by": 262,
      "##um": 263,
      "##ate": 264,
      "##ep": 265,
      "##art": 266,
      "##ust": 267,
      "com": 268,
      "pl": 269,
      "##ect": 270,
      "al": 271,
      "##ON": 272,
      "##ment": 273,
      "##ast": 274,
      "##ort": 275,
      "le": 276,
      "##ess": 277,
      "pro": 278,
      "##man": 279,
      "##iv": 280,
      "sh": 281,
      "ch": 282,
      "##ab": 283,
      "##ond": 284,
      "St": 285,
      "##ave": 286,
      "go": 287,
      "not": 288,
      "se": 289,
      "pr": 290,
      "Th": 291,
      "year": 292,
      "ex": 293,
      "ag": 294,
      "##ice": 295,
      "had": 296,
      "it": 297,
      "##ould": 298,
      "has": 299,
      "off": 300,
      "##ies": 301,
      "##ich": 302,
      "##ial": 303,
      "##rou": 304,
      "##AN": 305,
      "10": 306,
      "his": 307,
      "##all": 308,
      "af": 309,
      "were": 310,
      "##ore": 311,
      "we": 312,
      "##ost": 313,
      "##end": 314,
      "##pp": 315,
      "##ug": 316,
      "##if": 317,
      "##ber": 318,
      "de": 319,
      "per": 320,
      "##ight": 321,
      "Fr": 322,
      "have": 323,
      "##ct": 324,
      "after": 325,
      "Ch": 326,
      "fir": 327,
      "##od": 328,
      "##ub": 329,
      "##esday": 330,
      "##ES": 331,
      "sp": 332,
      "##ud": 333,
      "##ue": 334,
      "##wo": 335,
      "##ell": 336,
      "##ions": 337,
      "##ER": 338,
      "##ive": 339,
      "##ok": 340,
      "##ack": 341,
      "sec": 342,
      "who": 343,
      "In": 344,
      "Br": 345,
      "##oun": 346,
      "new": 347,
      "##ity": 348,
      "##ish": 349,
      "##ard": 350,
      "##ov": 351,
      "pol": 352,
      "will": 353,
      "first": 354,
      "##ant": 355,
      "##OR": 356,
      "are": 357,
      "##ark": 358,
      "out": 359,
      "##land": 360,
      "##ank": 361,
      "##ek": 362,
      "##ie": 363,
      "un": 364,
      "##ang": 365,
      "tr": 366,
      "two": 367,
      "but": 368,
      "##av": 369,
      "##ong": 370,
      "##ome": 371,
      "##illion": 372,
      "up": 373,
      "##gh": 374,
      "##ary": 375,
      "comp": 376,
      "12": 377,
      "##che": 378,
      "##amp": 379,
      "been": 380,
      "15": 381,
      "over": 382,
      "##se": 383,
      "rep": 384,
      "11": 385,
      "##IN": 386,
      "##ip": 387,
      "##ther": 388,
      "It": 389,
      "beat": 390,
      "##ime": 391,
      "##ord": 392,
      "##cent": 393,
      "their": 394,
      "##ound": 395,
      "000": 396,
      "or": 397,
      "##ree": 398,
      "##ance": 399,
      "##ry": 400,
      "##ine": 401,
      "##ign": 402,
      "would": 403,
      "percent": 404,
      "ab": 405,
      "which": 406,
      "##mer": 407,
      "second": 408,
      "##ail": 409,
      "res": 410,
      "##IS": 411,
      "exp": 412,
      "##ated": 413,
      "##urs": 414,
      "min": 415,
      "its": 416,
      "##uc": 417,
      "##ning": 418,
      "##ff": 419,
      "##out": 420,
      "##ton": 421,
      "##vern": 422,
      "they": 423,
      "Le": 424,
      "##mp": 425,
      "play": 426,
      "##ident": 427,
      "qu": 428,
      "##ork": 429,
      "##uss": 430,
      "28": 431,
      "ad": 432,
      "cl": 433,
      "##und": 434,
      "##ace": 435,
      "##ick": 436,
      "##ire": 437,
      "##AL": 438,
      "##hen": 439,
      "He": 440,
      "ac": 441,
      "##oin": 442,
      "##ass": 443,
      "one": 444,
      "New": 445,
      "##her": 446,
      "govern": 447,
      "offic": 448,
      "last": 449,
      "22": 450,
      "##res": 451,
      "##ence": 452,
      "Thurs": 453,
      "Thursday": 454,
      "##ral": 455,
      "this": 456,
      "pe": 457,
      "##qu": 458,
      "million": 459,
      "##oll": 460,
      "ar": 461,
      "##ans": 462,
      "##arl": 463,
      "##ng": 464,
      "Al": 465,
      "##up": 466,
      "cont": 467,
      "again": 468,
      "ne": 469,
      "Mon": 470,
      "##ier": 471,
      "##age": 472,
      "week": 473,
      "government": 474,
      "##iss": 475,
      "##ous": 476,
      "Wed": 477,
      "Wedn": 478,
      "me": 479,
      "##eld": 480,
      "Wednesday": 481,
      "##ke": 482,
      "13": 483,
      "##ose": 484,
      "lead": 485,
      "20": 486,
      "25": 487,
      "##ame": 488,
      "three": 489,
      "14": 490,
      "mat": 491,
      "##to": 492,
      "Ger": 493,
      "mon": 494,
      "##ft": 495,
      "##ational": 496,
      "part": 497,
      "##old": 498,
      "Aust": 499,
      "##ix": 500,
      "day": 501,
      "rec": 502,
      "##wn": 503,
      "all": 504,
      "##ors": 505,
      "##anc": 506,
      "##ade": 507,
      "##nder": 508,
      "##so": 509,
      "27": 510,
      "26": 511,
      "21": 512,
      "official": 513,
      "against": 514,
      "su": 515,
      "##ition": 516,
      "##ement": 517,
      "Brit": 518,
      "##ne": 519,
      "fin": 520,
      "man": 521,
      "##act": 522,
      "German": 523,
      "dis": 524,
      "mark": 525,
      "##ase": 526,
      "29": 527,
      "##ST": 528,
      "Sp": 529,
      "##ure": 530,
      "24": 531,
      "##own": 532,
      "news": 533,
      "win": 534,
      "##are": 535,
      "##ision": 536,
      "##ge": 537,
      "police": 538,
      "At": 539,
      "##ina": 540,
      "16": 541,
      "##ations": 542,
      "Russ": 543,
      "when": 544,
      "##ister": 545,
      "##tern": 546,
      "##ount": 547,
      "23": 548,
      "##IC": 549,
      "##ens": 550,
      "##AR": 551,
      "##ock": 552,
      "##we": 553,
      "pre": 554,
      "##ev": 555,
      "##iday": 556,
      "Is": 557,
      "el": 558,
      "also": 559,
      "Tu": 560,
      "Un": 561,
      "under": 562,
      "##ally": 563,
      "##EN": 564,
      "##oy": 565,
      "Tuesday": 566,
      "##og": 567,
      "##ib": 568,
      "##lic": 569,
      "##AT": 570,
      "##ric": 571,
      "##als": 572,
      "inc": 573,
      "##ide": 574,
      "Mar": 575,
      "##lin": 576,
      "sc": 577,
      "op": 578,
      "say": 579,
      "##alk": 580,
      "##ach": 581,
      "##ake": 582,
      "##ted": 583,
      "##med": 584,
      "told": 585,
      "50": 586,
      "Ind": 587,
      "##ates": 588,
      "##outh": 589,
      "##ah": 590,
      "four": 591,
      "##ople": 592,
      "Min": 593,
      "##erv": 594,
      "Monday": 595,
      "Austral": 596,
      "run": 597,
      "##oh": 598,
      "30": 599,
      "Ar": 600,
      "dec": 601,
      "grou": 602,
      "no": 603,
      "##els": 604,
      "17": 605,
      "##ash": 606,
      "AT": 607,
      "market": 608,
      "her": 609,
      "##ik": 610,
      "##ected": 611,
      "We": 612,
      "##ob": 613,
      "##ied": 614,
      "inv": 615,
      "month": 616,
      "do": 617,
      "Friday": 618,
      "acc": 619,
      "end": 620,
      "##any": 621,
      "##ited": 622,
      "about": 623,
      "ind": 624,
      "##enc": 625,
      "Eng": 626,
      "##ely": 627,
      "##ven": 628,
      "##ince": 629,
      "people": 630,
      "Af": 631,
      "poin": 632,
      "##aw": 633,
      "##ile": 634,
      "##orld": 635,
      "##aly": 636,
      "##ublic": 637,
      "##ss": 638,
      "##arg": 639,
      "##ings": 640,
      "comm": 641,
      "18": 642,
      "##AG": 643,
      "##aus": 644,
      "##UL": 645,
      "##ough": 646,
      "some": 647,
      "##uct": 648,
      "elect": 649,
      "##air": 650,
      "bet": 651,
      "##ult": 652,
      "att": 653,
      "##ope": 654,
      "champ": 655,
      "Re": 656,
      "cent": 657,
      "##OC": 658,
      "##ical": 659,
      "##urn": 660,
      "##rough": 661,
      "An": 662,
      "rel": 663,
      "set": 664,
      "time": 665,
      "won": 666,
      "##ION": 667,
      "##ults": 668,
      "pres": 669,
      "Sund": 670,
      "cap": 671,
      "six": 672,
      "But": 673,
      "bl": 674,
      "round": 675,
      "into": 676,
      "##ames": 677,
      "def": 678,
      "##ING": 679,
      "meet": 680,
      "app": 681,
      "##oss": 682,
      "##les": 683,
      "DI": 684,
      "Sw": 685,
      "imp": 686,
      "##EL": 687,
      "##hed": 688,
      "add": 689,
      "cr": 690,
      "##AS": 691,
      "Sunday": 692,
      "co": 693,
      "##fore": 694,
      "conf": 695,
      "group": 696,
      "hal": 697,
      "more": 698,
      "en": 699,
      "##ind": 700,
      "##able": 701,
      "report": 702,
      "bec": 703,
      "str": 704,
      "##ept": 705,
      "##TS": 706,
      "##ament": 707,
      "before": 708,
      "##ember": 709,
      "##aj": 710,
      "##ite": 711,
      "##ital": 712,
      "ref": 713,
      "70": 714,
      "##one": 715,
      "##ild": 716,
      "than": 717,
      "minut": 718,
      "Jul": 719,
      "te": 720,
      "##ath": 721,
      "##ict": 722,
      "##ird": 723,
      "##ters": 724,
      "plan": 725,
      "Com": 726,
      "##err": 727,
      "could": 728,
      "Germany": 729,
      "she": 730,
      "##atur": 731,
      "##ason": 732,
      "##ax": 733,
      "Sh": 734,
      "so": 735,
      "##ET": 736,
      "##AND": 737,
      "Eur": 738,
      "mil": 739,
      "##xt": 740,
      "##ory": 741,
      "##itt": 742,
      "state": 743,
      "Aug": 744,
      "five": 745,
      "nor": 746,
      "##ij": 747,
      "##ission": 748,
      "##ween": 749,
      "kill": 750,
      "other": 751,
      "##ved": 752,
      "spok": 753,
      "points": 754,
      "##cer": 755,
      "##erm": 756,
      "reg": 757,
      "##ague": 758,
      "cons": 759,
      "Australia": 760,
      "between": 761,
      "00": 762,
      "SOC": 763,
      "back": 764,
      "him": 765,
      "##io": 766,
      "##pt": 767,
      "##CER": 768,
      "##istan": 769,
      "##ause": 770,
      "work": 771,
      "years": 772,
      "SOCCER": 773,
      "Bel": 774,
      "Res": 775,
      "since": 776,
      "##its": 777,
      "##reat": 778,
      "##room": 779,
      "##ower": 780,
      "Britain": 781,
      "Ira": 782,
      "Pr": 783,
      "met": 784,
      "inter": 785,
      "##ities": 786,
      "##ull": 787,
      "Iraq": 788,
      "Ir": 789,
      "NE": 790,
      "ear": 791,
      "##IT": 792,
      "##eral": 793,
      "##rael": 794,
      "Israel": 795,
      "40": 796,
      "down": 797,
      "##orts": 798,
      "France": 799,
      "England": 800,
      "Net": 801,
      "South": 802,
      "##ield": 803,
      "played": 804,
      "match": 805,
      "31": 806,
      "##iz": 807,
      "##ey": 808,
      "##UR": 809,
      "##ech": 810,
      "##row": 811,
      "company": 812,
      "##ches": 813,
      "Satur": 814,
      "bo": 815,
      "ret": 816,
      "##onn": 817,
      "##enn": 818,
      "##ares": 819,
      "Saturday": 820,
      "##ium": 821,
      "##vent": 822,
      "only": 823,
      "Europe": 824,
      "spokes": 825,
      "Rep": 826,
      "count": 827,
      "dem": 828,
      "##az": 829,
      "##CH": 830,
      "officials": 831,
      "75": 832,
      "RES": 833,
      "Sc": 834,
      "##ex": 835,
      "##urd": 836,
      "Jap": 837,
      "##ress": 838,
      "##ased": 839,
      "##ices": 840,
      "there": 841,
      "stat": 842,
      "Minister": 843,
      "Afric": 844,
      "Pres": 845,
      "fl": 846,
      "gu": 847,
      "old": 848,
      "##ai": 849,
      "##hip": 850,
      "##ets": 851,
      "third": 852,
      "Japan": 853,
      "Sept": 854,
      "##gan": 855,
      "##aul": 856,
      "##ered": 857,
      "##ised": 858,
      "##OND": 859,
      "Col": 860,
      "just": 861,
      "through": 862,
      "supp": 863,
      "high": 864,
      "president": 865,
      "38": 866,
      "69": 867,
      "Pol": 868,
      "##ott": 869,
      "any": 870,
      "54": 871,
      "dra": 872,
      "tri": 873,
      "##rat": 874,
      "##ious": 875,
      "##ef": 876,
      "##ced": 877,
      "##orp": 878,
      "##urr": 879,
      "half": 880,
      "call": 881,
      "talk": 882,
      "##way": 883,
      "prof": 884,
      "##thern": 885,
      "100": 886,
      "32": 887,
      "71": 888,
      "div": 889,
      "tra": 890,
      "tak": 891,
      "##ood": 892,
      "##AD": 893,
      "inning": 894,
      "seed": 895,
      "##ency": 896,
      "because": 897,
      "RESUL": 898,
      "##vel": 899,
      "##ading": 900,
      "##lem": 901,
      "home": 902,
      "vis": 903,
      "##IR": 904,
      "##ces": 905,
      "##son": 906,
      "##let": 907,
      "##ise": 908,
      "contr": 909,
      "Russian": 910,
      "team": 911,
      "Comm": 912,
      "President": 913,
      "Am": 914,
      "act": 915,
      "war": 916,
      "##ady": 917,
      "Spain": 918,
      "Che": 919,
      "them": 920,
      "##orm": 921,
      "##ole": 922,
      "former": 923,
      "next": 924,
      "NEW": 925,
      "96": 926,
      "ST": 927,
      "made": 928,
      "world": 929,
      "##AM": 930,
      "##ese": 931,
      "##osed": 932,
      "Ser": 933,
      "vs": 934,
      "##eal": 935,
      "##lud": 936,
      "##ink": 937,
      "##other": 938,
      "##app": 939,
      "expected": 940,
      "United": 941,
      "Belg": 942,
      "Mos": 943,
      "Nor": 944,
      "##con": 945,
      "##ica": 946,
      "##oth": 947,
      "statement": 948,
      "Co": 949,
      "Sl": 950,
      "did": 951,
      "games": 952,
      "opp": 953,
      "sl": 954,
      "##OL": 955,
      "##omen": 956,
      "##owed": 957,
      "deal": 958,
      "spokesman": 959,
      "Republic": 960,
      "66": 961,
      "Joh": 962,
      "tour": 963,
      "##arter": 964,
      "33": 965,
      "53": 966,
      "60": 967,
      "sur": 968,
      "vot": 969,
      "##ove": 970,
      "##eng": 971,
      "##uring": 972,
      "##une": 973,
      "DIV": 974,
      "July": 975,
      "45": 976,
      "68": 977,
      "Amer": 978,
      "##led": 979,
      "where": 980,
      "prod": 981,
      "##ternational": 982,
      "Pak": 983,
      "lost": 984,
      "##ees": 985,
      "##omb": 986,
      "start": 987,
      "August": 988,
      "And": 989,
      "serv": 990,
      "##ery": 991,
      "##arm": 992,
      "##ating": 993,
      "ann": 994,
      "September": 995,
      "Pakistan": 996,
      "air": 997,
      "##oman": 998,
      "season": 999,
      "35": 1000,
      "sign": 1001,
      "##ph": 1002,
      "##orn": 1003,
      "##alif": 1004,
      "China": 1005,
      "champions": 1006,
      "RESULTS": 1007,
      "bu": 1008,
      "if": 1009,
      "soc": 1010,
      "##ling": 1011,
      "shares": 1012,
      "agre": 1013,
      "##ORK": 1014,
      "Italy": 1015,
      "##uck": 1016,
      "News": 1017,
      "British": 1018,
      "Pal": 1019,
      "Paul": 1020,
      "YORK": 1021,
      "vict": 1022,
      "##ron": 1023,
      "##ham": 1024,
      "##ya": 1025,
      "##att": 1026,
      "44": 1027,
      "42": 1028,
      "Ara": 1029,
      "Dut": 1030,
      "##ease": 1031,
      "##ared": 1032,
      "reb": 1033,
      "polit": 1034,
      "Cup": 1035,
      "can": 1036,
      "##tain": 1037,
      "##OT": 1038,
      "##OU": 1039,
      "##ange": 1040,
      "##ISION": 1041,
      "invest": 1042,
      "reported": 1043,
      "CH": 1044,
      "Clin": 1045,
      "Fin": 1046,
      "near": 1047,
      "sing": 1048,
      "##owing": 1049,
      "DIVISION": 1050,
      "June": 1051,
      "LOND": 1052,
      "Pet": 1053,
      "game": 1054,
      "stri": 1055,
      "##osition": 1056,
      "iss": 1057,
      "##round": 1058,
      "ord": 1059,
      "##arlier": 1060,
      "includ": 1061,
      "Clinton": 1062,
      "LONDON": 1063,
      "billion": 1064,
      "lo": 1065,
      "##ram": 1066,
      "##ty": 1067,
      "##ican": 1068,
      "while": 1069,
      "ass": 1070,
      "seconds": 1071,
      "##conom": 1072,
      "Dem": 1073,
      "IN": 1074,
      "Op": 1075,
      "PR": 1076,
      "am": 1077,
      "det": 1078,
      "num": 1079,
      "us": 1080,
      "##ged": 1081,
      "##vers": 1082,
      "##ret": 1083,
      "##ley": 1084,
      "##EST": 1085,
      "matches": 1086,
      "67": 1087,
      "##OS": 1088,
      "##eg": 1089,
      "Swed": 1090,
      "Dav": 1091,
      "bank": 1092,
      "##ED": 1093,
      "##uch": 1094,
      "##hire": 1095,
      "##ons": 1096,
      "##ists": 1097,
      "They": 1098,
      "##ondon": 1099,
      "peace": 1100,
      "64": 1101,
      "London": 1102,
      "May": 1103,
      "bus": 1104,
      "##rest": 1105,
      "##ures": 1106,
      "##ched": 1107,
      "Russia": 1108,
      "division": 1109,
      "65": 1110,
      "Ber": 1111,
      "LE": 1112,
      "Sec": 1113,
      "York": 1114,
      "del": 1115,
      "##ner": 1116,
      "##AY": 1117,
      "##IA": 1118,
      "##pr": 1119,
      "##bur": 1120,
      "##ench": 1121,
      "##uth": 1122,
      "party": 1123,
      "47": 1124,
      "85": 1125,
      "held": 1126,
      "kn": 1127,
      "pass": 1128,
      "##co": 1129,
      "##uters": 1130,
      "being": 1131,
      "still": 1132,
      "##riv": 1133,
      "meeting": 1134,
      "added": 1135,
      "##ajor": 1136,
      "European": 1137,
      "56": 1138,
      "73": 1139,
      "Bra": 1140,
      "West": 1141,
      "car": 1142,
      "earlier": 1143,
      "most": 1144,
      "own": 1145,
      "##ying": 1146,
      "##arr": 1147,
      "##ater": 1148,
      "##ales": 1149,
      "##ster": 1150,
      "rem": 1151,
      "milit": 1152,
      "Results": 1153,
      "46": 1154,
      "55": 1155,
      "Mal": 1156,
      "econom": 1157,
      "now": 1158,
      "tonn": 1159,
      "well": 1160,
      "##IL": 1161,
      "##port": 1162,
      "fore": 1163,
      "##lear": 1164,
      "##aper": 1165,
      "##ief": 1166,
      "scor": 1167,
      "metres": 1168,
      "visit": 1169,
      "John": 1170,
      "gen": 1171,
      "inf": 1172,
      "##ents": 1173,
      "##rew": 1174,
      "##ross": 1175,
      "should": 1176,
      "Inc": 1177,
      "talks": 1178,
      "Democ": 1179,
      "34": 1180,
      "43": 1181,
      "Sa": 1182,
      "Sy": 1183,
      "take": 1184,
      "##ned": 1185,
      "##UE": 1186,
      "##ward": 1187,
      "##iff": 1188,
      "##ALL": 1189,
      "killed": 1190,
      "tonnes": 1191,
      "61": 1192,
      "Bank": 1193,
      "Can": 1194,
      "National": 1195,
      "SE": 1196,
      "hand": 1197,
      "loc": 1198,
      "long": 1199,
      "##AK": 1200,
      "##per": 1201,
      "##bed": 1202,
      "##urity": 1203,
      "##osn": 1204,
      "##emb": 1205,
      "left": 1206,
      "Sweden": 1207,
      "52": 1208,
      "72": 1209,
      "cour": 1210,
      "during": 1211,
      "post": 1212,
      "##iet": 1213,
      "seven": 1214,
      "final": 1215,
      "open": 1216,
      "India": 1217,
      "capital": 1218,
      "demand": 1219,
      "Gu": 1220,
      "Mark": 1221,
      "fe": 1222,
      "##ober": 1223,
      "##ru": 1224,
      "##OM": 1225,
      "##ians": 1226,
      "Reuters": 1227,
      "soccer": 1228,
      "foreign": 1229,
      "48": 1230,
      "Wh": 1231,
      "around": 1232,
      "bel": 1233,
      "foll": 1234,
      "##AC": 1235,
      "inj": 1236,
      "##istry": 1237,
      "head": 1238,
      "French": 1239,
      "##uction": 1240,
      "profit": 1241,
      "curr": 1242,
      "dr": 1243,
      "##tend": 1244,
      "##cess": 1245,
      "##aq": 1246,
      "##ana": 1247,
      "league": 1248,
      "prov": 1249,
      "prob": 1250,
      "good": 1251,
      "##lands": 1252,
      "elections": 1253,
      "74": 1254,
      "Mart": 1255,
      "des": 1256,
      "est": 1257,
      "ser": 1258,
      "tel": 1259,
      "whe": 1260,
      "want": 1261,
      "international": 1262,
      "took": 1263,
      "##reak": 1264,
      "##estin": 1265,
      "manag": 1266,
      "Mc": 1267,
      "found": 1268,
      "main": 1269,
      "##ee": 1270,
      "##ins": 1271,
      "##ants": 1272,
      "prot": 1273,
      "##ible": 1274,
      "attack": 1275,
      "minutes": 1276,
      "early": 1277,
      "innings": 1278,
      "announ": 1279,
      "number": 1280,
      "Democrat": 1281,
      "59": 1282,
      "Ph": 1283,
      "Tr": 1284,
      "due": 1285,
      "sub": 1286,
      "##lam": 1287,
      "top": 1288,
      "days": 1289,
      "saying": 1290,
      "Open": 1291,
      "200": 1292,
      "Corp": 1293,
      "den": 1294,
      "term": 1295,
      "##ior": 1296,
      "##ike": 1297,
      "##ting": 1298,
      "##LE": 1299,
      "##dam": 1300,
      "##ael": 1301,
      "##aug": 1302,
      "##lish": 1303,
      "##ban": 1304,
      "##ale": 1305,
      "ins": 1306,
      "##lex": 1307,
      "##ova": 1308,
      "results": 1309,
      "contin": 1310,
      "return": 1311,
      "support": 1312,
      "36": 1313,
      "Bosn": 1314,
      "She": 1315,
      "dep": 1316,
      "vi": 1317,
      "##bs": 1318,
      "##rem": 1319,
      "newsp": 1320,
      "minute": 1321,
      "political": 1322,
      "Con": 1323,
      "Cro": 1324,
      "FR": 1325,
      "hel": 1326,
      "hour": 1327,
      "you": 1328,
      "town": 1329,
      "##andings": 1330,
      "1995": 1331,
      "##ung": 1332,
      "##ights": 1333,
      "arm": 1334,
      "Belgium": 1335,
      "OF": 1336,
      "put": 1337,
      "##ual": 1338,
      "##ecut": 1339,
      "share": 1340,
      "trad": 1341,
      "minister": 1342,
      "##arli": 1343,
      "##AGUE": 1344,
      "Nether": 1345,
      "country": 1346,
      "American": 1347,
      "Newsroom": 1348,
      "Palestin": 1349,
      "victory": 1350,
      "63": 1351,
      "95": 1352,
      "AN": 1353,
      "Cz": 1354,
      "Jan": 1355,
      "Par": 1356,
      "net": 1357,
      "##ool": 1358,
      "##iver": 1359,
      "##by": 1360,
      "##ington": 1361,
      "##ics": 1362,
      "##ries": 1363,
      "Netherlands": 1364,
      "As": 1365,
      "eight": 1366,
      "med": 1367,
      "##ured": 1368,
      "leg": 1369,
      "##ollar": 1370,
      "arrest": 1371,
      "record": 1372,
      "champion": 1373,
      "##arliament": 1374,
      "Kurd": 1375,
      "bro": 1376,
      "law": 1377,
      "our": 1378,
      "sus": 1379,
      "##au": 1380,
      "##ONT": 1381,
      "quarter": 1382,
      "LEAGUE": 1383,
      "##uthor": 1384,
      "##augh": 1385,
      "49": 1386,
      "500": 1387,
      "Ak": 1388,
      "av": 1389,
      "major": 1390,
      "sent": 1391,
      "test": 1392,
      "##rand": 1393,
      "##rist": 1394,
      "##loy": 1395,
      "##zil": 1396,
      "##eration": 1397,
      "##ising": 1398,
      "##ments": 1399,
      "##abul": 1400,
      "leaders": 1401,
      "says": 1402,
      "Africa": 1403,
      "Slov": 1404,
      "Brazil": 1405,
      "Czech": 1406,
      "90": 1407,
      "Ex": 1408,
      "Pl": 1409,
      "World": 1410,
      "hit": 1411,
      "im": 1412,
      "##ather": 1413,
      "##amed": 1414,
      "##ution": 1415,
      "beh": 1416,
      "##ows": 1417,
      "CR": 1418,
      "dollar": 1419,
      "hold": 1420,
      "same": 1421,
      "##over": 1422,
      "##ene": 1423,
      "##ison": 1424,
      "##ained": 1425,
      "Iran": 1426,
      "championship": 1427,
      "susp": 1428,
      "51": 1429,
      "62": 1430,
      "Bar": 1431,
      "eff": 1432,
      "hom": 1433,
      "lower": 1434,
      "very": 1435,
      "##ipp": 1436,
      "##til": 1437,
      "##ls": 1438,
      "##erence": 1439,
      "##ush": 1440,
      "cond": 1441,
      "short": 1442,
      "ago": 1443,
      "leader": 1444,
      "called": 1445,
      "local": 1446,
      "57": 1447,
      "Kh": 1448,
      "Part": 1449,
      "bond": 1450,
      "fail": 1451,
      "fact": 1452,
      "get": 1453,
      "prom": 1454,
      "##ria": 1455,
      "##ger": 1456,
      "##alth": 1457,
      "##ently": 1458,
      "##reg": 1459,
      "##uman": 1460,
      "States": 1461,
      "spe": 1462,
      "##ney": 1463,
      "##ought": 1464,
      "Canad": 1465,
      "loss": 1466,
      "may": 1467,
      "national": 1468,
      "##get": 1469,
      "##ble": 1470,
      "int": 1471,
      "##elf": 1472,
      "##oted": 1473,
      "what": 1474,
      "chief": 1475,
      "##ending": 1476,
      "trade": 1477,
      "close": 1478,
      "newsroom": 1479,
      "Ad": 1480,
      "Ed": 1481,
      "Gra": 1482,
      "Men": 1483,
      "On": 1484,
      "Sch": 1485,
      "Tur": 1486,
      "parliament": 1487,
      "sm": 1488,
      "##iam": 1489,
      "##ful": 1490,
      "##ked": 1491,
      "##lom": 1492,
      "##mb": 1493,
      "##ones": 1494,
      "then": 1495,
      "##ished": 1496,
      "##imb": 1497,
      "##irect": 1498,
      "##ICAG": 1499,
      "CHICAG": 1500,
      "CHICAGO": 1501,
      "Bo": 1502,
      "both": 1503,
      "km": 1504,
      "rate": 1505,
      "race": 1506,
      "##shire": 1507,
      "##ka": 1508,
      "##iness": 1509,
      "##ayed": 1510,
      "stock": 1511,
      "##rib": 1512,
      "charg": 1513,
      "goals": 1514,
      "prices": 1515,
      "##ife": 1516,
      "##ICK": 1517,
      "singles": 1518,
      "military": 1519,
      "newspaper": 1520,
      "help": 1521,
      "41": 1522,
      "77": 1523,
      "Alex": 1524,
      "Mich": 1525,
      "TO": 1526,
      "camp": 1527,
      "grow": 1528,
      "land": 1529,
      "mid": 1530,
      "sold": 1531,
      "##oot": 1532,
      "##uel": 1533,
      "##gy": 1534,
      "##field": 1535,
      "##eb": 1536,
      "##cow": 1537,
      "##ll": 1538,
      "##ORE": 1539,
      "runs": 1540,
      "strong": 1541,
      "refug": 1542,
      "Moscow": 1543,
      "58": 1544,
      "FIR": 1545,
      "Sal": 1546,
      "direct": 1547,
      "fight": 1548,
      "make": 1549,
      "pct": 1550,
      "##MT": 1551,
      "##ues": 1552,
      "##nament": 1553,
      "##ford": 1554,
      "##IM": 1555,
      "##ering": 1556,
      "There": 1557,
      "disc": 1558,
      "cents": 1559,
      "tournament": 1560,
      "Dutch": 1561,
      "Ab": 1562,
      "Kong": 1563,
      "Mor": 1564,
      "Oly": 1565,
      "Per": 1566,
      "ban": 1567,
      "fell": 1568,
      "gave": 1569,
      "overs": 1570,
      "##ued": 1571,
      "##af": 1572,
      "##UT": 1573,
      "##inc": 1574,
      "##veral": 1575,
      "place": 1576,
      "ext": 1577,
      "months": 1578,
      "Prime": 1579,
      "taking": 1580,
      "Commission": 1581,
      "opposition": 1582,
      "rebels": 1583,
      "issue": 1584,
      "##burg": 1585,
      "Phil": 1586,
      "viol": 1587,
      "behind": 1588,
      "FIRST": 1589,
      "Olymp": 1590,
      "Bl": 1591,
      "For": 1592,
      "Hong": 1593,
      "San": 1594,
      "Women": 1595,
      "cut": 1596,
      "city": 1597,
      "dro": 1598,
      "ro": 1599,
      "tabul": 1600,
      "vol": 1601,
      "##ler": 1602,
      "##UG": 1603,
      "##head": 1604,
      "##orters": 1605,
      "##itions": 1606,
      "##ury": 1607,
      "198": 1608,
      "##istr": 1609,
      "spec": 1610,
      "League": 1611,
      "ended": 1612,
      "##ennis": 1613,
      "Michael": 1614,
      "39": 1615,
      "Ah": 1616,
      "Cost": 1617,
      "EN": 1618,
      "War": 1619,
      "based": 1620,
      "wick": 1621,
      "##ris": 1622,
      "##iation": 1623,
      "##ided": 1624,
      "##aker": 1625,
      "complet": 1626,
      "weekend": 1627,
      "##ftime": 1628,
      "prev": 1629,
      "Australian": 1630,
      "##alyst": 1631,
      "election": 1632,
      "north": 1633,
      "northern": 1634,
      "Iraqi": 1635,
      "Israeli": 1636,
      "Serb": 1637,
      "##attle": 1638,
      "David": 1639,
      "Ag": 1640,
      "Ang": 1641,
      "Med": 1642,
      "author": 1643,
      "diff": 1644,
      "giv": 1645,
      "late": 1646,
      "my": 1647,
      "pound": 1648,
      "poss": 1649,
      "rul": 1650,
      "rest": 1651,
      "right": 1652,
      "##uk": 1653,
      "##ny": 1654,
      "##ker": 1655,
      "##estern": 1656,
      "##ories": 1657,
      "##outhern": 1658,
      "##amil": 1659,
      "##ander": 1660,
      "##osp": 1661,
      "prop": 1662,
      "child": 1663,
      "press": 1664,
      "price": 1665,
      "security": 1666,
      "until": 1667,
      "Attend": 1668,
      "agreed": 1669,
      "37": 1670,
      "Kar": 1671,
      "fut": 1672,
      "oil": 1673,
      "tro": 1674,
      "##ren": 1675,
      "##ness": 1676,
      "##lor": 1677,
      "##less": 1678,
      "##min": 1679,
      "##CT": 1680,
      "form": 1681,
      "going": 1682,
      "agency": 1683,
      "deb": 1684,
      "players": 1685,
      "decl": 1686,
      "accus": 1687,
      "African": 1688,
      "drawn": 1689,
      "court": 1690,
      "belie": 1691,
      "Attendance": 1692,
      "Carl": 1693,
      "Gen": 1694,
      "Lank": 1695,
      "Roman": 1696,
      "Se": 1697,
      "Sri": 1698,
      "TH": 1699,
      "Will": 1700,
      "led": 1701,
      "night": 1702,
      "##uan": 1703,
      "##lav": 1704,
      "##be": 1705,
      "##ened": 1706,
      "##ouse": 1707,
      "##omp": 1708,
      "another": 1709,
      "##ops": 1710,
      "##ified": 1711,
      "polic": 1712,
      "##iplom": 1713,
      "need": 1714,
      "incre": 1715,
      "miles": 1716,
      "North": 1717,
      "economic": 1718,
      "Democratic": 1719,
      "refugees": 1720,
      "##ospital": 1721,
      "80": 1722,
      "No": 1723,
      "SAN": 1724,
      "ahead": 1725,
      "dou": 1726,
      "men": 1727,
      "power": 1728,
      "sales": 1729,
      "##iat": 1730,
      "##gent": 1731,
      "##yst": 1732,
      "##ico": 1733,
      "##ett": 1734,
      "##ection": 1735,
      "office": 1736,
      "##INN": 1737,
      "adv": 1738,
      "##errill": 1739,
      "##ijack": 1740,
      "look": 1741,
      "general": 1742,
      "telev": 1743,
      "Palestinian": 1744,
      "arrested": 1745,
      "CRICK": 1746,
      "##iplomat": 1747,
      "CRICKET": 1748,
      "76": 1749,
      "Ben": 1750,
      "GMT": 1751,
      "Yel": 1752,
      "clear": 1753,
      "par": 1754,
      "public": 1755,
      "way": 1756,
      "##US": 1757,
      "##ani": 1758,
      "those": 1759,
      "1997": 1760,
      "##ivers": 1761,
      "##ific": 1762,
      "Inter": 1763,
      "trans": 1764,
      "quoted": 1765,
      "All": 1766,
      "allowed": 1767,
      "Islam": 1768,
      "central": 1769,
      "business": 1770,
      "Slovak": 1771,
      "Party": 1772,
      "Ahmed": 1773,
      "previous": 1774,
      "Fore": 1775,
      "Jord": 1776,
      "Mil": 1777,
      "Sud": 1778,
      "dist": 1779,
      "emb": 1780,
      "pay": 1781,
      "women": 1782,
      "##rd": 1783,
      "##ring": 1784,
      "##ID": 1785,
      "##bour": 1786,
      "##zer": 1787,
      "##ald": 1788,
      "##ides": 1789,
      "##omin": 1790,
      "##ready": 1791,
      "1994": 1792,
      "##imes": 1793,
      "already": 1794,
      "prog": 1795,
      "##ives": 1796,
      "several": 1797,
      "many": 1798,
      "train": 1799,
      "including": 1800,
      "problem": 1801,
      "Martin": 1802,
      "Foreign": 1803,
      "82": 1804,
      "BR": 1805,
      "Cl": 1806,
      "Zeal": 1807,
      "ball": 1808,
      "break": 1809,
      "few": 1810,
      "hear": 1811,
      "hijack": 1812,
      "mor": 1813,
      "##EM": 1814,
      "##ns": 1815,
      "##fat": 1816,
      "##LAND": 1817,
      "beg": 1818,
      "##tsin": 1819,
      "##ular": 1820,
      "analyst": 1821,
      "##unic": 1822,
      "##ago": 1823,
      "neg": 1824,
      "rece": 1825,
      "##STON": 1826,
      "##STER": 1827,
      "indust": 1828,
      "Arafat": 1829,
      "following": 1830,
      "estim": 1831,
      "hours": 1832,
      "television": 1833,
      "Yeltsin": 1834,
      "05": 1835,
      "Ass": 1836,
      "Dole": 1837,
      "Oct": 1838,
      "diplomat": 1839,
      "later": 1840,
      "southern": 1841,
      "##TA": 1842,
      "##EX": 1843,
      "##ras": 1844,
      "##ines": 1845,
      "##ility": 1846,
      "##urch": 1847,
      "##otor": 1848,
      "forces": 1849,
      "##ains": 1850,
      "##aking": 1851,
      "##ivil": 1852,
      "##ender": 1853,
      "Christ": 1854,
      "Union": 1855,
      "enter": 1856,
      "higher": 1857,
      "passeng": 1858,
      "drug": 1859,
      "authorities": 1860,
      "Sudan": 1861,
      "Zealand": 1862,
      "300": 1863,
      "Apr": 1864,
      "Be": 1865,
      "El": 1866,
      "Fer": 1867,
      "Gre": 1868,
      "Uk": 1869,
      "cost": 1870,
      "came": 1871,
      "emp": 1872,
      "join": 1873,
      "like": 1874,
      "nine": 1875,
      "priv": 1876,
      "turn": 1877,
      "walk": 1878,
      "##ox": 1879,
      "##ule": 1880,
      "##napp": 1881,
      "##sc": 1882,
      "##lo": 1883,
      "##UK": 1884,
      "##CE": 1885,
      "##eland": 1886,
      "think": 1887,
      "##ots": 1888,
      "##leg": 1889,
      "##iger": 1890,
      "##imin": 1891,
      "##change": 1892,
      "##ived": 1893,
      "##udget": 1894,
      "reporters": 1895,
      "resp": 1896,
      "weeks": 1897,
      "Marc": 1898,
      "invol": 1899,
      "##vention": 1900,
      "guerrill": 1901,
      "strike": 1902,
      "##retary": 1903,
      "whether": 1904,
      "announced": 1905,
      "troops": 1906,
      "Jordan": 1907,
      "87": 1908,
      "AM": 1909,
      "Li": 1910,
      "Wash": 1911,
      "big": 1912,
      "equ": 1913,
      "even": 1914,
      "fig": 1915,
      "farm": 1916,
      "much": 1917,
      "rank": 1918,
      "sell": 1919,
      "squ": 1920,
      "##CO": 1921,
      "##ative": 1922,
      "##icago": 1923,
      "tot": 1924,
      "##omas": 1925,
      "##str": 1926,
      "##acy": 1927,
      "rev": 1928,
      "##verage": 1929,
      "Chicago": 1930,
      "closed": 1931,
      "Argent": 1932,
      "English": 1933,
      "appear": 1934,
      "control": 1935,
      "agreement": 1936,
      "investig": 1937,
      "Finland": 1938,
      "81": 1939,
      "BAS": 1940,
      "Cent": 1941,
      "Jer": 1942,
      "away": 1943,
      "budget": 1944,
      "col": 1945,
      "fall": 1946,
      "sour": 1947,
      "side": 1948,
      "terr": 1949,
      "ve": 1950,
      "went": 1951,
      "##iew": 1952,
      "##eep": 1953,
      "##aign": 1954,
      "##aff": 1955,
      "##ony": 1956,
      "##eds": 1957,
      "##ests": 1958,
      "##ects": 1959,
      "began": 1960,
      "##eph": 1961,
      "plans": 1962,
      "##ival": 1963,
      "This": 1964,
      "##aving": 1965,
      "qualif": 1966,
      "March": 1967,
      "oper": 1968,
      "decision": 1969,
      "index": 1970,
      "##INGS": 1971,
      "draw": 1972,
      "Moslem": 1973,
      "Andre": 1974,
      "Ukra": 1975,
      "BO": 1976,
      "Gl": 1977,
      "Man": 1978,
      "Rober": 1979,
      "free": 1980,
      "gir": 1981,
      "past": 1982,
      "val": 1983,
      "##TR": 1984,
      "##aid": 1985,
      "##wan": 1986,
      "##BALL": 1987,
      "##ane": 1988,
      "##enal": 1989,
      "threat": 1990,
      "stra": 1991,
      "##rian": 1992,
      "asked": 1993,
      "##epend": 1994,
      "##ifth": 1995,
      "##berg": 1996,
      "trading": 1997,
      "ministry": 1998,
      "Lebed": 1999,
      "quest": 2000,
      "prem": 2001,
      "sett": 2002,
      "countries": 2003,
      "Police": 2004,
      "STAND": 2005,
      "##embers": 2006,
      "army": 2007,
      "immed": 2008,
      "campaign": 2009,
      "morning": 2010,
      "Washington": 2011,
      "400": 2012,
      "79": 2013,
      "Air": 2014,
      "Egy": 2015,
      "Ge": 2016,
      "best": 2017,
      "che": 2018,
      "cust": 2019,
      "fr": 2020,
      "fifth": 2021,
      "hits": 2022,
      "let": 2023,
      "move": 2024,
      "ph": 2025,
      "rights": 2026,
      "##RE": 2027,
      "##dney": 2028,
      "##cc": 2029,
      "##ball": 2030,
      "##ati": 2031,
      "##itted": 2032,
      "##ille": 2033,
      "##olog": 2034,
      "##ute": 2035,
      "##anding": 2036,
      "##ume": 2037,
      "##ugg": 2038,
      "organ": 2039,
      "leading": 2040,
      "money": 2041,
      "Austria": 2042,
      "##ancial": 2043,
      "winning": 2044,
      "Atl": 2045,
      "accord": 2046,
      "taken": 2047,
      "seeded": 2048,
      "Sydney": 2049,
      "Canada": 2050,
      "fighting": 2051,
      "Olympic": 2052,
      "William": 2053,
      "April": 2054,
      "Egypt": 2055,
      "Bor": 2056,
      "COL": 2057,
      "East": 2058,
      "Mid": 2059,
      "NAT": 2060,
      "bat": 2061,
      "bas": 2062,
      "coll": 2063,
      "cease": 2064,
      "dri": 2065,
      "hol": 2066,
      "tax": 2067,
      "wr": 2068,
      "wor": 2069,
      "##ners": 2070,
      "##fire": 2071,
      "##cil": 2072,
      "##ped": 2073,
      "##sp": 2074,
      "##UN": 2075,
      "##ara": 2076,
      "requ": 2077,
      "##cept": 2078,
      "concer": 2079,
      "devel": 2080,
      "##ISH": 2081,
      "club": 2082,
      "such": 2083,
      "fourth": 2084,
      "confir": 2085,
      "##ittle": 2086,
      "region": 2087,
      "Scor": 2088,
      "Colomb": 2089,
      "produc": 2090,
      "signed": 2091,
      "scored": 2092,
      "current": 2093,
      "ENG": 2094,
      "STANDINGS": 2095,
      "94": 2096,
      "Je": 2097,
      "Ne": 2098,
      "Nic": 2099,
      "Niger": 2100,
      "Pro": 2101,
      "Two": 2102,
      "doc": 2103,
      "ever": 2104,
      "how": 2105,
      "members": 2106,
      "pers": 2107,
      "red": 2108,
      "treat": 2109,
      "##oor": 2110,
      "##for": 2111,
      "##form": 2112,
      "##ves": 2113,
      "##ait": 2114,
      "##ki": 2115,
      "##lad": 2116,
      "##DP": 2117,
      "##arge": 2118,
      "##oup": 2119,
      "step": 2120,
      "##ages": 2121,
      "Standings": 2122,
      "aff": 2123,
      "area": 2124,
      "##anged": 2125,
      "##ailable": 2126,
      "Mont": 2127,
      "rele": 2128,
      "defe": 2129,
      "appro": 2130,
      "import": 2131,
      "##ITY": 2132,
      "White": 2133,
      "growth": 2134,
      "total": 2135,
      "Ukraine": 2136,
      "Atlant": 2137,
      "develop": 2138,
      "78": 2139,
      "800": 2140,
      "La": 2141,
      "PS": 2142,
      "Port": 2143,
      "SP": 2144,
      "average": 2145,
      "bomb": 2146,
      "cash": 2147,
      "civil": 2148,
      "hospital": 2149,
      "##TH": 2150,
      "##TON": 2151,
      "##ks": 2152,
      "##ject": 2153,
      "##alian": 2154,
      "##stit": 2155,
      "##ama": 2156,
      "##ota": 2157,
      "##epar": 2158,
      "##ONG": 2159,
      "##ody": 2160,
      "recent": 2161,
      "find": 2162,
      "working": 2163,
      "order": 2164,
      "manager": 2165,
      "small": 2166,
      "road": 2167,
      "accused": 2168,
      "Lanka": 2169,
      "##ystem": 2170,
      "BASE": 2171,
      "97": 2172,
      "Bro": 2173,
      "Calif": 2174,
      "De": 2175,
      "Ken": 2176,
      "PCT": 2177,
      "Rich": 2178,
      "Youn": 2179,
      "died": 2180,
      "ed": 2181,
      "fil": 2182,
      "gun": 2183,
      "human": 2184,
      "sk": 2185,
      "##uce": 2186,
      "##rad": 2187,
      "##iers": 2188,
      "##night": 2189,
      "##AP": 2190,
      "##UM": 2191,
      "##eri": 2192,
      "##ined": 2193,
      "these": 2194,
      "##ote": 2195,
      "forec": 2196,
      "##ired": 2197,
      "stop": 2198,
      "##anda": 2199,
      "without": 2200,
      "shot": 2201,
      "Ste": 2202,
      "goal": 2203,
      "seen": 2204,
      "execut": 2205,
      "agg": 2206,
      "##roux": 2207,
      "##aily": 2208,
      "##ances": 2209,
      "pref": 2210,
      "##ENN": 2211,
      "##rought": 2212,
      "plane": 2213,
      "Ireland": 2214,
      "trip": 2215,
      "activ": 2216,
      "Republican": 2217,
      "vote": 2218,
      "buy": 2219,
      "Arab": 2220,
      "detail": 2221,
      "Paris": 2222,
      "Akram": 2223,
      "available": 2224,
      "discuss": 2225,
      "future": 2226,
      "negot": 2227,
      "BASEBALL": 2228,
      "02": 2229,
      "09": 2230,
      "98": 2231,
      "Aj": 2232,
      "Bill": 2233,
      "Dep": 2234,
      "Go": 2235,
      "Hal": 2236,
      "Ham": 2237,
      "Qu": 2238,
      "bord": 2239,
      "case": 2240,
      "care": 2241,
      "eas": 2242,
      "give": 2243,
      "great": 2244,
      "hard": 2245,
      "kid": 2246,
      "keep": 2247,
      "little": 2248,
      "might": 2249,
      "pos": 2250,
      "sw": 2251,
      "sched": 2252,
      "separ": 2253,
      "##rid": 2254,
      "##iod": 2255,
      "##ta": 2256,
      "##IAN": 2257,
      "##pl": 2258,
      "##pite": 2259,
      "##aun": 2260,
      "##me": 2261,
      "##UST": 2262,
      "##hes": 2263,
      "##ators": 2264,
      "##idence": 2265,
      "##ston": 2266,
      "##ado": 2267,
      "stud": 2268,
      "##riend": 2269,
      "##earch": 2270,
      "##ortun": 2271,
      "period": 2272,
      "##udi": 2273,
      "##ffic": 2274,
      "##uper": 2275,
      "does": 2276,
      "conference": 2277,
      "book": 2278,
      "contract": 2279,
      "Dutroux": 2280,
      "Peter": 2281,
      "failed": 2282,
      "wickets": 2283,
      "embass": 2284,
      "ceasefire": 2285,
      "released": 2286,
      "City": 2287,
      "Pe": 2288,
      "Pat": 2289,
      "fre": 2290,
      "fur": 2291,
      "fund": 2292,
      "miss": 2293,
      "rule": 2294,
      "system": 2295,
      "##EC": 2296,
      "##ha": 2297,
      "##side": 2298,
      "##ma": 2299,
      "##UP": 2300,
      "##hel": 2301,
      "##arn": 2302,
      "##atest": 2303,
      "##ask": 2304,
      "##eles": 2305,
      "##eter": 2306,
      "##ached": 2307,
      "##osing": 2308,
      "##chn": 2309,
      "##umm": 2310,
      "least": 2311,
      "level": 2312,
      "see": 2313,
      "prime": 2314,
      "##ANC": 2315,
      "compet": 2316,
      "repl": 2317,
      "Italian": 2318,
      "expl": 2319,
      "disease": 2320,
      "independ": 2321,
      "coach": 2322,
      "interest": 2323,
      "Amster": 2324,
      "production": 2325,
      "started": 2326,
      "service": 2327,
      "build": 2328,
      "Kurdish": 2329,
      "embassy": 2330,
      "Amsterdam": 2331,
      "83": 2332,
      "IS": 2333,
      "Kore": 2334,
      "PAR": 2335,
      "Sen": 2336,
      "Tai": 2337,
      "US": 2338,
      "Was": 2339,
      "bill": 2340,
      "fed": 2341,
      "fire": 2342,
      "lik": 2343,
      "larg": 2344,
      "mission": 2345,
      "rain": 2346,
      "sol": 2347,
      "tennis": 2348,
      "##RO": 2349,
      "##IF": 2350,
      "##za": 2351,
      "##BO": 2352,
      "##alem": 2353,
      "##ism": 2354,
      "##omet": 2355,
      "##urt": 2356,
      "##amb": 2357,
      "##lement": 2358,
      "stories": 2359,
      "##ulation": 2360,
      "##artment": 2361,
      "comment": 2362,
      "prison": 2363,
      "Thomas": 2364,
      "death": 2365,
      "##ESS": 2366,
      "##ipal": 2367,
      "Leading": 2368,
      "across": 2369,
      "suff": 2370,
      "Indones": 2371,
      "ground": 2372,
      "point": 2373,
      "##airman": 2374,
      "##IONS": 2375,
      "planned": 2376,
      "Chechn": 2377,
      "airport": 2378,
      "Bosnia": 2379,
      "Bosnian": 2380,
      "Croat": 2381,
      "Costa": 2382,
      "October": 2383,
      "squad": 2384,
      "question": 2385,
      "Ajax": 2386,
      "Taiwan": 2387,
      "Wasim": 2388,
      "Chechnya": 2389,
      "93": 2390,
      "Ban": 2391,
      "BAL": 2392,
      "FOR": 2393,
      "Ju": 2394,
      "SC": 2395,
      "Sim": 2396,
      "Soc": 2397,
      "Vol": 2398,
      "cop": 2399,
      "low": 2400,
      "must": 2401,
      "ris": 2402,
      "rad": 2403,
      "rup": 2404,
      "rose": 2405,
      "sch": 2406,
      "yet": 2407,
      "##ient": 2408,
      "##ti": 2409,
      "##BUR": 2410,
      "##atch": 2411,
      "##isc": 2412,
      "##ayer": 2413,
      "##ador": 2414,
      "##olf": 2415,
      "##aced": 2416,
      "##ims": 2417,
      "##imed": 2418,
      "seek": 2419,
      "##ouncil": 2420,
      "##ards": 2421,
      "##anger": 2422,
      "expect": 2423,
      "##nings": 2424,
      "##key": 2425,
      "Ministry": 2426,
      "commun": 2427,
      "attem": 2428,
      "known": 2429,
      "carry": 2430,
      "bonds": 2431,
      "Black": 2432,
      "given": 2433,
      "children": 2434,
      "declared": 2435,
      "General": 2436,
      "Romania": 2437,
      "Slovakia": 2438,
      "AUG": 2439,
      "Bur": 2440,
      "CITY": 2441,
      "Fir": 2442,
      "Gaz": 2443,
      "Hung": 2444,
      "If": 2445,
      "Lt": 2446,
      "Or": 2447,
      "One": 2448,
      "Sm": 2449,
      "Ter": 2450,
      "coup": 2451,
      "face": 2452,
      "murd": 2453,
      "penal": 2454,
      "sim": 2455,
      "suc": 2456,
      "south": 2457,
      "tit": 2458,
      "woman": 2459,
      "##anies": 2460,
      "##reet": 2461,
      "##ira": 2462,
      "ste": 2463,
      "standings": 2464,
      "##usalem": 2465,
      "health": 2466,
      "plant": 2467,
      "##ession": 2468,
      "State": 2469,
      "firm": 2470,
      "trying": 2471,
      "reports": 2472,
      "##icket": 2473,
      "##resent": 2474,
      "markets": 2475,
      "impro": 2476,
      "consid": 2477,
      "series": 2478,
      "##regate": 2479,
      "tabulate": 2480,
      "possible": 2481,
      "Jerusalem": 2482,
      "Geor": 2483,
      "holiday": 2484,
      "further": 2485,
      "04": 2486,
      "86": 2487,
      "900": 2488,
      "AG": 2489,
      "Cra": 2490,
      "Div": 2491,
      "Jon": 2492,
      "Jim": 2493,
      "Mo": 2494,
      "Mic": 2495,
      "Mex": 2496,
      "Tor": 2497,
      "Tom": 2498,
      "TENN": 2499,
      "Yug": 2500,
      "bid": 2501,
      "brought": 2502,
      "date": 2503,
      "eng": 2504,
      "far": 2505,
      "id": 2506,
      "il": 2507,
      "lim": 2508,
      "ob": 2509,
      "rates": 2510,
      "sen": 2511,
      "tie": 2512,
      "use": 2513,
      "##RA": 2514,
      "##eed": 2515,
      "##GH": 2516,
      "##ari": 2517,
      "##ata": 2518,
      "##isation": 2519,
      "##ita": 2520,
      "##ste": 2521,
      "##ola": 2522,
      "##amm": 2523,
      "##uty": 2524,
      "##otal": 2525,
      "forced": 2526,
      "star": 2527,
      "##oslav": 2528,
      "##ourn": 2529,
      "come": 2530,
      "resign": 2531,
      "result": 2532,
      "##ogra": 2533,
      "opt": 2534,
      "Indian": 2535,
      "captain": 2536,
      "##ized": 2537,
      "Poland": 2538,
      "##ways": 2539,
      "Cheche": 2540,
      "used": 2541,
      "##ESTER": 2542,
      "opening": 2543,
      "charges": 2544,
      "program": 2545,
      "##unicipal": 2546,
      "received": 2547,
      "industry": 2548,
      "employ": 2549,
      "private": 2550,
      "guerrillas": 2551,
      "Robert": 2552,
      "custom": 2553,
      "Nigeria": 2554,
      "Kenya": 2555,
      "Ltd": 2556,
      "TENNIS": 2557,
      "BE": 2558,
      "Bob": 2559,
      "Cub": 2560,
      "Gr": 2561,
      "Gro": 2562,
      "Grand": 2563,
      "Mush": 2564,
      "Ro": 2565,
      "br": 2566,
      "full": 2567,
      "ra": 2568,
      "sect": 2569,
      "vill": 2570,
      "yen": 2571,
      "##nes": 2572,
      "##IP": 2573,
      "##aries": 2574,
      "##atist": 2575,
      "##ingham": 2576,
      "##ociation": 2577,
      "lev": 2578,
      "process": 2579,
      "showed": 2580,
      "That": 2581,
      "dead": 2582,
      "companies": 2583,
      "Alger": 2584,
      "better": 2585,
      "##ittee": 2586,
      "Scott": 2587,
      "deliver": 2588,
      "##wards": 2589,
      "injured": 2590,
      "despite": 2591,
      "effect": 2592,
      "Turkey": 2593,
      "##istration": 2594,
      "##iately": 2595,
      "estimated": 2596,
      "passengers": 2597,
      "Argentina": 2598,
      "straight": 2599,
      "immediately": 2600,
      "details": 2601,
      "border": 2602,
      "PARIS": 2603,
      "likely": 2604,
      "school": 2605,
      "Yugoslav": 2606,
      "illeg": 2607,
      "84": 2608,
      "Bu": 2609,
      "Cy": 2610,
      "Dec": 2611,
      "Fre": 2612,
      "Gold": 2613,
      "Ma": 2614,
      "Moh": 2615,
      "Nations": 2616,
      "OP": 2617,
      "OS": 2618,
      "PL": 2619,
      "So": 2620,
      "Wimb": 2621,
      "cer": 2622,
      "daily": 2623,
      "each": 2624,
      "event": 2625,
      "field": 2626,
      "friend": 2627,
      "got": 2628,
      "jail": 2629,
      "lif": 2630,
      "line": 2631,
      "latest": 2632,
      "mess": 2633,
      "named": 2634,
      "pull": 2635,
      "##uary": 2636,
      "##rup": 2637,
      "##nic": 2638,
      "##LING": 2639,
      "##ever": 2640,
      "##hing": 2641,
      "##DAY": 2642,
      "##oned": 2643,
      "##ena": 2644,
      "##inger": 2645,
      "##itive": 2646,
      "##though": 2647,
      "##akes": 2648,
      "chairman": 2649,
      "sex": 2650,
      "Frank": 2651,
      "##IST": 2652,
      "##uclear": 2653,
      "Alban": 2654,
      "212": 2655,
      "financial": 2656,
      "groups": 2657,
      "##tershire": 2658,
      "soon": 2659,
      "workers": 2660,
      "Japanese": 2661,
      "action": 2662,
      "##AMP": 2663,
      "##ledon": 2664,
      "##ornia": 2665,
      "rebel": 2666,
      "know": 2667,
      "policy": 2668,
      "doub": 2669,
      "##napped": 2670,
      "figures": 2671,
      "Atlanta": 2672,
      "California": 2673,
      "forecast": 2674,
      "negoti": 2675,
      "Wimbledon": 2676,
      "01": 2677,
      "600": 2678,
      "Bal": 2679,
      "Coll": 2680,
      "Flor": 2681,
      "Gil": 2682,
      "King": 2683,
      "Mull": 2684,
      "Ol": 2685,
      "Sur": 2686,
      "Serv": 2687,
      "Te": 2688,
      "TOR": 2689,
      "Wil": 2690,
      "Waq": 2691,
      "gold": 2692,
      "laun": 2693,
      "mov": 2694,
      "making": 2695,
      "nuclear": 2696,
      "position": 2697,
      "rise": 2698,
      "times": 2699,
      "##TIM": 2700,
      "##uf": 2701,
      "##ux": 2702,
      "##red": 2703,
      "##na": 2704,
      "##ten": 2705,
      "##taq": 2706,
      "##val": 2707,
      "##cu": 2708,
      "##cl": 2709,
      "##pted": 2710,
      "##hold": 2711,
      "##lished": 2712,
      "##mark": 2713,
      "##ys": 2714,
      "##que": 2715,
      "##BA": 2716,
      "##BI": 2717,
      "##ino": 2718,
      "##inal": 2719,
      "##ars": 2720,
      "##itzer": 2721,
      "##ases": 2722,
      "##oud": 2723,
      "##icult": 2724,
      "##ece": 2725,
      "##otes": 2726,
      "force": 2727,
      "##ros": 2728,
      "staff": 2729,
      "##ands": 2730,
      "##uled": 2731,
      "##rain": 2732,
      "##aged": 2733,
      "convention": 2734,
      "Stock": 2735,
      "##roup": 2736,
      "##elled": 2737,
      "unless": 2738,
      "##ghan": 2739,
      "##chester": 2740,
      "represent": 2741,
      "exports": 2742,
      "admin": 2743,
      "arri": 2744,
      "recover": 2745,
      "##ocked": 2746,
      "Univers": 2747,
      "##airs": 2748,
      "halftime": 2749,
      "earnings": 2750,
      "seeding": 2751,
      "Belgian": 2752,
      "##OTA": 2753,
      "##OUN": 2754,
      "protest": 2755,
      "Croft": 2756,
      "FRANC": 2757,
      "January": 2758,
      "##ONTO": 2759,
      "difficult": 2760,
      "believed": 2761,
      "begin": 2762,
      "analysts": 2763,
      "PSV": 2764,
      "Younis": 2765,
      "BALTIM": 2766,
      "success": 2767,
      "Mushtaq": 2768,
      "TORONTO": 2769,
      "Waqar": 2770,
      "BALTIMORE": 2771,
      "Du": 2772,
      "En": 2773,
      "Har": 2774,
      "Hel": 2775,
      "MAN": 2776,
      "Ori": 2777,
      "PUK": 2778,
      "Que": 2779,
      "Rev": 2780,
      "Total": 2781,
      "UN": 2782,
      "WIN": 2783,
      "ap": 2784,
      "aut": 2785,
      "bad": 2786,
      "eth": 2787,
      "food": 2788,
      "gr": 2789,
      "host": 2790,
      "jud": 2791,
      "job": 2792,
      "mod": 2793,
      "ton": 2794,
      "##uj": 2795,
      "##ually": 2796,
      "##gar": 2797,
      "##te": 2798,
      "##NE": 2799,
      "##vest": 2800,
      "##DAM": 2801,
      "##ze": 2802,
      "##inese": 2803,
      "##ator": 2804,
      "today": 2805,
      "##ays": 2806,
      "##aces": 2807,
      "197": 2808,
      "1992": 2809,
      "##rix": 2810,
      "within": 2811,
      "##ateg": 2812,
      "coming": 2813,
      "ship": 2814,
      "##ANS": 2815,
      "##udd": 2816,
      "International": 2817,
      "##ava": 2818,
      "##ampton": 2819,
      "playing": 2820,
      "meas": 2821,
      "##ahu": 2822,
      "Afghan": 2823,
      "##argo": 2824,
      "centre": 2825,
      "black": 2826,
      "consum": 2827,
      "nearly": 2828,
      "Security": 2829,
      "brok": 2830,
      "Exchange": 2831,
      "violence": 2832,
      "ranked": 2833,
      "Central": 2834,
      "confirmed": 2835,
      "every": 2836,
      "scheduled": 2837,
      "independence": 2838,
      "First": 2839,
      "title": 2840,
      "levels": 2841,
      "700": 2842,
      "91": 2843,
      "99": 2844,
      "Bag": 2845,
      "Cour": 2846,
      "EU": 2847,
      "JO": 2848,
      "Mother": 2849,
      "MONT": 2850,
      "Nep": 2851,
      "Rang": 2852,
      "Sam": 2853,
      "Western": 2854,
      "boy": 2855,
      "fear": 2856,
      "less": 2857,
      "member": 2858,
      "nation": 2859,
      "poor": 2860,
      "wound": 2861,
      "##TLE": 2862,
      "##rin": 2863,
      "##go": 2864,
      "##LAN": 2865,
      "##va": 2866,
      "##put": 2867,
      "##self": 2868,
      "##mond": 2869,
      "##erve": 2870,
      "##ini": 2871,
      "##inth": 2872,
      "##ats": 2873,
      "##icit": 2874,
      "##tered": 2875,
      "stage": 2876,
      "##vey": 2877,
      "reached": 2878,
      "##vert": 2879,
      "island": 2880,
      "##ump": 2881,
      "change": 2882,
      "##ably": 2883,
      "weap": 2884,
      "Franc": 2885,
      "##odd": 2886,
      "poll": 2887,
      "track": 2888,
      "percentage": 2889,
      "disapp": 2890,
      "prep": 2891,
      "504": 2892,
      "171": 2893,
      "sixth": 2894,
      "Switzer": 2895,
      "struck": 2896,
      "Netany": 2897,
      "542": 2898,
      "tried": 2899,
      "services": 2900,
      "single": 2901,
      "PRESS": 2902,
      "Saudi": 2903,
      "estab": 2904,
      "homer": 2905,
      "Khan": 2906,
      "Turk": 2907,
      "charged": 2908,
      "Moroc": 2909,
      "Philipp": 2910,
      "completed": 2911,
      "##STERDAM": 2912,
      "AMSTERDAM": 2913,
      "Richard": 2914,
      "Halftime": 2915,
      "senior": 2916,
      "illegal": 2917,
      "OPEN": 2918,
      "message": 2919,
      "Mullally": 2920,
      "ethnic": 2921,
      "Nepal": 2922,
      "Switzerland": 2923,
      "06": 2924,
      "03": 2925,
      "Cor": 2926,
      "Cap": 2927,
      "Des": 2928,
      "Group": 2929,
      "Jose": 2930,
      "MA": 2931,
      "Mel": 2932,
      "Mun": 2933,
      "Rub": 2934,
      "emer": 2935,
      "fav": 2936,
      "here": 2937,
      "hope": 2938,
      "house": 2939,
      "kept": 2940,
      "lb": 2941,
      "motor": 2942,
      "municipal": 2943,
      "port": 2944,
      "ver": 2945,
      "wife": 2946,
      "youn": 2947,
      "##EE": 2948,
      "##ius": 2949,
      "##iate": 2950,
      "##ving": 2951,
      "##ck": 2952,
      "##cri": 2953,
      "##sw": 2954,
      "##sis": 2955,
      "##mitted": 2956,
      "##zny": 2957,
      "##onto": 2958,
      "##ily": 2959,
      "##ilar": 2960,
      "1990": 2961,
      "1991": 2962,
      "##usse": 2963,
      "##ither": 2964,
      "heav": 2965,
      "weak": 2966,
      "##pped": 2967,
      "##bert": 2968,
      "Charl": 2969,
      "Chinese": 2970,
      "areas": 2971,
      "outside": 2972,
      "able": 2973,
      "acqu": 2974,
      "parties": 2975,
      "##eva": 2976,
      "After": 2977,
      "Swiss": 2978,
      "##ELS": 2979,
      "##ASH": 2980,
      "##itting": 2981,
      "##ijk": 2982,
      "##ressed": 2983,
      "flight": 2984,
      "trial": 2985,
      "326": 2986,
      "course": 2987,
      "opened": 2988,
      "feed": 2989,
      "wheat": 2990,
      "attacks": 2991,
      "continue": 2992,
      "ANG": 2993,
      "conditions": 2994,
      "director": 2995,
      "Association": 2996,
      "franc": 2997,
      "letter": 2998,
      "according": 2999,
      "aggregate": 3000,
      "prefix": 3001,
      "ISS": 3002,
      "radio": 3003,
      "Division": 3004,
      "Mexico": 3005,
      "Grozny": 3006,
      "OSCE": 3007,
      "arrived": 3008,
      "Netanyahu": 3009,
      "92": 3010,
      "AF": 3011,
      "Cong": 3012,
      "Er": 3013,
      "Fed": 3014,
      "How": 3015,
      "HOU": 3016,
      "House": 3017,
      "LOS": 3018,
      "MIL": 3019,
      "MINN": 3020,
      "Nov": 3021,
      "Red": 3022,
      "dam": 3023,
      "ev": 3024,
      "fast": 3025,
      "foot": 3026,
      "famil": 3027,
      "list": 3028,
      "link": 3029,
      "paper": 3030,
      "sit": 3031,
      "veter": 3032,
      "##TER": 3033,
      "##OV": 3034,
      "##view": 3035,
      "##cra": 3036,
      "##GEST": 3037,
      "##yn": 3038,
      "##yc": 3039,
      "##itor": 3040,
      "##oul": 3041,
      "too": 3042,
      "##elt": 3043,
      "##aded": 3044,
      "##ural": 3045,
      "##oles": 3046,
      "194": 3047,
      "196": 3048,
      "##estic": 3049,
      "##ighth": 3050,
      "##ighbour": 3051,
      "leave": 3052,
      "##abin": 3053,
      "offer": 3054,
      "Fred": 3055,
      "##ude": 3056,
      "truck": 3057,
      "##ISCO": 3058,
      "##uced": 3059,
      "cla": 3060,
      "neighbour": 3061,
      "winner": 3062,
      "ATLAN": 3063,
      "appeal": 3064,
      "DIGEST": 3065,
      "coop": 3066,
      "himself": 3067,
      "Result": 3068,
      "Petr": 3069,
      "economy": 3070,
      "Johnson": 3071,
      "announce": 3072,
      "denied": 3073,
      "denotes": 3074,
      "returned": 3075,
      "##enez": 3076,
      "Iranian": 3077,
      "##fielder": 3078,
      "complete": 3079,
      "needed": 3080,
      "Liber": 3081,
      "source": 3082,
      "BOSTON": 3083,
      "Williams": 3084,
      "Midd": 3085,
      "NATO": 3086,
      "Nicar": 3087,
      "treaty": 3088,
      "penalty": 3089,
      "similar": 3090,
      "village": 3091,
      "FRANCISCO": 3092,
      "Turkish": 3093,
      "Bul": 3094,
      "Council": 3095,
      "Dh": 3096,
      "Don": 3097,
      "Den": 3098,
      "Feb": 3099,
      "Hans": 3100,
      "Jew": 3101,
      "KANS": 3102,
      "Lin": 3103,
      "Lloy": 3104,
      "Mas": 3105,
      "Old": 3106,
      "PH": 3107,
      "Rod": 3108,
      "Rica": 3109,
      "Sov": 3110,
      "Some": 3111,
      "Tex": 3112,
      "Van": 3113,
      "bri": 3114,
      "danger": 3115,
      "having": 3116,
      "li": 3117,
      "lot": 3118,
      "non": 3119,
      "nomin": 3120,
      "occ": 3121,
      "pit": 3122,
      "pop": 3123,
      "sem": 3124,
      "##EG": 3125,
      "##MAN": 3126,
      "##no": 3127,
      "##RI": 3128,
      "##AST": 3129,
      "##vic": 3130,
      "##dad": 3131,
      "##hdad": 3132,
      "##ero": 3133,
      "##ont": 3134,
      "##ona": 3135,
      "##esa": 3136,
      "##ouch": 3137,
      "##omestic": 3138,
      "saw": 3139,
      "##rop": 3140,
      "##ulf": 3141,
      "reason": 3142,
      "whose": 3143,
      "##emen": 3144,
      "##iance": 3145,
      "##umb": 3146,
      "##arta": 3147,
      "##ively": 3148,
      "Thai": 3149,
      "##ially": 3150,
      "Brady": 3151,
      "##ORAD": 3152,
      "unit": 3153,
      "union": 3154,
      "compl": 3155,
      "compared": 3156,
      "##idents": 3157,
      "armed": 3158,
      "never": 3159,
      "mater": 3160,
      "##ATTLE": 3161,
      "Arm": 3162,
      "declin": 3163,
      "decided": 3164,
      "account": 3165,
      "##sson": 3166,
      "coal": 3167,
      "reform": 3168,
      "##echn": 3169,
      "guild": 3170,
      "Polish": 3171,
      "controll": 3172,
      "investors": 3173,
      "striker": 3174,
      "amb": 3175,
      "determ": 3176,
      "owned": 3177,
      "SEATTLE": 3178,
      "wanted": 3179,
      "continued": 3180,
      "broke": 3181,
      "avo": 3182,
      "Played": 3183,
      "Alexander": 3184,
      "pounds": 3185,
      "Sudanese": 3186,
      "terror": 3187,
      "COLORAD": 3188,
      "Scorers": 3189,
      "Steve": 3190,
      "executive": 3191,
      "Indonesia": 3192,
      "Social": 3193,
      "carrying": 3194,
      "Chechen": 3195,
      "sector": 3196,
      "Baghdad": 3197,
      "young": 3198,
      "HOUSTON": 3199,
      "Nicarag": 3200,
      "KANSAS": 3201,
      "Lloyd": 3202,
      "brief": 3203,
      "COLORADO": 3204,
      "89": 3205,
      "Bayer": 3206,
      "Car": 3207,
      "CAL": 3208,
      "EP": 3209,
      "Hond": 3210,
      "Il": 3211,
      "Ian": 3212,
      "Lou": 3213,
      "Lew": 3214,
      "More": 3215,
      "MAT": 3216,
      "NOT": 3217,
      "Oak": 3218,
      "Samp": 3219,
      "Soh": 3220,
      "Ta": 3221,
      "Tamil": 3222,
      "Venez": 3223,
      "Well": 3224,
      "When": 3225,
      "Wood": 3226,
      "caus": 3227,
      "eighth": 3228,
      "grand": 3229,
      "life": 3230,
      "mom": 3231,
      "mill": 3232,
      "ninth": 3233,
      "pain": 3234,
      "pub": 3235,
      "purch": 3236,
      "ri": 3237,
      "rid": 3238,
      "tw": 3239,
      "targ": 3240,
      "western": 3241,
      "##SE": 3242,
      "##uw": 3243,
      "##racy": 3244,
      "##tor": 3245,
      "##ei": 3246,
      "##sang": 3247,
      "##work": 3248,
      "##20": 3249,
      "##WA": 3250,
      "##hem": 3251,
      "##eda": 3252,
      "##arian": 3253,
      "##isl": 3254,
      "##ically": 3255,
      "##rey": 3256,
      "##rod": 3257,
      "stay": 3258,
      "##illa": 3259,
      "These": 3260,
      "alle": 3261,
      "##ONN": 3262,
      "##iving": 3263,
      "chance": 3264,
      "##aba": 3265,
      "##alled": 3266,
      "perfor": 3267,
      "##ESOTA": 3268,
      "##elli": 3269,
      "##oke": 3270,
      "secretary": 3271,
      "##ORN": 3272,
      "120": 3273,
      "player": 3274,
      "quiet": 3275,
      "##ension": 3276,
      "##rict": 3277,
      "ATH": 3278,
      "committee": 3279,
      "deficit": 3280,
      "cricket": 3281,
      "killing": 3282,
      "##rowd": 3283,
      "banks": 3284,
      "infl": 3285,
      "postp": 3286,
      "province": 3287,
      "AND": 3288,
      "##aughter": 3289,
      "tabulated": 3290,
      "volume": 3291,
      "special": 3292,
      "Angeles": 3293,
      "increase": 3294,
      "distrib": 3295,
      "problems": 3296,
      "turned": 3297,
      "equal": 3298,
      "girl": 3299,
      "premier": 3300,
      "phot": 3301,
      "Colombia": 3302,
      "Jean": 3303,
      "defeat": 3304,
      "important": 3305,
      "federal": 3306,
      "copper": 3307,
      "AUGUST": 3308,
      "Hungary": 3309,
      "##ournal": 3310,
      "##ograph": 3311,
      "tonne": 3312,
      "Francis": 3313,
      "Morocco": 3314,
      "MINNESOTA": 3315,
      "ATLANTA": 3316,
      "Texas": 3317,
      "material": 3318,
      "Lewis": 3319,
      "Sohail": 3320,
      "Av": 3321,
      "Bas": 3322,
      "Bang": 3323,
      "Both": 3324,
      "BONN": 3325,
      "CLE": 3326,
      "Do": 3327,
      "His": 3328,
      "Kenn": 3329,
      "Met": 3330,
      "Pra": 3331,
      "Rw": 3332,
      "Rad": 3333,
      "Sant": 3334,
      "Todd": 3335,
      "bar": 3336,
      "barr": 3337,
      "crowd": 3338,
      "der": 3339,
      "domestic": 3340,
      "hist": 3341,
      "happ": 3342,
      "lap": 3343,
      "light": 3344,
      "obs": 3345,
      "sum": 3346,
      "tight": 3347,
      "##oil": 3348,
      "##tim": 3349,
      "##hi": 3350,
      "##secut": 3351,
      "##lig": 3352,
      "##DS": 3353,
      "##KY": 3354,
      "##west": 3355,
      "##ware": 3356,
      "##era": 3357,
      "##inn": 3358,
      "##ano": 3359,
      "##ann": 3360,
      "##ening": 3361,
      "##atives": 3362,
      "##ashed": 3363,
      "##ida": 3364,
      "##ayne": 3365,
      "##urance": 3366,
      "##urities": 3367,
      "##olution": 3368,
      "##amir": 3369,
      "##otland": 3370,
      "##thing": 3371,
      "##igr": 3372,
      "##oses": 3373,
      "really": 3374,
      "##owers": 3375,
      "##owling": 3376,
      "##abor": 3377,
      "##abour": 3378,
      "Street": 3379,
      "seized": 3380,
      "##allen": 3381,
      "##ended": 3382,
      "spot": 3383,
      "150": 3384,
      "accept": 3385,
      "Newc": 3386,
      "##ousands": 3387,
      "##anced": 3388,
      "##itional": 3389,
      "##aseball": 3390,
      "scient": 3391,
      "##ences": 3392,
      "commission": 3393,
      "relations": 3394,
      "defence": 3395,
      "##ELES": 3396,
      "crit": 3397,
      "##ETRO": 3398,
      "norm": 3399,
      "Scotland": 3400,
      "profits": 3401,
      "slight": 3402,
      "dealers": 3403,
      "survey": 3404,
      "Paulo": 3405,
      "ordered": 3406,
      "Second": 3407,
      "Secretary": 3408,
      "859": 3409,
      "injury": 3410,
      "serious": 3411,
      "traders": 3412,
      "##aught": 3413,
      "Brazilian": 3414,
      "Board": 3415,
      "stocks": 3416,
      "debt": 3417,
      "THE": 3418,
      "double": 3419,
      "hijackers": 3420,
      "drugs": 3421,
      "value": 3422,
      "settlement": 3423,
      "ENGLAND": 3424,
      "docum": 3425,
      "Department": 3426,
      "eastern": 3427,
      "risk": 3428,
      "Teresa": 3429,
      "murder": 3430,
      "steady": 3431,
      "negotiations": 3432,
      "Court": 3433,
      "##craft": 3434,
      "##abinet": 3435,
      "PHIL": 3436,
      "Soviet": 3437,
      "guilders": 3438,
      "Venezuel": 3439,
      "88": 3440,
      "AL": 3441,
      "BU": 3442,
      "Cal": 3443,
      "Count": 3444,
      "CUP": 3445,
      "Del": 3446,
      "DETRO": 3447,
      "Es": 3448,
      "FC": 3449,
      "GB": 3450,
      "Her": 3451,
      "Iv": 3452,
      "KDP": 3453,
      "Los": 3454,
      "Lanc": 3455,
      "Mill": 3456,
      "Major": 3457,
      "PAK": 3458,
      "Rot": 3459,
      "To": 3460,
      "TV": 3461,
      "Tel": 3462,
      "Vic": 3463,
      "Wat": 3464,
      "cand": 3465,
      "cross": 3466,
      "fle": 3467,
      "fly": 3468,
      "mar": 3469,
      "mass": 3470,
      "marg": 3471,
      "name": 3472,
      "##EV": 3473,
      "##och": 3474,
      "##ui": 3475,
      "##uing": 3476,
      "##ran": 3477,
      "##IES": 3478,
      "##LA": 3479,
      "##LISH": 3480,
      "##down": 3481,
      "##mber": 3482,
      "##miss": 3483,
      "##DA": 3484,
      "##bers": 3485,
      "##war": 3486,
      "##VEL": 3487,
      "##BC": 3488,
      "##eno": 3489,
      "##oral": 3490,
      "##arp": 3491,
      "##atis": 3492,
      "init": 3493,
      "forward": 3494,
      "##acing": 3495,
      "real": 3496,
      "##ried": 3497,
      "##iana": 3498,
      "##apers": 3499,
      "along": 3500,
      "always": 3501,
      "pred": 3502,
      "10th": 3503,
      "##ugby": 3504,
      "##elling": 3505,
      "##ellow": 3506,
      "overall": 3507,
      "quick": 3508,
      "##hens": 3509,
      "arriv": 3510,
      "##ouses": 3511,
      "##ixed": 3512,
      "disp": 3513,
      "wind": 3514,
      "##ENS": 3515,
      "accomp": 3516,
      "sets": 3517,
      "capt": 3518,
      "become": 3519,
      "##vedev": 3520,
      "box": 3521,
      "democ": 3522,
      "##cestershire": 3523,
      "Series": 3524,
      "votes": 3525,
      "cann": 3526,
      "CHAMP": 3527,
      "strik": 3528,
      "included": 3529,
      "##prus": 3530,
      "##bury": 3531,
      "feel": 3532,
      "##ruary": 3533,
      "currency": 3534,
      "management": 3535,
      "Palestinians": 3536,
      "legal": 3537,
      "condition": 3538,
      "Canadian": 3539,
      "dropped": 3540,
      "Medvedev": 3541,
      "ruled": 3542,
      "Islamic": 3543,
      "costs": 3544,
      "involved": 3545,
      "territ": 3546,
      "girls": 3547,
      "movement": 3548,
      "products": 3549,
      "attempt": 3550,
      "couple": 3551,
      "Toronto": 3552,
      "Cyprus": 3553,
      "##ISTAN": 3554,
      "##holders": 3555,
      "weapons": 3556,
      "ANGELES": 3557,
      "February": 3558,
      "coalition": 3559,
      "Honda": 3560,
      "alleged": 3561,
      "CLEVEL": 3562,
      "summer": 3563,
      "DETROIT": 3564,
      "PAKISTAN": 3565,
      "candid": 3566,
      "CLEVELAND": 3567,
      "AS": 3568,
      "Aamir": 3569,
      "Bir": 3570,
      "BEL": 3571,
      "Card": 3572,
      "FL": 3573,
      "Fl": 3574,
      "Imp": 3575,
      "Jones": 3576,
      "Mad": 3577,
      "Motor": 3578,
      "Meri": 3579,
      "Nove": 3580,
      "Oval": 3581,
      "Park": 3582,
      "Sar": 3583,
      "SUM": 3584,
      "Summ": 3585,
      "Tak": 3586,
      "WOR": 3587,
      "WASH": 3588,
      "YR": 3589,
      "Zimb": 3590,
      "bought": 3591,
      "cle": 3592,
      "canc": 3593,
      "caught": 3594,
      "key": 3595,
      "ll": 3596,
      "mer": 3597,
      "mag": 3598,
      "pes": 3599,
      "pack": 3600,
      "paid": 3601,
      "rail": 3602,
      "rout": 3603,
      "rival": 3604,
      "sides": 3605,
      "somet": 3606,
      "trou": 3607,
      "tender": 3608,
      "water": 3609,
      "wait": 3610,
      "your": 3611,
      "##PH": 3612,
      "##oel": 3613,
      "##off": 3614,
      "##uation": 3615,
      "##uber": 3616,
      "##rick": 3617,
      "##iated": 3618,
      "##ging": 3619,
      "##fax": 3620,
      "##ties": 3621,
      "##NES": 3622,
      "##cel": 3623,
      "##aire": 3624,
      "##hic": 3625,
      "##ming": 3626,
      "##mouth": 3627,
      "##yl": 3628,
      "##ert": 3629,
      "##ense": 3630,
      "##orado": 3631,
      "##aring": 3632,
      "##ature": 3633,
      "##itors": 3634,
      "##urg": 3635,
      "##amin": 3636,
      "##terdam": 3637,
      "##mann": 3638,
      "shut": 3639,
      "shoot": 3640,
      "charge": 3641,
      "##abwe": 3642,
      "offered": 3643,
      "##ANK": 3644,
      "##enders": 3645,
      "Chile": 3646,
      "Chris": 3647,
      "Brad": 3648,
      "##chez": 3649,
      "overnight": 3650,
      "research": 3651,
      "##outhe": 3652,
      "Leices": 3653,
      "##assador": 3654,
      "governor": 3655,
      "##ansas": 3656,
      "allowing": 3657,
      "manuf": 3658,
      "##ENT": 3659,
      "##aha": 3660,
      "Arch": 3661,
      "##elson": 3662,
      "indic": 3663,
      "electoral": 3664,
      "release": 3665,
      "blood": 3666,
      "##INGTON": 3667,
      "Comp": 3668,
      "interview": 3669,
      "boost": 3670,
      "##orpe": 3671,
      "traffic": 3672,
      "teams": 3673,
      "America": 3674,
      "product": 3675,
      "##ront": 3676,
      "issues": 3677,
      "orders": 3678,
      "remained": 3679,
      "Sao": 3680,
      "teleph": 3681,
      "McC": 3682,
      "arms": 3683,
      "traded": 3684,
      "introd": 3685,
      "midfielder": 3686,
      "Sanchez": 3687,
      "increased": 3688,
      "##USS": 3689,
      "Interfax": 3690,
      "##IDA": 3691,
      "farmers": 3692,
      "vehic": 3693,
      "Manchester": 3694,
      "worth": 3695,
      "ENGLISH": 3696,
      "career": 3697,
      "##ridge": 3698,
      "books": 3699,
      "competition": 3700,
      "largest": 3701,
      "##IFORN": 3702,
      "rupees": 3703,
      "improve": 3704,
      "options": 3705,
      "December": 3706,
      "Munich": 3707,
      "verified": 3708,
      "francs": 3709,
      "Congress": 3710,
      "declined": 3711,
      "CALIFORN": 3712,
      "Louis": 3713,
      "moment": 3714,
      "performan": 3715,
      "Rotterdam": 3716,
      "CHAMPIONS": 3717,
      "November": 3718,
      "SUMM": 3719,
      "WASHINGTON": 3720,
      "Zimbabwe": 3721,
      "manufact": 3722,
      "CALIFORNIA": 3723,
      "CIN": 3724,
      "Day": 3725,
      "Def": 3726,
      "Dani": 3727,
      "Fall": 3728,
      "Fortun": 3729,
      "GOL": 3730,
      "Hen": 3731,
      "HONG": 3732,
      "Just": 3733,
      "LOU": 3734,
      "Mag": 3735,
      "Mass": 3736,
      "SCH": 3737,
      "Tim": 3738,
      "Turn": 3739,
      "Val": 3740,
      "With": 3741,
      "Wall": 3742,
      "Yass": 3743,
      "bott": 3744,
      "battle": 3745,
      "drew": 3746,
      "hot": 3747,
      "mount": 3748,
      "pick": 3749,
      "ren": 3750,
      "range": 3751,
      "sale": 3752,
      "techn": 3753,
      "ul": 3754,
      "van": 3755,
      "vir": 3756,
      "vers": 3757,
      "##EF": 3758,
      "##AB": 3759,
      "##LD": 3760,
      "##LY": 3761,
      "##pool": 3762,
      "##hov": 3763,
      "##kova": 3764,
      "##73": 3765,
      "##YC": 3766,
      "##wick": 3767,
      "##10": 3768,
      "##30": 3769,
      "##inary": 3770,
      "##inals": 3771,
      "##ored": 3772,
      "##ala": 3773,
      "inst": 3774,
      "##iser": 3775,
      "##isers": 3776,
      "##itness": 3777,
      "##aying": 3778,
      "##elo": 3779,
      "##elimin": 3780,
      "##ente": 3781,
      "##ential": 3782,
      "##read": 3783,
      "thought": 3784,
      "##thy": 3785,
      "##acher": 3786,
      "stab": 3787,
      "stated": 3788,
      "##andra": 3789,
      "##usion": 3790,
      "##iah": 3791,
      "##ems": 3792,
      "##eman": 3793,
      "##rik": 3794,
      "##rial": 3795,
      "##aka": 3796,
      "##uster": 3797,
      "##ective": 3798,
      "proper": 3799,
      "prosecut": 3800,
      "Stan": 3801,
      "Stef": 3802,
      "exchange": 3803,
      "unc": 3804,
      "125": 3805,
      "##sea": 3806,
      "repe": 3807,
      "abus": 3808,
      "export": 3809,
      "minor": 3810,
      "##ffield": 3811,
      "Leban": 3812,
      "##ussia": 3813,
      "##ointed": 3814,
      "officer": 3815,
      "officers": 3816,
      "partic": 3817,
      "finals": 3818,
      "operation": 3819,
      "##obo": 3820,
      "doing": 3821,
      "accur": 3822,
      "common": 3823,
      "bln": 3824,
      "rounds": 3825,
      "defender": 3826,
      "DIEG": 3827,
      "board": 3828,
      "presidential": 3829,
      "Serbs": 3830,
      "dealer": 3831,
      "voting": 3832,
      "aircraft": 3833,
      "Davis": 3834,
      "delayed": 3835,
      "remain": 3836,
      "Malays": 3837,
      "Saeed": 3838,
      "SEC": 3839,
      "probably": 3840,
      "Democrats": 3841,
      "Kurdistan": 3842,
      "Exp": 3843,
      "soldiers": 3844,
      "Morris": 3845,
      "wicket": 3846,
      "differ": 3847,
      "propos": 3848,
      "believe": 3849,
      "heart": 3850,
      "Christie": 3851,
      "evening": 3852,
      "appeared": 3853,
      "sources": 3854,
      "##REAL": 3855,
      "Borussia": 3856,
      "positive": 3857,
      "separatist": 3858,
      "freed": 3859,
      "building": 3860,
      "suffered": 3861,
      "Croatia": 3862,
      "George": 3863,
      "Yugoslavia": 3864,
      "certain": 3865,
      "Florida": 3866,
      "Service": 3867,
      "MONTREAL": 3868,
      "Rangers": 3869,
      "MAJ": 3870,
      "Rubin": 3871,
      "damage": 3872,
      "Bulgar": 3873,
      "Denmark": 3874,
      "Francisco": 3875,
      "Venezuela": 3876,
      "territory": 3877,
      "WORLD": 3878,
      "SUMMAR": 3879,
      "Fortuna": 3880,
      "LOUIS": 3881,
      "DIEGO": 3882,
      "Bi": 3883,
      "CN": 3884,
      "Cork": 3885,
      "Cors": 3886,
      "CEN": 3887,
      "Cath": 3888,
      "COM": 3889,
      "Dan": 3890,
      "Die": 3891,
      "Em": 3892,
      "Ext": 3893,
      "Jac": 3894,
      "Juan": 3895,
      "KONG": 3896,
      "Mach": 3897,
      "MOS": 3898,
      "Oh": 3899,
      "Post": 3900,
      "PIT": 3901,
      "Rab": 3902,
      "Rost": 3903,
      "Roy": 3904,
      "Sing": 3905,
      "Sier": 3906,
      "Under": 3907,
      "Work": 3908,
      "Wind": 3909,
      "WESTER": 3910,
      "Wayne": 3911,
      "bour": 3912,
      "coun": 3913,
      "cabinet": 3914,
      "dest": 3915,
      "esc": 3916,
      "gl": 3917,
      "gains": 3918,
      "hus": 3919,
      "hurd": 3920,
      "ir": 3921,
      "kil": 3922,
      "losing": 3923,
      "pat": 3924,
      "pair": 3925,
      "ur": 3926,
      "##PE": 3927,
      "##ua": 3928,
      "##gest": 3929,
      "##tors": 3930,
      "##IG": 3931,
      "##LET": 3932,
      "##ault": 3933,
      "##su": 3934,
      "##HAN": 3935,
      "##lan": 3936,
      "##most": 3937,
      "##KS": 3938,
      "##je": 3939,
      "##band": 3940,
      "##woman": 3941,
      "##alke": 3942,
      "##itis": 3943,
      "##oming": 3944,
      "##rec": 3945,
      "once": 3946,
      "##uries": 3947,
      "##uter": 3948,
      "##roy": 3949,
      "##thers": 3950,
      "##thlet": 3951,
      "##acts": 3952,
      "states": 3953,
      "1993": 3954,
      "##changed": 3955,
      "although": 3956,
      "leaving": 3957,
      "##essed": 3958,
      "church": 3959,
      "Stich": 3960,
      "sevent": 3961,
      "prelimin": 3962,
      "107": 3963,
      "106": 3964,
      "deals": 3965,
      "Invest": 3966,
      "polls": 3967,
      "##ORIDA": 3968,
      "output": 3969,
      "Lev": 3970,
      "##undi": 3971,
      "##oussis": 3972,
      "suit": 3973,
      "Russell": 3974,
      "Anwar": 3975,
      "blamed": 3976,
      "##ELPH": 3977,
      "adding": 3978,
      "coast": 3979,
      "conflic": 3980,
      "strateg": 3981,
      "##TSBUR": 3982,
      "##ijing": 3983,
      "register": 3984,
      "boat": 3985,
      "spokeswoman": 3986,
      "Colorado": 3987,
      "##ADELPH": 3988,
      "visited": 3989,
      "annual": 3990,
      "investment": 3991,
      "among": 3992,
      "Berlin": 3993,
      "Securities": 3994,
      "##embly": 3995,
      "demanding": 3996,
      "goods": 3997,
      "terms": 3998,
      "deputy": 3999,
      "imm": 4000,
      "##ipped": 4001,
      "Graf": 4002,
      "landed": 4003,
      "extra": 4004,
      "Former": 4005,
      "drove": 4006,
      "rules": 4007,
      "Carlos": 4008,
      "Seattle": 4009,
      "looked": 4010,
      "progress": 4011,
      "BRUSS": 4012,
      "Beijing": 4013,
      "##COW": 4014,
      "qualifier": 4015,
      "concern": 4016,
      "person": 4017,
      "development": 4018,
      "Portug": 4019,
      "People": 4020,
      "Korea": 4021,
      "Senate": 4022,
      "Burundi": 4023,
      "Gaza": 4024,
      "engine": 4025,
      "resignation": 4026,
      "BEAT": 4027,
      "Cuba": 4028,
      "PLO": 4029,
      "Albanian": 4030,
      "University": 4031,
      "Philippoussis": 4032,
      "favour": 4033,
      "##cribed": 4034,
      "family": 4035,
      "Oakland": 4036,
      "twice": 4037,
      "PHILADELPH": 4038,
      "County": 4039,
      "BELG": 4040,
      "FLORIDA": 4041,
      "telephone": 4042,
      "##YCLING": 4043,
      "Diego": 4044,
      "MOSCOW": 4045,
      "PITTSBUR": 4046,
      "WESTERN": 4047,
      "husband": 4048,
      "seventh": 4049,
      "BRUSSELS": 4050,
      "PHILADELPHIA": 4051,
      "PITTSBURGH": 4052,
      "Bost": 4053,
      "Bowling": 4054,
      "Baseball": 4055,
      "CL": 4056,
      "Dr": 4057,
      "Det": 4058,
      "EA": 4059,
      "Ferr": 4060,
      "Gab": 4061,
      "GER": 4062,
      "GAM": 4063,
      "Greg": 4064,
      "Han": 4065,
      "Hut": 4066,
      "Ij": 4067,
      "Jack": 4068,
      "Kra": 4069,
      "Last": 4070,
      "Mick": 4071,
      "Nott": 4072,
      "Ron": 4073,
      "Sak": 4074,
      "Tw": 4075,
      "Tre": 4076,
      "Tig": 4077,
      "body": 4078,
      "cargo": 4079,
      "fish": 4080,
      "felt": 4081,
      "hun": 4082,
      "hop": 4083,
      "mult": 4084,
      "nec": 4085,
      "rally": 4086,
      "super": 4087,
      "vouch": 4088,
      "wing": 4089,
      "west": 4090,
      "yr": 4091,
      "##oist": 4092,
      "##uz": 4093,
      "##ien": 4094,
      "##tr": 4095,
      "##ea": 4096,
      "##sch": 4097,
      "##HIP": 4098,
      "##men": 4099,
      "##ye": 4100,
      "##bor": 4101,
      "##CINN": 4102,
      "##zen": 4103,
      "##BY": 4104,
      "##eren": 4105,
      "##inen": 4106,
      "##onwe": 4107,
      "##enue": 4108,
      "##esh": 4109,
      "##organ": 4110,
      "##arest": 4111,
      "##ises": 4112,
      "often": 4113,
      "##iting": 4114,
      "##ila": 4115,
      "##ention": 4116,
      "##sted": 4117,
      "##uten": 4118,
      "things": 4119,
      "##iro": 4120,
      "##aco": 4121,
      "##illed": 4122,
      "##andal": 4123,
      "##osh": 4124,
      "##ulk": 4125,
      "reven": 4126,
      "whole": 4127,
      "##emp": 4128,
      "##emic": 4129,
      "##ewart": 4130,
      "##rien": 4131,
      "##apore": 4132,
      "##astle": 4133,
      "show": 4134,
      "Step": 4135,
      "Stewart": 4136,
      "##ends": 4137,
      "##ction": 4138,
      "Chang": 4139,
      "##wood": 4140,
      "##ERS": 4141,
      "secret": 4142,
      "Brun": 4143,
      "Bruss": 4144,
      "##sex": 4145,
      "##seille": 4146,
      "112": 4147,
      "##inez": 4148,
      "admitted": 4149,
      "recently": 4150,
      "finish": 4151,
      "finished": 4152,
      "Atlet": 4153,
      "##ARD": 4154,
      "##ATI": 4155,
      "Maria": 4156,
      "Marseille": 4157,
      "running": 4158,
      "##ika": 4159,
      "##ULE": 4160,
      "Ann": 4161,
      "cover": 4162,
      "env": 4163,
      "Commonwe": 4164,
      "Norway": 4165,
      "surg": 4166,
      "voters": 4167,
      "Anders": 4168,
      "social": 4169,
      "IND": 4170,
      "##EDULE": 4171,
      "scores": 4172,
      "gener": 4173,
      "SEP": 4174,
      "Martinez": 4175,
      "maintain": 4176,
      "Sheffield": 4177,
      "view": 4178,
      "media": 4179,
      "medical": 4180,
      "majority": 4181,
      "Barcel": 4182,
      "speak": 4183,
      "losses": 4184,
      "Northampton": 4185,
      "##STERN": 4186,
      "diplomatic": 4187,
      "entered": 4188,
      "passenger": 4189,
      "walked": 4190,
      "respons": 4191,
      "biggest": 4192,
      "##TRAL": 4193,
      "basis": 4194,
      "driver": 4195,
      "Jeff": 4196,
      "Hamburg": 4197,
      "positions": 4198,
      "Korean": 4199,
      "SCOR": 4200,
      "community": 4201,
      "Organ": 4202,
      "##stein": 4203,
      "programme": 4204,
      "Algeria": 4205,
      "##rupt": 4206,
      "Baltim": 4207,
      "Queens": 4208,
      "apart": 4209,
      "measures": 4210,
      "heavy": 4211,
      "situation": 4212,
      "cooperation": 4213,
      "avoid": 4214,
      "Sampras": 4215,
      "caused": 4216,
      "target": 4217,
      "##allenge": 4218,
      "Essex": 4219,
      "magaz": 4220,
      "CHAMPIONSHIP": 4221,
      "CINCINN": 4222,
      "Daniel": 4223,
      "GOLF": 4224,
      "SCHEDULE": 4225,
      "##itnesses": 4226,
      "accuracy": 4227,
      "MAJOR": 4228,
      "CENTRAL": 4229,
      "Extras": 4230,
      "Singapore": 4231,
      "Windows": 4232,
      "preliminary": 4233,
      "Boston": 4234,
      "EASTERN": 4235,
      "GERMAN": 4236,
      "Tigers": 4237,
      "Brussels": 4238,
      "Atletico": 4239,
      "Commonwealth": 4240,
      "Barcelona": 4241,
      "Baltimore": 4242,
      "CINCINNATI": 4243,
      "07": 4244,
      "Bund": 4245,
      "Bah": 4246,
      "Buch": 4247,
      "Da": 4248,
      "Date": 4249,
      "Diana": 4250,
      "Ever": 4251,
      "Fey": 4252,
      "Gore": 4253,
      "Gron": 4254,
      "Gulf": 4255,
      "Ha": 4256,
      "Hill": 4257,
      "Jak": 4258,
      "Kim": 4259,
      "Lens": 4260,
      "Law": 4261,
      "Mike": 4262,
      "Ot": 4263,
      "ON": 4264,
      "OAK": 4265,
      "Ri": 4266,
      "Rob": 4267,
      "Ross": 4268,
      "RUG": 4269,
      "RBI": 4270,
      "Sil": 4271,
      "Sad": 4272,
      "Sun": 4273,
      "Super": 4274,
      "Tra": 4275,
      "Tennis": 4276,
      "TEX": 4277,
      "Vi": 4278,
      "Year": 4279,
      "Yellow": 4280,
      "auction": 4281,
      "bal": 4282,
      "bit": 4283,
      "corp": 4284,
      "crew": 4285,
      "diss": 4286,
      "east": 4287,
      "either": 4288,
      "fisc": 4289,
      "front": 4290,
      "houses": 4291,
      "ill": 4292,
      "journal": 4293,
      "king": 4294,
      "large": 4295,
      "others": 4296,
      "purs": 4297,
      "pact": 4298,
      "rans": 4299,
      "rugby": 4300,
      "sn": 4301,
      "sought": 4302,
      "tre": 4303,
      "vice": 4304,
      "##EAR": 4305,
      "##SA": 4306,
      "##rade": 4307,
      "##nik": 4308,
      "##gen": 4309,
      "##NS": 4310,
      "##IX": 4311,
      "##der": 4312,
      "##dom": 4313,
      "##ez": 4314,
      "##een": 4315,
      "##ca": 4316,
      "##hai": 4317,
      "##sh": 4318,
      "##kn": 4319,
      "##ky": 4320,
      "##li": 4321,
      "##mission": 4322,
      "##yp": 4323,
      "##yle": 4324,
      "##QU": 4325,
      "##bo": 4326,
      "##bank": 4327,
      "##wich": 4328,
      "##60": 4329,
      "##21": 4330,
      "##int": 4331,
      "##enz": 4332,
      "##orf": 4333,
      "##atal": 4334,
      "##aster": 4335,
      "towards": 4336,
      "##ional": 4337,
      "##omm": 4338,
      "##omy": 4339,
      "##standing": 4340,
      "##oli": 4341,
      "##amo": 4342,
      "##utt": 4343,
      "##uted": 4344,
      "though": 4345,
      "##iron": 4346,
      "##iring": 4347,
      "195": 4348,
      "stake": 4349,
      "white": 4350,
      "anim": 4351,
      "##isted": 4352,
      "alleg": 4353,
      "##ortion": 4354,
      "##esse": 4355,
      "nothing": 4356,
      "exc": 4357,
      "##ANG": 4358,
      "108": 4359,
      "Champ": 4360,
      "sprin": 4361,
      "Inform": 4362,
      "##ishi": 4363,
      "##anks": 4364,
      "##anghai": 4365,
      "##chem": 4366,
      "11th": 4367,
      "orig": 4368,
      "aband": 4369,
      "Leeds": 4370,
      "Alan": 4371,
      "contact": 4372,
      "##ftware": 4373,
      "##ancy": 4374,
      "dismiss": 4375,
      "##ARA": 4376,
      "##ibility": 4377,
      "Weiz": 4378,
      "invited": 4379,
      "accident": 4380,
      "##enced": 4381,
      "command": 4382,
      "commander": 4383,
      "presence": 4384,
      "address": 4385,
      "ent": 4386,
      "Shanghai": 4387,
      "##itten": 4388,
      "interim": 4389,
      "Irish": 4390,
      "supply": 4391,
      "travel": 4392,
      "RESULT": 4393,
      "Amman": 4394,
      "slow": 4395,
      "Johan": 4396,
      "politic": 4397,
      "mostly": 4398,
      "scoring": 4399,
      "inform": 4400,
      "handed": 4401,
      "followed": 4402,
      "currently": 4403,
      "provide": 4404,
      "described": 4405,
      "McL": 4406,
      "McG": 4407,
      "protests": 4408,
      "2000": 4409,
      "network": 4410,
      "championships": 4411,
      "efforts": 4412,
      "conduct": 4413,
      "TOKY": 4414,
      "Peres": 4415,
      "giving": 4416,
      "proposed": 4417,
      "futures": 4418,
      "looking": 4419,
      "##bourne": 4420,
      "Fern": 4421,
      "joined": 4422,
      "##UKEE": 4423,
      "Marcelo": 4424,
      "figure": 4425,
      "colle": 4426,
      "premium": 4427,
      "film": 4428,
      "kidnapped": 4429,
      "starts": 4430,
      "administration": 4431,
      "beginning": 4432,
      "consumer": 4433,
      "wounded": 4434,
      "establish": 4435,
      "emerg": 4436,
      "MILWA": 4437,
      "Jewish": 4438,
      "published": 4439,
      "observ": 4440,
      "critic": 4441,
      "slightly": 4442,
      "##enoord": 4443,
      "shooting": 4444,
      "performance": 4445,
      "property": 4446,
      "Cathol": 4447,
      "Ohio": 4448,
      "Ijaz": 4449,
      "Nottingham": 4450,
      "Bucharest": 4451,
      "Feyenoord": 4452,
      "OAKLAND": 4453,
      "RUGBY": 4454,
      "TEXAS": 4455,
      "Champions": 4456,
      "Information": 4457,
      "Weizman": 4458,
      "TOKYO": 4459,
      "MILWAUKEE": 4460,
      "AD": 4461,
      "AC": 4462,
      "Acc": 4463,
      "Ball": 4464,
      "Curr": 4465,
      "CYCLING": 4466,
      "Dam": 4467,
      "Dra": 4468,
      "Dist": 4469,
      "Dub": 4470,
      "DAY": 4471,
      "DUT": 4472,
      "Eind": 4473,
      "EUR": 4474,
      "Gar": 4475,
      "Gian": 4476,
      "Games": 4477,
      "Hap": 4478,
      "Hav": 4479,
      "Human": 4480,
      "II": 4481,
      "Jason": 4482,
      "Jama": 4483,
      "Java": 4484,
      "Karl": 4485,
      "Kev": 4486,
      "Krem": 4487,
      "Lu": 4488,
      "Mat": 4489,
      "Most": 4490,
      "Muster": 4491,
      "RE": 4492,
      "Ru": 4493,
      "Ray": 4494,
      "Rap": 4495,
      "Raf": 4496,
      "ROUN": 4497,
      "Sox": 4498,
      "Tour": 4499,
      "Toy": 4500,
      "Yank": 4501,
      "Zaire": 4502,
      "ach": 4503,
      "aimed": 4504,
      "ben": 4505,
      "born": 4506,
      "bring": 4507,
      "cor": 4508,
      "cases": 4509,
      "done": 4510,
      "data": 4511,
      "daughter": 4512,
      "gross": 4513,
      "gather": 4514,
      "grain": 4515,
      "kph": 4516,
      "live": 4517,
      "lack": 4518,
      "mad": 4519,
      "ple": 4520,
      "pri": 4521,
      "rap": 4522,
      "role": 4523,
      "san": 4524,
      "session": 4525,
      "snapped": 4526,
      "##oo": 4527,
      "##oe": 4528,
      "##rang": 4529,
      "##ias": 4530,
      "##gun": 4531,
      "##fe": 4532,
      "##fin": 4533,
      "##AV": 4534,
      "##IV": 4535,
      "##OD": 4536,
      "##den": 4537,
      "##dos": 4538,
      "##dra": 4539,
      "##eas": 4540,
      "##cut": 4541,
      "##here": 4542,
      "##ln": 4543,
      "##line": 4544,
      "##yo": 4545,
      "##yr": 4546,
      "##KK": 4547,
      "##UB": 4548,
      "##wa": 4549,
      "##11": 4550,
      "##erts": 4551,
      "##arters": 4552,
      "##ario": 4553,
      "##ateral": 4554,
      "##iter": 4555,
      "##aya": 4556,
      "##ela": 4557,
      "##rech": 4558,
      "##eth": 4559,
      "##ada": 4560,
      "##ami": 4561,
      "##ires": 4562,
      "##road": 4563,
      "stor": 4564,
      "stand": 4565,
      "streak": 4566,
      "##ulated": 4567,
      "##usc": 4568,
      "##ushed": 4569,
      "reach": 4570,
      "##riot": 4571,
      "anti": 4572,
      "cong": 4573,
      "##iant": 4574,
      "##aps": 4575,
      "##usted": 4576,
      "almost": 4577,
      "prosp": 4578,
      "##ivid": 4579,
      "shr": 4580,
      "Steph": 4581,
      "noted": 4582,
      "weather": 4583,
      "##ify": 4584,
      "##ctions": 4585,
      "Intern": 4586,
      "##ovic": 4587,
      "unf": 4588,
      "uns": 4589,
      "unrest": 4590,
      "unchanged": 4591,
      "truce": 4592,
      "abd": 4593,
      "abroad": 4594,
      "art": 4595,
      "contrib": 4596,
      "Austrian": 4597,
      "##action": 4598,
      "Spe": 4599,
      "winners": 4600,
      "##ICAN": 4601,
      "prevent": 4602,
      "##ENCH": 4603,
      "incomp": 4604,
      "Arn": 4605,
      "ending": 4606,
      "##awa": 4607,
      "1800": 4608,
      "relig": 4609,
      "##IONAL": 4610,
      "block": 4611,
      "appar": 4612,
      "impact": 4613,
      "imposed": 4614,
      "cred": 4615,
      "crime": 4616,
      "confidence": 4617,
      "enough": 4618,
      "sheep": 4619,
      "408": 4620,
      "312": 4621,
      "##ize": 4622,
      "##CHESTER": 4623,
      "anything": 4624,
      "Chel": 4625,
      "starting": 4626,
      "buying": 4627,
      "victims": 4628,
      "Bern": 4629,
      "Malta": 4630,
      "Syria": 4631,
      "hands": 4632,
      "##OMBO": 4633,
      "##reme": 4634,
      "Conf": 4635,
      "shareholders": 4636,
      "ministers": 4637,
      "legisl": 4638,
      "lawy": 4639,
      "hitter": 4640,
      "suspected": 4641,
      "homes": 4642,
      "shortly": 4643,
      "factions": 4644,
      "Graham": 4645,
      "parliamentary": 4646,
      "Abd": 4647,
      "banned": 4648,
      "Milan": 4649,
      "industrial": 4650,
      "Greece": 4651,
      "##look": 4652,
      "guerrilla": 4653,
      "Argentine": 4654,
      "qualifying": 4655,
      "Andrea": 4656,
      "threatened": 4657,
      "check": 4658,
      "Boris": 4659,
      "COLOMBO": 4660,
      "request": 4661,
      "approved": 4662,
      "##stitute": 4663,
      "Brown": 4664,
      "filed": 4665,
      "activity": 4666,
      "students": 4667,
      "##fficial": 4668,
      "missing": 4669,
      "explos": 4670,
      "rupiah": 4671,
      "##BURG": 4672,
      "seeking": 4673,
      "Craig": 4674,
      "##ammad": 4675,
      "Mohammad": 4676,
      "pulled": 4677,
      "launched": 4678,
      "MANCHESTER": 4679,
      "##uddin": 4680,
      "broken": 4681,
      "veteran": 4682,
      "announcement": 4683,
      "Middle": 4684,
      "semif": 4685,
      "controlled": 4686,
      "EPS": 4687,
      "MATCH": 4688,
      "NOTE": 4689,
      "Banglad": 4690,
      "Motorola": 4691,
      "introduced": 4692,
      "##hoven": 4693,
      "Stansted": 4694,
      "Lebanon": 4695,
      "Malaysia": 4696,
      "different": 4697,
      "counter": 4698,
      "GAMES": 4699,
      "Mickelson": 4700,
      "surgery": 4701,
      "SCORES": 4702,
      "fiscal": 4703,
      "Fernand": 4704,
      "emergency": 4705,
      "DUTCH": 4706,
      "Eindhoven": 4707,
      "Hapoel": 4708,
      "ROUND": 4709,
      "Toyota": 4710,
      "achie": 4711,
      "Bh": 4712,
      "Bail": 4713,
      "Cle": 4714,
      "CON": 4715,
      "Camp": 4716,
      "Cinc": 4717,
      "CAP": 4718,
      "Data": 4719,
      "Erik": 4720,
      "Ful": 4721,
      "Fair": 4722,
      "Gor": 4723,
      "Gary": 4724,
      "Genc": 4725,
      "Home": 4726,
      "Hamp": 4727,
      "Hash": 4728,
      "Hospital": 4729,
      "Jud": 4730,
      "JER": 4731,
      "Kab": 4732,
      "Lok": 4733,
      "Mak": 4734,
      "Moin": 4735,
      "Mits": 4736,
      "Muj": 4737,
      "Not": 4738,
      "Nick": 4739,
      "OM": 4740,
      "OUT": 4741,
      "Ped": 4742,
      "Pit": 4743,
      "Pop": 4744,
      "Prix": 4745,
      "Ra": 4746,
      "Rec": 4747,
      "RALL": 4748,
      "Sub": 4749,
      "SER": 4750,
      "Tan": 4751,
      "TEST": 4752,
      "UK": 4753,
      "Vit": 4754,
      "Wor": 4755,
      "Zh": 4756,
      "Zen": 4757,
      "bird": 4758,
      "barter": 4759,
      "cattle": 4760,
      "domin": 4761,
      "fun": 4762,
      "fix": 4763,
      "father": 4764,
      "jump": 4765,
      "kick": 4766,
      "lines": 4767,
      "mot": 4768,
      "mixed": 4769,
      "nb": 4770,
      "nil": 4771,
      "pot": 4772,
      "rising": 4773,
      "sy": 4774,
      "swe": 4775,
      "tim": 4776,
      "tough": 4777,
      "var": 4778,
      "wants": 4779,
      "##ME": 4780,
      "##oz": 4781,
      "##gi": 4782,
      "##cial": 4783,
      "##aver": 4784,
      "##hr": 4785,
      "##had": 4786,
      "##hman": 4787,
      "##harn": 4788,
      "##set": 4789,
      "##ko": 4790,
      "##lies": 4791,
      "##bach": 4792,
      "##wau": 4793,
      "##81": 4794,
      "##heid": 4795,
      "##inion": 4796,
      "##inchem": 4797,
      "##anish": 4798,
      "##enia": 4799,
      "##orate": 4800,
      "##aren": 4801,
      "##ato": 4802,
      "##ately": 4803,
      "##atory": 4804,
      "##attered": 4805,
      "##ali": 4806,
      "##alf": 4807,
      "##aled": 4808,
      "intend": 4809,
      "##iti": 4810,
      "##itation": 4811,
      "##asing": 4812,
      "##ashes": 4813,
      "##oura": 4814,
      "##ilt": 4815,
      "##iled": 4816,
      "##iling": 4817,
      "##ental": 4818,
      "##etinchem": 4819,
      "##ades": 4820,
      "##aders": 4821,
      "##ura": 4822,
      "##oline": 4823,
      "thousands": 4824,
      "##oto": 4825,
      "##rown": 4826,
      "##acity": 4827,
      "stre": 4828,
      "station": 4829,
      "stages": 4830,
      "##veen": 4831,
      "1998": 4832,
      "read": 4833,
      "##cepted": 4834,
      "##eston": 4835,
      "##aining": 4836,
      "##aga": 4837,
      "conc": 4838,
      "convic": 4839,
      "##isting": 4840,
      "##istol": 4841,
      "##oured": 4842,
      "comb": 4843,
      "sharp": 4844,
      "cho": 4845,
      "chang": 4846,
      "changed": 4847,
      "Thorpe": 4848,
      "weaker": 4849,
      "##ppe": 4850,
      "fired": 4851,
      "##odies": 4852,
      "##oks": 4853,
      "Brug": 4854,
      "unq": 4855,
      "unable": 4856,
      "computer": 4857,
      "110": 4858,
      "##inea": 4859,
      "abs": 4860,
      "above": 4861,
      "##mercial": 4862,
      "clos": 4863,
      "##ALEM": 4864,
      "Health": 4865,
      "Heeren": 4866,
      "##oint": 4867,
      "##kee": 4868,
      "149": 4869,
      "partners": 4870,
      "210": 4871,
      "finally": 4872,
      "Spring": 4873,
      "Spanish": 4874,
      "wins": 4875,
      "##ICE": 4876,
      "##ensive": 4877,
      "##ogs": 4878,
      "##ricult": 4879,
      "score": 4880,
      "##ashire": 4881,
      "Reg": 4882,
      "Anton": 4883,
      "imports": 4884,
      "crash": 4885,
      "shel": 4886,
      "NEC": 4887,
      "##ization": 4888,
      "demon": 4889,
      "##IRO": 4890,
      "Coast": 4891,
      "Slam": 4892,
      "oppon": 4893,
      "surpr": 4894,
      "Andrew": 4895,
      "signific": 4896,
      "Pauli": 4897,
      "issued": 4898,
      "include": 4899,
      "assault": 4900,
      "numbers": 4901,
      "Yorkshire": 4902,
      "473": 4903,
      "remov": 4904,
      "Malik": 4905,
      "injuries": 4906,
      "newspapers": 4907,
      "FRENCH": 4908,
      "trader": 4909,
      "speed": 4910,
      "##elfare": 4911,
      "Schalke": 4912,
      "helped": 4913,
      "growing": 4914,
      "stronger": 4915,
      "Salim": 4916,
      "cuts": 4917,
      "drop": 4918,
      "Wars": 4919,
      "Medical": 4920,
      "ruling": 4921,
      "pressure": 4922,
      "debate": 4923,
      "##USALEM": 4924,
      "Milwau": 4925,
      "##unications": 4926,
      "entering": 4927,
      "Greek": 4928,
      "joint": 4929,
      "##struct": 4930,
      "revised": 4931,
      "investigators": 4932,
      "written": 4933,
      "Scores": 4934,
      "defeated": 4935,
      "Lauck": 4936,
      "##stitution": 4937,
      "Arabia": 4938,
      "Govern": 4939,
      "kidnapp": 4940,
      "USDA": 4941,
      "Banharn": 4942,
      "Craw": 4943,
      "Jonath": 4944,
      "Michel": 4945,
      "ident": 4946,
      "limited": 4947,
      "customs": 4948,
      "raised": 4949,
      "delivery": 4950,
      "Surrey": 4951,
      "Orioles": 4952,
      "Afghanistan": 4953,
      "Melbourne": 4954,
      "AFTER": 4955,
      "However": 4956,
      "Freder": 4957,
      "claimed": 4958,
      "dangerous": 4959,
      "liqu": 4960,
      "pitch": 4961,
      "Socialist": 4962,
      "Nicaraguan": 4963,
      "purchase": 4964,
      "Doetinchem": 4965,
      "##innati": 4966,
      "normal": 4967,
      "Lancashire": 4968,
      "##atisf": 4969,
      "democracy": 4970,
      "picked": 4971,
      "Sierra": 4972,
      "bourse": 4973,
      "escap": 4974,
      "hurdles": 4975,
      "##LETIC": 4976,
      "conflict": 4977,
      "Ronald": 4978,
      "Treas": 4979,
      "necess": 4980,
      "Stephen": 4981,
      "responsible": 4982,
      "apartheid": 4983,
      "ransom": 4984,
      "information": 4985,
      "McLaren": 4986,
      "Catholic": 4987,
      "Yankees": 4988,
      "sanctions": 4989,
      "religious": 4990,
      "Cincinnati": 4991,
      "Gencor": 4992,
      "Hampshire": 4993,
      "JERUSALEM": 4994,
      "RALLY": 4995,
      "convicted": 4996,
      "Heerenveen": 4997,
      "significant": 4998,
      "Milwaukee": 4999,
      "Az": 5000,
      "Are": 5001,
      "Author": 5002,
      "AUST": 5003,
      "Ba": 5004,
      "Barr": 5005,
      "BSE": 5006,
      "CAR": 5007,
      "Cons": 5008,
      "Dur": 5009,
      "Duc": 5010,
      "Dobo": 5011,
      "Eston": 5012,
      "FIN": 5013,
      "Ford": 5014,
      "Foot": 5015,
      "Fox": 5016,
      "GR": 5017,
      "Gal": 5018,
      "Gas": 5019,
      "Hing": 5020,
      "Has": 5021,
      "High": 5022,
      "Haq": 5023,
      "Huber": 5024,
      "IV": 5025,
      "Ko": 5026,
      "Kn": 5027,
      "LG": 5028,
      "Ly": 5029,
      "Lind": 5030,
      "Me": 5031,
      "MAR": 5032,
      "Mission": 5033,
      "Nij": 5034,
      "Naz": 5035,
      "Ok": 5036,
      "OB": 5037,
      "Our": 5038,
      "Over": 5039,
      "Ols": 5040,
      "Pi": 5041,
      "Pri": 5042,
      "Pier": 5043,
      "Ports": 5044,
      "PKK": 5045,
      "Ros": 5046,
      "Rose": 5047,
      "Rog": 5048,
      "RTR": 5049,
      "Su": 5050,
      "Sk": 5051,
      "Sales": 5052,
      "Sale": 5053,
      "SUP": 5054,
      "Seles": 5055,
      "Tut": 5056,
      "Tsang": 5057,
      "Vir": 5058,
      "Waugh": 5059,
      "You": 5060,
      "Yam": 5061,
      "cas": 5062,
      "cir": 5063,
      "cow": 5064,
      "driv": 5065,
      "fer": 5066,
      "fra": 5067,
      "fans": 5068,
      "fair": 5069,
      "har": 5070,
      "hur": 5071,
      "lun": 5072,
      "mut": 5073,
      "pra": 5074,
      "rall": 5075,
      "rob": 5076,
      "rather": 5077,
      "sel": 5078,
      "soy": 5079,
      "site": 5080,
      "sugg": 5081,
      "southe": 5082,
      "satisf": 5083,
      "wid": 5084,
      "wild": 5085,
      "welfare": 5086,
      "yield": 5087,
      "##TT": 5088,
      "##0s": 5089,
      "##ga": 5090,
      "##OF": 5091,
      "##des": 5092,
      "##cing": 5093,
      "##ports": 5094,
      "##aur": 5095,
      "##my": 5096,
      "##ja": 5097,
      "##UAL": 5098,
      "##bl": 5099,
      "##back": 5100,
      "##50": 5101,
      "##zam": 5102,
      "##wer": 5103,
      "##wen": 5104,
      "##wijk": 5105,
      "##qv": 5106,
      "##erc": 5107,
      "##inch": 5108,
      "##isis": 5109,
      "##isions": 5110,
      "##itz": 5111,
      "##asc": 5112,
      "##oum": 5113,
      "##iche": 5114,
      "##icial": 5115,
      "##oms": 5116,
      "##ilities": 5117,
      "##elph": 5118,
      "##reen": 5119,
      "##stant": 5120,
      "##etton": 5121,
      "##adelph": 5122,
      "##urb": 5123,
      "##urst": 5124,
      "thing": 5125,
      "##oting": 5126,
      "##roit": 5127,
      "##igan": 5128,
      "storm": 5129,
      "##andan": 5130,
      "##imum": 5131,
      "whom": 5132,
      "##ceed": 5133,
      "##istic": 5134,
      "ask": 5135,
      "##umn": 5136,
      "##umin": 5137,
      "##artoum": 5138,
      "##orting": 5139,
      "seat": 5140,
      "109": 5141,
      "##enda": 5142,
      "##uge": 5143,
      "##ift": 5144,
      "afterno": 5145,
      "spending": 5146,
      "Inzam": 5147,
      "unl": 5148,
      "##ailed": 5149,
      "resume": 5150,
      "express": 5151,
      "##uca": 5152,
      "Leon": 5153,
      "class": 5154,
      "offices": 5155,
      "Although": 5156,
      "Monaco": 5157,
      "weekly": 5158,
      "marks": 5159,
      "Spec": 5160,
      "Sparta": 5161,
      "##ureau": 5162,
      "Athens": 5163,
      "160": 5164,
      "##ATE": 5165,
      "income": 5166,
      "incident": 5167,
      "Marin": 5168,
      "opinion": 5169,
      "Minnes": 5170,
      "attend": 5171,
      "related": 5172,
      "defending": 5173,
      "crisis": 5174,
      "ens": 5175,
      "strugg": 5176,
      "teen": 5177,
      "software": 5178,
      "##ermen": 5179,
      "conserv": 5180,
      "##ITH": 5181,
      "retail": 5182,
      "##enna": 5183,
      "draft": 5184,
      "Americ": 5185,
      "##ombe": 5186,
      "Pakistani": 5187,
      "353": 5188,
      "Finance": 5189,
      "Financial": 5190,
      "deleg": 5191,
      "passed": 5192,
      "longer": 5193,
      "What": 5194,
      "While": 5195,
      "##ACK": 5196,
      "managed": 5197,
      "insp": 5198,
      "inside": 5199,
      "##ecutive": 5200,
      "Asif": 5201,
      "lawsu": 5202,
      "leadership": 5203,
      "suspended": 5204,
      "Khartoum": 5205,
      "soldier": 5206,
      "Philip": 5207,
      "Philadelph": 5208,
      "##uki": 5209,
      "debut": 5210,
      "Benetton": 5211,
      "transport": 5212,
      "Islamist": 5213,
      "hijacked": 5214,
      "diplomats": 5215,
      "Christian": 5216,
      "Elect": 5217,
      "involving": 5218,
      "Andrei": 5219,
      "threatening": 5220,
      "immediate": 5221,
      "##ology": 5222,
      "##spec": 5223,
      "confirm": 5224,
      "941": 5225,
      "Prod": 5226,
      "Montp": 5227,
      "Patrick": 5228,
      "funds": 5229,
      "questioned": 5230,
      "Juvent": 5231,
      "employees": 5232,
      "Algerian": 5233,
      "##rupted": 5234,
      "launch": 5235,
      "moved": 5236,
      "recovery": 5237,
      "JOHAN": 5238,
      "evidence": 5239,
      "Dhaka": 5240,
      "ambassador": 5241,
      "Bayern": 5242,
      "millions": 5243,
      "ATHLETIC": 5244,
      "history": 5245,
      "Calcut": 5246,
      "quickly": 5247,
      "candidate": 5248,
      "Madrid": 5249,
      "Summary": 5250,
      "something": 5251,
      "##NESBURG": 5252,
      "Yasser": 5253,
      "bottom": 5254,
      "minority": 5255,
      "Bulgaria": 5256,
      "kilomet": 5257,
      "Levy": 5258,
      "strategic": 5259,
      "Detroit": 5260,
      "allegations": 5261,
      "abandoned": 5262,
      "dismissed": 5263,
      "Championship": 5264,
      "benef": 5265,
      "Chelsea": 5266,
      "Bangladesh": 5267,
      "Pedro": 5268,
      "Government": 5269,
      "Crawley": 5270,
      "AUSTR": 5271,
      "Doboj": 5272,
      "Portsmouth": 5273,
      "RTRS": 5274,
      "Yamaha": 5275,
      "##desk": 5276,
      "afternoon": 5277,
      "Inzamam": 5278,
      "Minnesota": 5279,
      "Philadelphia": 5280,
      "JOHANNESBURG": 5281,
      "ATHLETICS": 5282,
      "Calcutta": 5283,
      "Ale": 5284,
      "Ather": 5285,
      "Auck": 5286,
      "Aux": 5287,
      "By": 5288,
      "Bed": 5289,
      "Bet": 5290,
      "Bud": 5291,
      "CA": 5292,
      "CD": 5293,
      "Cel": 5294,
      "Cru": 5295,
      "COUN": 5296,
      "Dort": 5297,
      "Dev": 5298,
      "Deal": 5299,
      "Ecu": 5300,
      "Gov": 5301,
      "Gough": 5302,
      "Gaj": 5303,
      "HK": 5304,
      "Hou": 5305,
      "IM": 5306,
      "Jay": 5307,
      "James": 5308,
      "Kal": 5309,
      "Kabul": 5310,
      "Kansas": 5311,
      "Lan": 5312,
      "Mr": 5313,
      "MON": 5314,
      "Miss": 5315,
      "Max": 5316,
      "Mask": 5317,
      "Nant": 5318,
      "Note": 5319,
      "Other": 5320,
      "Official": 5321,
      "Pen": 5322,
      "Ram": 5323,
      "Roc": 5324,
      "Rating": 5325,
      "Reds": 5326,
      "SH": 5327,
      "SY": 5328,
      "Sor": 5329,
      "Sid": 5330,
      "Sion": 5331,
      "Sup": 5332,
      "Six": 5333,
      "Soy": 5334,
      "Singer": 5335,
      "SQU": 5336,
      "Tir": 5337,
      "Till": 5338,
      "Tass": 5339,
      "Tony": 5340,
      "Ut": 5341,
      "Vo": 5342,
      "Wer": 5343,
      "Win": 5344,
      "Zur": 5345,
      "athlet": 5346,
      "bow": 5347,
      "bull": 5348,
      "bodies": 5349,
      "cre": 5350,
      "cement": 5351,
      "dict": 5352,
      "faces": 5353,
      "gained": 5354,
      "hund": 5355,
      "kg": 5356,
      "living": 5357,
      "mand": 5358,
      "mother": 5359,
      "mln": 5360,
      "rated": 5361,
      "send": 5362,
      "self": 5363,
      "search": 5364,
      "table": 5365,
      "tests": 5366,
      "##EAT": 5367,
      "##oa": 5368,
      "##rich": 5369,
      "##ruct": 5370,
      "##iy": 5371,
      "##iya": 5372,
      "##iece": 5373,
      "##gia": 5374,
      "##gian": 5375,
      "##gart": 5376,
      "##gue": 5377,
      "##RAD": 5378,
      "##IJ": 5379,
      "##IER": 5380,
      "##OUL": 5381,
      "##eau": 5382,
      "##come": 5383,
      "##cott": 5384,
      "##pa": 5385,
      "##pid": 5386,
      "##hu": 5387,
      "##hart": 5388,
      "##sid": 5389,
      "##kus": 5390,
      "##HI": 5391,
      "##mund": 5392,
      "##DER": 5393,
      "##DNE": 5394,
      "##xa": 5395,
      "##KE": 5396,
      "##bus": 5397,
      "##burn": 5398,
      "##body": 5399,
      "##well": 5400,
      "##ern": 5401,
      "##erre": 5402,
      "##erate": 5403,
      "##init": 5404,
      "##incess": 5405,
      "##anis": 5406,
      "##ania": 5407,
      "##onse": 5408,
      "##ester": 5409,
      "##ariti": 5410,
      "##ingen": 5411,
      "##asts": 5412,
      "##astern": 5413,
      "##outs": 5414,
      "##oucestershire": 5415,
      "##icop": 5416,
      "##idel": 5417,
      "##idend": 5418,
      "##oma": 5419,
      "##ilty": 5420,
      "##ilateral": 5421,
      "##real": 5422,
      "##reira": 5423,
      "##strom": 5424,
      "##etary": 5425,
      "##olm": 5426,
      "##amer": 5427,
      "##ammed": 5428,
      "##utel": 5429,
      "beef": 5430,
      "##aca": 5431,
      "##ulate": 5432,
      "##iment": 5433,
      "##imoto": 5434,
      "##used": 5435,
      "##verkus": 5436,
      "##aki": 5437,
      "##una": 5438,
      "##agan": 5439,
      "##aging": 5440,
      "##apie": 5441,
      "##istrat": 5442,
      "pled": 5443,
      "plus": 5444,
      "lei": 5445,
      "project": 5446,
      "challenge": 5447,
      "Stud": 5448,
      "Stutt": 5449,
      "Three": 5450,
      "Thail": 5451,
      "exact": 5452,
      "existing": 5453,
      "##odz": 5454,
      "##ubishi": 5455,
      "spent": 5456,
      "##ounce": 5457,
      "##arding": 5458,
      "##antage": 5459,
      "##antxa": 5460,
      "univers": 5461,
      "trick": 5462,
      "128": 5463,
      "115": 5464,
      "116": 5465,
      "abortion": 5466,
      "reserve": 5467,
      "residents": 5468,
      "experi": 5469,
      "expressed": 5470,
      "Leverkus": 5471,
      "adop": 5472,
      "clashes": 5473,
      "##ques": 5474,
      "means": 5475,
      "##keep": 5476,
      "251": 5477,
      "monitors": 5478,
      "alloc": 5479,
      "alliance": 5480,
      "suic": 5481,
      "164": 5482,
      "##even": 5483,
      "elected": 5484,
      "##ogne": 5485,
      "scandal": 5486,
      "opens": 5487,
      "Indust": 5488,
      "Indians": 5489,
      "301": 5490,
      "Ark": 5491,
      "Arantxa": 5492,
      "176": 5493,
      "individ": 5494,
      "180": 5495,
      "Ant": 5496,
      "present": 5497,
      "appointed": 5498,
      "Shares": 5499,
      "spoke": 5500,
      "registration": 5501,
      "consecutive": 5502,
      "worked": 5503,
      "Prince": 5504,
      "Preston": 5505,
      "interests": 5506,
      "retired": 5507,
      "county": 5508,
      "status": 5509,
      "Cologne": 5510,
      "trav": 5511,
      "takes": 5512,
      "warned": 5513,
      "Chester": 5514,
      "Coop": 5515,
      "opposed": 5516,
      "opportun": 5517,
      "surge": 5518,
      "surpl": 5519,
      "450": 5520,
      "servants": 5521,
      "airports": 5522,
      "built": 5523,
      "includes": 5524,
      "loan": 5525,
      "assets": 5526,
      "using": 5527,
      "Mayf": 5528,
      "LEAD": 5529,
      "##arren": 5530,
      "militants": 5531,
      "SEOUL": 5532,
      "posted": 5533,
      "feet": 5534,
      "below": 5535,
      "drink": 5536,
      "serve": 5537,
      "##inski": 5538,
      "protection": 5539,
      "subject": 5540,
      "continues": 5541,
      "helicop": 5542,
      "towns": 5543,
      "Plc": 5544,
      "Irani": 5545,
      "suspect": 5546,
      "faction": 5547,
      "prompt": 5548,
      "promised": 5549,
      "speech": 5550,
      "speaker": 5551,
      "Adrian": 5552,
      "##fully": 5553,
      "extrem": 5554,
      "extrad": 5555,
      "violations": 5556,
      "Warwick": 5557,
      "Angel": 5558,
      "##beat": 5559,
      "advantage": 5560,
      "previously": 5561,
      "training": 5562,
      "heard": 5563,
      "estimates": 5564,
      "Ferreira": 5565,
      "respect": 5566,
      "Jordanian": 5567,
      "Centre": 5568,
      "operating": 5569,
      "Gloucestershire": 5570,
      "##ological": 5571,
      "organisers": 5572,
      "drive": 5573,
      "require": 5574,
      "doctors": 5575,
      "however": 5576,
      "Montreal": 5577,
      "Simon": 5578,
      "Blackburn": 5579,
      "improved": 5580,
      "considered": 5581,
      "Scottish": 5582,
      "effective": 5583,
      "Maur": 5584,
      "friendly": 5585,
      "Wilson": 5586,
      "Queen": 5587,
      "Revenue": 5588,
      "hostage": 5589,
      "judge": 5590,
      "##vertising": 5591,
      "Desk": 5592,
      "##ycling": 5593,
      "neighbouring": 5594,
      "Hansa": 5595,
      "nomination": 5596,
      "determine": 5597,
      "riots": 5598,
      "inflation": 5599,
      "distribution": 5600,
      "photograph": 5601,
      "Rwandan": 5602,
      "Santos": 5603,
      "barley": 5604,
      "Boardman": 5605,
      "document": 5606,
      "Vicario": 5607,
      "flew": 5608,
      "margin": 5609,
      "cannot": 5610,
      "Bradford": 5611,
      "McCar": 5612,
      "repeated": 5613,
      "Rostock": 5614,
      "registered": 5615,
      "fishermen": 5616,
      "Organisation": 5617,
      "Groningen": 5618,
      "Jakarta": 5619,
      "EURO": 5620,
      "Jamaica": 5621,
      "Kremlin": 5622,
      "Ruutel": 5623,
      "lawyer": 5624,
      "Abdul": 5625,
      "counterp": 5626,
      "Bailey": 5627,
      "Hashimoto": 5628,
      "Kabariti": 5629,
      "Mitsubishi": 5630,
      "##hadov": 5631,
      "streets": 5632,
      "Warsaw": 5633,
      "Jonathan": 5634,
      "liquid": 5635,
      "Treasury": 5636,
      "Barrick": 5637,
      "IVAC": 5638,
      "suggest": 5639,
      "Atherton": 5640,
      "Auckland": 5641,
      "Auxerre": 5642,
      "CDU": 5643,
      "Dortmund": 5644,
      "Dealers": 5645,
      "Maskhadov": 5646,
      "Nantes": 5647,
      "SYDNE": 5648,
      "Zurich": 5649,
      "##initely": 5650,
      "Stuttgart": 5651,
      "Thailand": 5652,
      "university": 5653,
      "Leverkusen": 5654,
      "surplus": 5655,
      "Warwickshire": 5656,
      "SYDNEY": 5657,
      "Ac": 5658,
      "AK": 5659,
      "AB": 5660,
      "Aff": 5661,
      "Bat": 5662,
      "Bol": 5663,
      "Bond": 5664,
      "Bonn": 5665,
      "Brem": 5666,
      "Brien": 5667,
      "CS": 5668,
      "Cr": 5669,
      "CV": 5670,
      "Cash": 5671,
      "Camb": 5672,
      "Der": 5673,
      "Dow": 5674,
      "Eth": 5675,
      "Esc": 5676,
      "Four": 5677,
      "Five": 5678,
      "Fior": 5679,
      "FORE": 5680,
      "GEN": 5681,
      "Glam": 5682,
      "GDP": 5683,
      "Hum": 5684,
      "Jav": 5685,
      "Ke": 5686,
      "Kl": 5687,
      "Kan": 5688,
      "Kent": 5689,
      "Kam": 5690,
      "Kos": 5691,
      "Kash": 5692,
      "Lar": 5693,
      "Lat": 5694,
      "Lott": 5695,
      "Lyn": 5696,
      "MS": 5697,
      "Mir": 5698,
      "Mig": 5699,
      "Mus": 5700,
      "Map": 5701,
      "MOT": 5702,
      "NA": 5703,
      "Na": 5704,
      "Nice": 5705,
      "Names": 5706,
      "Neal": 5707,
      "NAC": 5708,
      "Os": 5709,
      "Ob": 5710,
      "Off": 5711,
      "PM": 5712,
      "PA": 5713,
      "Pad": 5714,
      "Power": 5715,
      "PAY": 5716,
      "RAC": 5717,
      "SAL": 5718,
      "Sitt": 5719,
      "Ssang": 5720,
      "Test": 5721,
      "Tend": 5722,
      "Vf": 5723,
      "Ver": 5724,
      "Vac": 5725,
      "Vlad": 5726,
      "Wis": 5727,
      "WAR": 5728,
      "WEL": 5729,
      "Wigan": 5730,
      "WITH": 5731,
      "Yemen": 5732,
      "award": 5733,
      "base": 5734,
      "bilateral": 5735,
      "cel": 5736,
      "cause": 5737,
      "catch": 5738,
      "council": 5739,
      "epid": 5740,
      "foc": 5741,
      "gas": 5742,
      "hurt": 5743,
      "hitting": 5744,
      "huge": 5745,
      "jun": 5746,
      "lending": 5747,
      "labour": 5748,
      "po": 5749,
      "pts": 5750,
      "powers": 5751,
      "ran": 5752,
      "row": 5753,
      "riv": 5754,
      "ties": 5755,
      "typ": 5756,
      "und": 5757,
      "vent": 5758,
      "witnesses": 5759,
      "##rig": 5760,
      "##rated": 5761,
      "##iop": 5762,
      "##ges": 5763,
      "##taba": 5764,
      "##AX": 5765,
      "##IGH": 5766,
      "##OK": 5767,
      "##OW": 5768,
      "##vet": 5769,
      "##ding": 5770,
      "##cins": 5771,
      "##pts": 5772,
      "##prom": 5773,
      "##ho": 5774,
      "##sen": 5775,
      "##sel": 5776,
      "##ken": 5777,
      "##mir": 5778,
      "##mere": 5779,
      "##meg": 5780,
      "##jamin": 5781,
      "##br": 5782,
      "##ba": 5783,
      "##bie": 5784,
      "##bang": 5785,
      "##break": 5786,
      "##bridge": 5787,
      "##CAST": 5788,
      "##wor": 5789,
      "##wha": 5790,
      "##65": 5791,
      "##15": 5792,
      "##eron": 5793,
      "##erap": 5794,
      "##erating": 5795,
      "##hest": 5796,
      "##inz": 5797,
      "##onia": 5798,
      "##esc": 5799,
      "##oration": 5800,
      "##arc": 5801,
      "##arus": 5802,
      "##aty": 5803,
      "##atists": 5804,
      "##atility": 5805,
      "##itre": 5806,
      "##icer": 5807,
      "##idad": 5808,
      "##idge": 5809,
      "##idency": 5810,
      "##omot": 5811,
      "##entina": 5812,
      "##stan": 5813,
      "##eta": 5814,
      "##etts": 5815,
      "##adh": 5816,
      "##adium": 5817,
      "threw": 5818,
      "##rose": 5819,
      "##roph": 5820,
      "##acter": 5821,
      "##lements": 5822,
      "190": 5823,
      "standing": 5824,
      "style": 5825,
      "##osit": 5826,
      "##ula": 5827,
      "##using": 5828,
      "##usetts": 5829,
      "reve": 5830,
      "ready": 5831,
      "why": 5832,
      "##chi": 5833,
      "##ewoo": 5834,
      "##ewhere": 5835,
      "##rie": 5836,
      "##rip": 5837,
      "##akers": 5838,
      "answ": 5839,
      "conn": 5840,
      "conv": 5841,
      "##umped": 5842,
      "plac": 5843,
      "placed": 5844,
      "##ecting": 5845,
      "##mans": 5846,
      "chip": 5847,
      "##abi": 5848,
      "##abs": 5849,
      "Star": 5850,
      "pray": 5851,
      "pract": 5852,
      "extend": 5853,
      "except": 5854,
      "aged": 5855,
      "##ANCE": 5856,
      "101": 5857,
      "##allah": 5858,
      "##endam": 5859,
      "dev": 5860,
      "Chor": 5861,
      "spir": 5862,
      "spons": 5863,
      "spring": 5864,
      "##wool": 5865,
      "##ells": 5866,
      "##ellier": 5867,
      "Breda": 5868,
      "Bristol": 5869,
      "##ardo": 5870,
      "##ORD": 5871,
      "##anked": 5872,
      "republic": 5873,
      "beaten": 5874,
      "resc": 5875,
      "residence": 5876,
      "##ucation": 5877,
      "Lee": 5878,
      "quite": 5879,
      "advertising": 5880,
      "clash": 5881,
      "closing": 5882,
      "clocked": 5883,
      "##ALIAN": 5884,
      "##quir": 5885,
      "##quarters": 5886,
      "arch": 5887,
      "Alber": 5888,
      "leads": 5889,
      "202": 5890,
      "250": 5891,
      "##ancing": 5892,
      "##nee": 5893,
      "displ": 5894,
      "##ibe": 5895,
      "##ibet": 5896,
      "##lines": 5897,
      "scattered": 5898,
      "##alker": 5899,
      "##achusetts": 5900,
      "##erves": 5901,
      "decide": 5902,
      "heroin": 5903,
      "##iko": 5904,
      "##obank": 5905,
      "ends": 5906,
      "committed": 5907,
      "century": 5908,
      "relief": 5909,
      "additional": 5910,
      "crude": 5911,
      "crashed": 5912,
      "confident": 5913,
      "regular": 5914,
      "Belarus": 5915,
      "intervention": 5916,
      "310": 5917,
      "Score": 5918,
      "flights": 5919,
      "guilty": 5920,
      "Colin": 5921,
      "calls": 5922,
      "325": 5923,
      "##veland": 5924,
      "Commun": 5925,
      "Norman": 5926,
      "Coet": 5927,
      "Cofin": 5928,
      "##armament": 5929,
      "victim": 5930,
      "loaded": 5931,
      "PREM": 5932,
      "Berlex": 5933,
      "delay": 5934,
      "##burgh": 5935,
      "850": 5936,
      "cars": 5937,
      "owns": 5938,
      "##arrington": 5939,
      "##AKAR": 5940,
      "521": 5941,
      "Whitt": 5942,
      "belong": 5943,
      "headquarters": 5944,
      "provinc": 5945,
      "design": 5946,
      "Trans": 5947,
      "Traders": 5948,
      "496": 5949,
      "5000": 5950,
      "sentenced": 5951,
      "Slovenia": 5952,
      "suspects": 5953,
      "effort": 5954,
      "##regular": 5955,
      "##gether": 5956,
      "Add": 5957,
      "Oncins": 5958,
      "fellow": 5959,
      "Olympics": 5960,
      "room": 5961,
      "speculation": 5962,
      "Serbia": 5963,
      "Serbian": 5964,
      "THIR": 5965,
      "policemen": 5966,
      "##ette": 5967,
      "Benjamin": 5968,
      "clearly": 5969,
      "Interior": 5970,
      "Allen": 5971,
      "begun": 5972,
      "##strong": 5973,
      "investigation": 5974,
      "investigating": 5975,
      "operations": 5976,
      "organised": 5977,
      "wrote": 5978,
      "worst": 5979,
      "Colombo": 5980,
      "Laur": 5981,
      "Deputy": 5982,
      "Quarter": 5983,
      "Qualif": 5984,
      "separatists": 5985,
      "study": 5986,
      "Peace": 5987,
      "billions": 5988,
      "suffering": 5989,
      "Indonesian": 5990,
      "9373": 5991,
      "Volendam": 5992,
      "Gazprom": 5993,
      "considering": 5994,
      "##stead": 5995,
      "employee": 5996,
      "customers": 5997,
      "jailed": 5998,
      "lifted": 5999,
      "Albania": 6000,
      "Collin": 6001,
      "administrat": 6002,
      "WINS": 6003,
      "grade": 6004,
      "jobs": 6005,
      "fears": 6006,
      "established": 6007,
      "Federal": 6008,
      "##itorial": 6009,
      "Liberia": 6010,
      "Middles": 6011,
      "Armstrong": 6012,
      "ATHENS": 6013,
      "Rwanda": 6014,
      "barrels": 6015,
      "Newcastle": 6016,
      "documents": 6017,
      "cancelled": 6018,
      "peso": 6019,
      "trouble": 6020,
      "waiting": 6021,
      "Leicester": 6022,
      "vehicles": 6023,
      "manufactur": 6024,
      "Massachusetts": 6025,
      "Turnover": 6026,
      "hotel": 6027,
      "Stefan": 6028,
      "particip": 6029,
      "SECOND": 6030,
      "proposal": 6031,
      "SUMMARY": 6032,
      "Corser": 6033,
      "Machado": 6034,
      "Rabobank": 6035,
      "irregular": 6036,
      "immigr": 6037,
      "Hanwha": 6038,
      "##ulkar": 6039,
      "generally": 6040,
      "Queensland": 6041,
      "Bundes": 6042,
      "Daewoo": 6043,
      "Saddam": 6044,
      "Vienna": 6045,
      "##known": 6046,
      "sprint": 6047,
      "District": 6048,
      "Raymond": 6049,
      "Rafter": 6050,
      "congress": 6051,
      "semifinal": 6052,
      "Cleveland": 6053,
      "Mujtaba": 6054,
      "Vitesse": 6055,
      "Zenith": 6056,
      "potential": 6057,
      "necessary": 6058,
      "Estonia": 6059,
      "GRAND": 6060,
      "Nijmeg": 6061,
      "SUPER": 6062,
      "circ": 6063,
      "driving": 6064,
      "fraud": 6065,
      "Mariners": 6066,
      "Montpellier": 6067,
      "Ecuador": 6068,
      "Gajdos": 6069,
      "Houston": 6070,
      "Officials": 6071,
      "Supreme": 6072,
      "create": 6073,
      "##RADE": 6074,
      "##eaux": 6075,
      "suicide": 6076,
      "Mayfair": 6077,
      "Bremen": 6078,
      "Ethiop": 6079,
      "Fiorentina": 6080,
      "Glamorgan": 6081,
      "Kashmir": 6082,
      "Lotte": 6083,
      "Miguel": 6084,
      "Sittard": 6085,
      "Ssangbang": 6086,
      "Tendulkar": 6087,
      "celeb": 6088,
      "epidemic": 6089,
      "rivals": 6090,
      "Cofinec": 6091,
      "provincial": 6092,
      "Nijmegen": 6093,
      "Ethiopia": 6094,
      "Ssangbangwool": 6095,
      "AP": 6096,
      "AA": 6097,
      "Bistr": 6098,
      "CO": 6099,
      "Ca": 6100,
      "Coc": 6101,
      "CAN": 6102,
      "CONT": 6103,
      "Did": 6104,
      "Dim": 6105,
      "Dun": 6106,
      "Dah": 6107,
      "DEM": 6108,
      "EX": 6109,
      "Fil": 6110,
      "Foll": 6111,
      "Glor": 6112,
      "Golf": 6113,
      "Hy": 6114,
      "H1": 6115,
      "Hend": 6116,
      "Hait": 6117,
      "Husse": 6118,
      "Haga": 6119,
      "Jens": 6120,
      "Kr": 6121,
      "Ker": 6122,
      "Kat": 6123,
      "Koc": 6124,
      "Kaw": 6125,
      "Lib": 6126,
      "Liver": 6127,
      "Linc": 6128,
      "Lille": 6129,
      "LAST": 6130,
      "MF": 6131,
      "Marl": 6132,
      "Mount": 6133,
      "Mood": 6134,
      "Matt": 6135,
      "Ni": 6136,
      "Ny": 6137,
      "Nas": 6138,
      "Nik": 6139,
      "Nob": 6140,
      "Nancy": 6141,
      "Ox": 6142,
      "Ow": 6143,
      "PO": 6144,
      "Pin": 6145,
      "Public": 6146,
      "Ry": 6147,
      "Rome": 6148,
      "Rally": 6149,
      "ROM": 6150,
      "Rene": 6151,
      "REC": 6152,
      "SK": 6153,
      "SW": 6154,
      "Som": 6155,
      "Sir": 6156,
      "Sand": 6157,
      "Sab": 6158,
      "Tal": 6159,
      "Til": 6160,
      "Tok": 6161,
      "Tale": 6162,
      "Tibet": 6163,
      "UP": 6164,
      "UEF": 6165,
      "Vin": 6166,
      "Vik": 6167,
      "Vale": 6168,
      "Wo": 6169,
      "Wa": 6170,
      "Wol": 6171,
      "WED": 6172,
      "aid": 6173,
      "bed": 6174,
      "bound": 6175,
      "bread": 6176,
      "ca": 6177,
      "corn": 6178,
      "cycling": 6179,
      "dark": 6180,
      "espec": 6181,
      "figh": 6182,
      "fine": 6183,
      "fought": 6184,
      "fuel": 6185,
      "gone": 6186,
      "hect": 6187,
      "jet": 6188,
      "lang": 6189,
      "lose": 6190,
      "love": 6191,
      "lived": 6192,
      "mine": 6193,
      "makes": 6194,
      "nun": 6195,
      "nort": 6196,
      "pun": 6197,
      "pict": 6198,
      "rat": 6199,
      "rating": 6200,
      "rural": 6201,
      "son": 6202,
      "sup": 6203,
      "surr": 6204,
      "wat": 6205,
      "wel": 6206,
      "watch": 6207,
      "yuan": 6208,
      "##TY": 6209,
      "##44": 6210,
      "##ract": 6211,
      "##reds": 6212,
      "##nan": 6213,
      "##nest": 6214,
      "##gn": 6215,
      "##gged": 6216,
      "##fl": 6217,
      "##fall": 6218,
      "##furt": 6219,
      "##RON": 6220,
      "##IAL": 6221,
      "##OUR": 6222,
      "##LIN": 6223,
      "##via": 6224,
      "##can": 6225,
      "##po": 6226,
      "##aud": 6227,
      "##sin": 6228,
      "##sru": 6229,
      "##sung": 6230,
      "##kov": 6231,
      "##HER": 6232,
      "##lon": 6233,
      "##main": 6234,
      "##mingham": 6235,
      "##KC": 6236,
      "##bb": 6237,
      "##bra": 6238,
      "##bak": 6239,
      "##bell": 6240,
      "##bled": 6241,
      "##zy": 6242,
      "##17": 6243,
      "##BER": 6244,
      "##ining": 6245,
      "##ination": 6246,
      "##anie": 6247,
      "##enos": 6248,
      "##orse": 6249,
      "##aru": 6250,
      "##arch": 6251,
      "##arity": 6252,
      "##arily": 6253,
      "##isban": 6254,
      "##isbury": 6255,
      "##ingamp": 6256,
      "##ites": 6257,
      "##itarian": 6258,
      "##asaki": 6259,
      "together": 6260,
      "##elly": 6261,
      "onto": 6262,
      "##ety": 6263,
      "##oln": 6264,
      "##olid": 6265,
      "##uta": 6266,
      "##utions": 6267,
      "saf": 6268,
      "##iri": 6269,
      "##terling": 6270,
      "##roso": 6271,
      "##rovers": 6272,
      "##ache": 6273,
      "##acom": 6274,
      "##acement": 6275,
      "##aches": 6276,
      "stable": 6277,
      "##ills": 6278,
      "##tson": 6279,
      "##tsburgh": 6280,
      "##osa": 6281,
      "##osen": 6282,
      "Their": 6283,
      "##rap": 6284,
      "reop": 6285,
      "##lying": 6286,
      "##emony": 6287,
      "##aine": 6288,
      "##ithar": 6289,
      "withdra": 6290,
      "anc": 6291,
      "##oph": 6292,
      "comes": 6293,
      "proj": 6294,
      "shown": 6295,
      "chall": 6296,
      "Sten": 6297,
      "Stol": 6298,
      "Start": 6299,
      "sees": 6300,
      "Third": 6301,
      "examp": 6302,
      "weight": 6303,
      "permission": 6304,
      "Chon": 6305,
      "Cham": 6306,
      "spend": 6307,
      "##ERE": 6308,
      "##oki": 6309,
      "Bridge": 6310,
      "Brisban": 6311,
      "##ounced": 6312,
      "##overs": 6313,
      "##antino": 6314,
      "##ORT": 6315,
      "outstanding": 6316,
      "##ankan": 6317,
      "unions": 6318,
      "try": 6319,
      "trillion": 6320,
      "##aves": 6321,
      "12th": 6322,
      "119": 6323,
      "##INE": 6324,
      "##ipment": 6325,
      "##ording": 6326,
      "resol": 6327,
      "resum": 6328,
      "resolution": 6329,
      "qual": 6330,
      "280": 6331,
      "adj": 6332,
      "clim": 6333,
      "Head": 6334,
      "##ointing": 6335,
      "##assi": 6336,
      "220": 6337,
      "225": 6338,
      "226": 6339,
      "Alk": 6340,
      "contest": 6341,
      "controvers": 6342,
      "mean": 6343,
      "##eldorf": 6344,
      "143": 6345,
      "Germain": 6346,
      "partner": 6347,
      "finance": 6348,
      "markka": 6349,
      "Spani": 6350,
      "242": 6351,
      "162": 6352,
      "Island": 6353,
      "underst": 6354,
      "##END": 6355,
      "##ogo": 6356,
      "##ogen": 6357,
      "##iba": 6358,
      "##iburg": 6359,
      "##lind": 6360,
      "runner": 6361,
      "170": 6362,
      "175": 6363,
      "##iki": 6364,
      "dozen": 6365,
      "commit": 6366,
      "commanding": 6367,
      "##AGE": 6368,
      "someone": 6369,
      "Reagan": 6370,
      "Any": 6371,
      "Anne": 6372,
      "capped": 6373,
      "blast": 6374,
      "meetings": 6375,
      "applic": 6376,
      "##ossible": 6377,
      "implement": 6378,
      "addition": 6379,
      "crimin": 6380,
      "refund": 6381,
      "##athy": 6382,
      "planning": 6383,
      "##erred": 6384,
      "Shar": 6385,
      "kills": 6386,
      "registr": 6387,
      "backed": 6388,
      "##ption": 6389,
      "earned": 6390,
      "406": 6391,
      "##rowing": 6392,
      "750": 6393,
      "guards": 6394,
      "Colchester": 6395,
      "throughout": 6396,
      "supplies": 6397,
      "highl": 6398,
      "##rators": 6399,
      "##efeld": 6400,
      "##urred": 6401,
      "profession": 6402,
      "##consin": 6403,
      "334": 6404,
      "531": 6405,
      "surv": 6406,
      "served": 6407,
      "serving": 6408,
      "Final": 6409,
      "nearby": 6410,
      "assoc": 6411,
      "assembly": 6412,
      "PRO": 6413,
      "PRIX": 6414,
      "amount": 6415,
      "detained": 6416,
      "Davies": 6417,
      "knew": 6418,
      "Braves": 6419,
      "carried": 6420,
      "remark": 6421,
      "visiting": 6422,
      "Syst": 6423,
      "demanded": 6424,
      "Guinea": 6425,
      "Guingamp": 6426,
      "headed": 6427,
      "mainly": 6428,
      "subsid": 6429,
      "insurance": 6430,
      "department": 6431,
      "medal": 6432,
      "##owski": 6433,
      "dollars": 6434,
      "holding": 6435,
      "suspic": 6436,
      "homered": 6437,
      "failure": 6438,
      "prompted": 6439,
      "maybe": 6440,
      "Graaf": 6441,
      "midnight": 6442,
      "##OREBO": 6443,
      "Salisbury": 6444,
      "Abb": 6445,
      "About": 6446,
      "Perot": 6447,
      "1989": 6448,
      "Costas": 6449,
      "Agassi": 6450,
      "Angels": 6451,
      "Lankan": 6452,
      "##etta": 6453,
      "Islamists": 6454,
      "##bourg": 6455,
      "ballot": 6456,
      "receiving": 6457,
      "Christop": 6458,
      "privat": 6459,
      "response": 6460,
      "selling": 6461,
      "##struction": 6462,
      "review": 6463,
      "values": 6464,
      "custody": 6465,
      "NATIONAL": 6466,
      "bases": 6467,
      "collided": 6468,
      "Nicol": 6469,
      "reduce": 6470,
      "reduced": 6471,
      "stepped": 6472,
      "finding": 6473,
      "stopped": 6474,
      "executed": 6475,
      "aggress": 6476,
      "fundament": 6477,
      "replace": 6478,
      "replacement": 6479,
      "federation": 6480,
      "largely": 6481,
      "missionaries": 6482,
      "solution": 6483,
      "Juppe": 6484,
      "SCOREBO": 6485,
      "rises": 6486,
      "expectations": 6487,
      "Hungarian": 6488,
      "Smicer": 6489,
      "consider": 6490,
      "BEIJ": 6491,
      "delivered": 6492,
      "Freiburg": 6493,
      "friends": 6494,
      "##LINGTON": 6495,
      "Frankfurt": 6496,
      "doubles": 6497,
      "##clus": 6498,
      "representatives": 6499,
      "successful": 6500,
      "Duis": 6501,
      "Duess": 6502,
      "Enqv": 6503,
      "Helens": 6504,
      "grant": 6505,
      "shipment": 6506,
      "shipments": 6507,
      "consumers": 6508,
      "Samsung": 6509,
      "disappointing": 6510,
      "prepared": 6511,
      "preparing": 6512,
      "##swijk": 6513,
      "acquis": 6514,
      "Eritre": 6515,
      "Petrole": 6516,
      "Oldham": 6517,
      "liber": 6518,
      "population": 6519,
      "reasons": 6520,
      "complain": 6521,
      "determined": 6522,
      "terrorism": 6523,
      "Nicaragua": 6524,
      "Taibe": 6525,
      "Woodbridge": 6526,
      "postponed": 6527,
      "Basque": 6528,
      "Kenneth": 6529,
      "Metz": 6530,
      "histor": 6531,
      "##liga": 6532,
      "scientific": 6533,
      "Delhi": 6534,
      "captured": 6535,
      "boxes": 6536,
      "allegedly": 6537,
      "Birmingham": 6538,
      "Cardiff": 6539,
      "Sarah": 6540,
      "Takeda": 6541,
      "cleared": 6542,
      "##ylum": 6543,
      "researchers": 6544,
      "Leicestershire": 6545,
      "Company": 6546,
      "vehicle": 6547,
      "mountain": 6548,
      "virus": 6549,
      "version": 6550,
      "Biogen": 6551,
      "Royal": 6552,
      "Workers": 6553,
      "patr": 6554,
      "Portugal": 6555,
      "BELGRADE": 6556,
      "##schap": 6557,
      "##borough": 6558,
      "Brunswijk": 6559,
      "Rios": 6560,
      "balance": 6561,
      "corporate": 6562,
      "##nikov": 6563,
      "##board": 6564,
      "politicians": 6565,
      "college": 6566,
      "Nottinghamshire": 6567,
      "ACC": 6568,
      "According": 6569,
      "Karlsru": 6570,
      "##recht": 6571,
      "Internet": 6572,
      "Speaker": 6573,
      "Arnhem": 6574,
      "Campbell": 6575,
      "Makinen": 6576,
      "Pittsburgh": 6577,
      "Worcestershire": 6578,
      "sweep": 6579,
      "opponents": 6580,
      "Authority": 6581,
      "Hingis": 6582,
      "Olsza": 6583,
      "Roger": 6584,
      "casual": 6585,
      "ferry": 6586,
      "southeast": 6587,
      "conservative": 6588,
      "delegates": 6589,
      "lawsuit": 6590,
      "Celica": 6591,
      "Tillstrom": 6592,
      "##keeper": 6593,
      "individual": 6594,
      "travelling": 6595,
      "opportunity": 6596,
      "counterpart": 6597,
      "Affairs": 6598,
      "FORECAST": 6599,
      "Lynch": 6600,
      "Wisconsin": 6601,
      "WELLINGTON": 6602,
      "junior": 6603,
      "THIRD": 6604,
      "Qualifier": 6605,
      "Bundesliga": 6606,
      "Bistrita": 6607,
      "Following": 6608,
      "Gloria": 6609,
      "Hussein": 6610,
      "Kocinski": 6611,
      "Kawasaki": 6612,
      "Liverpool": 6613,
      "Lincoln": 6614,
      "MFS": 6615,
      "Moody": 6616,
      "Oxford": 6617,
      "Owens": 6618,
      "Tokyo": 6619,
      "Taleban": 6620,
      "UEFA": 6621,
      "especially": 6622,
      "northe": 6623,
      "challeng": 6624,
      "example": 6625,
      "Brisbane": 6626,
      "registrations": 6627,
      "Graafschap": 6628,
      "SCOREBOARD": 6629,
      "BEIJING": 6630,
      "Enqvist": 6631,
      "Karlsruhe": 6632,
      "AZ": 6633,
      "Aber": 6634,
      "Act": 6635,
      "Aoki": 6636,
      "Bon": 6637,
      "Bus": 6638,
      "Best": 6639,
      "Bour": 6640,
      "Bast": 6641,
      "Bord": 6642,
      "Bout": 6643,
      "BAR": 6644,
      "Baker": 6645,
      "Brian": 6646,
      "BANG": 6647,
      "Ce": 6648,
      "CB": 6649,
      "Ces": 6650,
      "Cre": 6651,
      "Cry": 6652,
      "Cels": 6653,
      "CALL": 6654,
      "Civil": 6655,
      "DE": 6656,
      "Dm": 6657,
      "Din": 6658,
      "Dis": 6659,
      "Dere": 6660,
      "Doc": 6661,
      "Daily": 6662,
      "DRA": 6663,
      "Dyn": 6664,
      "Darren": 6665,
      "EC": 6666,
      "End": 6667,
      "Eight": 6668,
      "Econom": 6669,
      "Els": 6670,
      "Ens": 6671,
      "Fe": 6672,
      "Fa": 6673,
      "Fle": 6674,
      "Fax": 6675,
      "Faul": 6676,
      "Gi": 6677,
      "God": 6678,
      "GKS": 6679,
      "Hur": 6680,
      "Hold": 6681,
      "Hope": 6682,
      "Hudd": 6683,
      "IT": 6684,
      "Ill": 6685,
      "JC": 6686,
      "Jos": 6687,
      "Jian": 6688,
      "Kon": 6689,
      "Kank": 6690,
      "Knight": 6691,
      "Kelly": 6692,
      "Lor": 6693,
      "Lam": 6694,
      "Lance": 6695,
      "Luc": 6696,
      "Lakes": 6697,
      "Labour": 6698,
      "MO": 6699,
      "Mold": 6700,
      "MDS": 6701,
      "Mika": 6702,
      "NZ": 6703,
      "Nat": 6704,
      "Now": 6705,
      "Nath": 6706,
      "ONE": 6707,
      "Prom": 6708,
      "Pav": 6709,
      "Poll": 6710,
      "Penn": 6711,
      "POL": 6712,
      "Prem": 6713,
      "Parliament": 6714,
      "Rand": 6715,
      "Rav": 6716,
      "Rip": 6717,
      "Rock": 6718,
      "RKC": 6719,
      "SV": 6720,
      "Sus": 6721,
      "Sain": 6722,
      "Squ": 6723,
      "Sach": 6724,
      "Sven": 6725,
      "Susse": 6726,
      "Svet": 6727,
      "Tun": 6728,
      "Top": 6729,
      "TOS": 6730,
      "TIM": 6731,
      "Times": 6732,
      "Tapie": 6733,
      "Whe": 6734,
      "Wolf": 6735,
      "YEAR": 6736,
      "Zag": 6737,
      "Zab": 6738,
      "aim": 6739,
      "bir": 6740,
      "bra": 6741,
      "bab": 6742,
      "bah": 6743,
      "brand": 6744,
      "cal": 6745,
      "cit": 6746,
      "cot": 6747,
      "cup": 6748,
      "dig": 6749,
      "dated": 6750,
      "dyst": 6751,
      "er": 6752,
      "em": 6753,
      "era": 6754,
      "eating": 6755,
      "fest": 6756,
      "fob": 6757,
      "gain": 6758,
      "gets": 6759,
      "gren": 6760,
      "golf": 6761,
      "hat": 6762,
      "hair": 6763,
      "iron": 6764,
      "knee": 6765,
      "lic": 6766,
      "lia": 6767,
      "lives": 6768,
      "mach": 6769,
      "musc": 6770,
      "nurs": 6771,
      "nerv": 6772,
      "names": 6773,
      "none": 6774,
      "ousted": 6775,
      "pen": 6776,
      "porn": 6777,
      "rand": 6778,
      "roll": 6779,
      "rare": 6780,
      "river": 6781,
      "sal": 6782,
      "sil": 6783,
      "sad": 6784,
      "sear": 6785,
      "sound": 6786,
      "shed": 6787,
      "task": 6788,
      "tension": 6789,
      "vo": 6790,
      "via": 6791,
      "vide": 6792,
      "wo": 6793,
      "wall": 6794,
      "wage": 6795,
      "wrist": 6796,
      "youth": 6797,
      "##EK": 6798,
      "##PS": 6799,
      "##PI": 6800,
      "##47": 6801,
      "##45": 6802,
      "##ook": 6803,
      "##ration": 6804,
      "##run": 6805,
      "##rate": 6806,
      "##rants": 6807,
      "##iary": 6808,
      "##ique": 6809,
      "##gu": 6810,
      "##gom": 6811,
      "##fts": 6812,
      "##fia": 6813,
      "##vanced": 6814,
      "##deen": 6815,
      "##eeva": 6816,
      "##ping": 6817,
      "##pected": 6818,
      "##han": 6819,
      "##hop": 6820,
      "##hoff": 6821,
      "##holm": 6822,
      "##kow": 6823,
      "##lers": 6824,
      "##lana": 6825,
      "##DAP": 6826,
      "##GAR": 6827,
      "##KARA": 6828,
      "##UES": 6829,
      "##bara": 6830,
      "##5M": 6831,
      "##wide": 6832,
      "##VER": 6833,
      "##inia": 6834,
      "##anied": 6835,
      "##onomy": 6836,
      "##enche": 6837,
      "##enport": 6838,
      "##aro": 6839,
      "##arak": 6840,
      "##alie": 6841,
      "inch": 6842,
      "intern": 6843,
      "inches": 6844,
      "##isations": 6845,
      "##asur": 6846,
      "##oug": 6847,
      "##iced": 6848,
      "##eless": 6849,
      "##elefeld": 6850,
      "##olan": 6851,
      "##utto": 6852,
      "thr": 6853,
      "thin": 6854,
      "##irates": 6855,
      "##terkova": 6856,
      "##ths": 6857,
      "##acc": 6858,
      "##igence": 6859,
      "stro": 6860,
      "stood": 6861,
      "street": 6862,
      "##ulp": 6863,
      "##uly": 6864,
      "##ulted": 6865,
      "##rab": 6866,
      "##ima": 6867,
      "##imon": 6868,
      "##chum": 6869,
      "##rier": 6870,
      "##aked": 6871,
      "##unce": 6872,
      "construction": 6873,
      "##iano": 6874,
      "##istant": 6875,
      "asylum": 6876,
      "##ours": 6877,
      "##oco": 6878,
      "##ument": 6879,
      "##umacher": 6880,
      "comments": 6881,
      "plat": 6882,
      "places": 6883,
      "##mant": 6884,
      "showing": 6885,
      "shows": 6886,
      "##abad": 6887,
      "##onde": 6888,
      "sea": 6889,
      "sever": 6890,
      "Thomp": 6891,
      "Thousands": 6892,
      "exile": 6893,
      "agents": 6894,
      "offers": 6895,
      "##iescu": 6896,
      "##bertson": 6897,
      "Front": 6898,
      "##odg": 6899,
      "##odities": 6900,
      "spl": 6901,
      "##ella": 6902,
      "##elligence": 6903,
      "##ERICAN": 6904,
      "Brent": 6905,
      "##ishop": 6906,
      "##arded": 6907,
      "##ovan": 6908,
      "outlook": 6909,
      "unp": 6910,
      "unknown": 6911,
      "##anging": 6912,
      "compens": 6913,
      "123": 6914,
      "##chell": 6915,
      "##seed": 6916,
      "117": 6917,
      "111": 6918,
      "##ipa": 6919,
      "##iple": 6920,
      "plays": 6921,
      "##orkian": 6922,
      "##undai": 6923,
      "##icks": 6924,
      "Heath": 6925,
      "accepted": 6926,
      "##quipa": 6927,
      "arg": 6928,
      "arrang": 6929,
      "##arlic": 6930,
      "##nglad": 6931,
      "Ali": 6932,
      "Monica": 6933,
      "130": 6934,
      "206": 6935,
      "monitor": 6936,
      "recon": 6937,
      "recog": 6938,
      "266": 6939,
      "215": 6940,
      "manage": 6941,
      "290": 6942,
      "Spot": 6943,
      "24th": 6944,
      "winter": 6945,
      "167": 6946,
      "230": 6947,
      "##ensus": 6948,
      "pret": 6949,
      "##evan": 6950,
      "##evic": 6951,
      "##ibor": 6952,
      "##ibly": 6953,
      "Marco": 6954,
      "scene": 6955,
      "##achi": 6956,
      "Armin": 6957,
      "decree": 6958,
      "noise": 6959,
      "##ikh": 6960,
      "invent": 6961,
      "monthly": 6962,
      "##vene": 6963,
      "1860": 6964,
      "Anth": 6965,
      "relie": 6966,
      "presidency": 6967,
      "capacity": 6968,
      "blow": 6969,
      "definitely": 6970,
      "confisc": 6971,
      "confessed": 6972,
      "became": 6973,
      "refl": 6974,
      "refer": 6975,
      "Julie": 6976,
      "Shr": 6977,
      "consist": 6978,
      "consult": 6979,
      "backing": 6980,
      "Price": 6981,
      "interior": 6982,
      "Iraqis": 6983,
      "##izen": 6984,
      "##URE": 6985,
      "##onna": 6986,
      "fled": 6987,
      "flood": 6988,
      "543": 6989,
      "54th": 6990,
      "trib": 6991,
      "##ratic": 6992,
      "calling": 6993,
      "talking": 6994,
      "divor": 6995,
      "seedings": 6996,
      "Russians": 6997,
      "Committee": 6998,
      "Amb": 6999,
      "Amount": 7000,
      "Amoco": 7001,
      "active": 7002,
      "Northern": 7003,
      "##others": 7004,
      "Slight": 7005,
      "slipped": 7006,
      "538": 7007,
      "voted": 7008,
      "##engo": 7009,
      "produce": 7010,
      "Andy": 7011,
      "##arma": 7012,
      "Palace": 7013,
      "##ronic": 7014,
      "425": 7015,
      "Pete": 7016,
      "INTER": 7017,
      "##OSE": 7018,
      "Davenport": 7019,
      "650": 7020,
      "##cover": 7021,
      "remove": 7022,
      "militia": 7023,
      "Maleeva": 7024,
      "infusion": 7025,
      "Democracy": 7026,
      "handling": 7027,
      "##AKES": 7028,
      "Guj": 7029,
      "fever": 7030,
      "##OMB": 7031,
      "follow": 7032,
      "serie": 7033,
      "Trade": 7034,
      "Corporation": 7035,
      "OFF": 7036,
      "ANKARA": 7037,
      "Aslan": 7038,
      "records": 7039,
      "broad": 7040,
      "broker": 7041,
      "Barbara": 7042,
      "homers": 7043,
      "##ipping": 7044,
      "speaking": 7045,
      "intent": 7046,
      "Advanced": 7047,
      "Edberg": 7048,
      "Schumacher": 7049,
      "smugg": 7050,
      "Bochum": 7051,
      "landing": 7052,
      "Perry": 7053,
      "violent": 7054,
      "volatility": 7055,
      "specific": 7056,
      "Agricult": 7057,
      "Medic": 7058,
      "possibility": 7059,
      "restaur": 7060,
      "Karim": 7061,
      "Karachi": 7062,
      "formal": 7063,
      "Several": 7064,
      "##bean": 7065,
      "increasing": 7066,
      "advanced": 7067,
      "parts": 7068,
      "transf": 7069,
      "distance": 7070,
      "Club": 7071,
      "hijacking": 7072,
      "begins": 7073,
      "negative": 7074,
      "Assembly": 7075,
      "Greens": 7076,
      "AMERICAN": 7077,
      "colon": 7078,
      "falling": 7079,
      "BOJ": 7080,
      "Aires": 7081,
      "Airways": 7082,
      "phys": 7083,
      "Midwest": 7084,
      "required": 7085,
      "concerned": 7086,
      "concerns": 7087,
      "produced": 7088,
      "Nigerian": 7089,
      "treatment": 7090,
      "##force": 7091,
      "affected": 7092,
      "Atlantic": 7093,
      "SPLA": 7094,
      "edged": 7095,
      "gunman": 7096,
      "skull": 7097,
      "goalkeeper": 7098,
      "activities": 7099,
      "keeping": 7100,
      "swim": 7101,
      "schedule": 7102,
      "systems": 7103,
      "##maar": 7104,
      "Croatian": 7105,
      "Simitis": 7106,
      "communist": 7107,
      "Smith": 7108,
      "firms": 7109,
      "Moenche": 7110,
      "Microso": 7111,
      "idea": 7112,
      "object": 7113,
      "oblig": 7114,
      "Chechens": 7115,
      "Buenos": 7116,
      "Goldman": 7117,
      "Sofia": 7118,
      "ceremony": 7119,
      "lift": 7120,
      "doubt": 7121,
      "Gilbert": 7122,
      "Gilbertson": 7123,
      "Team": 7124,
      "Willem": 7125,
      "moving": 7126,
      "recovered": 7127,
      "difficulties": 7128,
      "UNION": 7129,
      "autom": 7130,
      "autonomy": 7131,
      "judicial": 7132,
      "Capital": 7133,
      "emerged": 7134,
      "Charles": 7135,
      "Charlton": 7136,
      "AFR": 7137,
      "veterinary": 7138,
      "neighbours": 7139,
      "Linz": 7140,
      "Masterkova": 7141,
      "occup": 7142,
      "popular": 7143,
      "Army": 7144,
      "controllers": 7145,
      "Iliescu": 7146,
      "Wellman": 7147,
      "materials": 7148,
      "Prair": 7149,
      "Prague": 7150,
      "happened": 7151,
      "flee": 7152,
      "margins": 7153,
      "initially": 7154,
      "predict": 7155,
      "arrives": 7156,
      "striking": 7157,
      "candidates": 7158,
      "Cardinals": 7159,
      "merger": 7160,
      "route": 7161,
      "renew": 7162,
      "prosecutors": 7163,
      "abuse": 7164,
      "particular": 7165,
      "proposals": 7166,
      "SUMMARIES": 7167,
      "Bielefeld": 7168,
      "COMM": 7169,
      "Jacques": 7170,
      "##PEAN": 7171,
      "BELGIAN": 7172,
      "Ferrari": 7173,
      "Gabri": 7174,
      "Sakai": 7175,
      "revenue": 7176,
      "envoy": 7177,
      "Northamptonshire": 7178,
      "magazine": 7179,
      "magazines": 7180,
      "Everton": 7181,
      "Ott": 7182,
      "snap": 7183,
      "treated": 7184,
      "##ironment": 7185,
      "animal": 7186,
      "origin": 7187,
      "McGr": 7188,
      "conducted": 7189,
      "establishment": 7190,
      "observers": 7191,
      "Kevorkian": 7192,
      "gathering": 7193,
      "prior": 7194,
      "stores": 7195,
      "reaching": 7196,
      "prospects": 7197,
      "apparently": 7198,
      "Conference": 7199,
      "Fernando": 7200,
      "achieve": 7201,
      "Bhutto": 7202,
      "CAPS": 7203,
      "dominated": 7204,
      "symp": 7205,
      "changes": 7206,
      "absence": 7207,
      "Antonio": 7208,
      "demonstr": 7209,
      "removed": 7210,
      "Arequipa": 7211,
      "Durham": 7212,
      "Ducati": 7213,
      "FINAL": 7214,
      "Nazi": 7215,
      "Virg": 7216,
      "lunch": 7217,
      "rallied": 7218,
      "struggle": 7219,
      "Americans": 7220,
      "Juventus": 7221,
      "kilometre": 7222,
      "Jayasur": 7223,
      "Lanusse": 7224,
      "Soyoil": 7225,
      "SQUAD": 7226,
      "Utrecht": 7227,
      "Werder": 7228,
      "mandate": 7229,
      "Arkansas": 7230,
      "LEADING": 7231,
      "extremely": 7232,
      "extradition": 7233,
      "Maurit": 7234,
      "McCarthy": 7235,
      "repeatedly": 7236,
      "EUROPEAN": 7237,
      "CVG": 7238,
      "Javier": 7239,
      "MOTOR": 7240,
      "RACING": 7241,
      "venture": 7242,
      "##erapy": 7243,
      "answer": 7244,
      "connection": 7245,
      "rescued": 7246,
      "Scoreboard": 7247,
      "Coetzer": 7248,
      "Collinelli": 7249,
      "Dimit": 7250,
      "Hyundai": 7251,
      "Haitai": 7252,
      "Marlins": 7253,
      "Tilburg": 7254,
      "Waal": 7255,
      "langu": 7256,
      "withdraw": 7257,
      "Alkmaar": 7258,
      "Duesseldorf": 7259,
      "acquisition": 7260,
      "Petroleum": 7261,
      "casualties": 7262,
      "Aberdeen": 7263,
      "Business": 7264,
      "Bourlet": 7265,
      "Bastia": 7266,
      "Bordeaux": 7267,
      "Celsius": 7268,
      "Derek": 7269,
      "DRAW": 7270,
      "Faulding": 7271,
      "Nathalie": 7272,
      "Sussex": 7273,
      "Svetlana": 7274,
      "Wheat": 7275,
      "birth": 7276,
      "baht": 7277,
      "cotton": 7278,
      "dystroph": 7279,
      "Thompson": 7280,
      "arrangement": 7281,
      "##ngladbach": 7282,
      "recogn": 7283,
      "Arminia": 7284,
      "Moenchengladbach": 7285,
      "Microsoft": 7286,
      "Jayasuriya": 7287,
      "AR": 7288,
      "Ast": 7289,
      "Adam": 7290,
      "Bec": 7291,
      "Bart": 7292,
      "Bab": 7293,
      "Banc": 7294,
      "Balk": 7295,
      "BOND": 7296,
      "Bomb": 7297,
      "Ced": 7298,
      "Cop": 7299,
      "Cair": 7300,
      "DH": 7301,
      "Das": 7302,
      "Dund": 7303,
      "Dick": 7304,
      "Deb": 7305,
      "ED": 7306,
      "Earlier": 7307,
      "Evert": 7308,
      "Far": 7309,
      "Fel": 7310,
      "Fur": 7311,
      "Fab": 7312,
      "Fors": 7313,
      "Fitz": 7314,
      "Ging": 7315,
      "GOV": 7316,
      "HE": 7317,
      "Ho": 7318,
      "Hid": 7319,
      "Hak": 7320,
      "Hear": 7321,
      "Huss": 7322,
      "Hass": 7323,
      "Hous": 7324,
      "Haw": 7325,
      "Haj": 7326,
      "Habs": 7327,
      "IR": 7328,
      "Ip": 7329,
      "Its": 7330,
      "Ibra": 7331,
      "JY": 7332,
      "Jun": 7333,
      "Journal": 7334,
      "JAKAR": 7335,
      "Kand": 7336,
      "Kub": 7337,
      "Kuc": 7338,
      "Koh": 7339,
      "Lis": 7340,
      "Lud": 7341,
      "LIS": 7342,
      "LAT": 7343,
      "Liam": 7344,
      "Larn": 7345,
      "My": 7346,
      "Mit": 7347,
      "Mut": 7348,
      "Moy": 7349,
      "Mah": 7350,
      "Maj": 7351,
      "MEX": 7352,
      "Match": 7353,
      "ND": 7354,
      "Nil": 7355,
      "Nam": 7356,
      "Near": 7357,
      "Nag": 7358,
      "NET": 7359,
      "Of": 7360,
      "Oce": 7361,
      "Opp": 7362,
      "Ord": 7363,
      "Pa": 7364,
      "Ply": 7365,
      "PUL": 7366,
      "PDS": 7367,
      "PTT": 7368,
      "Pirates": 7369,
      "RA": 7370,
      "Roh": 7371,
      "Renn": 7372,
      "Ruch": 7373,
      "Rights": 7374,
      "RUN": 7375,
      "SA": 7376,
      "SL": 7377,
      "Seg": 7378,
      "Southern": 7379,
      "SBC": 7380,
      "Southe": 7381,
      "TR": 7382,
      "Tay": 7383,
      "Treat": 7384,
      "Vill": 7385,
      "Verm": 7386,
      "W1": 7387,
      "Wid": 7388,
      "Wre": 7389,
      "Weld": 7390,
      "Wales": 7391,
      "Wald": 7392,
      "Walker": 7393,
      "Yi": 7394,
      "Yosh": 7395,
      "batt": 7396,
      "cur": 7397,
      "cam": 7398,
      "card": 7399,
      "cant": 7400,
      "cold": 7401,
      "cult": 7402,
      "crop": 7403,
      "diver": 7404,
      "ey": 7405,
      "fac": 7406,
      "faced": 7407,
      "facing": 7408,
      "glo": 7409,
      "green": 7410,
      "hy": 7411,
      "hig": 7412,
      "hog": 7413,
      "jew": 7414,
      "mort": 7415,
      "marr": 7416,
      "migr": 7417,
      "moist": 7418,
      "makers": 7419,
      "nar": 7420,
      "nations": 7421,
      "pan": 7422,
      "pil": 7423,
      "pur": 7424,
      "pip": 7425,
      "prix": 7426,
      "pinch": 7427,
      "rou": 7428,
      "rif": 7429,
      "rub": 7430,
      "rock": 7431,
      "rains": 7432,
      "raid": 7433,
      "sle": 7434,
      "size": 7435,
      "sterling": 7436,
      "ter": 7437,
      "tag": 7438,
      "tied": 7439,
      "yester": 7440,
      "##TB": 7441,
      "##SB": 7442,
      "##SDAY": 7443,
      "##of": 7444,
      "##oon": 7445,
      "##oft": 7446,
      "##uy": 7447,
      "##uit": 7448,
      "##uff": 7449,
      "##ray": 7450,
      "##rison": 7451,
      "##iV": 7452,
      "##iot": 7453,
      "##giers": 7454,
      "##fort": 7455,
      "##tin": 7456,
      "##NA": 7457,
      "##AH": 7458,
      "##AZ": 7459,
      "##IO": 7460,
      "##IOU": 7461,
      "##IEC": 7462,
      "##var": 7463,
      "##daq": 7464,
      "##eve": 7465,
      "##com": 7466,
      "##cast": 7467,
      "##pson": 7468,
      "##hn": 7469,
      "##him": 7470,
      "##hard": 7471,
      "##haps": 7472,
      "##sk": 7473,
      "##say": 7474,
      "##ski": 7475,
      "##kes": 7476,
      "##kun": 7477,
      "##kins": 7478,
      "##las": 7479,
      "##lah": 7480,
      "##mi": 7481,
      "##mes": 7482,
      "##mos": 7483,
      "##yan": 7484,
      "##yth": 7485,
      "##ych": 7486,
      "##KA": 7487,
      "##KI": 7488,
      "##KET": 7489,
      "##KOK": 7490,
      "##joy": 7491,
      "##75": 7492,
      "##bel": 7493,
      "##bles": 7494,
      "##zi": 7495,
      "##zma": 7496,
      "##wt": 7497,
      "##win": 7498,
      "##FIR": 7499,
      "##87": 7500,
      "##VAS": 7501,
      "##WE": 7502,
      "##hew": 7503,
      "##iner": 7504,
      "##inted": 7505,
      "##inces": 7506,
      "##inson": 7507,
      "##inidad": 7508,
      "##anmere": 7509,
      "theft": 7510,
      "##enham": 7511,
      "##oria": 7512,
      "##ormed": 7513,
      "##arant": 7514,
      "##atche": 7515,
      "inquir": 7516,
      "instead": 7517,
      "##aska": 7518,
      "##ouard": 7519,
      "tom": 7520,
      "toss": 7521,
      "##ider": 7522,
      "##iding": 7523,
      "##omo": 7524,
      "##omson": 7525,
      "##ili": 7526,
      "##stal": 7527,
      "##etable": 7528,
      "##urning": 7529,
      "##urches": 7530,
      "##olt": 7531,
      "##olen": 7532,
      "##olis": 7533,
      "##olly": 7534,
      "##olio": 7535,
      "##amas": 7536,
      "forest": 7537,
      "##irt": 7538,
      "##irin": 7539,
      "##irut": 7540,
      "##terol": 7541,
      "##rost": 7542,
      "193": 7543,
      "##igake": 7544,
      "store": 7545,
      "stance": 7546,
      "stayed": 7547,
      "staged": 7548,
      "stadium": 7549,
      "##erset": 7550,
      "##ersfield": 7551,
      "##osure": 7552,
      "waste": 7553,
      "##emer": 7554,
      "##emed": 7555,
      "##estor": 7556,
      "##unn": 7557,
      "##unt": 7558,
      "##unk": 7559,
      "##agers": 7560,
      "##aganda": 7561,
      "concent": 7562,
      "constitution": 7563,
      "##umer": 7564,
      "##umber": 7565,
      "commercial": 7566,
      "##essment": 7567,
      "proced": 7568,
      "proceed": 7569,
      "##ivier": 7570,
      "shots": 7571,
      "choles": 7572,
      "##abl": 7573,
      "##ability": 7574,
      "Stras": 7575,
      "Thomson": 7576,
      "exclus": 7577,
      "age": 7578,
      "agenda": 7579,
      "items": 7580,
      "##ichi": 7581,
      "105": 7582,
      "102": 7583,
      "##endum": 7584,
      "##pping": 7585,
      "##ugini": 7586,
      "perf": 7587,
      "firing": 7588,
      "##odes": 7589,
      "##udova": 7590,
      "##eller": 7591,
      "secured": 7592,
      "Brand": 7593,
      "Brush": 7594,
      "##ishon": 7595,
      "##ardi": 7596,
      "##ardt": 7597,
      "##arden": 7598,
      "##ovo": 7599,
      "##ovs": 7600,
      "##antic": 7601,
      "##antly": 7602,
      "##arked": 7603,
      "outbreak": 7604,
      "unn": 7605,
      "unbeat": 7606,
      "true": 7607,
      "truth": 7608,
      "compat": 7609,
      "comprom": 7610,
      "##chel": 7611,
      "156": 7612,
      "15th": 7613,
      "##sequ": 7614,
      "113": 7615,
      "##INA": 7616,
      "reserves": 7617,
      "##ISS": 7618,
      "##fford": 7619,
      "Lehman": 7620,
      "284": 7621,
      "closes": 7622,
      "##asshop": 7623,
      "Algiers": 7624,
      "Alaska": 7625,
      "contain": 7626,
      "138": 7627,
      "205": 7628,
      "147": 7629,
      "273": 7630,
      "278": 7631,
      "disarmament": 7632,
      "246": 7633,
      "newsdesk": 7634,
      "##arez": 7635,
      "##gei": 7636,
      "236": 7637,
      "##evo": 7638,
      "else": 7639,
      "elimin": 7640,
      "Unita": 7641,
      "##ENTS": 7642,
      "##ricane": 7643,
      "scrap": 7644,
      "Index": 7645,
      "Independ": 7646,
      "decisions": 7647,
      "178": 7648,
      "marketing": 7649,
      "##ikawa": 7650,
      "Weaver": 7651,
      "##obal": 7652,
      "##away": 7653,
      "##uctions": 7654,
      "attending": 7655,
      "attrib": 7656,
      "attended": 7657,
      "Reeve": 7658,
      "Analyst": 7659,
      "##ossi": 7660,
      "imprison": 7661,
      "addressed": 7662,
      "crack": 7663,
      "##ASS": 7664,
      "enjoy": 7665,
      "##inda": 7666,
      "streng": 7667,
      "70th": 7668,
      "plants": 7669,
      "Shab": 7670,
      "Euro": 7671,
      "regions": 7672,
      "regime": 7673,
      "regarding": 7674,
      "Press": 7675,
      "Princess": 7676,
      "318": 7677,
      "##URSDAY": 7678,
      "##onnel": 7679,
      "demol": 7680,
      "flo": 7681,
      "flow": 7682,
      "flown": 7683,
      "Columb": 7684,
      "Colonna": 7685,
      "justice": 7686,
      "anyone": 7687,
      "contracts": 7688,
      "actions": 7689,
      "warrants": 7690,
      "Chem": 7691,
      "Sergi": 7692,
      "Cozma": 7693,
      "slam": 7694,
      "slaughter": 7695,
      "339": 7696,
      "3311": 7697,
      "surround": 7698,
      "350": 7699,
      "359": 7700,
      "signs": 7701,
      "signing": 7702,
      "##ornik": 7703,
      "Arabs": 7704,
      "politics": 7705,
      "##OTAL": 7706,
      "Petra": 7707,
      "assemb": 7708,
      "assessment": 7709,
      "ING": 7710,
      "amid": 7711,
      "bush": 7712,
      "##chede": 7713,
      "Bert": 7714,
      "47th": 7715,
      "owner": 7716,
      "owners": 7717,
      "MaliV": 7718,
      "343": 7719,
      "434": 7720,
      "##perform": 7721,
      "##osnam": 7722,
      "leftist": 7723,
      "##iety": 7724,
      "foreigners": 7725,
      "provision": 7726,
      "founded": 7727,
      "attacked": 7728,
      "Trinidad": 7729,
      "Tranmere": 7730,
      "subpo": 7731,
      "2001": 7732,
      "insist": 7733,
      "insurg": 7734,
      "continuing": 7735,
      "depart": 7736,
      "deposit": 7737,
      "Convention": 7738,
      "putting": 7739,
      "Jane": 7740,
      "Kurds": 7741,
      "quarterly": 7742,
      "Aki": 7743,
      "sentence": 7744,
      "90th": 7745,
      "Playing": 7746,
      "holders": 7747,
      "Barns": 7748,
      "Khal": 7749,
      "failing": 7750,
      "factors": 7751,
      "Edouard": 7752,
      "School": 7753,
      "kms": 7754,
      "Alexand": 7755,
      "TOUR": 7756,
      "refugee": 7757,
      "Salv": 7758,
      "Abu": 7759,
      "Peru": 7760,
      "overseas": 7761,
      "Commissioner": 7762,
      "1986": 7763,
      "Agency": 7764,
      "possibly": 7765,
      "propaganda": 7766,
      "formally": 7767,
      "Romanian": 7768,
      "THURSDAY": 7769,
      "policies": 7770,
      "##etti": 7771,
      "transition": 7772,
      "embargo": 7773,
      "Class": 7774,
      "balls": 7775,
      "hearing": 7776,
      "entertain": 7777,
      "Beirut": 7778,
      "involve": 7779,
      "strikeouts": 7780,
      "equipment": 7781,
      "ranking": 7782,
      "controls": 7783,
      "column": 7784,
      "fallen": 7785,
      "Moslems": 7786,
      "Glen": 7787,
      "threats": 7788,
      "settled": 7789,
      "Airbus": 7790,
      "organisations": 7791,
      "Egyptian": 7792,
      "holes": 7793,
      "Colombian": 7794,
      "Prov": 7795,
      "doctor": 7796,
      "personnel": 7797,
      "affair": 7798,
      "affairs": 7799,
      "approach": 7800,
      "Porto": 7801,
      "smaller": 7802,
      "Brooke": 7803,
      "editorial": 7804,
      "humanitarian": 7805,
      "activists": 7806,
      "discussions": 7807,
      "Billy": 7808,
      "Gooch": 7809,
      "Hamas": 7810,
      "greatest": 7811,
      "Patriot": 7812,
      "freight": 7813,
      "missed": 7814,
      "solo": 7815,
      "solid": 7816,
      "Simpson": 7817,
      "Soccer": 7818,
      "Volkova": 7819,
      "copies": 7820,
      "##imsby": 7821,
      "attempts": 7822,
      "Terry": 7823,
      "AGO": 7824,
      "obtain": 7825,
      "customer": 7826,
      "Grasshop": 7827,
      "Grimsby": 7828,
      "Roe": 7829,
      "Cyp": 7830,
      "Maoist": 7831,
      "Mohamed": 7832,
      "lifting": 7833,
      "Teuten": 7834,
      "##tenberg": 7835,
      "representative": 7836,
      "successive": 7837,
      "Helibor": 7838,
      "MANAG": 7839,
      "Revolution": 7840,
      "brokers": 7841,
      "everything": 7842,
      "boycott": 7843,
      "wounds": 7844,
      "disappear": 7845,
      "disappointed": 7846,
      "favor": 7847,
      "lbw": 7848,
      "motorc": 7849,
      "Charlero": 7850,
      "Federation": 7851,
      "linking": 7852,
      "##ycle": 7853,
      "claims": 7854,
      "Roda": 7855,
      "Rodrig": 7856,
      "occurred": 7857,
      "reforms": 7858,
      "avoided": 7859,
      "Carib": 7860,
      "NOTES": 7861,
      "postpone": 7862,
      "equaliser": 7863,
      "Botham": 7864,
      "happen": 7865,
      "Newcombe": 7866,
      "Ivanis": 7867,
      "TVM": 7868,
      "flying": 7869,
      "massac": 7870,
      "##EVA": 7871,
      "accompanied": 7872,
      "democratic": 7873,
      "strikers": 7874,
      "clean": 7875,
      "packed": 7876,
      "railway": 7877,
      "troubled": 7878,
      "##NESDAY": 7879,
      "improvement": 7880,
      "Dayton": 7881,
      "Defence": 7882,
      "Henri": 7883,
      "Magn": 7884,
      "Turner": 7885,
      "reneg": 7886,
      "technical": 7887,
      "versus": 7888,
      "install": 7889,
      "installed": 7890,
      "stabbed": 7891,
      "prosecutor": 7892,
      "abuses": 7893,
      "certainly": 7894,
      "CNIEC": 7895,
      "Investors": 7896,
      "personal": 7897,
      "Kraj": 7898,
      "Krakow": 7899,
      "Sakigake": 7900,
      "Twente": 7901,
      "hunt": 7902,
      "hopes": 7903,
      "revenues": 7904,
      "##employ": 7905,
      "environment": 7906,
      "Every": 7907,
      "Rosset": 7908,
      "Trafford": 7909,
      "illness": 7910,
      "journalists": 7911,
      "kingdom": 7912,
      "##SAW": 7913,
      "original": 7914,
      "entire": 7915,
      "Havre": 7916,
      "Luis": 7917,
      "rapid": 7918,
      "artic": 7919,
      "Bernard": 7920,
      "explosives": 7921,
      "Eriksson": 7922,
      "Judith": 7923,
      "Popov": 7924,
      "timetable": 7925,
      "various": 7926,
      "##812": 7927,
      "conclud": 7928,
      "choice": 7929,
      "Brugge": 7930,
      "surprise": 7931,
      "kidnapping": 7932,
      "identified": 7933,
      "escape": 7934,
      "RALLYING": 7935,
      "Football": 7936,
      "Hasina": 7937,
      "Koerts": 7938,
      "Lyon": 7939,
      "Lindsay": 7940,
      "Oklah": 7941,
      "Pioline": 7942,
      "harvest": 7943,
      "##werp": 7944,
      "ensure": 7945,
      "benefit": 7946,
      "Aleks": 7947,
      "CAIRO": 7948,
      "COUNTY": 7949,
      "Ramallah": 7950,
      "bullish": 7951,
      "dictator": 7952,
      "hundreds": 7953,
      "pledged": 7954,
      "allocated": 7955,
      "Antwerp": 7956,
      "helicopter": 7957,
      "liquidity": 7958,
      "AKRON": 7959,
      "GENEVA": 7960,
      "WARSAW": 7961,
      "reveal": 7962,
      "prayers": 7963,
      "Alberto": 7964,
      "PREMIER": 7965,
      "Niugini": 7966,
      "Nasdaq": 7967,
      "Nobel": 7968,
      "RECORD": 7969,
      "Somerset": 7970,
      "Woosnam": 7971,
      "WEDNESDAY": 7972,
      "Stenning": 7973,
      "Stoltenberg": 7974,
      "quality": 7975,
      "criminal": 7976,
      "refunds": 7977,
      "professional": 7978,
      "suspicion": 7979,
      "privatization": 7980,
      "Duisburg": 7981,
      "Eritrea": 7982,
      "Boutros": 7983,
      "BANGKOK": 7984,
      "Crystal": 7985,
      "Enschede": 7986,
      "Holdings": 7987,
      "Huddersfield": 7988,
      "Jiang": 7989,
      "Kankkun": 7990,
      "Pollock": 7991,
      "Ripken": 7992,
      "Squad": 7993,
      "festival": 7994,
      "grenades": 7995,
      "nervous": 7996,
      "pornograph": 7997,
      "internal": 7998,
      "pretty": 7999,
      "Anthony": 8000,
      "Ambassador": 8001,
      "Medicare": 8002,
      "restaurant": 8003,
      "McGrath": 8004,
      "Virginia": 8005,
      "Waalwijk": 8006,
      "language": 8007,
      "Cedric": 8008,
      "Dundee": 8009,
      "Gingrich": 8010,
      "Hakk": 8011,
      "Hussain": 8012,
      "Habsudova": 8013,
      "Ibrahim": 8014,
      "JYVAS": 8015,
      "JAKARTA": 8016,
      "Larnaca": 8017,
      "Mitchell": 8018,
      "Namib": 8019,
      "Plymouth": 8020,
      "Rennes": 8021,
      "Taylor": 8022,
      "Treaty": 8023,
      "Yoshikawa": 8024,
      "highest": 8025,
      "jewel": 8026,
      "moisture": 8027,
      "narrow": 8028,
      "yesterday": 8029,
      "##IOUS": 8030,
      "cholesterol": 8031,
      "Strasbourg": 8032,
      "3311812": 8033,
      "MaliVai": 8034,
      "Barnsley": 8035,
      "Patriotic": 8036,
      "Teutenberg": 8037,
      "Charleroi": 8038,
      "Ivanisevic": 8039,
      "Oklahoma": 8040,
      "Kankkunen": 8041,
      "App": 8042,
      "Ander": 8043,
      "AIR": 8044,
      "AOL": 8045,
      "ABC": 8046,
      "Athlet": 8047,
      "BP": 8048,
      "BN": 8049,
      "Bak": 8050,
      "Brom": 8051,
      "Bally": 8052,
      "Boy": 8053,
      "Boh": 8054,
      "BAG": 8055,
      "Battle": 8056,
      "Batist": 8057,
      "Bureau": 8058,
      "CZ": 8059,
      "Cam": 8060,
      "Cast": 8061,
      "Call": 8062,
      "CAC": 8063,
      "Coup": 8064,
      "CPI": 8065,
      "Dal": 8066,
      "Dave": 8067,
      "Dennis": 8068,
      "Damm": 8069,
      "DATE": 8070,
      "Dacom": 8071,
      "Dodg": 8072,
      "EL": 8073,
      "Ev": 8074,
      "Ek": 8075,
      "Ear": 8076,
      "Est": 8077,
      "Emp": 8078,
      "Equ": 8079,
      "Ess": 8080,
      "Eef": 8081,
      "ETA": 8082,
      "Fis": 8083,
      "Flem": 8084,
      "FDP": 8085,
      "GT": 8086,
      "GO": 8087,
      "GL": 8088,
      "Gat": 8089,
      "Gul": 8090,
      "Gri": 8091,
      "Gast": 8092,
      "Gross": 8093,
      "Hu": 8094,
      "Hor": 8095,
      "Hus": 8096,
      "Here": 8097,
      "Hart": 8098,
      "Hinc": 8099,
      "HELS": 8100,
      "Im": 8101,
      "IC": 8102,
      "IOC": 8103,
      "Ieng": 8104,
      "Istan": 8105,
      "Jo": 8106,
      "Ja": 8107,
      "Jal": 8108,
      "Jans": 8109,
      "Joy": 8110,
      "Jana": 8111,
      "Ka": 8112,
      "Kw": 8113,
      "Kap": 8114,
      "Kum": 8115,
      "Kord": 8116,
      "Korn": 8117,
      "KORE": 8118,
      "Kaf": 8119,
      "Kuw": 8120,
      "LA": 8121,
      "Lig": 8122,
      "Long": 8123,
      "Lik": 8124,
      "Lope": 8125,
      "Latest": 8126,
      "Luf": 8127,
      "Lux": 8128,
      "Labor": 8129,
      "LANK": 8130,
      "LME": 8131,
      "Lodz": 8132,
      "MT": 8133,
      "MG": 8134,
      "Mer": 8135,
      "Mub": 8136,
      "Mary": 8137,
      "Mide": 8138,
      "Mik": 8139,
      "MOND": 8140,
      "Municipal": 8141,
      "Mats": 8142,
      "Moura": 8143,
      "Nec": 8144,
      "NOR": 8145,
      "Nestor": 8146,
      "Om": 8147,
      "OJ": 8148,
      "Pot": 8149,
      "Pac": 8150,
      "Palk": 8151,
      "PUN": 8152,
      "Parma": 8153,
      "Ret": 8154,
      "Rif": 8155,
      "Rio": 8156,
      "Rican": 8157,
      "Rovers": 8158,
      "Si": 8159,
      "Sie": 8160,
      "SOU": 8161,
      "Sask": 8162,
      "Sandra": 8163,
      "Seven": 8164,
      "Ten": 8165,
      "Tang": 8166,
      "TIT": 8167,
      "TOTAL": 8168,
      "Ug": 8169,
      "Va": 8170,
      "Vas": 8171,
      "Veld": 8172,
      "Veg": 8173,
      "Vaugh": 8174,
      "Villa": 8175,
      "Wy": 8176,
      "Warrington": 8177,
      "Zast": 8178,
      "amp": 8179,
      "auctions": 8180,
      "bp": 8181,
      "bre": 8182,
      "barg": 8183,
      "burn": 8184,
      "boss": 8185,
      "bron": 8186,
      "brain": 8187,
      "bureau": 8188,
      "bacter": 8189,
      "cast": 8190,
      "dn": 8191,
      "dies": 8192,
      "die": 8193,
      "drought": 8194,
      "erupted": 8195,
      "fat": 8196,
      "fatal": 8197,
      "faster": 8198,
      "gest": 8199,
      "gear": 8200,
      "garlic": 8201,
      "hide": 8202,
      "je": 8203,
      "ker": 8204,
      "kuna": 8205,
      "lit": 8206,
      "liv": 8207,
      "log": 8208,
      "lob": 8209,
      "loud": 8210,
      "mm": 8211,
      "mal": 8212,
      "mis": 8213,
      "mth": 8214,
      "mem": 8215,
      "mist": 8216,
      "mate": 8217,
      "maj": 8218,
      "max": 8219,
      "maker": 8220,
      "page": 8221,
      "parr": 8222,
      "push": 8223,
      "pushed": 8224,
      "piece": 8225,
      "pulp": 8226,
      "ring": 8227,
      "rac": 8228,
      "rice": 8229,
      "tin": 8230,
      "telling": 8231,
      "vowed": 8232,
      "wa": 8233,
      "wish": 8234,
      "word": 8235,
      "ware": 8236,
      "wides": 8237,
      "wages": 8238,
      "yards": 8239,
      "##Ewen": 8240,
      "##ois": 8241,
      "##uana": 8242,
      "##uera": 8243,
      "##rimin": 8244,
      "##iw": 8245,
      "##iel": 8246,
      "##nb": 8247,
      "##nid": 8248,
      "##gal": 8249,
      "##gus": 8250,
      "##gage": 8251,
      "##gered": 8252,
      "##gregate": 8253,
      "##fica": 8254,
      "##AE": 8255,
      "##AI": 8256,
      "##ACH": 8257,
      "##IE": 8258,
      "##LO": 8259,
      "##ville": 8260,
      "##dan": 8261,
      "##dal": 8262,
      "##dle": 8263,
      "##cked": 8264,
      "##pers": 8265,
      "##pest": 8266,
      "##pass": 8267,
      "##pread": 8268,
      "##point": 8269,
      "##ht": 8270,
      "##has": 8271,
      "##hand": 8272,
      "##hampton": 8273,
      "##hran": 8274,
      "##kos": 8275,
      "##kind": 8276,
      "##krade": 8277,
      "##HD": 8278,
      "##luca": 8279,
      "##mal": 8280,
      "##more": 8281,
      "##yond": 8282,
      "##jan": 8283,
      "##70": 8284,
      "##UBA": 8285,
      "##bul": 8286,
      "##52": 8287,
      "##zow": 8288,
      "##zens": 8289,
      "##zamb": 8290,
      "##wr": 8291,
      "##wing": 8292,
      "##wise": 8293,
      "##25": 8294,
      "##BON": 8295,
      "##95": 8296,
      "##erland": 8297,
      "##heless": 8298,
      "##ints": 8299,
      "##instein": 8300,
      "##edy": 8301,
      "##enne": 8302,
      "##esters": 8303,
      "##espa": 8304,
      "##ora": 8305,
      "##orro": 8306,
      "##orrow": 8307,
      "##arra": 8308,
      "##aration": 8309,
      "##aria": 8310,
      "##araj": 8311,
      "##atic": 8312,
      "##atel": 8313,
      "##atively": 8314,
      "##atically": 8315,
      "##isad": 8316,
      "##isive": 8317,
      "##itate": 8318,
      "##oui": 8319,
      "##oux": 8320,
      "##ication": 8321,
      "toward": 8322,
      "##omar": 8323,
      "##ayan": 8324,
      "##eline": 8325,
      "##enty": 8326,
      "##ented": 8327,
      "##rehens": 8328,
      "##stone": 8329,
      "##stances": 8330,
      "##strop": 8331,
      "##etball": 8332,
      "##ecomm": 8333,
      "##urian": 8334,
      "##olated": 8335,
      "##utes": 8336,
      "##utation": 8337,
      "therapy": 8338,
      "formed": 8339,
      "forcing": 8340,
      "##thur": 8341,
      "##thorpe": 8342,
      "beyond": 8343,
      "##leph": 8344,
      "##igation": 8345,
      "starter": 8346,
      "stret": 8347,
      "##andro": 8348,
      "1999": 8349,
      "##osis": 8350,
      "##ules": 8351,
      "##rav": 8352,
      "##rak": 8353,
      "##imir": 8354,
      "rej": 8355,
      "reel": 8356,
      "reign": 8357,
      "revers": 8358,
      "reward": 8359,
      "reorgan": 8360,
      "##verhampton": 8361,
      "##owa": 8362,
      "##owice": 8363,
      "atmos": 8364,
      "##chler": 8365,
      "##chita": 8366,
      "##chinger": 8367,
      "##emper": 8368,
      "##emura": 8369,
      "##estock": 8370,
      "##unthorpe": 8371,
      "##ager": 8372,
      "##agement": 8373,
      "##apest": 8374,
      "##istance": 8375,
      "##ourg": 8376,
      "##ocide": 8377,
      "##uma": 8378,
      "##umph": 8379,
      "##arty": 8380,
      "##artak": 8381,
      "##ections": 8382,
      "##ectors": 8383,
      "alone": 8384,
      "##ivity": 8385,
      "shared": 8386,
      "chains": 8387,
      "chances": 8388,
      "churches": 8389,
      "##ablo": 8390,
      "##abaya": 8391,
      "Str": 8392,
      "Stoke": 8393,
      "Stevan": 8394,
      "note": 8395,
      "seemed": 8396,
      "princ": 8397,
      "exam": 8398,
      "offset": 8399,
      "##ANE": 8400,
      "##ANA": 8401,
      "##allist": 8402,
      "##ostal": 8403,
      "##berra": 8404,
      "perform": 8405,
      "##ighted": 8406,
      "Fran": 8407,
      "Chg": 8408,
      "Chap": 8409,
      "Chern": 8410,
      "space": 8411,
      "sports": 8412,
      "sparked": 8413,
      "##uez": 8414,
      "##oko": 8415,
      "##oked": 8416,
      "secure": 8417,
      "Ing": 8418,
      "Ins": 8419,
      "Brann": 8420,
      "Bratis": 8421,
      "newly": 8422,
      "##ishing": 8423,
      "outperform": 8424,
      "##ekom": 8425,
      "##iev": 8426,
      "unw": 8427,
      "united": 8428,
      "units": 8429,
      "unex": 8430,
      "unemploy": 8431,
      "trends": 8432,
      "##avy": 8433,
      "upg": 8434,
      "compar": 8435,
      "124": 8436,
      "129": 8437,
      "reply": 8438,
      "reputation": 8439,
      "##INKI": 8440,
      "##ipei": 8441,
      "Itar": 8442,
      "beating": 8443,
      "##ordin": 8444,
      "resort": 8445,
      "resulted": 8446,
      "expects": 8447,
      "mind": 8448,
      "mining": 8449,
      "minimum": 8450,
      "itself": 8451,
      "##ffick": 8452,
      "quit": 8453,
      "clot": 8454,
      "clock": 8455,
      "Hees": 8456,
      "Heading": 8457,
      "##rests": 8458,
      "arr": 8459,
      "arrests": 8460,
      "##ansson": 8461,
      "Also": 8462,
      "neither": 8463,
      "governments": 8464,
      "##issa": 8465,
      "meant": 8466,
      "##kei": 8467,
      "13th": 8468,
      "##osevel": 8469,
      "208": 8470,
      "209": 8471,
      "140": 8472,
      "145": 8473,
      "146": 8474,
      "142": 8475,
      "recomm": 8476,
      "allow": 8477,
      "277": 8478,
      "275": 8479,
      "269": 8480,
      "26th": 8481,
      "218": 8482,
      "disqu": 8483,
      "disput": 8484,
      "Sporting": 8485,
      "Spartak": 8486,
      "248": 8487,
      "161": 8488,
      "1610": 8489,
      "1650": 8490,
      "##ICO": 8491,
      "##ICH": 8492,
      "##ensions": 8493,
      "##AREST": 8494,
      "##wegian": 8495,
      "prec": 8496,
      "Ischinger": 8497,
      "elabor": 8498,
      "understanding": 8499,
      "##oyal": 8500,
      "##ibas": 8501,
      "##ATH": 8502,
      "##ricia": 8503,
      "incidents": 8504,
      "##liner": 8505,
      "##ahar": 8506,
      "30th": 8507,
      "Armed": 8508,
      "Arthur": 8509,
      "##ashi": 8510,
      "##ikova": 8511,
      "##obi": 8512,
      "invitation": 8513,
      "181": 8514,
      "attention": 8515,
      "attract": 8516,
      "Ref": 8517,
      "Reading": 8518,
      "##OCK": 8519,
      "Anke": 8520,
      "relay": 8521,
      "reluct": 8522,
      "releg": 8523,
      "relatively": 8524,
      "caps": 8525,
      "blue": 8526,
      "blame": 8527,
      "Swind": 8528,
      "impossible": 8529,
      "##ELL": 8530,
      "##ASIL": 8531,
      "cool": 8532,
      "halt": 8533,
      "enc": 8534,
      "becoming": 8535,
      "struct": 8536,
      "##ajevo": 8537,
      "refined": 8538,
      "##onex": 8539,
      "Commercial": 8540,
      "##errero": 8541,
      "Shimon": 8542,
      "##ijuana": 8543,
      "killer": 8544,
      "consc": 8545,
      "consolid": 8546,
      "consensus": 8547,
      "Research": 8548,
      "Reserve": 8549,
      "##izan": 8550,
      "##URT": 8551,
      "##rows": 8552,
      "retain": 8553,
      "retire": 8554,
      "##CHAREST": 8555,
      "flag": 8556,
      "guarant": 8557,
      "Colle": 8558,
      "supposed": 8559,
      "supporters": 8560,
      "highly": 8561,
      "highway": 8562,
      "388": 8563,
      "389": 8564,
      "dragged": 8565,
      "triumph": 8566,
      "323": 8567,
      "traffick": 8568,
      "##ADIAN": 8569,
      "Amr": 8570,
      "acting": 8571,
      "themsel": 8572,
      "worldwide": 8573,
      "##apped": 8574,
      "Belgrade": 8575,
      "Norwich": 8576,
      "Norwegian": 8577,
      "oppose": 8578,
      "dealing": 8579,
      "Republicans": 8580,
      "Johansson": 8581,
      "tourist": 8582,
      "33rd": 8583,
      "457": 8584,
      "455": 8585,
      "airliner": 8586,
      "signal": 8587,
      "##phere": 8588,
      "##ucky": 8589,
      "Palme": 8590,
      "447": 8591,
      "##OTT": 8592,
      "##OTH": 8593,
      "Finn": 8594,
      "Operating": 8595,
      "PRICE": 8596,
      "amnest": 8597,
      "##version": 8598,
      "##rete": 8599,
      "##egal": 8600,
      "64th": 8601,
      "Maybe": 8602,
      "Berk": 8603,
      "Berger": 8604,
      "85th": 8605,
      "569": 8606,
      "56th": 8607,
      "remote": 8608,
      "466": 8609,
      "461": 8610,
      "462": 8611,
      "469": 8612,
      "555": 8613,
      "Johnny": 8614,
      "Income": 8615,
      "Sauber": 8616,
      "Syrian": 8617,
      "Cannes": 8618,
      "Canberra": 8619,
      "handgun": 8620,
      "located": 8621,
      "##AKA": 8622,
      "##embourg": 8623,
      "Guerrero": 8624,
      "follows": 8625,
      "##ACT": 8626,
      "heads": 8627,
      "header": 8628,
      "Frenchman": 8629,
      "provinces": 8630,
      "probe": 8631,
      "McEwen": 8632,
      "protesters": 8633,
      "59th": 8634,
      "Phill": 8635,
      "Trent": 8636,
      "substant": 8637,
      "##bani": 8638,
      "supporting": 8639,
      "deposed": 8640,
      "Contin": 8641,
      "Conchita": 8642,
      "FROM": 8643,
      "tradition": 8644,
      "Parana": 8645,
      "medic": 8646,
      "medallist": 8647,
      "Akam": 8648,
      "sentiment": 8649,
      "behalf": 8650,
      "suspension": 8651,
      "512": 8652,
      "Barn": 8653,
      "Partizan": 8654,
      "fails": 8655,
      "factor": 8656,
      "getting": 8657,
      "promoted": 8658,
      "mayor": 8659,
      "nationalist": 8660,
      "Edd": 8661,
      "Edwards": 8662,
      "Edgar": 8663,
      "775": 8664,
      "midday": 8665,
      "middle": 8666,
      "58th": 8667,
      "Salang": 8668,
      "directed": 8669,
      "##afia": 8670,
      "1980": 8671,
      "1987": 8672,
      "1988": 8673,
      "1980s": 8674,
      "specified": 8675,
      "Costantino": 8676,
      "Warburg": 8677,
      "northwest": 8678,
      "Aggregate": 8679,
      "difference": 8680,
      "restruct": 8681,
      "Karina": 8682,
      "decline": 8683,
      "accuses": 8684,
      "believes": 8685,
      "Geneva": 8686,
      "##lava": 8687,
      "80th": 8688,
      "Benfica": 8689,
      "publicly": 8690,
      "##ification": 8691,
      "BRASIL": 8692,
      "Clay": 8693,
      "##LANDS": 8694,
      "receive": 8695,
      "estimate": 8696,
      "Election": 8697,
      "Fergus": 8698,
      "turnover": 8699,
      "Marcus": 8700,
      "involves": 8701,
      "Liu": 8702,
      "equival": 8703,
      "square": 8704,
      "appears": 8705,
      "colony": 8706,
      "qualified": 8707,
      "operate": 8708,
      "operator": 8709,
      "Globo": 8710,
      "Roberto": 8711,
      "questions": 8712,
      "phase": 8713,
      "accords": 8714,
      "NATIONS": 8715,
      "taxes": 8716,
      "##ciliation": 8717,
      "Neill": 8718,
      "persu": 8719,
      "affect": 8720,
      "developed": 8721,
      "SPD": 8722,
      "bombing": 8723,
      "civilians": 8724,
      "roads": 8725,
      "Dean": 8726,
      "Young": 8727,
      "edge": 8728,
      "education": 8729,
      "forecasts": 8730,
      "Steff": 8731,
      "negotiat": 8732,
      "easy": 8733,
      "##place": 8734,
      "##ortunate": 8735,
      "frequ": 8736,
      "explain": 8737,
      "explained": 8738,
      "Senegal": 8739,
      "larger": 8740,
      "rainfall": 8741,
      "grounds": 8742,
      "Banespa": 8743,
      "Banisad": 8744,
      "Juha": 8745,
      "radical": 8746,
      "attempted": 8747,
      "Blacks": 8748,
      "simp": 8749,
      "Georgia": 8750,
      "86th": 8751,
      "Dividend": 8752,
      "Mozamb": 8753,
      "Mexican": 8754,
      "Torr": 8755,
      "Tommi": 8756,
      "bids": 8757,
      "limit": 8758,
      "limits": 8759,
      "option": 8760,
      "Cubs": 8761,
      "Cuban": 8762,
      "Roosevel": 8763,
      "raising": 8764,
      "events": 8765,
      "Collstrop": 8766,
      "Giles": 8767,
      "Kingdom": 8768,
      "Surin": 8769,
      "Surabaya": 8770,
      "Tehran": 8771,
      "Universe": 8772,
      "Duff": 8773,
      "hostages": 8774,
      "modem": 8775,
      "##ategui": 8776,
      "brokered": 8777,
      "weapon": 8778,
      "Nepali": 8779,
      "Capiot": 8780,
      "Despite": 8781,
      "Melissa": 8782,
      "portf": 8783,
      "##swich": 8784,
      "heavily": 8785,
      "acquired": 8786,
      "Erbak": 8787,
      "fastest": 8788,
      "families": 8789,
      "listed": 8790,
      "1948": 8791,
      "Liberation": 8792,
      "Linford": 8793,
      "Linhart": 8794,
      "pitched": 8795,
      "##umbent": 8796,
      "complained": 8797,
      "terrorist": 8798,
      "briefing": 8799,
      "briefly": 8800,
      "EPR": 8801,
      "Taipei": 8802,
      "Wells": 8803,
      "Wellington": 8804,
      "publish": 8805,
      "rider": 8806,
      "targets": 8807,
      "influ": 8808,
      "Avonex": 8809,
      "Basuki": 8810,
      "Metro": 8811,
      "Radio": 8812,
      "barrel": 8813,
      "scientist": 8814,
      "scientists": 8815,
      "critics": 8816,
      "seriously": 8817,
      "BUDAP": 8818,
      "BUCHAREST": 8819,
      "Miller": 8820,
      "predic": 8821,
      "arriving": 8822,
      "Sarajevo": 8823,
      "Summaries": 8824,
      "Takemura": 8825,
      "sometimes": 8826,
      "boosted": 8827,
      "Justin": 8828,
      "Yassin": 8829,
      "bottle": 8830,
      "virt": 8831,
      "repeat": 8832,
      "Corsica": 8833,
      "Emnid": 8834,
      "Rabbani": 8835,
      "destroy": 8836,
      "global": 8837,
      "engineering": 8838,
      "CLASS": 8839,
      "Hutu": 8840,
      "cargoes": 8841,
      "hunting": 8842,
      "hoped": 8843,
      "multi": 8844,
      "multiple": 8845,
      "superb": 8846,
      "Anderson": 8847,
      "##ruption": 8848,
      "Bahamas": 8849,
      "Kimiko": 8850,
      "Lawrie": 8851,
      "dissidents": 8852,
      "pursuit": 8853,
      "animals": 8854,
      "politician": 8855,
      "Ballanger": 8856,
      "Current": 8857,
      "Damon": 8858,
      "Dubn": 8859,
      "Dublin": 8860,
      "Giants": 8861,
      "Kevin": 8862,
      "Mostostal": 8863,
      "Rapid": 8864,
      "bringing": 8865,
      "pleased": 8866,
      "##ODY": 8867,
      "prospect": 8868,
      "Stephane": 8869,
      "Stephanie": 8870,
      "unfortunate": 8871,
      "abduction": 8872,
      "contribute": 8873,
      "credit": 8874,
      "legislature": 8875,
      "Fairbr": 8876,
      "Lokomot": 8877,
      "Subaru": 8878,
      "Zhirin": 8879,
      "birds": 8880,
      "function": 8881,
      "motion": 8882,
      "intended": 8883,
      "concrete": 8884,
      "sharply": 8885,
      "Bruguera": 8886,
      "partnership": 8887,
      "Regulation": 8888,
      "kidnappers": 8889,
      "Michelle": 8890,
      "Fredericks": 8891,
      "Prize": 8892,
      "Pierre": 8893,
      "Rosati": 8894,
      "satisfied": 8895,
      "##blum": 8896,
      "##uminum": 8897,
      "retailer": 8898,
      "Produc": 8899,
      "Budapest": 8900,
      "Rocca": 8901,
      "Tirana": 8902,
      "Winners": 8903,
      "athletes": 8904,
      "experience": 8905,
      "Industry": 8906,
      "Cooperation": 8907,
      "Bonds": 8908,
      "CSU": 8909,
      "Derby": 8910,
      "Latvia": 8911,
      "MSV": 8912,
      "Mapei": 8913,
      "Office": 8914,
      "Padres": 8915,
      "VfB": 8916,
      "Vladimir": 8917,
      "##IGHT": 8918,
      "placings": 8919,
      "extended": 8920,
      "Chorzow": 8921,
      "sponsored": 8922,
      "displayed": 8923,
      "Community": 8924,
      "Whittall": 8925,
      "Transport": 8926,
      "administrative": 8927,
      "manufacturers": 8928,
      "irregularities": 8929,
      "Caen": 8930,
      "CANADIAN": 8931,
      "Kerkrade": 8932,
      "Matthew": 8933,
      "Nikkei": 8934,
      "Viktor": 8935,
      "Wolverhampton": 8936,
      "fighters": 8937,
      "picture": 8938,
      "ratio": 8939,
      "surrender": 8940,
      "safety": 8941,
      "reopened": 8942,
      "ancient": 8943,
      "Startup": 8944,
      "Chamorro": 8945,
      "climbed": 8946,
      "controversial": 8947,
      "Spaniard": 8948,
      "Sharif": 8949,
      "Systems": 8950,
      "Nicolas": 8951,
      "fundamental": 8952,
      "patrol": 8953,
      "northeast": 8954,
      "Dynamo": 8955,
      "Fleurian": 8956,
      "ITALIAN": 8957,
      "MOODY": 8958,
      "Moldova": 8959,
      "Promodes": 8960,
      "TIMES": 8961,
      "citizen": 8962,
      "platform": 8963,
      "split": 8964,
      "compensation": 8965,
      "##seeded": 8966,
      "Heathrow": 8967,
      "monitoring": 8968,
      "inventories": 8969,
      "reliever": 8970,
      "confiscated": 8971,
      "Gujral": 8972,
      "Agriculture": 8973,
      "renewed": 8974,
      "Dimitris": 8975,
      "Astros": 8976,
      "Ipswich": 8977,
      "Kubo": 8978,
      "LISBON": 8979,
      "LATEST": 8980,
      "Mutola": 8981,
      "MEXICO": 8982,
      "Nagy": 8983,
      "Ocean": 8984,
      "Southend": 8985,
      "Vermont": 8986,
      "pilot": 8987,
      "##unnel": 8988,
      "##ovsky": 8989,
      "unnamed": 8990,
      "compatriot": 8991,
      "Analysts": 8992,
      "Columbia": 8993,
      "Classic": 8994,
      "Cyprien": 8995,
      "Revolutionary": 8996,
      "Rodriguez": 8997,
      "renegade": 8998,
      "article": 8999,
      "jewelry": 9000,
      "Athletics": 9001,
      "Bromwich": 9002,
      "BAGHD": 9003,
      "Batistuta": 9004,
      "Dodgers": 9005,
      "Eefje": 9006,
      "Fischler": 9007,
      "HELSINKI": 9008,
      "ICAC": 9009,
      "Istanbul": 9010,
      "Korda": 9011,
      "Kornblum": 9012,
      "KOREAN": 9013,
      "Kuwait": 9014,
      "Ligier": 9015,
      "Lopez": 9016,
      "Luxembourg": 9017,
      "Mubarak": 9018,
      "Mideast": 9019,
      "Mikael": 9020,
      "Pacific": 9021,
      "PUNR": 9022,
      "SOUTH": 9023,
      "TITLE": 9024,
      "Uganda": 9025,
      "Zastava": 9026,
      "bpd": 9027,
      "bronze": 9028,
      "livestock": 9029,
      "majors": 9030,
      "maximum": 9031,
      "wareh": 9032,
      "widespread": 9033,
      "atmosphere": 9034,
      "Stevanin": 9035,
      "Bratislava": 9036,
      "unexpected": 9037,
      "Headingley": 9038,
      "recommend": 9039,
      "Swindon": 9040,
      "themselves": 9041,
      "amnesty": 9042,
      "BRASILIA": 9043,
      "Ferguson": 9044,
      "equivalent": 9045,
      "Banisadr": 9046,
      "Erbakan": 9047,
      "BUDAPEST": 9048,
      "Fairbrother": 9049,
      "Lokomotiv": 9050,
      "Zhirinovsky": 9051,
      "BAGHDAD": 9052,
      "Aa": 9053,
      "Ay": 9054,
      "Aw": 9055,
      "AMT": 9056,
      "ACT": 9057,
      "ARA": 9058,
      "Bj": 9059,
      "BY": 9060,
      "BER": 9061,
      "Bog": 9062,
      "Burn": 9063,
      "Brew": 9064,
      "Bogra": 9065,
      "Bamer": 9066,
      "Blind": 9067,
      "BOMB": 9068,
      "Bossi": 9069,
      "Cas": 9070,
      "Cur": 9071,
      "Cim": 9072,
      "Cow": 9073,
      "Cond": 9074,
      "Core": 9075,
      "Cov": 9076,
      "Chen": 9077,
      "Carter": 9078,
      "Cea": 9079,
      "Castle": 9080,
      "Dre": 9081,
      "Down": 9082,
      "DEL": 9083,
      "Drew": 9084,
      "Domin": 9085,
      "DEC": 9086,
      "Doming": 9087,
      "DUBA": 9088,
      "Eke": 9089,
      "Even": 9090,
      "Eco": 9091,
      "Eales": 9092,
      "Ell": 9093,
      "Erd": 9094,
      "Esp": 9095,
      "FF": 9096,
      "Fat": 9097,
      "Fow": 9098,
      "From": 9099,
      "Fast": 9100,
      "Free": 9101,
      "Fog": 9102,
      "Field": 9103,
      "Form": 9104,
      "Farm": 9105,
      "Flam": 9106,
      "Foe": 9107,
      "FOUR": 9108,
      "GP": 9109,
      "Gill": 9110,
      "Gav": 9111,
      "Gib": 9112,
      "Garr": 9113,
      "Geph": 9114,
      "GTR": 9115,
      "HR": 9116,
      "Hat": 9117,
      "Hit": 9118,
      "Hom": 9119,
      "Hers": 9120,
      "Hog": 9121,
      "HAM": 9122,
      "Hamil": 9123,
      "IP": 9124,
      "Jor": 9125,
      "Jet": 9126,
      "JOSE": 9127,
      "Ky": 9128,
      "KV": 9129,
      "Kad": 9130,
      "Kot": 9131,
      "Kry": 9132,
      "Klin": 9133,
      "Key": 9134,
      "Konto": 9135,
      "Kiev": 9136,
      "KATH": 9137,
      "Led": 9138,
      "Lith": 9139,
      "Lub": 9140,
      "Lie": 9141,
      "Lock": 9142,
      "Lah": 9143,
      "Laus": 9144,
      "Lamb": 9145,
      "Lamm": 9146,
      "LTT": 9147,
      "LAKES": 9148,
      "MP": 9149,
      "Mu": 9150,
      "MI": 9151,
      "Mia": 9152,
      "Mok": 9153,
      "Mans": 9154,
      "Mous": 9155,
      "Many": 9156,
      "MET": 9157,
      "MAD": 9158,
      "Move": 9159,
      "Miam": 9160,
      "Merrill": 9161,
      "Mox": 9162,
      "Maced": 9163,
      "Mural": 9164,
      "Monde": 9165,
      "Mafia": 9166,
      "NB": 9167,
      "Nelson": 9168,
      "Natal": 9169,
      "Od": 9170,
      "Oz": 9171,
      "Out": 9172,
      "Osc": 9173,
      "ORI": 9174,
      "OLY": 9175,
      "Odra": 9176,
      "Pon": 9177,
      "Puch": 9178,
      "Priv": 9179,
      "Pires": 9180,
      "Poz": 9181,
      "Pesc": 9182,
      "PORT": 9183,
      "Q2": 9184,
      "Ran": 9185,
      "Rel": 9186,
      "Rain": 9187,
      "Rud": 9188,
      "Rick": 9189,
      "Ried": 9190,
      "Raj": 9191,
      "River": 9192,
      "Rugby": 9193,
      "Sel": 9194,
      "Sut": 9195,
      "Sep": 9196,
      "Sok": 9197,
      "Swe": 9198,
      "SAT": 9199,
      "Since": 9200,
      "Sey": 9201,
      "Suk": 9202,
      "SRI": 9203,
      "Suw": 9204,
      "SIG": 9205,
      "SOF": 9206,
      "Sosa": 9207,
      "TE": 9208,
      "Tou": 9209,
      "Town": 9210,
      "Tott": 9211,
      "TIR": 9212,
      "Tau": 9213,
      "Tomas": 9214,
      "Techn": 9215,
      "Tosh": 9216,
      "Tyr": 9217,
      "Tankan": 9218,
      "Togo": 9219,
      "TUES": 9220,
      "Up": 9221,
      "Uli": 9222,
      "UAE": 9223,
      "Vat": 9224,
      "Vad": 9225,
      "Vice": 9226,
      "Vall": 9227,
      "WS": 9228,
      "WA": 9229,
      "Wro": 9230,
      "Wang": 9231,
      "WAT": 9232,
      "Wals": 9233,
      "Wij": 9234,
      "WINN": 9235,
      "Yr": 9236,
      "ZIM": 9237,
      "Zinz": 9238,
      "aver": 9239,
      "aide": 9240,
      "audi": 9241,
      "aims": 9242,
      "bon": 9243,
      "band": 9244,
      "bag": 9245,
      "brib": 9246,
      "bowling": 9247,
      "baseball": 9248,
      "bulk": 9249,
      "bounce": 9250,
      "coc": 9251,
      "crown": 9252,
      "da": 9253,
      "dil": 9254,
      "dog": 9255,
      "eld": 9256,
      "eye": 9257,
      "fan": 9258,
      "fill": 9259,
      "fier": 9260,
      "fulf": 9261,
      "fixed": 9262,
      "filled": 9263,
      "frost": 9264,
      "grew": 9265,
      "giant": 9266,
      "garden": 9267,
      "hon": 9268,
      "ham": 9269,
      "hum": 9270,
      "hover": 9271,
      "jour": 9272,
      "lions": 9273,
      "lows": 9274,
      "labor": 9275,
      "mix": 9276,
      "mob": 9277,
      "mile": 9278,
      "mild": 9279,
      "nom": 9280,
      "ounce": 9281,
      "pa": 9282,
      "pal": 9283,
      "pace": 9284,
      "pool": 9285,
      "pending": 9286,
      "pati": 9287,
      "pump": 9288,
      "pension": 9289,
      "pills": 9290,
      "rich": 9291,
      "racing": 9292,
      "som": 9293,
      "sun": 9294,
      "sug": 9295,
      "sending": 9296,
      "sidel": 9297,
      "tend": 9298,
      "tell": 9299,
      "tack": 9300,
[...]
