{
  "version": "1.0",
  "truncation": null,
  "padding": null,
  "added_tokens": [
    {
      "id": 0,
      "content": "[PAD]",
      "single_word": false,
      "lstrip": false,
      "rstrip": false,
      "normalized": false,
      "special": true
    },
    {
      "id": 1,
      "content": "[UNK]",
      "single_word": false,
      "lstrip": false,
      "rstrip": false,
      "normalized": false,
      "special": true
    },
    {
      "id": 2,
      "content": "[CLS]",
      "single_word": false,
      "lstrip": false,
      "rstrip": false,
      "normalized": false,
      "special": true
    },
    {
      "id": 3,
      "content": "[SEP]",
      "single_word": false,
      "lstrip": false,
      "rstrip": false,
      "normalized": false,
      "special": true
    },
    {
      "id": 4,
      "content": "[MASK]",
      "single_word": false,
      "lstrip": false,
      "rstrip": false,
      "normalized": false,
      "special": true
    }
  ],
  "normalizer": {
    "type": "BertNormalizer",
    "clean_text": true,
    "handle_chinese_chars": true,
    "strip_accents": null,
    "lowercase": false
  },
  "pre_tokenizer": {
    "type": "BertPreTokenizer"
  },
  "post_processor": {
    "type": "TemplateProcessing",
    "single": [
      {
        "SpecialToken": {
          "id": "[CLS]",
          "type_id": 0
        }
      },
      {
        "Sequence": {
          "id": "A",
          "type_id": 0
        }
      },
      {
        "SpecialToken": {
          "id": "[SEP]",
          "type_id": 0
        }
      }
    ],
    "pair": [
      {
        "SpecialToken": {
          "id": "[CLS]",
          "type_id": 0
        }
      },
      {
        "Sequence": {
          "id": "A",
          "type_id": 0
        }
      },
      {
        "SpecialToken": {
          "id": "[SEP]",
          "type_id": 0
        }
      },
      {
        "Sequence": {
          "id": "B",
          "type_id": 1
        }
      },
      {
        "SpecialToken": {
          "id": "[SEP]",
          "type_id": 1
        }
      }
    ],
    "special_tokens": {
      "[CLS]": {
        "id": "[CLS]",
        "ids": [
          2
        ],
        "tokens": [
          "[CLS]"
        ]
      },
      "[SEP]": {
        "id": "[SEP]",
        "ids": [
          3
        ],
        "tokens": [
          "[SEP]"
        ]
      }
    }
  },
  "decoder": {
    "type": "WordPiece",
    "prefix": "##",
    "cleanup": true
  },
  "model": {
    "type": "WordPiece",
    "unk_token": "[UNK]",
    "continuing_subword_prefix": "##",
    "max_input_chars_per_word": 100,
    "vocab": {
      "[PAD]": 0,
      "[UNK]": 1,
      "[CLS]": 2,
      "[SEP]": 3,
      "[MASK]": 4,
      "!": 5,
      "\"": 6,
      "#": 7,
      "%": 8,
      "&": 9,
      "'": 10,
      "(": 11,
      ")": 12,
      "*": 13,
      "+": 14,
      ",": 15,
      "-": 16,
      ".": 17,
      "/": 18,
      "0": 19,
      "1": 20,
      "2": 21,
      "3": 22,
      "4": 23,
      "5": 24,
      "6": 25,
      "7": 26,
      "8": 27,
      "9": 28,
      ":": 29,
      ";": 30,
      "<": 31,
      "=": 32,
      ">": 33,
      "?": 34,
      "A": 35,
      "B": 36,
      "C": 37,
      "D": 38,
      "E": 39,
      "F": 40,
      "G": 41,
      "H": 42,
      "I": 43,
      "J": 44,
      "K": 45,
      "L": 46,
      "M": 47,
      "N": 48,
      "O": 49,
      "P": 50,
      "Q": 51,
      "R": 52,
      "S": 53,
      "T": 54,
      "U": 55,
      "V": 56,
      "W": 57,
      "X": 58,
      "Y": 59,
      "Z": 60,
      "[": 61,
      "]": 62,
      "a": 63,
      "b": 64,
      "c": 65,
      "d": 66,
      "e": 67,
      "f": 68,
      "g": 69,
      "h": 70,
      "i": 71,
      "j": 72,
      "k": 73,
      "l": 74,
      "m": 75,
      "n": 76,
      "o": 77,
      "p": 78,
      "q": 79,
      "r": 80,
      "s": 81,
      "t": 82,
      "u": 83,
      "v": 84,
      "w": 85,
      "x": 86,
      "y": 87,
      "z": 88,
      "##r": 89,
      "##e": 90,
      "##m": 91,
      "##b": 92,
      "##l": 93,
      "##i": 94,
      "##n": 95,
      "##g": 96,
      "##t": 97,
      "##a": 98,
      "##o": 99,
      "##u": 100,
      "##p": 101,
      "##y": 102,
      "##v": 103,
      "##w": 104,
      "##s": 105,
      "##k": 106,
      "##3": 107,
      "##5": 108,
      "##h": 109,
      "##c": 110,
      "##d": 111,
      "##L": 112,
      "##D": 113,
      "##f": 114,
      "##T": 115,
      "##z": 116,
      "##x": 117,
      "##M": 118,
      "##V": 119,
      "##A": 120,
      "##1": 121,
      "##0": 122,
      "##H": 123,
      "##S": 124,
      "##E": 125,
      "##N": 126,
      "##C": 127,
      "##q": 128,
      "##G": 129,
      "##2": 130,
      "##7": 131,
      "##R": 132,
      "##9": 133,
      "##8": 134,
      "##6": 135,
      "##j": 136,
      "##B": 137,
      "##W": 138,
      "##I": 139,
      "##P": 140,
      "##U": 141,
      "##Y": 142,
      "##F": 143,
      "##4": 144,
      "##O": 145,
      "##X": 146,
      "##K": 147,
      "##Z": 148,
      "##J": 149,
      "##Q": 150,
      "##ti": 151,
      "##er": 152,
      "##en": 153,
      "##on": 154,
      "##ed": 155,
      "##in": 156,
      "th": 157,
      "##al": 158,
      "##es": 159,
      "##th": 160,
      "in": 161,
      "of": 162,
      "##or": 163,
      "##ati": 164,
      "##at": 165,
      "an": 166,
      "##ent": 167,
      "##as": 168,
      "##is": 169,
      "##ar": 170,
      "##ic": 171,
      "the": 172,
      "##an": 173,
      "##re": 174,
      "##ro": 175,
      "and": 176,
      "re": 177,
      "##ith": 178,
      "with": 179,
      "##os": 180,
      "##om": 181,
      "##ve": 182,
      "##us": 183,
      "##ul": 184,
      "##ter": 185,
      "##ing": 186,
      "to": 187,
      "##ec": 188,
      "##ation": 189,
      "##ol": 190,
      "##ur": 191,
      "##id": 192,
      "##em": 193,
      "##ly": 194,
      "##it": 195,
      "##ac": 196,
      "##atient": 197,
      "##op": 198,
      "patient": 199,
      "##ap": 200,
      "##tion": 201,
      "##le": 202,
      "##ia": 203,
      "##oc": 204,
      "##tr": 205,
      "##tic": 206,
      "be": 207,
      "Th": 208,
      "##ated": 209,
      "##ver": 210,
      "was": 211,
      "##ut": 212,
      "##ment": 213,
      "##il": 214,
      "##ase": 215,
      "##am": 216,
      "##uc": 217,
      "is": 218,
      "tre": 219,
      "for": 220,
      "de": 221,
      "##si": 222,
      "##ine": 223,
      "##um": 224,
      "##ce": 225,
      "as": 226,
      "##ort": 227,
      "##ow": 228,
      "##rom": 229,
      "con": 230,
      "##erap": 231,
      "##el": 232,
      "##ir": 233,
      "##ph": 234,
      "##ot": 235,
      "##og": 236,
      "##ad": 237,
      "##res": 238,
      "##ig": 239,
      "##un": 240,
      "patients": 241,
      "##port": 242,
      "##erapy": 243,
      "wh": 244,
      "##tin": 245,
      "ch": 246,
      "The": 247,
      "dis": 248,
      "##se": 249,
      "##ug": 250,
      "com": 251,
      "##fter": 252,
      "##od": 253,
      "##atment": 254,
      "##ere": 255,
      "##ical": 256,
      "##ous": 257,
      "##ys": 258,
      "##ant": 259,
      "##pl": 260,
      "report": 261,
      "##im": 262,
      "pro": 263,
      "treatment": 264,
      "ad": 265,
      "##ff": 266,
      "after": 267,
      "##iti": 268,
      "##ear": 269,
      "res": 270,
      "##ate": 271,
      "ac": 272,
      "on": 273,
      "##ag": 274,
      "##yp": 275,
      "##vel": 276,
      "al": 277,
      "##ib": 278,
      "##ab": 279,
      "therapy": 280,
      "ex": 281,
      "##ect": 282,
      "case": 283,
      "se": 284,
      "##nd": 285,
      "inf": 286,
      "##ity": 287,
      "im": 288,
      "st": 289,
      "##ure": 290,
      "le": 291,
      "ne": 292,
      "by": 293,
      "or": 294,
      "##ay": 295,
      "that": 296,
      "sy": 297,
      "##ain": 298,
      "sh": 299,
      "ind": 300,
      "##ath": 301,
      "tr": 302,
      "##osis": 303,
      "##oth": 304,
      "##ep": 305,
      "##velop": 306,
      "##yc": 307,
      "##di": 308,
      "develop": 309,
      "were": 310,
      "##ess": 311,
      "year": 312,
      "##one": 313,
      "##ary": 314,
      "##oid": 315,
      "pres": 316,
      "##qu": 317,
      "li": 318,
      "ass": 319,
      "rec": 320,
      "##pt": 321,
      "cl": 322,
      "##ell": 323,
      "We": 324,
      "##ide": 325,
      "hyp": 326,
      "this": 327,
      "dr": 328,
      "##ular": 329,
      "per": 330,
      "##ion": 331,
      "eff": 332,
      "##ist": 333,
      "##igh": 334,
      "su": 335,
      "##iv": 336,
      "anti": 337,
      "##ial": 338,
      "are": 339,
      "##iz": 340,
      "##itis": 341,
      "induc": 342,
      "##ox": 343,
      "##oci": 344,
      "inc": 345,
      "##aus": 346,
      "##ans": 347,
      "##et": 348,
      "##ication": 349,
      "##st": 350,
      "associ": 351,
      "##ection": 352,
      "##est": 353,
      "##orm": 354,
      "drug": 355,
      "ol": 356,
      "##low": 357,
      "##anc": 358,
      "car": 359,
      "##if": 360,
      "##ence": 361,
      "##emia": 362,
      "##pp": 363,
      "developed": 364,
      "##ose": 365,
      "##ud": 366,
      "been": 367,
      "ha": 368,
      "induced": 369,
      "pre": 370,
      "##our": 371,
      "##olog": 372,
      "who": 373,
      "at": 374,
      "##ute": 375,
      "##ases": 376,
      "##min": 377,
      "mon": 378,
      "##tive": 379,
      "old": 380,
      "man": 381,
      "pos": 382,
      "associated": 383,
      "##cr": 384,
      "##act": 385,
      "##vi": 386,
      "##sion": 387,
      "##ting": 388,
      "ag": 389,
      "des": 390,
      "fol": 391,
      "may": 392,
      "##ch": 393,
      "not": 394,
      "oc": 395,
      "##ory": 396,
      "##mon": 397,
      "In": 398,
      "un": 399,
      "we": 400,
      "##gn": 401,
      "sever": 402,
      "##ym": 403,
      "##rome": 404,
      "follow": 405,
      "dia": 406,
      "had": 407,
      "dise": 408,
      "##ven": 409,
      "##sive": 410,
      "##urr": 411,
      "present": 412,
      "##ved": 413,
      "##atin": 414,
      "##ther": 415,
      "##ast": 416,
      "treated": 417,
      "synd": 418,
      "effect": 419,
      "intr": 420,
      "cases": 421,
      "ab": 422,
      "cor": 423,
      "##lo": 424,
      "##ative": 425,
      "ar": 426,
      "from": 427,
      "##yt": 428,
      "compl": 429,
      "##ne": 430,
      "caus": 431,
      "di": 432,
      "syndrome": 433,
      "have": 434,
      "##oma": 435,
      "##crib": 436,
      "##ON": 437,
      "disease": 438,
      "hyper": 439,
      "occ": 440,
      "##ally": 441,
      "##ign": 442,
      "clin": 443,
      "##wo": 444,
      "trans": 445,
      "dur": 446,
      "ser": 447,
      "##ult": 448,
      "acute": 449,
      "##yl": 450,
      "inter": 451,
      "##ple": 452,
      "rel": 453,
      "##enti": 454,
      "##mun": 455,
      "##ten": 456,
      "##ue": 457,
      "##enc": 458,
      "sp": 459,
      "us": 460,
      "rece": 461,
      "has": 462,
      "##az": 463,
      "##ip": 464,
      "use": 465,
      "##ptom": 466,
      "##ich": 467,
      "##ore": 468,
      "##minis": 469,
      "##ge": 470,
      "##oul": 471,
      "##ould": 472,
      "ph": 473,
      "##ese": 474,
      "##action": 475,
      "##atic": 476,
      "##enal": 477,
      "##ron": 478,
      "##age": 479,
      "during": 480,
      "severe": 481,
      "resp": 482,
      "month": 483,
      "##per": 484,
      "sym": 485,
      "describ": 486,
      "##oph": 487,
      "me": 488,
      "##oun": 489,
      "##rol": 490,
      "clinical": 491,
      "##ong": 492,
      "##ors": 493,
      "##tis": 494,
      "hep": 495,
      "adminis": 496,
      "##otherapy": 497,
      "reported": 498,
      "##ium": 499,
      "##ros": 500,
      "This": 501,
      "##ever": 502,
      "##ations": 503,
      "symptom": 504,
      "##yst": 505,
      "which": 506,
      "disc": 507,
      "par": 508,
      "pr": 509,
      "sub": 510,
      "##are": 511,
      "diagn": 512,
      "##teroid": 513,
      "##te": 514,
      "chem": 515,
      "##entr": 516,
      "##ond": 517,
      "##rop": 518,
      "infection": 519,
      "##ful": 520,
      "receiv": 521,
      "ev": 522,
      "high": 523,
      "##ew": 524,
      "en": 525,
      "##ormal": 526,
      "##romb": 527,
      "##sib": 528,
      "ob": 529,
      "suc": 530,
      "cons": 531,
      "##ail": 532,
      "##erm": 533,
      "##ugh": 534,
      "cell": 535,
      "incre": 536,
      "mg": 537,
      "immun": 538,
      "hem": 539,
      "two": 540,
      "##plant": 541,
      "my": 542,
      "##tinu": 543,
      "da": 544,
      "app": 545,
      "##usion": 546,
      "##tration": 547,
      "renal": 548,
      "months": 549,
      "dose": 550,
      "##ree": 551,
      "##ective": 552,
      "##uk": 553,
      "##ight": 554,
      "complication": 555,
      "##ome": 556,
      "following": 557,
      "##ance": 558,
      "##der": 559,
      "##ra": 560,
      "##ism": 561,
      "pl": 562,
      "##able": 563,
      "it": 564,
      "med": 565,
      "##ased": 566,
      "##icity": 567,
      "symptoms": 568,
      "##ies": 569,
      "but": 570,
      "intra": 571,
      "##ak": 572,
      "##cess": 573,
      "##eral": 574,
      "imp": 575,
      "##tiv": 576,
      "##he": 577,
      "##ub": 578,
      "show": 579,
      "##lud": 580,
      "thromb": 581,
      "##ding": 582,
      "effects": 583,
      "##ost": 584,
      "##athy": 585,
      "should": 586,
      "##atitis": 587,
      "##ane": 588,
      "reaction": 589,
      "und": 590,
      "sur": 591,
      "tox": 592,
      "##ild": 593,
      "neu": 594,
      "##ction": 595,
      "##ile": 596,
      "chemotherapy": 597,
      "##ement": 598,
      "##bin": 599,
      "leuk": 600,
      "ep": 601,
      "##all": 602,
      "transplant": 603,
      "mal": 604,
      "##ures": 605,
      "conc": 606,
      "##ymph": 607,
      "##ual": 608,
      "##ature": 609,
      "##erg": 610,
      "he": 611,
      "##hy": 612,
      "sug": 613,
      "##otic": 614,
      "can": 615,
      "sugg": 616,
      "##atory": 617,
      "##kin": 618,
      "lymph": 619,
      "##ating": 620,
      "other": 621,
      "all": 622,
      "##up": 623,
      "fl": 624,
      "##ici": 625,
      "pot": 626,
      "##ek": 627,
      "##ole": 628,
      "##ents": 629,
      "##out": 630,
      "sign": 631,
      "##ough": 632,
      "##ill": 633,
      "##ran": 634,
      "##sible": 635,
      "##SI": 636,
      "week": 637,
      "##ysis": 638,
      "##emic": 639,
      "sec": 640,
      "wom": 641,
      "no": 642,
      "these": 643,
      "rare": 644,
      "##vir": 645,
      "cont": 646,
      "##ons": 647,
      "level": 648,
      "##adi": 649,
      "fail": 650,
      "rem": 651,
      "##ized": 652,
      "##ronic": 653,
      "administration": 654,
      "##ted": 655,
      "##ite": 656,
      "inj": 657,
      "sc": 658,
      "##irst": 659,
      "##view": 660,
      "Al": 661,
      "##ocyt": 662,
      "first": 663,
      "##aneous": 664,
      "occurr": 665,
      "##dition": 666,
      "syst": 667,
      "bet": 668,
      "##ulmon": 669,
      "##ogen": 670,
      "obs": 671,
      "##ulmonary": 672,
      "days": 673,
      "##ard": 674,
      "##ency": 675,
      "ris": 676,
      "##ently": 677,
      "result": 678,
      "review": 679,
      "chronic": 680,
      "am": 681,
      "##ior": 682,
      "meth": 683,
      "liter": 684,
      "second": 685,
      "##00": 686,
      "##ren": 687,
      "##osp": 688,
      "##ected": 689,
      "used": 690,
      "hist": 691,
      "low": 692,
      "##ogr": 693,
      "one": 694,
      "due": 695,
      "##amin": 696,
      "literature": 697,
      "suggest": 698,
      "er": 699,
      "gl": 700,
      "##fer": 701,
      "##ific": 702,
      "over": 703,
      "impro": 704,
      "##ri": 705,
      "int": 706,
      "##verse": 707,
      "comple": 708,
      "liver": 709,
      "##ution": 710,
      "##SION": 711,
      "related": 712,
      "potenti": 713,
      "##ang": 714,
      "includ": 715,
      "showed": 716,
      "woman": 717,
      "child": 718,
      "##ological": 719,
      "day": 720,
      "##unction": 721,
      "peri": 722,
      "presented": 723,
      "##omy": 724,
      "##ression": 725,
      "diff": 726,
      "under": 727,
      "##etic": 728,
      "reg": 729,
      "years": 730,
      "inv": 731,
      "##ych": 732,
      "fact": 733,
      "normal": 734,
      "##gen": 735,
      "##ycl": 736,
      "diagnosis": 737,
      "dos": 738,
      "##ob": 739,
      "failure": 740,
      "well": 741,
      "##ulti": 742,
      "comp": 743,
      "bec": 744,
      "##ach": 745,
      "##order": 746,
      "ins": 747,
      "inh": 748,
      "met": 749,
      "##amine": 750,
      "##vious": 751,
      "##ound": 752,
      "cortic": 753,
      "nec": 754,
      "##lood": 755,
      "##now": 756,
      "three": 757,
      "end": 758,
      "##opathy": 759,
      "antib": 760,
      "pain": 761,
      "##ive": 762,
      "##ft": 763,
      "##CL": 764,
      "cardi": 765,
      "##cessful": 766,
      "##inal": 767,
      "##asm": 768,
      "her": 769,
      "##end": 770,
      "dec": 771,
      "##pos": 772,
      "combin": 773,
      "##ital": 774,
      "disorder": 775,
      "##tivity": 776,
      "##ancer": 777,
      "##cin": 778,
      "##and": 779,
      "##osteroid": 780,
      "##ressive": 781,
      "##ime": 782,
      "risk": 783,
      "mar": 784,
      "col": 785,
      "em": 786,
      "previous": 787,
      "##ater": 788,
      "##ech": 789,
      "##ress": 790,
      "##acter": 791,
      "surg": 792,
      "CON": 793,
      "##ontinu": 794,
      "##row": 795,
      "##rosis": 796,
      "blood": 797,
      "adverse": 798,
      "toxicity": 799,
      "##ame": 800,
      "cause": 801,
      "##USION": 802,
      "##CLUSION": 803,
      "CONCLUSION": 804,
      "cancer": 805,
      "receiving": 806,
      "el": 807,
      "corticosteroid": 808,
      "both": 809,
      "##so": 810,
      "multi": 811,
      "##amide": 812,
      "bl": 813,
      "pulmonary": 814,
      "##aled": 815,
      "drugs": 816,
      "side": 817,
      "##ptic": 818,
      "##ery": 819,
      "weeks": 820,
      "ps": 821,
      "##inding": 822,
      "initi": 823,
      "without": 824,
      "describe": 825,
      "flu": 826,
      "##oin": 827,
      "##ef": 828,
      "An": 829,
      "tum": 830,
      "also": 831,
      "##venous": 832,
      "##ograp": 833,
      "##sy": 834,
      "##owever": 835,
      "##ung": 836,
      "##ained": 837,
      "##alc": 838,
      "##ibit": 839,
      "post": 840,
      "serum": 841,
      "gen": 842,
      "##ens": 843,
      "##ates": 844,
      "##ause": 845,
      "know": 846,
      "our": 847,
      "##though": 848,
      "obser": 849,
      "##ider": 850,
      "resol": 851,
      "##iop": 852,
      "acid": 853,
      "##duc": 854,
      "##ensi": 855,
      "out": 856,
      "respon": 857,
      "long": 858,
      "##fe": 859,
      "##ulation": 860,
      "##we": 861,
      "##asc": 862,
      "when": 863,
      "leukemia": 864,
      "10": 865,
      "##ke": 866,
      "##enia": 867,
      "reve": 868,
      "cour": 869,
      "dys": 870,
      "##ening": 871,
      "discontinu": 872,
      "##ious": 873,
      "##peri": 874,
      "##ix": 875,
      "##vement": 876,
      "oral": 877,
      "##ologic": 878,
      "finding": 879,
      "##ax": 880,
      "##esion": 881,
      "levels": 882,
      "radi": 883,
      "##utaneous": 884,
      "dep": 885,
      "received": 886,
      "##form": 887,
      "experi": 888,
      "such": 889,
      "##ytic": 890,
      "##asis": 891,
      "##ardi": 892,
      "##tered": 893,
      "manag": 894,
      "hepatitis": 895,
      "##ES": 896,
      "##idence": 897,
      "infl": 898,
      "arter": 899,
      "injection": 900,
      "def": 901,
      "##yro": 902,
      "##apine": 903,
      "##fore": 904,
      "##sequ": 905,
      "common": 906,
      "described": 907,
      "red": 908,
      "transplantation": 909,
      "##ities": 910,
      "##CT": 911,
      "successful": 912,
      "revealed": 913,
      "##ritis": 914,
      "##eu": 915,
      "##ycin": 916,
      "signific": 917,
      "recurr": 918,
      "lesion": 919,
      "##erative": 920,
      "##ema": 921,
      "consider": 922,
      "increased": 923,
      "prob": 924,
      "spec": 925,
      "##ween": 926,
      "intravenous": 927,
      "inhibit": 928,
      "##ral": 929,
      "caused": 930,
      "##ler": 931,
      "##IV": 932,
      "##ulin": 933,
      "##amm": 934,
      "##over": 935,
      "##tine": 936,
      "between": 937,
      "dem": 938,
      "his": 939,
      "typ": 940,
      "str": 941,
      "It": 942,
      "To": 943,
      "more": 944,
      "vis": 945,
      "mic": 946,
      "complete": 947,
      "findings": 948,
      "##ll": 949,
      "##tim": 950,
      "prog": 951,
      "##ass": 952,
      "diagnos": 953,
      "significant": 954,
      "there": 955,
      "##itive": 956,
      "its": 957,
      "##ct": 958,
      "##alu": 959,
      "path": 960,
      "up": 961,
      "##med": 962,
      "##ers": 963,
      "##ish": 964,
      "##ade": 965,
      "phen": 966,
      "than": 967,
      "continu": 968,
      "myel": 969,
      "course": 970,
      "non": 971,
      "tak": 972,
      "##rh": 973,
      "##DS": 974,
      "##neum": 975,
      "appear": 976,
      "##ily": 977,
      "##arin": 978,
      "conf": 979,
      "infusion": 980,
      "##astic": 981,
      "systemic": 982,
      "min": 983,
      "##led": 984,
      "##arly": 985,
      "##ology": 986,
      "##cinoma": 987,
      "##ied": 988,
      "##thm": 989,
      "es": 990,
      "##udi": 991,
      "##quir": 992,
      "possible": 993,
      "decre": 994,
      "reports": 995,
      "control": 996,
      "sus": 997,
      "##tal": 998,
      "within": 999,
      "agents": 1000,
      "medication": 1001,
      "anal": 1002,
      "##uss": 1003,
      "##osph": 1004,
      "##onstr": 1005,
      "cycl": 1006,
      "steroid": 1007,
      "##anism": 1008,
      "combination": 1009,
      "##ov": 1010,
      "##atal": 1011,
      "##tinal": 1012,
      "neuro": 1013,
      "function": 1014,
      "##normal": 1015,
      "##ility": 1016,
      "##udy": 1017,
      "##opl": 1018,
      "##ocal": 1019,
      "only": 1020,
      "##azole": 1021,
      "time": 1022,
      "##pha": 1023,
      "abs": 1024,
      "##iciency": 1025,
      "potential": 1026,
      "reduc": 1027,
      "cyt": 1028,
      "studi": 1029,
      "occurred": 1030,
      "Ac": 1031,
      "##ric": 1032,
      "effective": 1033,
      "response": 1034,
      "mus": 1035,
      "most": 1036,
      "##ness": 1037,
      "##erc": 1038,
      "##iotic": 1039,
      "##icated": 1040,
      "##roph": 1041,
      "##ock": 1042,
      "study": 1043,
      "doses": 1044,
      "management": 1045,
      "pneum": 1046,
      "##ural": 1047,
      "discuss": 1048,
      "malign": 1049,
      "period": 1050,
      "##yth": 1051,
      "##terior": 1052,
      "abnormal": 1053,
      "##entric": 1054,
      "Although": 1055,
      "including": 1056,
      "##ie": 1057,
      "##upp": 1058,
      "ang": 1059,
      "##ange": 1060,
      "vir": 1061,
      "new": 1062,
      "##tensive": 1063,
      "complications": 1064,
      "history": 1065,
      "previously": 1066,
      "observed": 1067,
      "biop": 1068,
      "fib": 1069,
      "condition": 1070,
      "four": 1071,
      "##cop": 1072,
      "##tern": 1073,
      "children": 1074,
      "19": 1075,
      "After": 1076,
      "ul": 1077,
      "fe": 1078,
      "concentr": 1079,
      "br": 1080,
      "bone": 1081,
      "hy": 1082,
      "test": 1083,
      "##ulf": 1084,
      "##iven": 1085,
      "##dro": 1086,
      "##TS": 1087,
      "occur": 1088,
      "pred": 1089,
      "multiple": 1090,
      "##requ": 1091,
      "##osupp": 1092,
      "##ereb": 1093,
      "prol": 1094,
      "alpha": 1095,
      "skin": 1096,
      "##tit": 1097,
      "##apid": 1098,
      "##eutic": 1099,
      "aut": 1100,
      "ret": 1101,
      "secondary": 1102,
      "ME": 1103,
      "##esis": 1104,
      "arth": 1105,
      "invol": 1106,
      "He": 1107,
      "ey": 1108,
      "##SE": 1109,
      "rep": 1110,
      "##ody": 1111,
      "examin": 1112,
      "agent": 1113,
      "because": 1114,
      "antibiotic": 1115,
      "mech": 1116,
      "##lor": 1117,
      "##rem": 1118,
      "care": 1119,
      "later": 1120,
      "var": 1121,
      "##iss": 1122,
      "##erapeutic": 1123,
      "import": 1124,
      "12": 1125,
      "##zapine": 1126,
      "##orrh": 1127,
      "##ogn": 1128,
      "seiz": 1129,
      "demonstr": 1130,
      "administered": 1131,
      "tumor": 1132,
      "##yroid": 1133,
      "term": 1134,
      "These": 1135,
      "##phal": 1136,
      "star": 1137,
      "neph": 1138,
      "##raw": 1139,
      "However": 1140,
      "##ts": 1141,
      "##draw": 1142,
      "##ascular": 1143,
      "Two": 1144,
      "op": 1145,
      "##ission": 1146,
      "she": 1147,
      "##oxicity": 1148,
      "diab": 1149,
      "lesions": 1150,
      "given": 1151,
      "sim": 1152,
      "tub": 1153,
      "##rine": 1154,
      "top": 1155,
      "##ste": 1156,
      "carcinoma": 1157,
      "eryth": 1158,
      "##ensitivity": 1159,
      "hour": 1160,
      "##ked": 1161,
      "##lev": 1162,
      "recover": 1163,
      "##vention": 1164,
      "##ography": 1165,
      "considered": 1166,
      "calc": 1167,
      "##ually": 1168,
      "development": 1169,
      "reactions": 1170,
      "##ospital": 1171,
      "hear": 1172,
      "##TH": 1173,
      "withdraw": 1174,
      "##lyc": 1175,
      "##ilat": 1176,
      "##otre": 1177,
      "pol": 1178,
      "rapid": 1179,
      "##openia": 1180,
      "del": 1181,
      "pers": 1182,
      "RES": 1183,
      "##com": 1184,
      "antic": 1185,
      "##abol": 1186,
      "corticosteroids": 1187,
      "psych": 1188,
      "inflamm": 1189,
      "sa": 1190,
      "##mit": 1191,
      "##ving": 1192,
      "##UL": 1193,
      "RESUL": 1194,
      "derm": 1195,
      "##ps": 1196,
      "##par": 1197,
      "##tial": 1198,
      "form": 1199,
      "carb": 1200,
      "##feron": 1201,
      "##pite": 1202,
      "surgery": 1203,
      "##ram": 1204,
      "##urther": 1205,
      "##itor": 1206,
      "perform": 1207,
      "using": 1208,
      "subsequ": 1209,
      "RESULTS": 1210,
      "co": 1211,
      "##erv": 1212,
      "##onia": 1213,
      "produc": 1214,
      "lead": 1215,
      "factor": 1216,
      "##iat": 1217,
      "positive": 1218,
      "biopsy": 1219,
      "lung": 1220,
      "##enced": 1221,
      "evidence": 1222,
      "evalu": 1223,
      "There": 1224,
      "addition": 1225,
      "immunosupp": 1226,
      "CONCLUSIONS": 1227,
      "studies": 1228,
      "##ition": 1229,
      "##aemia": 1230,
      "ref": 1231,
      "requir": 1232,
      "##ranul": 1233,
      "cardiac": 1234,
      "topical": 1235,
      "found": 1236,
      "frequ": 1237,
      "##eter": 1238,
      "##ale": 1239,
      "##arm": 1240,
      "arthritis": 1241,
      "20": 1242,
      "ble": 1243,
      "##ian": 1244,
      "det": 1245,
      "expos": 1246,
      "need": 1247,
      "recom": 1248,
      "val": 1249,
      "METH": 1250,
      "METHO": 1251,
      "##entricular": 1252,
      "She": 1253,
      "id": 1254,
      "##operative": 1255,
      "before": 1256,
      "while": 1257,
      "like": 1258,
      "sup": 1259,
      "marrow": 1260,
      "known": 1261,
      "los": 1262,
      "interferon": 1263,
      "fever": 1264,
      "hospital": 1265,
      "##xate": 1266,
      "##urn": 1267,
      "##ants": 1268,
      "##rolog": 1269,
      "diagnosed": 1270,
      "taking": 1271,
      "hours": 1272,
      "##otrexate": 1273,
      "Cl": 1274,
      "org": 1275,
      "##ization": 1276,
      "##ancy": 1277,
      "manif": 1278,
      "differ": 1279,
      "mechanism": 1280,
      "some": 1281,
      "##ND": 1282,
      "##ticular": 1283,
      "##istent": 1284,
      "plasm": 1285,
      "prolong": 1286,
      "##uth": 1287,
      "##icin": 1288,
      "##oxic": 1289,
      "system": 1290,
      "improved": 1291,
      "av": 1292,
      "##entral": 1293,
      "heart": 1294,
      "CA": 1295,
      "cereb": 1296,
      "early": 1297,
      "##av": 1298,
      "monitor": 1299,
      "##AC": 1300,
      "##orph": 1301,
      "##atheter": 1302,
      "male": 1303,
      "##ergic": 1304,
      "angi": 1305,
      "##enic": 1306,
      "##thal": 1307,
      "left": 1308,
      "##ilateral": 1309,
      "manifest": 1310,
      "sm": 1311,
      "##til": 1312,
      "##ont": 1313,
      "##emat": 1314,
      "chang": 1315,
      "followed": 1316,
      "##azep": 1317,
      "improvement": 1318,
      "loss": 1319,
      "main": 1320,
      "##ori": 1321,
      "##ice": 1322,
      "performed": 1323,
      "prom": 1324,
      "##arr": 1325,
      "##arc": 1326,
      "their": 1327,
      "##lear": 1328,
      "association": 1329,
      "withdrawal": 1330,
      "lim": 1331,
      "##ood": 1332,
      "##emb": 1333,
      "##ace": 1334,
      "##aph": 1335,
      "resist": 1336,
      "##ately": 1337,
      "metabol": 1338,
      "confir": 1339,
      "any": 1340,
      "contr": 1341,
      "##set": 1342,
      "resolved": 1343,
      "ill": 1344,
      "##nis": 1345,
      "life": 1346,
      "##ophil": 1347,
      "successfully": 1348,
      "micro": 1349,
      "METHODS": 1350,
      "On": 1351,
      "ben": 1352,
      "bre": 1353,
      "cutaneous": 1354,
      "##ges": 1355,
      "##reat": 1356,
      "serious": 1357,
      "##tension": 1358,
      "hemorrh": 1359,
      "thrombosis": 1360,
      "factors": 1361,
      "necrosis": 1362,
      "experienced": 1363,
      "type": 1364,
      "##iatric": 1365,
      "##ract": 1366,
      "##eding": 1367,
      "##ack": 1368,
      "several": 1369,
      "##armac": 1370,
      "catheter": 1371,
      "elev": 1372,
      "fem": 1373,
      "##went": 1374,
      "adv": 1375,
      "tiss": 1376,
      "therapeutic": 1377,
      "##uted": 1378,
      "recogn": 1379,
      "increase": 1380,
      "##hythm": 1381,
      "hydro": 1382,
      "##lish": 1383,
      "##arge": 1384,
      "prop": 1385,
      "prim": 1386,
      "signs": 1387,
      "methotrexate": 1388,
      "##isod": 1389,
      "total": 1390,
      "appro": 1391,
      "##tig": 1392,
      "##ised": 1393,
      "##ithium": 1394,
      "##olone": 1395,
      "hypers": 1396,
      "daily": 1397,
      "doc": 1398,
      "right": 1399,
      "##rin": 1400,
      "##omycin": 1401,
      "##iratory": 1402,
      "episod": 1403,
      "mod": 1404,
      "##iqu": 1405,
      "##tained": 1406,
      "##of": 1407,
      "##xim": 1408,
      "##ety": 1409,
      "##icians": 1410,
      "block": 1411,
      "discontinuation": 1412,
      "Ch": 1413,
      "could": 1414,
      "ed": 1415,
      "panc": 1416,
      "##ex": 1417,
      "##asing": 1418,
      "char": 1419,
      "onset": 1420,
      "15": 1421,
      "fatal": 1422,
      "##RO": 1423,
      "##ialysis": 1424,
      "##entif": 1425,
      "hepatic": 1426,
      "infections": 1427,
      "visual": 1428,
      "discussed": 1429,
      "##umb": 1430,
      "All": 1431,
      "vit": 1432,
      "##app": 1433,
      "##aps": 1434,
      "##tric": 1435,
      "##abine": 1436,
      "##heum": 1437,
      "##ata": 1438,
      "##olysis": 1439,
      "##olytic": 1440,
      "surgical": 1441,
      "examination": 1442,
      "central": 1443,
      "mac": 1444,
      "##gative": 1445,
      "##tes": 1446,
      "##ced": 1447,
      "##PO": 1448,
      "##use": 1449,
      "##astro": 1450,
      "##raft": 1451,
      "toxic": 1452,
      "potentially": 1453,
      "susp": 1454,
      "plasma": 1455,
      "changes": 1456,
      "coun": 1457,
      "hum": 1458,
      "sulf": 1459,
      "rever": 1460,
      "##odium": 1461,
      "pregn": 1462,
      "hypertension": 1463,
      "lower": 1464,
      "regim": 1465,
      "seizures": 1466,
      "ir": 1467,
      "ker": 1468,
      "##rogen": 1469,
      "cells": 1470,
      "musc": 1471,
      "did": 1472,
      "oste": 1473,
      "rheum": 1474,
      "##atus": 1475,
      "##ental": 1476,
      "##opr": 1477,
      "##occ": 1478,
      "##ocardi": 1479,
      "neurolog": 1480,
      "##ospor": 1481,
      "abnormalities": 1482,
      "prolonged": 1483,
      "character": 1484,
      "sin": 1485,
      "##ument": 1486,
      "##rect": 1487,
      "epid": 1488,
      "##ercul": 1489,
      "##mitted": 1490,
      "identif": 1491,
      "One": 1492,
      "five": 1493,
      "##air": 1494,
      "##vent": 1495,
      "##arb": 1496,
      "##ffer": 1497,
      "exc": 1498,
      "negative": 1499,
      "##ronch": 1500,
      "artery": 1501,
      "range": 1502,
      "ven": 1503,
      "##onic": 1504,
      "##atures": 1505,
      "##lob": 1506,
      "##ipi": 1507,
      "resulted": 1508,
      "demonstrated": 1509,
      "##azepine": 1510,
      "edema": 1511,
      "OB": 1512,
      "St": 1513,
      "gr": 1514,
      "sel": 1515,
      "##fen": 1516,
      "hepat": 1517,
      "##ropathy": 1518,
      "hemat": 1519,
      "results": 1520,
      "malignant": 1521,
      "auth": 1522,
      "lab": 1523,
      "##ECT": 1524,
      "##itu": 1525,
      "##ilar": 1526,
      "ext": 1527,
      "recipi": 1528,
      "supp": 1529,
      "gluc": 1530,
      "brain": 1531,
      "hypersensitivity": 1532,
      "lithium": 1533,
      "po": 1534,
      "##oh": 1535,
      "##dom": 1536,
      "##KG": 1537,
      "##JECT": 1538,
      "respiratory": 1539,
      "underwent": 1540,
      "virus": 1541,
      "BAC": 1542,
      "qu": 1543,
      "##red": 1544,
      "##line": 1545,
      "##pec": 1546,
      "##ury": 1547,
      "chol": 1548,
      "extr": 1549,
      "possib": 1550,
      "Acute": 1551,
      "tissue": 1552,
      "OBJECT": 1553,
      "OBJECTIV": 1554,
      "##UND": 1555,
      "##actic": 1556,
      "diss": 1557,
      "lymphoma": 1558,
      "insulin": 1559,
      "radiation": 1560,
      "recurrent": 1561,
      "##ROUND": 1562,
      "##KGROUND": 1563,
      "BACKGROUND": 1564,
      "##mend": 1565,
      "##ok": 1566,
      "##onitis": 1567,
      "##esting": 1568,
      "##reatment": 1569,
      "##och": 1570,
      "##aining": 1571,
      "short": 1572,
      "features": 1573,
      "important": 1574,
      "24": 1575,
      "if": 1576,
      "often": 1577,
      "being": 1578,
      "##ically": 1579,
      "seen": 1580,
      "infil": 1581,
      "pharmac": 1582,
      "##ledge": 1583,
      "HIV": 1584,
      "bilateral": 1585,
      "large": 1586,
      "sodium": 1587,
      "##sure": 1588,
      "##atoid": 1589,
      "##ash": 1590,
      "##ococc": 1591,
      "status": 1592,
      "respond": 1593,
      "meas": 1594,
      "into": 1595,
      "disorders": 1596,
      "inflammatory": 1597,
      "document": 1598,
      "authors": 1599,
      "Wh": 1600,
      "aw": 1601,
      "aff": 1602,
      "role": 1603,
      "##lastic": 1604,
      "##yr": 1605,
      "##arg": 1606,
      "eye": 1607,
      "##ias": 1608,
      "##fusion": 1609,
      "corne": 1610,
      "metast": 1611,
      "recommend": 1612,
      "Clin": 1613,
      "pancre": 1614,
      "further": 1615,
      "sch": 1616,
      "##onary": 1617,
      "threat": 1618,
      "##its": 1619,
      "##amazepine": 1620,
      "##ential": 1621,
      "##tein": 1622,
      "head": 1623,
      "##ardia": 1624,
      "medications": 1625,
      "##thalm": 1626,
      "small": 1627,
      "11": 1628,
      "horm": 1629,
      "kg": 1630,
      "mo": 1631,
      "##aj": 1632,
      "##val": 1633,
      "##son": 1634,
      "##inated": 1635,
      "##asia": 1636,
      "##leptic": 1637,
      "##ists": 1638,
      "##etes": 1639,
      "##ropri": 1640,
      "knowledge": 1641,
      "ulc": 1642,
      "##ves": 1643,
      "decreased": 1644,
      "As": 1645,
      "data": 1646,
      "##pro": 1647,
      "##function": 1648,
      "##ortic": 1649,
      "##osin": 1650,
      "##truc": 1651,
      "increasing": 1652,
      "suggests": 1653,
      "confirmed": 1654,
      "breast": 1655,
      "threatening": 1656,
      "Ad": 1657,
      "granul": 1658,
      "gastro": 1659,
      "##rough": 1660,
      "##acin": 1661,
      "age": 1662,
      "marked": 1663,
      "fluor": 1664,
      "exposure": 1665,
      "##ajor": 1666,
      "##oag": 1667,
      "##ise": 1668,
      "##ocl": 1669,
      "acc": 1670,
      "##uption": 1671,
      "general": 1672,
      "inhibitor": 1673,
      "progressive": 1674,
      "pathogen": 1675,
      "diabetes": 1676,
      "tubercul": 1677,
      "rheumatoid": 1678,
      "ful": 1679,
      "local": 1680,
      "muc": 1681,
      "##zym": 1682,
      "##oscop": 1683,
      "##uria": 1684,
      "##idine": 1685,
      "##opath": 1686,
      "##allen": 1687,
      "discontinued": 1688,
      "female": 1689,
      "16": 1690,
      "Patient": 1691,
      "mild": 1692,
      "major": 1693,
      "##esia": 1694,
      "##oral": 1695,
      "##ick": 1696,
      "##pheral": 1697,
      "medical": 1698,
      "##ograph": 1699,
      "started": 1700,
      "##aphyl": 1701,
      "hemorrhage": 1702,
      "50": 1703,
      "Treatment": 1704,
      "even": 1705,
      "lup": 1706,
      "##usual": 1707,
      "toler": 1708,
      "##olar": 1709,
      "##ocytic": 1710,
      "treat": 1711,
      "infar": 1712,
      "##ophosph": 1713,
      "injury": 1714,
      "similar": 1715,
      "refract": 1716,
      "resistant": 1717,
      "do": 1718,
      "prov": 1719,
      "thrombocyt": 1720,
      "resolution": 1721,
      "continued": 1722,
      "antibiotics": 1723,
      "primary": 1724,
      "##pir": 1725,
      "##oratory": 1726,
      "chlor": 1727,
      "##ably": 1728,
      "pressure": 1729,
      "coronary": 1730,
      "reviewed": 1731,
      "psori": 1732,
      "fluid": 1733,
      "dysfunction": 1734,
      "bleeding": 1735,
      "##lished": 1736,
      "corneal": 1737,
      "lupus": 1738,
      "25": 1739,
      "however": 1740,
      "very": 1741,
      "##sti": 1742,
      "##tid": 1743,
      "##erb": 1744,
      "abdom": 1745,
      "inhibitors": 1746,
      "nephro": 1747,
      "CASE": 1748,
      "##ropriate": 1749,
      "refractory": 1750,
      "rate": 1751,
      "##AR": 1752,
      "##istic": 1753,
      "##ited": 1754,
      "admitted": 1755,
      "activity": 1756,
      "clo": 1757,
      "suffer": 1758,
      "##anced": 1759,
      "died": 1760,
      "interaction": 1761,
      "beta": 1762,
      "elect": 1763,
      "human": 1764,
      "##trial": 1765,
      "##und": 1766,
      "##lovir": 1767,
      "usually": 1768,
      "##oblastic": 1769,
      "recovery": 1770,
      "calcium": 1771,
      "required": 1772,
      "OBJECTIVE": 1773,
      "CD": 1774,
      "Re": 1775,
      "Sever": 1776,
      "ap": 1777,
      "cat": 1778,
      "made": 1779,
      "##ovir": 1780,
      "those": 1781,
      "##roup": 1782,
      "##ulting": 1783,
      "##amb": 1784,
      "##sient": 1785,
      "adult": 1786,
      "unusual": 1787,
      "weight": 1788,
      "particular": 1789,
      "immune": 1790,
      "underg": 1791,
      "##ressed": 1792,
      "auto": 1793,
      "extrem": 1794,
      "##stitial": 1795,
      "few": 1796,
      "##lem": 1797,
      "##acil": 1798,
      "resulting": 1799,
      "heal": 1800,
      "suggested": 1801,
      "overd": 1802,
      "peripheral": 1803,
      "pregnancy": 1804,
      "regimen": 1805,
      "##osinophil": 1806,
      "bronch": 1807,
      "##avi": 1808,
      "##xy": 1809,
      "##estig": 1810,
      "anemia": 1811,
      "Three": 1812,
      "##cet": 1813,
      "despite": 1814,
      "complicated": 1815,
      "investig": 1816,
      "##medi": 1817,
      "##ieved": 1818,
      "safe": 1819,
      "##ontaneous": 1820,
      "based": 1821,
      "numb": 1822,
      "sol": 1823,
      "##ert": 1824,
      "##itone": 1825,
      "##uct": 1826,
      "##immun": 1827,
      "##ially": 1828,
      "##ectively": 1829,
      "emerg": 1830,
      "organ": 1831,
      "14": 1832,
      "Ph": 1833,
      "pat": 1834,
      "##oy": 1835,
      "##ene": 1836,
      "##acement": 1837,
      "death": 1838,
      "##otoxicity": 1839,
      "whom": 1840,
      "again": 1841,
      "causes": 1842,
      "remission": 1843,
      "pneumonia": 1844,
      "##testinal": 1845,
      "clozapine": 1846,
      "bacter": 1847,
      "stim": 1848,
      "ventricular": 1849,
      "##avir": 1850,
      "##II": 1851,
      "##tiz": 1852,
      "##odies": 1853,
      "ach": 1854,
      "##aging": 1855,
      "stop": 1856,
      "stage": 1857,
      "tran": 1858,
      "about": 1859,
      "occurrence": 1860,
      "eruption": 1861,
      "problem": 1862,
      "neuroleptic": 1863,
      "prednis": 1864,
      "erythemat": 1865,
      "carbamazepine": 1866,
      "documented": 1867,
      "13": 1868,
      "30": 1869,
      "six": 1870,
      "##auc": 1871,
      "##upt": 1872,
      "##ality": 1873,
      "##ycardia": 1874,
      "presence": 1875,
      "antid": 1876,
      "##urrent": 1877,
      "heparin": 1878,
      "##ocyte": 1879,
      "##ameth": 1880,
      "cyclospor": 1881,
      "return": 1882,
      "infarction": 1883,
      "##itoneal": 1884,
      "At": 1885,
      "cr": 1886,
      "cap": 1887,
      "so": 1888,
      "##fl": 1889,
      "##rel": 1890,
      "##omp": 1891,
      "##eminated": 1892,
      "protein": 1893,
      "##ects": 1894,
      "##ectomy": 1895,
      "hypoth": 1896,
      "combined": 1897,
      "continuous": 1898,
      "concentrations": 1899,
      "cir": 1900,
      "nod": 1901,
      "##enting": 1902,
      "##onate": 1903,
      "##intestinal": 1904,
      "##orb": 1905,
      "##asal": 1906,
      "##isting": 1907,
      "##very": 1908,
      "isch": 1909,
      "##cept": 1910,
      "neut": 1911,
      "##other": 1912,
      "noted": 1913,
      "intrac": 1914,
      "initial": 1915,
      "initiation": 1916,
      "fibrosis": 1917,
      "subsequent": 1918,
      "##pecially": 1919,
      "ped": 1920,
      "rash": 1921,
      "##cit": 1922,
      "thyroid": 1923,
      "they": 1924,
      "##phyl": 1925,
      "##oton": 1926,
      "##platin": 1927,
      "Intr": 1928,
      "presentation": 1929,
      "enzym": 1930,
      "##kinson": 1931,
      "##illin": 1932,
      "methyl": 1933,
      "dosage": 1934,
      "postoperative": 1935,
      "deficiency": 1936,
      "analysis": 1937,
      "##arcoma": 1938,
      "Des": 1939,
      "clear": 1940,
      "gas": 1941,
      "sw": 1942,
      "##ingle": 1943,
      "##ache": 1944,
      "##let": 1945,
      "proced": 1946,
      "##ances": 1947,
      "intrav": 1948,
      "##ychotic": 1949,
      "especially": 1950,
      "Am": 1951,
      "No": 1952,
      "eosinophil": 1953,
      "wide": 1954,
      "##vul": 1955,
      "##TI": 1956,
      "##ided": 1957,
      "beg": 1958,
      "##plication": 1959,
      "##imal": 1960,
      "##ages": 1961,
      "##ypical": 1962,
      "##ability": 1963,
      "##ayed": 1964,
      "##oxication": 1965,
      "##azine": 1966,
      "prior": 1967,
      "intoxication": 1968,
      "##axis": 1969,
      "abscess": 1970,
      "anticoag": 1971,
      "##psychotic": 1972,
      "stopp": 1973,
      "acet": 1974,
      "cis": 1975,
      "est": 1976,
      "single": 1977,
      "tem": 1978,
      "war": 1979,
      "##gal": 1980,
      "##ption": 1981,
      "##come": 1982,
      "##ML": 1983,
      "##UR": 1984,
      "##FN": 1985,
      "##icac": 1986,
      "beh": 1987,
      "where": 1988,
      "agg": 1989,
      "epile": 1990,
      "scler": 1991,
      "cerebral": 1992,
      "##ique": 1993,
      "DI": 1994,
      "rh": 1995,
      "##anzapine": 1996,
      "##omas": 1997,
      "prost": 1998,
      "altern": 1999,
      "antipsychotic": 2000,
      "haem": 2001,
      "rarely": 2002,
      "emb": 2003,
      "arterial": 2004,
      "recurrence": 2005,
      "steroids": 2006,
      "##rophy": 2007,
      "concentration": 2008,
      "monitoring": 2009,
      "undergo": 2010,
      "Both": 2011,
      "Ig": 2012,
      "cre": 2013,
      "cult": 2014,
      "less": 2015,
      "##eth": 2016,
      "##iod": 2017,
      "##uff": 2018,
      "##ded": 2019,
      "through": 2020,
      "##oglyc": 2021,
      "prescrib": 2022,
      "##ival": 2023,
      "##ouracil": 2024,
      "uncom": 2025,
      "spontaneous": 2026,
      "included": 2027,
      "diffuse": 2028,
      "##phalopathy": 2029,
      "elevated": 2030,
      "aware": 2031,
      "gastrointestinal": 2032,
      "Un": 2033,
      "ca": 2034,
      "grow": 2035,
      "line": 2036,
      "##thetic": 2037,
      "##trates": 2038,
      "##irl": 2039,
      "lip": 2040,
      "##ytoin": 2041,
      "interstitial": 2042,
      "spinal": 2043,
      "occurring": 2044,
      "##ocardial": 2045,
      "##lobulin": 2046,
      "number": 2047,
      "200": 2048,
      "ro": 2049,
      "sal": 2050,
      "##iting": 2051,
      "##toxicity": 2052,
      "##yn": 2053,
      "##tib": 2054,
      "##omer": 2055,
      "##ecal": 2056,
      "##iam": 2057,
      "prot": 2058,
      "immedi": 2059,
      "##ize": 2060,
      "ocular": 2061,
      "##ake": 2062,
      "depend": 2063,
      "experience": 2064,
      "tests": 2065,
      "100": 2066,
      "CS": 2067,
      "vas": 2068,
      "##rug": 2069,
      "##ning": 2070,
      "intensive": 2071,
      "##ust": 2072,
      "deter": 2073,
      "adj": 2074,
      "many": 2075,
      "recept": 2076,
      "##ermal": 2077,
      "##rav": 2078,
      "##viral": 2079,
      "complex": 2080,
      "diffic": 2081,
      "commonly": 2082,
      "specific": 2083,
      "decrease": 2084,
      "##titution": 2085,
      "subsequently": 2086,
      "hormone": 2087,
      "##allenge": 2088,
      "##ophosphamide": 2089,
      "##immune": 2090,
      "IFN": 2091,
      "Par": 2092,
      "Rec": 2093,
      "mas": 2094,
      "nerv": 2095,
      "tach": 2096,
      "##li": 2097,
      "##ae": 2098,
      "##farin": 2099,
      "##US": 2100,
      "retin": 2101,
      "##ulating": 2102,
      "##acerb": 2103,
      "prof": 2104,
      "stand": 2105,
      "efficac": 2106,
      "relative": 2107,
      "depression": 2108,
      "advanced": 2109,
      "muscle": 2110,
      "thrombocytopenia": 2111,
      "graft": 2112,
      "nit": 2113,
      "##cutaneous": 2114,
      "##ird": 2115,
      "##imes": 2116,
      "prophyl": 2117,
      "sequ": 2118,
      "prevent": 2119,
      "mean": 2120,
      "clinically": 2121,
      "##rosp": 2122,
      "impair": 2123,
      "##ocytosis": 2124,
      "outcome": 2125,
      "##ventional": 2126,
      "support": 2127,
      "suspected": 2128,
      "schiz": 2129,
      "Patients": 2130,
      "group": 2131,
      "mm": 2132,
      "mag": 2133,
      "##tro": 2134,
      "##den": 2135,
      "##TX": 2136,
      "##arone": 2137,
      "##ither": 2138,
      "##osus": 2139,
      "##omat": 2140,
      "##olol": 2141,
      "##ured": 2142,
      "##iaz": 2143,
      "##ili": 2144,
      "although": 2145,
      "infant": 2146,
      "olanzapine": 2147,
      "prec": 2148,
      "arr": 2149,
      "colon": 2150,
      "gener": 2151,
      "reduced": 2152,
      "reduction": 2153,
      "must": 2154,
      "mechanisms": 2155,
      "transient": 2156,
      "pediatric": 2157,
      "embol": 2158,
      "17": 2159,
      "IV": 2160,
      "dam": 2161,
      "might": 2162,
      "pap": 2163,
      "##ines": 2164,
      "repl": 2165,
      "##idual": 2166,
      "dex": 2167,
      "##seud": 2168,
      "##plasia": 2169,
      "##imus": 2170,
      "indic": 2171,
      "assess": 2172,
      "##ophren": 2173,
      "surv": 2174,
      "neuropathy": 2175,
      "glomer": 2176,
      "became": 2177,
      "rapidly": 2178,
      "evaluation": 2179,
      "episodes": 2180,
      "##appear": 2181,
      "reversible": 2182,
      "identified": 2183,
      "abdominal": 2184,
      "antidep": 2185,
      "18": 2186,
      "IN": 2187,
      "##mission": 2188,
      "##CA": 2189,
      "##ension": 2190,
      "##onazole": 2191,
      "though": 2192,
      "third": 2193,
      "stem": 2194,
      "atypical": 2195,
      "describes": 2196,
      "event": 2197,
      "##ogenic": 2198,
      "necess": 2199,
      "199": 2200,
      "autoimmune": 2201,
      "health": 2202,
      "behavi": 2203,
      "schizophren": 2204,
      "Com": 2205,
      "Our": 2206,
      "With": 2207,
      "led": 2208,
      "##hip": 2209,
      "aden": 2210,
      "active": 2211,
      "exacerb": 2212,
      "class": 2213,
      "##isted": 2214,
      "seroton": 2215,
      "phot": 2216,
      "phys": 2217,
      "##ationship": 2218,
      "shown": 2219,
      "##ogram": 2220,
      "insuff": 2221,
      "##ungal": 2222,
      "observ": 2223,
      "appears": 2224,
      "repe": 2225,
      "laboratory": 2226,
      "tuberculosis": 2227,
      "##ographic": 2228,
      "Despite": 2229,
      "undergoing": 2230,
      "tw": 2231,
      "ter": 2232,
      "##man": 2233,
      "##MS": 2234,
      "##EN": 2235,
      "##NA": 2236,
      "##onal": 2237,
      "##ind": 2238,
      "##lying": 2239,
      "##itation": 2240,
      "##atelet": 2241,
      "imaging": 2242,
      "##ains": 2243,
      "incidence": 2244,
      "##ymptom": 2245,
      "##rolimus": 2246,
      "cyclophosphamide": 2247,
      "recovered": 2248,
      "dermat": 2249,
      "immunosuppressive": 2250,
      "electro": 2251,
      "Severe": 2252,
      "standard": 2253,
      "antidepress": 2254,
      "pur": 2255,
      "pop": 2256,
      "tom": 2257,
      "##var": 2258,
      "##rec": 2259,
      "reac": 2260,
      "##itre": 2261,
      "##pho": 2262,
      "set": 2263,
      "trial": 2264,
      "##oxif": 2265,
      "relationship": 2266,
      "diabetic": 2267,
      "venous": 2268,
      "psoriasis": 2269,
      "warfarin": 2270,
      "##iodarone": 2271,
      "dialysis": 2272,
      "girl": 2273,
      "ve": 2274,
      "##lusion": 2275,
      "##old": 2276,
      "##trib": 2277,
      "##agon": 2278,
      "intrath": 2279,
      "useful": 2280,
      "phosph": 2281,
      "##oung": 2282,
      "obstruc": 2283,
      "acidosis": 2284,
      "avail": 2285,
      "manifestations": 2286,
      "overdose": 2287,
      "cyclosporine": 2288,
      "efficacy": 2289,
      "Im": 2290,
      "tech": 2291,
      "young": 2292,
      "##iety": 2293,
      "##otr": 2294,
      "##art": 2295,
      "##iab": 2296,
      "##ocular": 2297,
      "white": 2298,
      "disappear": 2299,
      "exp": 2300,
      "seem": 2301,
      "lev": 2302,
      "##azol": 2303,
      "myocardial": 2304,
      "conclud": 2305,
      "completely": 2306,
      "count": 2307,
      "irr": 2308,
      "recommended": 2309,
      "##ovirus": 2310,
      "cisplatin": 2311,
      "damage": 2312,
      "##photer": 2313,
      "techn": 2314,
      "body": 2315,
      "boy": 2316,
      "mit": 2317,
      "##ling": 2318,
      "##SC": 2319,
      "##uring": 2320,
      "expl": 2321,
      "hypot": 2322,
      "##pper": 2323,
      "interval": 2324,
      "##ences": 2325,
      "respectively": 2326,
      "##tivation": 2327,
      "phenytoin": 2328,
      "persistent": 2329,
      "avoid": 2330,
      "illus": 2331,
      "erythematosus": 2332,
      "uncommon": 2333,
      "tachycardia": 2334,
      "##photericin": 2335,
      "PUR": 2336,
      "eti": 2337,
      "free": 2338,
      "tac": 2339,
      "upper": 2340,
      "##light": 2341,
      "##onvul": 2342,
      "then": 2343,
      "ant": 2344,
      "retinal": 2345,
      "##osed": 2346,
      "##ull": 2347,
      "dist": 2348,
      "extensive": 2349,
      "syn": 2350,
      "##oxacin": 2351,
      "unc": 2352,
      "##roscop": 2353,
      "##ogenous": 2354,
      "probably": 2355,
      "pneumonitis": 2356,
      "recognized": 2357,
      "##POSE": 2358,
      "disseminated": 2359,
      "metastatic": 2360,
      "PURPOSE": 2361,
      "CM": 2362,
      "lam": 2363,
      "pe": 2364,
      "##af": 2365,
      "anterior": 2366,
      "##ict": 2367,
      "##retion": 2368,
      "##omal": 2369,
      "##urb": 2370,
      "##idne": 2371,
      "##itant": 2372,
      "##unt": 2373,
      "##essation": 2374,
      "recently": 2375,
      "att": 2376,
      "series": 2377,
      "intervention": 2378,
      "consistent": 2379,
      "##omegal": 2380,
      "##ranial": 2381,
      "women": 2382,
      "necro": 2383,
      "antibody": 2384,
      "herp": 2385,
      "##oplasm": 2386,
      "importance": 2387,
      "different": 2388,
      "benef": 2389,
      "characterized": 2390,
      "nephrotic": 2391,
      "##orbid": 2392,
      "nervous": 2393,
      "21": 2394,
      "Drug": 2395,
      "bi": 2396,
      "kidne": 2397,
      "mass": 2398,
      "##oe": 2399,
      "##asone": 2400,
      "##ison": 2401,
      "##omen": 2402,
      "##ides": 2403,
      "##uccessful": 2404,
      "alone": 2405,
      "scan": 2406,
      "method": 2407,
      "colitis": 2408,
      "occurs": 2409,
      "polym": 2410,
      "ulcer": 2411,
      "available": 2412,
      "CT": 2413,
      "az": 2414,
      "pub": 2415,
      "##ational": 2416,
      "##iagn": 2417,
      "##oglo": 2418,
      "##tention": 2419,
      "events": 2420,
      "compar": 2421,
      "##ovascular": 2422,
      "dermatitis": 2423,
      "microg": 2424,
      "Clinical": 2425,
      "achieved": 2426,
      "CSF": 2427,
      "insufficiency": 2428,
      "##oglobin": 2429,
      "Hyp": 2430,
      "cessation": 2431,
      "dop": 2432,
      "late": 2433,
      "same": 2434,
      "##assi": 2435,
      "##roh": 2436,
      "admission": 2437,
      "##yclovir": 2438,
      "##mong": 2439,
      "diseases": 2440,
      "appropriate": 2441,
      "remained": 2442,
      "viral": 2443,
      "conditions": 2444,
      "ultr": 2445,
      "frequently": 2446,
      "likely": 2447,
      "neurologic": 2448,
      "arrhythm": 2449,
      "40": 2450,
      "Ex": 2451,
      "PD": 2452,
      "hal": 2453,
      "vin": 2454,
      "##lu": 2455,
      "##RI": 2456,
      "##erve": 2457,
      "deg": 2458,
      "asthm": 2459,
      "aspir": 2460,
      "pros": 2461,
      "recent": 2462,
      "phenomen": 2463,
      "controlled": 2464,
      "valpro": 2465,
      "keratitis": 2466,
      "sinus": 2467,
      "When": 2468,
      "particularly": 2469,
      "growth": 2470,
      "schizophrenia": 2471,
      "vein": 2472,
      "intrathecal": 2473,
      "Ne": 2474,
      "each": 2475,
      "mening": 2476,
      "optic": 2477,
      "te": 2478,
      "wors": 2479,
      "##les": 2480,
      "##kal": 2481,
      "##PA": 2482,
      "##ositis": 2483,
      "##ulitis": 2484,
      "##ters": 2485,
      "##amic": 2486,
      "##umab": 2487,
      "##otoxic": 2488,
      "super": 2489,
      "hemod": 2490,
      "amiodarone": 2491,
      "injections": 2492,
      "repres": 2493,
      "prompt": 2494,
      "##ximab": 2495,
      "possibility": 2496,
      "##ococcus": 2497,
      "tolerated": 2498,
      "##aucoma": 2499,
      "alternative": 2500,
      "prescribed": 2501,
      "massive": 2502,
      "48": 2503,
      "AI": 2504,
      "amin": 2505,
      "ovar": 2506,
      "##iel": 2507,
      "##nes": 2508,
      "##PD": 2509,
      "##esc": 2510,
      "##icine": 2511,
      "##osa": 2512,
      "##ecti": 2513,
      "##ysm": 2514,
      "infected": 2515,
      "trig": 2516,
      "hypoglyc": 2517,
      "sud": 2518,
      "until": 2519,
      "direct": 2520,
      "transfusion": 2521,
      "##derly": 2522,
      "contact": 2523,
      "underlying": 2524,
      "diagnostic": 2525,
      "absence": 2526,
      "approach": 2527,
      "epidural": 2528,
      "recipients": 2529,
      "pancreatitis": 2530,
      "headache": 2531,
      "enzyme": 2532,
      "receptor": 2533,
      "##itreal": 2534,
      "eth": 2535,
      "las": 2536,
      "morph": 2537,
      "urin": 2538,
      "##br": 2539,
      "##ses": 2540,
      "##domy": 2541,
      "##HD": 2542,
      "##eric": 2543,
      "##idone": 2544,
      "##ments": 2545,
      "##phen": 2546,
      "##imab": 2547,
      "##abdomy": 2548,
      "presenting": 2549,
      "subs": 2550,
      "ence": 2551,
      "platelet": 2552,
      "lymphoblastic": 2553,
      "antibodies": 2554,
      "##iximab": 2555,
      "##yroidism": 2556,
      "contrib": 2557,
      "##gestion": 2558,
      "poor": 2559,
      "##ochem": 2560,
      "against": 2561,
      "returned": 2562,
      "estab": 2563,
      "setting": 2564,
      "hypotension": 2565,
      "disturb": 2566,
      "sudden": 2567,
      "En": 2568,
      "HC": 2569,
      "et": 2570,
      "here": 2571,
      "##renal": 2572,
      "##ioid": 2573,
      "##LL": 2574,
      "##till": 2575,
      "##edema": 2576,
      "##ined": 2577,
      "##essive": 2578,
      "##itus": 2579,
      "##apse": 2580,
      "bel": 2581,
      "##igment": 2582,
      "change": 2583,
      "posterior": 2584,
      "cord": 2585,
      "enter": 2586,
      "containing": 2587,
      "##ocytes": 2588,
      "amphotericin": 2589,
      "glaucoma": 2590,
      "elderly": 2591,
      "inflammation": 2592,
      "metabolic": 2593,
      "recipient": 2594,
      "responded": 2595,
      "stopped": 2596,
      "aggressive": 2597,
      "antagon": 2598,
      "CMV": 2599,
      "Further": 2600,
      "PC": 2601,
      "gu": 2602,
      "lens": 2603,
      "vasc": 2604,
      "##pred": 2605,
      "##inase": 2606,
      "##roduc": 2607,
      "##emcit": 2608,
      "##opic": 2609,
      "##ocol": 2610,
      "##amp": 2611,
      "conventional": 2612,
      "##otor": 2613,
      "##iferative": 2614,
      "partial": 2615,
      "obtained": 2616,
      "concom": 2617,
      "##arditis": 2618,
      "##obacter": 2619,
      "endome": 2620,
      "appeared": 2621,
      "episode": 2622,
      "kerat": 2623,
      "##ohol": 2624,
      "fluorouracil": 2625,
      "circ": 2626,
      "dependent": 2627,
      "difficult": 2628,
      "urinary": 2629,
      "##emcitabine": 2630,
      "AC": 2631,
      "SU": 2632,
      "atrial": 2633,
      "either": 2634,
      "m2": 2635,
      "##otid": 2636,
      "##50": 2637,
      "##oside": 2638,
      "##ocomp": 2639,
      "deterior": 2640,
      "##unc": 2641,
      "developing": 2642,
      "##ella": 2643,
      "higher": 2644,
      "appar": 2645,
      "emph": 2646,
      "strong": 2647,
      "involvement": 2648,
      "saf": 2649,
      "immunosuppression": 2650,
      "detected": 2651,
      "neurological": 2652,
      "since": 2653,
      "##ituximab": 2654,
      "cholest": 2655,
      "emergency": 2656,
      "relatively": 2657,
      "population": 2658,
      "##abdomyolysis": 2659,
      "Croh": 2660,
      "LA": 2661,
      "Ser": 2662,
      "Tr": 2663,
      "cri": 2664,
      "ox": 2665,
      "##iated": 2666,
      "##iasis": 2667,
      "##cohol": 2668,
      "##oper": 2669,
      "##try": 2670,
      "##tical": 2671,
      "isol": 2672,
      "immunod": 2673,
      "##ieve": 2674,
      "careful": 2675,
      "seizure": 2676,
      "illness": 2677,
      "generalized": 2678,
      "pattern": 2679,
      "neutrop": 2680,
      "replacement": 2681,
      "tomography": 2682,
      "concomitant": 2683,
      "safety": 2684,
      "Crohn": 2685,
      "Four": 2686,
      "Her": 2687,
      "TN": 2688,
      "among": 2689,
      "every": 2690,
      "mel": 2691,
      "ple": 2692,
      "pseud": 2693,
      "vascular": 2694,
      "##iver": 2695,
      "##ision": 2696,
      "##read": 2697,
      "##trac": 2698,
      "##amoxif": 2699,
      "infants": 2700,
      "induction": 2701,
      "prepar": 2702,
      "complic": 2703,
      "##ophthalm": 2704,
      "subj": 2705,
      "##binant": 2706,
      "##hyd": 2707,
      "histological": 2708,
      "neurotoxicity": 2709,
      "eyes": 2710,
      "leading": 2711,
      "additional": 2712,
      "frequency": 2713,
      "##amethasone": 2714,
      "temp": 2715,
      "kidney": 2716,
      "ovarian": 2717,
      "##amoxifen": 2718,
      "AML": 2719,
      "CN": 2720,
      "During": 2721,
      "bow": 2722,
      "hel": 2723,
      "host": 2724,
      "nerve": 2725,
      "##yel": 2726,
      "##MM": 2727,
      "ingestion": 2728,
      "##oration": 2729,
      "##rog": 2730,
      "##ithel": 2731,
      "##oster": 2732,
      "##trate": 2733,
      "##imin": 2734,
      "alcohol": 2735,
      "implant": 2736,
      "##uretic": 2737,
      "##aryn": 2738,
      "##ancies": 2739,
      "artic": 2740,
      "##ensitiz": 2741,
      "taken": 2742,
      "starting": 2743,
      "poly": 2744,
      "vitamin": 2745,
      "generally": 2746,
      "serotonin": 2747,
      "SUMM": 2748,
      "TNF": 2749,
      "SUMMAR": 2750,
      "Case": 2751,
      "II": 2752,
      "Neu": 2753,
      "cyst": 2754,
      "idi": 2755,
      "times": 2756,
      "ver": 2757,
      "wor": 2758,
      "##etine": 2759,
      "##toxic": 2760,
      "##MT": 2761,
      "##SA": 2762,
      "##ules": 2763,
      "##ites": 2764,
      "##tral": 2765,
      "##romised": 2766,
      "##phthalm": 2767,
      "##ellular": 2768,
      "##oxetine": 2769,
      "duration": 2770,
      "##ipr": 2771,
      "allergic": 2772,
      "endoc": 2773,
      "##eficiency": 2774,
      "##ixed": 2775,
      "progression": 2776,
      "predis": 2777,
      "involving": 2778,
      "delayed": 2779,
      "valve": 2780,
      "grade": 2781,
      "prednisone": 2782,
      "DISC": 2783,
      "##USSION": 2784,
      "DISCUSSION": 2785,
      "60": 2786,
      "His": 2787,
      "don": 2788,
      "myc": 2789,
      "memb": 2790,
      "##oqu": 2791,
      "thor": 2792,
      "##orn": 2793,
      "another": 2794,
      "##asion": 2795,
      "##oprol": 2796,
      "##amil": 2797,
      "##ucle": 2798,
      "septic": 2799,
      "close": 2800,
      "##chlor": 2801,
      "##perg": 2802,
      "immunocomp": 2803,
      "failed": 2804,
      "remov": 2805,
      "include": 2806,
      "##ycline": 2807,
      "##imeth": 2808,
      "tumors": 2809,
      "infliximab": 2810,
      "vision": 2811,
      "requiring": 2812,
      "grad": 2813,
      "poison": 2814,
      "pathogenesis": 2815,
      "suffered": 2816,
      "obstruction": 2817,
      "Meth": 2818,
      "QT": 2819,
      "der": 2820,
      "mut": 2821,
      "penic": 2822,
      "##gia": 2823,
      "thyro": 2824,
      "##esth": 2825,
      "##rob": 2826,
      "rele": 2827,
      "##omide": 2828,
      "##ident": 2829,
      "##itch": 2830,
      "##tions": 2831,
      "consequ": 2832,
      "##aden": 2833,
      "acyclovir": 2834,
      "allow": 2835,
      "shunt": 2836,
      "##ancomycin": 2837,
      "concer": 2838,
      "lymphocytic": 2839,
      "typical": 2840,
      "##rogenic": 2841,
      "movement": 2842,
      "##oscopic": 2843,
      "problems": 2844,
      "ischemic": 2845,
      "intravitreal": 2846,
      "widely": 2847,
      "rhabdomyolysis": 2848,
      "Parkinson": 2849,
      "prophylaxis": 2850,
      "thought": 2851,
      "##ymptomatic": 2852,
      "##omegalovirus": 2853,
      "hemodialysis": 2854,
      "##prednis": 2855,
      "immunodeficiency": 2856,
      "bowel": 2857,
      "Hist": 2858,
      "MTX": 2859,
      "PT": 2860,
      "air": 2861,
      "mes": 2862,
      "poin": 2863,
      "site": 2864,
      "valu": 2865,
      "##ays": 2866,
      "##oal": 2867,
      "##utine": 2868,
      "##ins": 2869,
      "##asive": 2870,
      "##anth": 2871,
      "##retro": 2872,
      "##osine": 2873,
      "##omyc": 2874,
      "treating": 2875,
      "##ump": 2876,
      "##oglobulin": 2877,
      "chrom": 2878,
      "##ystic": 2879,
      "acu": 2880,
      "##udine": 2881,
      "##netic": 2882,
      "symptomatic": 2883,
      "enc": 2884,
      "mediated": 2885,
      "intraocular": 2886,
      "leukaemia": 2887,
      "remains": 2888,
      "coll": 2889,
      "radiotherapy": 2890,
      "myeloid": 2891,
      "analog": 2892,
      "various": 2893,
      "coag": 2894,
      "monitored": 2895,
      "characteristic": 2896,
      "hepatotoxicity": 2897,
      "methylprednis": 2898,
      "gastric": 2899,
      "repeated": 2900,
      "published": 2901,
      "phenomenon": 2902,
      "SUMMARY": 2903,
      "##pergill": 2904,
      "##retroviral": 2905,
      "23": 2906,
      "35": 2907,
      "dyst": 2908,
      "good": 2909,
      "ml": 2910,
      "men": 2911,
      "morbid": 2912,
      "pac": 2913,
      "sens": 2914,
      "##less": 2915,
      "##tent": 2916,
      "##vant": 2917,
      "##xt": 2918,
      "##ened": 2919,
      "##onance": 2920,
      "##isc": 2921,
      "refer": 2922,
      "##ulated": 2923,
      "dev": 2924,
      "##inetic": 2925,
      "##umin": 2926,
      "conj": 2927,
      "##otyp": 2928,
      "process": 2929,
      "rest": 2930,
      "acquir": 2931,
      "leg": 2932,
      "indicated": 2933,
      "##minant": 2934,
      "part": 2935,
      "region": 2936,
      "dyskin": 2937,
      "elevation": 2938,
      "possibly": 2939,
      "tacrolimus": 2940,
      "##ophthalmitis": 2941,
      "poisoning": 2942,
      "methylprednisolone": 2943,
      "Bec": 2944,
      "FU": 2945,
      "Here": 2946,
      "fac": 2947,
      "gre": 2948,
      "gemcitabine": 2949,
      "hand": 2950,
      "lat": 2951,
      "mort": 2952,
      "pal": 2953,
      "rituximab": 2954,
      "situ": 2955,
      "still": 2956,
      "vol": 2957,
      "##mine": 2958,
      "##ida": 2959,
      "##idal": 2960,
      "##emph": 2961,
      "##trum": 2962,
      "chest": 2963,
      "disch": 2964,
      "resonance": 2965,
      "exce": 2966,
      "seven": 2967,
      "having": 2968,
      "##ageal": 2969,
      "##ophageal": 2970,
      "##ross": 2971,
      "enh": 2972,
      "myocl": 2973,
      "therefore": 2974,
      "exposed": 2975,
      "limited": 2976,
      "recognition": 2977,
      "##opril": 2978,
      "glucose": 2979,
      "anticoagul": 2980,
      "glomerul": 2981,
      "healthy": 2982,
      "##artment": 2983,
      "disappeared": 2984,
      "ultras": 2985,
      "acuity": 2986,
      "Because": 2987,
      "##emphig": 2988,
      "Myc": 2989,
      "Successful": 2990,
      "bac": 2991,
      "ophthalm": 2992,
      "sarcoma": 2993,
      "vom": 2994,
      "##ioma": 2995,
      "##oi": 2996,
      "##CG": 2997,
      "##RT": 2998,
      "##ator": 2999,
      "anaphyl": 3000,
      "##icial": 3001,
      "##veolar": 3002,
      "##ocar": 3003,
      "##ocortic": 3004,
      "##agic": 3005,
      "##abil": 3006,
      "antiretroviral": 3007,
      "induce": 3008,
      "##peridone": 3009,
      "hemolytic": 3010,
      "##adiation": 3011,
      "scre": 3012,
      "computed": 3013,
      "initiated": 3014,
      "tumour": 3015,
      "anticonvul": 3016,
      "Intra": 3017,
      "necessary": 3018,
      "purp": 3019,
      "phosphate": 3020,
      "##ield": 3021,
      "complicating": 3022,
      "predispos": 3023,
      "removal": 3024,
      "acquired": 3025,
      "22": 3026,
      "Hep": 3027,
      "dil": 3028,
      "duct": 3029,
      "tamoxifen": 3030,
      "will": 3031,
      "##equ": 3032,
      "##oz": 3033,
      "##BV": 3034,
      "##onat": 3035,
      "##onec": 3036,
      "inten": 3037,
      "##ark": 3038,
      "##aract": 3039,
      "##roke": 3040,
      "toge": 3041,
      "##adder": 3042,
      "##odg": 3043,
      "tract": 3044,
      "perit": 3045,
      "peritoneal": 3046,
      "##izing": 3047,
      "##hea": 3048,
      "##ospasm": 3049,
      "##ressin": 3050,
      "spectrum": 3051,
      "significantly": 3052,
      "psychiatric": 3053,
      "##psis": 3054,
      "formation": 3055,
      "macular": 3056,
      "##ertain": 3057,
      "creatin": 3058,
      "##assium": 3059,
      "neutropenia": 3060,
      "vomiting": 3061,
      "together": 3062,
      "Med": 3063,
      "testing": 3064,
      "vancomycin": 3065,
      "##rill": 3066,
      "##ire": 3067,
      "##ysi": 3068,
      "##sential": 3069,
      "##AD": 3070,
      "##RA": 3071,
      "##round": 3072,
      "##ule": 3073,
      "##tri": 3074,
      "asymptomatic": 3075,
      "##romycin": 3076,
      "##resp": 3077,
      "##plastic": 3078,
      "accom": 3079,
      "neon": 3080,
      "rech": 3081,
      "##ividual": 3082,
      "antigen": 3083,
      "unit": 3084,
      "##nea": 3085,
      "subcutaneous": 3086,
      "immunoglobulin": 3087,
      "##ergy": 3088,
      "suggesting": 3089,
      "##rief": 3090,
      "introduc": 3091,
      "initially": 3092,
      "specim": 3093,
      "##remia": 3094,
      "recombinant": 3095,
      "organism": 3096,
      "mainly": 3097,
      "##ximately": 3098,
      "revers": 3099,
      "irre": 3100,
      "##oscopy": 3101,
      "application": 3102,
      "cataract": 3103,
      "eosinophilia": 3104,
      "dexamethasone": 3105,
      "technique": 3106,
      "compared": 3107,
      "asthma": 3108,
      "##ectious": 3109,
      "vasculitis": 3110,
      "article": 3111,
      "donor": 3112,
      "anticonvuls": 3113,
      "36": 3114,
      "DNA": 3115,
      "RA": 3116,
      "eight": 3117,
      "lo": 3118,
      "mental": 3119,
      "past": 3120,
      "ra": 3121,
      "##ger": 3122,
      "##tre": 3123,
      "##aine": 3124,
      "##ues": 3125,
      "##pan": 3126,
      "##cor": 3127,
      "##VHD": 3128,
      "##AT": 3129,
      "##asth": 3130,
      "##ithromycin": 3131,
      "##opulmonary": 3132,
      "##mental": 3133,
      "##amatic": 3134,
      "##cep": 3135,
      "adrenal": 3136,
      "activ": 3137,
      "sepsis": 3138,
      "state": 3139,
      "least": 3140,
      "orig": 3141,
      "##elling": 3142,
      "dramatic": 3143,
      "##stan": 3144,
      "attrib": 3145,
      "correl": 3146,
      "occasion": 3147,
      "thrombus": 3148,
      "epithel": 3149,
      "potassium": 3150,
      "##ranolol": 3151,
      "endophthalmitis": 3152,
      "probable": 3153,
      "appearance": 3154,
      "involved": 3155,
      "moder": 3156,
      "affected": 3157,
      "##opathic": 3158,
      "adults": 3159,
      "intracranial": 3160,
      "epilep": 3161,
      "routine": 3162,
      "established": 3163,
      "##unctiv": 3164,
      "morbidity": 3165,
      "##odgkin": 3166,
      "28": 3167,
      "Early": 3168,
      "Five": 3169,
      "Hodgkin": 3170,
      "Post": 3171,
      "SI": 3172,
      "base": 3173,
      "byp": 3174,
      "field": 3175,
      "mol": 3176,
      "oper": 3177,
      "pul": 3178,
      "##last": 3179,
      "##ty": 3180,
      "##oence": 3181,
      "##LD": 3182,
      "##EPO": 3183,
      "##olid": 3184,
      "##urg": 3185,
      "##urysm": 3186,
      "##utol": 3187,
      "whe": 3188,
      "proper": 3189,
      "individual": 3190,
      "areas": 3191,
      "##lofen": 3192,
      "thrombolytic": 3193,
      "amp": 3194,
      "##alcemia": 3195,
      "responsible": 3196,
      "##ardive": 3197,
      "suscep": 3198,
      "##rophil": 3199,
      "198": 3200,
      "psychosis": 3201,
      "##ranulocytosis": 3202,
      "limb": 3203,
      "quin": 3204,
      "##ambutol": 3205,
      "switch": 3206,
      "procedure": 3207,
      "##iliary": 3208,
      "survival": 3209,
      "twice": 3210,
      "emphas": 3211,
      "help": 3212,
      "##oproliferative": 3213,
      "peritonitis": 3214,
      "bypass": 3215,
      "susceptib": 3216,
      "Sub": 3217,
      "dig": 3218,
      "pemphig": 3219,
      "##uvant": 3220,
      "##onus": 3221,
      "##ising": 3222,
      "##rept": 3223,
      "##roid": 3224,
      "##ectr": 3225,
      "##lex": 3226,
      "deep": 3227,
      "##umed": 3228,
      "##els": 3229,
      "##otrop": 3230,
      "comm": 3231,
      "##plement": 3232,
      "stent": 3233,
      "hyponat": 3234,
      "##ification": 3235,
      "##cris": 3236,
      "##urrently": 3237,
      "relaps": 3238,
      "##ipro": 3239,
      "microscop": 3240,
      "myeloma": 3241,
      "minimal": 3242,
      "essential": 3243,
      "metabolism": 3244,
      "epidermal": 3245,
      "determin": 3246,
      "seems": 3247,
      "herpes": 3248,
      "##ochemical": 3249,
      "##ensitization": 3250,
      "immunocompromised": 3251,
      "mortality": 3252,
      "##onecrosis": 3253,
      "Fol": 3254,
      "Pos": 3255,
      "ur": 3256,
      "would": 3257,
      "##arding": 3258,
      "##ics": 3259,
      "##icillin": 3260,
      "##usc": 3261,
      "##itary": 3262,
      "conver": 3263,
      "##erapies": 3264,
      "challenge": 3265,
      "coma": 3266,
      "##plicated": 3267,
      "add": 3268,
      "##earch": 3269,
      "along": 3270,
      "##oxin": 3271,
      "attention": 3272,
      "##crip": 3273,
      "Inter": 3274,
      "clinicians": 3275,
      "relapse": 3276,
      "##ministration": 3277,
      "parent": 3278,
      "parame": 3279,
      "myasth": 3280,
      "##omyopathy": 3281,
      "cardiomyopathy": 3282,
      "bladder": 3283,
      "outp": 3284,
      "cytomegalovirus": 3285,
      "malignancy": 3286,
      "evaluated": 3287,
      "Therefore": 3288,
      "##arrhythm": 3289,
      "##arged": 3290,
      "extreme": 3291,
      "procedures": 3292,
      "immediate": 3293,
      "physicians": 3294,
      "observation": 3295,
      "antidepressant": 3296,
      "conclude": 3297,
      "illustrates": 3298,
      "encephalopathy": 3299,
      "##esthesia": 3300,
      "release": 3301,
      "dyskinesia": 3302,
      "##ocarcinoma": 3303,
      "epilepsy": 3304,
      "##oencephalopathy": 3305,
      "##cristine": 3306,
      "AD": 3307,
      "Diagn": 3308,
      "Sin": 3309,
      "back": 3310,
      "brief": 3311,
      "fet": 3312,
      "fungal": 3313,
      "gang": 3314,
      "ile": 3315,
      "mater": 3316,
      "nor": 3317,
      "nons": 3318,
      "rif": 3319,
      "##lit": 3320,
      "##LS": 3321,
      "##OP": 3322,
      "##osc": 3323,
      "##omin": 3324,
      "##terol": 3325,
      "##empt": 3326,
      "##opressin": 3327,
      "depos": 3328,
      "##phrine": 3329,
      "##rest": 3330,
      "whose": 3331,
      "cho": 3332,
      "action": 3333,
      "##ypt": 3334,
      "shock": 3335,
      "perf": 3336,
      "effusion": 3337,
      "##oxazole": 3338,
      "hyperplasia": 3339,
      "respons": 3340,
      "practic": 3341,
      "leukoencephalopathy": 3342,
      "##hydro": 3343,
      "##icient": 3344,
      "##illary": 3345,
      "secretion": 3346,
      "institution": 3347,
      "cytotoxic": 3348,
      "studied": 3349,
      "fibrill": 3350,
      "frequent": 3351,
      "needed": 3352,
      "resistance": 3353,
      "self": 3354,
      "infiltration": 3355,
      "pancreatic": 3356,
      "began": 3357,
      "caution": 3358,
      "immediately": 3359,
      "reactivation": 3360,
      "laser": 3361,
      "deterioration": 3362,
      "deriv": 3363,
      "values": 3364,
      "responses": 3365,
      "bull": 3366,
      "current": 3367,
      "dox": 3368,
      "ear": 3369,
      "mL": 3370,
      "rib": 3371,
      "uter": 3372,
      "##nal": 3373,
      "##afen": 3374,
      "##ying": 3375,
      "##famide": 3376,
      "##eration": 3377,
      "##enol": 3378,
      "##ord": 3379,
      "##aren": 3380,
      "##arily": 3381,
      "##osfamide": 3382,
      "##uric": 3383,
      "##acic": 3384,
      "##opro": 3385,
      "##ocellular": 3386,
      "aspar": 3387,
      "##iram": 3388,
      "##tinib": 3389,
      "seg": 3390,
      "stroke": 3391,
      "##quam": 3392,
      "##ellitus": 3393,
      "prem": 3394,
      "weak": 3395,
      "hyperg": 3396,
      "##yloid": 3397,
      "##ylline": 3398,
      "##ubicin": 3399,
      "sugges": 3400,
      "remo": 3401,
      "intes": 3402,
      "compound": 3403,
      "become": 3404,
      "##ausea": 3405,
      "courses": 3406,
      "malignancies": 3407,
      "bleomycin": 3408,
      "approximately": 3409,
      "vitro": 3410,
      "selective": 3411,
      "suppression": 3412,
      "##okinetic": 3413,
      "stimulating": 3414,
      "prednisolone": 3415,
      "sclerosis": 3416,
      "impairment": 3417,
      "assessment": 3418,
      "exacerbation": 3419,
      "vincristine": 3420,
      "disturbances": 3421,
      "parameters": 3422,
      "fibrillation": 3423,
      "000": 3424,
      "27": 3425,
      "37": 3426,
      "IC": 3427,
      "MM": 3428,
      "NMS": 3429,
      "SS": 3430,
      "best": 3431,
      "dental": 3432,
      "focal": 3433,
      "gold": 3434,
      "ket": 3435,
      "loc": 3436,
      "last": 3437,
      "mellitus": 3438,
      "nausea": 3439,
      "pel": 3440,
      "urine": 3441,
      "wall": 3442,
      "##eti": 3443,
      "##iant": 3444,
      "##sity": 3445,
      "##hood": 3446,
      "##erous": 3447,
      "therapies": 3448,
      "##orption": 3449,
      "them": 3450,
      "##ann": 3451,
      "##osarcoma": 3452,
      "##ulatory": 3453,
      "##sies": 3454,
      "congen": 3455,
      "added": 3456,
      "infectious": 3457,
      "##urea": 3458,
      "triam": 3459,
      "trimeth": 3460,
      "##chicine": 3461,
      "##atinib": 3462,
      "occlusion": 3463,
      "highlight": 3464,
      "regarding": 3465,
      "##cinolone": 3466,
      "##oplatin": 3467,
      "propranolol": 3468,
      "suppor": 3469,
      "##ococcal": 3470,
      "granulomat": 3471,
      "clearance": 3472,
      "##TION": 3473,
      "culture": 3474,
      "protocol": 3475,
      "profile": 3476,
      "sequel": 3477,
      "attempt": 3478,
      "dopamine": 3479,
      "trigger": 3480,
      "ethambutol": 3481,
      "morphine": 3482,
      "##obacterium": 3483,
      "isolated": 3484,
      "CNS": 3485,
      "idiopathic": 3486,
      "##ocorticoid": 3487,
      "accompan": 3488,
      "hyponatremia": 3489,
      "triamcinolone": 3490,
      "26": 3491,
      "Di": 3492,
      "Ep": 3493,
      "TM": 3494,
      "max": 3495,
      "oxy": 3496,
      "port": 3497,
      "slow": 3498,
      "##most": 3499,
      "##topril": 3500,
      "##utr": 3501,
      "##hibit": 3502,
      "##face": 3503,
      "##utes": 3504,
      "adequ": 3505,
      "##athiop": 3506,
      "tric": 3507,
      "peric": 3508,
      "severity": 3509,
      "##tenance": 3510,
      "highly": 3511,
      "risperidone": 3512,
      "invasive": 3513,
      "fluoxetine": 3514,
      "managed": 3515,
      "struct": 3516,
      "sustained": 3517,
      "##ternal": 3518,
      "##odyn": 3519,
      "variety": 3520,
      "confirm": 3521,
      "benz": 3522,
      "infiltrates": 3523,
      "measured": 3524,
      "investigation": 3525,
      "solution": 3526,
      "anticoagulation": 3527,
      "prostate": 3528,
      "magnetic": 3529,
      "termin": 3530,
      "##rected": 3531,
      "etiology": 3532,
      "encoun": 3533,
      "conjunctiv": 3534,
      "anticoagulant": 3535,
      "moderate": 3536,
      "whether": 3537,
      "Follow": 3538,
      "Since": 3539,
      "congenital": 3540,
      "##athioprine": 3541,
      "32": 3542,
      "Pulmonary": 3543,
      "aim": 3544,
      "cent": 3545,
      "ec": 3546,
      "ech": 3547,
      "tardive": 3548,
      "##tle": 3549,
      "##aum": 3550,
      "##oic": 3551,
      "##yan": 3552,
      "##sis": 3553,
      "##king": 3554,
      "##fact": 3555,
      "##VA": 3556,
      "##ercept": 3557,
      "##ones": 3558,
      "##thromb": 3559,
      "##orubicin": 3560,
      "##anercept": 3561,
      "requ": 3562,
      "##veitis": 3563,
      "##apan": 3564,
      "##leep": 3565,
      "##phosph": 3566,
      "distr": 3567,
      "treatments": 3568,
      "sex": 3569,
      "neur": 3570,
      "##oneph": 3571,
      "##ified": 3572,
      "agranulocytosis": 3573,
      "uns": 3574,
      "arrest": 3575,
      "causing": 3576,
      "receive": 3577,
      "##ichen": 3578,
      "##ophylline": 3579,
      "##rops": 3580,
      "myopathy": 3581,
      "median": 3582,
      "##athyroid": 3583,
      "##SIK": 3584,
      "analges": 3585,
      "examined": 3586,
      "opioid": 3587,
      "erythema": 3588,
      "pharmacokinetic": 3589,
      "measures": 3590,
      "bacterial": 3591,
      "##avirin": 3592,
      "##floxacin": 3593,
      "proteinuria": 3594,
      "determine": 3595,
      "##nesium": 3596,
      "antagonist": 3597,
      "LASIK": 3598,
      "##traconazole": 3599,
      "##hydr": 3600,
      "##omycosis": 3601,
      "facial": 3602,
      "parenteral": 3603,
      "extremely": 3604,
      "ribavirin": 3605,
      "oxygen": 3606,
      "31": 3607,
      "72": 3608,
      "BMT": 3609,
      "CY": 3610,
      "Con": 3611,
      "Japan": 3612,
      "MRI": 3613,
      "Res": 3614,
      "Se": 3615,
      "ST": 3616,
      "bro": 3617,
      "ce": 3618,
      "fract": 3619,
      "mat": 3620,
      "rupt": 3621,
      "sleep": 3622,
      "ten": 3623,
      "##vic": 3624,
      "##know": 3625,
      "##PS": 3626,
      "##arabine": 3627,
      "##tering": 3628,
      "##ecular": 3629,
      "##lysis": 3630,
      "##ograft": 3631,
      "progn": 3632,
      "resection": 3633,
      "almost": 3634,
      "unique": 3635,
      "phase": 3636,
      "##tisol": 3637,
      "##erma": 3638,
      "thrombolysis": 3639,
      "lymphocyte": 3640,
      "##illamine": 3641,
      "improve": 3642,
      "normalized": 3643,
      "neck": 3644,
      "blind": 3645,
      "dysp": 3646,
      "##axel": 3647,
      "##tity": 3648,
      "persisted": 3649,
      "psychotic": 3650,
      "differential": 3651,
      "angio": 3652,
      "maintenance": 3653,
      "hemorrhagic": 3654,
      "macroph": 3655,
      "##oprim": 3656,
      "hematologic": 3657,
      "glucocorticoid": 3658,
      "fulminant": 3659,
      "suffering": 3660,
      "##plications": 3661,
      "##oeb": 3662,
      "rechallenge": 3663,
      "choice": 3664,
      "##areness": 3665,
      "suggestive": 3666,
      "supportive": 3667,
      "45": 3668,
      "70": 3669,
      "AT": 3670,
      "AND": 3671,
      "De": 3672,
      "GVHD": 3673,
      "cystic": 3674,
      "certain": 3675,
      "dog": 3676,
      "fam": 3677,
      "grav": 3678,
      "light": 3679,
      "##bal": 3680,
      "##lic": 3681,
      "##focal": 3682,
      "##IN": 3683,
      "##onide": 3684,
      "ane": 3685,
      "##osing": 3686,
      "##opa": 3687,
      "##opsy": 3688,
      "##otens": 3689,
      "##ept": 3690,
      "unknow": 3691,
      "diarr": 3692,
      "hyperc": 3693,
      "chemoth": 3694,
      "entity": 3695,
      "increases": 3696,
      "place": 3697,
      "lymphaden": 3698,
      "cardiovascular": 3699,
      "electr": 3700,
      "defects": 3701,
      "##ervical": 3702,
      "supplement": 3703,
      "##embol": 3704,
      "##appropriate": 3705,
      "exclud": 3706,
      "full": 3707,
      "fully": 3708,
      "##tizing": 3709,
      "IgG": 3710,
      "trials": 3711,
      "##icture": 3712,
      "meningitis": 3713,
      "##igmentation": 3714,
      "ACE": 3715,
      "melan": 3716,
      "endocarditis": 3717,
      "creatinine": 3718,
      "irrever": 3719,
      "baseline": 3720,
      "hyperglyc": 3721,
      "sequelae": 3722,
      "##odynamic": 3723,
      "encountered": 3724,
      "require": 3725,
      "distress": 3726,
      "##otensin": 3727,
      "unknown": 3728,
      "diarrhea": 3729,
      "42": 3730,
      "53": 3731,
      "55": 3732,
      "CB": 3733,
      "Fatal": 3734,
      "MA": 3735,
      "Most": 3736,
      "Pr": 3737,
      "aortic": 3738,
      "bip": 3739,
      "equ": 3740,
      "flow": 3741,
      "face": 3742,
      "lack": 3743,
      "mig": 3744,
      "motor": 3745,
      "nine": 3746,
      "zoster": 3747,
      "##ivery": 3748,
      "##aemic": 3749,
      "##pr": 3750,
      "##path": 3751,
      "##way": 3752,
      "##ways": 3753,
      "##aria": 3754,
      "##iclovir": 3755,
      "##itating": 3756,
      "##aper": 3757,
      "##apar": 3758,
      "##ume": 3759,
      "orth": 3760,
      "##othel": 3761,
      "##oidal": 3762,
      "clar": 3763,
      "##ellar": 3764,
      "antim": 3765,
      "##oxamine": 3766,
      "##anciclovir": 3767,
      "##ologous": 3768,
      "agon": 3769,
      "presents": 3770,
      "##geal": 3771,
      "##kinase": 3772,
      "flap": 3773,
      "scale": 3774,
      "##angi": 3775,
      "##yclic": 3776,
      "##oplastic": 3777,
      "nephritis": 3778,
      "##rams": 3779,
      "products": 3780,
      "contrast": 3781,
      "benign": 3782,
      "hydrox": 3783,
      "ifosfamide": 3784,
      "infiltrate": 3785,
      "measure": 3786,
      "While": 3787,
      "Administration": 3788,
      "granulocyte": 3789,
      "does": 3790,
      "stimulation": 3791,
      "neutrophil": 3792,
      "whereas": 3793,
      "epileptic": 3794,
      "precip": 3795,
      "colony": 3796,
      "paper": 3797,
      "indicate": 3798,
      "surviv": 3799,
      "prosthetic": 3800,
      "valproate": 3801,
      "cholestasis": 3802,
      "preparation": 3803,
      "##aryngeal": 3804,
      "glomeruloneph": 3805,
      "Mycobacterium": 3806,
      "##iprofloxacin": 3807,
      "##cription": 3808,
      "CYP": 3809,
      "gravis": 3810,
      "AR": 3811,
      "REPO": 3812,
      "Six": 3813,
      "ak": 3814,
      "burn": 3815,
      "cyc": 3816,
      "fav": 3817,
      "lumb": 3818,
      "lichen": 3819,
      "mil": 3820,
      "sul": 3821,
      "uveitis": 3822,
      "water": 3823,
      "##mb": 3824,
      "##lus": 3825,
      "##land": 3826,
      "##iol": 3827,
      "##itic": 3828,
      "##ief": 3829,
      "##aw": 3830,
      "##oac": 3831,
      "##utive": 3832,
      "##yg": 3833,
      "##xiety": 3834,
      "##jective": 3835,
      "##tiapine": 3836,
      "inappropriate": 3837,
      "##teria": 3838,
      "##ecutive": 3839,
      "##olin": 3840,
      "##olution": 3841,
      "##ura": 3842,
      "##idental": 3843,
      "##itr": 3844,
      "##iton": 3845,
      "##amoeb": 3846,
      "##uclear": 3847,
      "##inephrine": 3848,
      "##adver": 3849,
      "##igine": 3850,
      "traum": 3851,
      "hypoc": 3852,
      "area": 3853,
      "##izumab": 3854,
      "desensitization": 3855,
      "##astatin": 3856,
      "diet": 3857,
      "##uetiapine": 3858,
      "subc": 3859,
      "enl": 3860,
      "consecutive": 3861,
      "concurrent": 3862,
      "better": 3863,
      "##ologically": 3864,
      "cardiopulmonary": 3865,
      "##oint": 3866,
      "##ensitive": 3867,
      "recurred": 3868,
      "probability": 3869,
      "autologous": 3870,
      "varic": 3871,
      "carboplatin": 3872,
      "manifested": 3873,
      "doub": 3874,
      "extremities": 3875,
      "swelling": 3876,
      "cultures": 3877,
      "##rospinal": 3878,
      "magnesium": 3879,
      "adenocarcinoma": 3880,
      "antidepressants": 3881,
      "##otrigine": 3882,
      "peg": 3883,
      "biochemical": 3884,
      "azathioprine": 3885,
      "hypoglycemia": 3886,
      "guid": 3887,
      "strongly": 3888,
      "##oquine": 3889,
      "gradually": 3890,
      "thyrotoxic": 3891,
      "origin": 3892,
      "myasthenia": 3893,
      "##ominant": 3894,
      "##quamous": 3895,
      "trimethoprim": 3896,
      "aneurysm": 3897,
      "chemotherapeutic": 3898,
      "irreversible": 3899,
      "glomerulonephritis": 3900,
      "00": 3901,
      "90": 3902,
      "Cand": 3903,
      "HD": 3904,
      "Le": 3905,
      "Multi": 3906,
      "coin": 3907,
      "cef": 3908,
      "dl": 3909,
      "fr": 3910,
      "itraconazole": 3911,
      "os": 3912,
      "pyr": 3913,
      "sensitivity": 3914,
      "##yram": 3915,
      "##LE": 3916,
      "##inent": 3917,
      "##alysis": 3918,
      "##isia": 3919,
      "##aran": 3920,
      "##omon": 3921,
      "##ush": 3922,
      "##ecting": 3923,
      "##itated": 3924,
      "##erapamil": 3925,
      "adren": 3926,
      "restric": 3927,
      "##ectable": 3928,
      "lep": 3929,
      "orally": 3930,
      "order": 3931,
      "##ather": 3932,
      "percutaneous": 3933,
      "carri": 3934,
      "##asty": 3935,
      "hyperkal": 3936,
      "relief": 3937,
      "spasm": 3938,
      "##ophag": 3939,
      "parkinson": 3940,
      "genetic": 3941,
      "department": 3942,
      "cycles": 3943,
      "retrosp": 3944,
      "tubular": 3945,
      "##lycer": 3946,
      "delivery": 3947,
      "produced": 3948,
      "evaluate": 3949,
      "angiotensin": 3950,
      "hydrochlor": 3951,
      "approved": 3952,
      "sulfate": 3953,
      "osteonecrosis": 3954,
      "Clinicians": 3955,
      "##aphylococcus": 3956,
      "cirrh": 3957,
      "begin": 3958,
      "impaired": 3959,
      "necrotizing": 3960,
      "benefit": 3961,
      "arrhythmias": 3962,
      "half": 3963,
      "worsening": 3964,
      "AIDS": 3965,
      "endometrial": 3966,
      "apparent": 3967,
      "pleural": 3968,
      "penicillamine": 3969,
      "##anthamoeb": 3970,
      "determined": 3971,
      "perforation": 3972,
      "Candida": 3973,
      "##yramidal": 3974,
      "AN": 3975,
      "Man": 3976,
      "Other": 3977,
      "Pro": 3978,
      "basis": 3979,
      "cav": 3980,
      "cross": 3981,
      "cyan": 3982,
      "lin": 3983,
      "lact": 3984,
      "nasal": 3985,
      "vac": 3986,
      "warr": 3987,
      "##rac": 3988,
      "##rane": 3989,
      "##event": 3990,
      "##me": 3991,
      "##uter": 3992,
      "##pid": 3993,
      "##ward": 3994,
      "##kyl": 3995,
      "##fa": 3996,
      "##EG": 3997,
      "##ties": 3998,
      "thus": 3999,
      "off": 4000,
      "theophylline": 4001,
      "##anol": 4002,
      "reas": 4003,
      "##ittle": 4004,
      "aspergill": 4005,
      "##romes": 4006,
      "##otomy": 4007,
      "residual": 4008,
      "onc": 4009,
      "##aginase": 4010,
      "alb": 4011,
      "alfa": 4012,
      "exhibit": 4013,
      "next": 4014,
      "hair": 4015,
      "haemat": 4016,
      "monotherapy": 4017,
      "agitation": 4018,
      "unevent": 4019,
      "syndromes": 4020,
      "clinic": 4021,
      "plan": 4022,
      "leukopenia": 4023,
      "allograft": 4024,
      "weekly": 4025,
      "erg": 4026,
      "regard": 4027,
      "colchicine": 4028,
      "minim": 4029,
      "demonstrates": 4030,
      "detection": 4031,
      "manifestation": 4032,
      "##ophilia": 4033,
      "sulfameth": 4034,
      "regimens": 4035,
      "shortly": 4036,
      "Phys": 4037,
      "lipid": 4038,
      "electroc": 4039,
      "lamotrigine": 4040,
      "degree": 4041,
      "valproic": 4042,
      "represent": 4043,
      "etanercept": 4044,
      "believe": 4045,
      "temporal": 4046,
      "concern": 4047,
      "chromos": 4048,
      "coagulation": 4049,
      "discharged": 4050,
      "myoclonus": 4051,
      "baclofen": 4052,
      "##oietic": 4053,
      "anticonvulsant": 4054,
      "molecular": 4055,
      "pulse": 4056,
      "doxorubicin": 4057,
      "weakness": 4058,
      "##utrition": 4059,
      "Following": 4060,
      "REPORT": 4061,
      "##anthamoeba": 4062,
      "uneventful": 4063,
      "39": 4064,
      "43": 4065,
      "AP": 4066,
      "HBV": 4067,
      "More": 4068,
      "Sp": 4069,
      "Wil": 4070,
      "cm": 4071,
      "cough": 4072,
      "currently": 4073,
      "gamm": 4074,
      "ganciclovir": 4075,
      "pene": 4076,
      "rati": 4077,
      "rig": 4078,
      "tend": 4079,
      "venti": 4080,
      "##ry": 4081,
      "##lation": 4082,
      "##loxacin": 4083,
      "##ave": 4084,
      "##aqu": 4085,
      "##oembol": 4086,
      "##HS": 4087,
      "##Cs": 4088,
      "##inol": 4089,
      "##ession": 4090,
      "##thyroidism": 4091,
      "##atis": 4092,
      "anxiety": 4093,
      "##osal": 4094,
      "##ulate": 4095,
      "##ulopathy": 4096,
      "Thus": 4097,
      "##ampl": 4098,
      "##adox": 4099,
      "inform": 4100,
      "never": 4101,
      "##athisia": 4102,
      "antidi": 4103,
      "aged": 4104,
      "##ophysi": 4105,
      "prur": 4106,
      "lymphoproliferative": 4107,
      "##obarb": 4108,
      "inhib": 4109,
      "##ishman": 4110,
      "biopsies": 4111,
      "brad": 4112,
      "##tituted": 4113,
      "mechan": 4114,
      "##remic": 4115,
      "##apsone": 4116,
      "Staphylococcus": 4117,
      "hepatocellular": 4118,
      "markedly": 4119,
      "solid": 4120,
      "hypothyroidism": 4121,
      "acetate": 4122,
      "antipsychotics": 4123,
      "IgA": 4124,
      "observations": 4125,
      "micrograms": 4126,
      "represents": 4127,
      "thoracic": 4128,
      "device": 4129,
      "##uminum": 4130,
      "greater": 4131,
      "Intravenous": 4132,
      "outpatient": 4133,
      "Diagnosis": 4134,
      "earli": 4135,
      "asparaginase": 4136,
      "intestinal": 4137,
      "pelvic": 4138,
      "prognosis": 4139,
      "dyspnea": 4140,
      "lymphadenopathy": 4141,
      "bipolar": 4142,
      "sulfamethoxazole": 4143,
      "##obarbital": 4144,
      "57": 4145,
      "BC": 4146,
      "ECT": 4147,
      "For": 4148,
      "If": 4149,
      "MDS": 4150,
      "PR": 4151,
      "Pre": 4152,
      "bic": 4153,
      "brom": 4154,
      "den": 4155,
      "fung": 4156,
      "gest": 4157,
      "hip": 4158,
      "kinase": 4159,
      "mul": 4160,
      "mother": 4161,
      "now": 4162,
      "pust": 4163,
      "pump": 4164,
      "picture": 4165,
      "rang": 4166,
      "rather": 4167,
      "vul": 4168,
      "vess": 4169,
      "vers": 4170,
      "ventric": 4171,
      "wound": 4172,
      "##born": 4173,
      "##cious": 4174,
      "##zid": 4175,
      "##SH": 4176,
      "##jection": 4177,
      "##iness": 4178,
      "##inally": 4179,
      "thi": 4180,
      "##esterol": 4181,
      "##ored": 4182,
      "##idate": 4183,
      "##tional": 4184,
      "conduc": 4185,
      "##oderma": 4186,
      "proc": 4187,
      "proven": 4188,
      "once": 4189,
      "stable": 4190,
      "##ultaneous": 4191,
      "paras": 4192,
      "objective": 4193,
      "##ostatic": 4194,
      "cann": 4195,
      "allergy": 4196,
      "##ogene": 4197,
      "rise": 4198,
      "longer": 4199,
      "progress": 4200,
      "pathological": 4201,
      "phenobarbital": 4202,
      "Acanthamoeba": 4203,
      "periods": 4204,
      "abnormality": 4205,
      "##erebral": 4206,
      "delay": 4207,
      "##oniazid": 4208,
      "produce": 4209,
      "cerebrospinal": 4210,
      "##ontrol": 4211,
      "hydroxy": 4212,
      "metastases": 4213,
      "mucosa": 4214,
      "patch": 4215,
      "captopril": 4216,
      "nodules": 4217,
      "adjuvant": 4218,
      "retinoic": 4219,
      "embolism": 4220,
      "glomerular": 4221,
      "Immun": 4222,
      "##iable": 4223,
      "concluded": 4224,
      "mitral": 4225,
      "necrolysis": 4226,
      "##otide": 4227,
      "screening": 4228,
      "##ADH": 4229,
      "attributed": 4230,
      "SIADH": 4231,
      "##otropic": 4232,
      "removed": 4233,
      "accompanied": 4234,
      "adequate": 4235,
      "echocardi": 4236,
      "##lusive": 4237,
      "beginning": 4238,
      "versus": 4239,
      "33": 4240,
      "34": 4241,
      "56": 4242,
      "69": 4243,
      "64": 4244,
      "80": 4245,
      "Ab": 4246,
      "CP": 4247,
      "Carb": 4248,
      "Eff": 4249,
      "HA": 4250,
      "Lab": 4251,
      "PV": 4252,
      "Renal": 4253,
      "SM": 4254,
      "bile": 4255,
      "basal": 4256,
      "cur": 4257,
      "cop": 4258,
      "cervical": 4259,
      "ciprofloxacin": 4260,
      "date": 4261,
      "ect": 4262,
      "mid": 4263,
      "mim": 4264,
      "nutrition": 4265,
      "oedema": 4266,
      "pan": 4267,
      "size": 4268,
      "slight": 4269,
      "ure": 4270,
      "verapamil": 4271,
      "##rupt": 4272,
      "##ez": 4273,
      "##ms": 4274,
      "##na": 4275,
      "##xine": 4276,
      "##als": 4277,
      "inadver": 4278,
      "##atrogenic": 4279,
      "##rection": 4280,
      "##used": 4281,
      "##ula": 4282,
      "##ulative": 4283,
      "##ecit": 4284,
      "##opoietic": 4285,
      "##apyramidal": 4286,
      "Thromb": 4287,
      "##uch": 4288,
      "asp": 4289,
      "chori": 4290,
      "commun": 4291,
      "##antoin": 4292,
      "##ateg": 4293,
      "alkal": 4294,
      "existing": 4295,
      "infer": 4296,
      "implicated": 4297,
      "imatinib": 4298,
      "stabil": 4299,
      "lethal": 4300,
      "recall": 4301,
      "##ansfer": 4302,
      "##ologists": 4303,
      "##ipine": 4304,
      "sympath": 4305,
      "##ount": 4306,
      "hemoglobin": 4307,
      "placement": 4308,
      "lymphocytes": 4309,
      "novel": 4310,
      "childhood": 4311,
      "inser": 4312,
      "herbal": 4313,
      "gene": 4314,
      "##fetil": 4315,
      "depressive": 4316,
      "defic": 4317,
      "stress": 4318,
      "upon": 4319,
      "infusions": 4320,
      "reduce": 4321,
      "newborn": 4322,
      "open": 4323,
      "##tility": 4324,
      "prominent": 4325,
      "Only": 4326,
      "extraction": 4327,
      "psoriatic": 4328,
      "ischemia": 4329,
      "cream": 4330,
      "prophylactic": 4331,
      "polymorph": 4332,
      "worsened": 4333,
      "##escent": 4334,
      "Neuro": 4335,
      "##traline": 4336,
      "legs": 4337,
      "##respon": 4338,
      "load": 4339,
      "digoxin": 4340,
      "rifamp": 4341,
      "bullous": 4342,
      "granulomatous": 4343,
      "tricyclic": 4344,
      "##thrombin": 4345,
      "cirrhosis": 4346,
      "##amples": 4347,
      "##ecitabine": 4348,
      "29": 4349,
      "44": 4350,
      "400": 4351,
      "61": 4352,
      "Ar": 4353,
      "ALL": 4354,
      "DE": 4355,
      "Naran": 4356,
      "Over": 4357,
      "TEN": 4358,
      "aer": 4359,
      "bis": 4360,
      "lysis": 4361,
      "mixed": 4362,
      "pall": 4363,
      "sum": 4364,
      "sites": 4365,
      "ty": 4366,
      "table": 4367,
      "yet": 4368,
      "##tum": 4369,
      "##jo": 4370,
      "##enz": 4371,
      "##onidine": 4372,
      "##thi": 4373,
      "##icrob": 4374,
      "##uled": 4375,
      "##ulsive": 4376,
      "##urs": 4377,
      "##itol": 4378,
      "##amph": 4379,
      "##imod": 4380,
      "alveolar": 4381,
      "external": 4382,
      "strept": 4383,
      "leishman": 4384,
      "##oidosis": 4385,
      "perman": 4386,
      "##ivudine": 4387,
      "antiviral": 4388,
      "cortisol": 4389,
      "hyperthyroidism": 4390,
      "intermit": 4391,
      "##plete": 4392,
      "##oretin": 4393,
      "consisting": 4394,
      "surface": 4395,
      "toxin": 4396,
      "cand": 4397,
      "##ician": 4398,
      "histopath": 4399,
      "##omyel": 4400,
      "compulsive": 4401,
      "elimin": 4402,
      "influ": 4403,
      "##times": 4404,
      "pathophysi": 4405,
      "minutes": 4406,
      "simultaneous": 4407,
      "##stein": 4408,
      "erythrop": 4409,
      "value": 4410,
      "suprav": 4411,
      "angiography": 4412,
      "##arcoidosis": 4413,
      "##rectomy": 4414,
      "##arbonate": 4415,
      "awareness": 4416,
      "##arget": 4417,
      "increasingly": 4418,
      "Report": 4419,
      "bacteremia": 4420,
      "enzymes": 4421,
      "Americ": 4422,
      "stopping": 4423,
      "prostag": 4424,
      "INT": 4425,
      "aspirin": 4426,
      "aspiration": 4427,
      "superior": 4428,
      "apparently": 4429,
      "Trans": 4430,
      "work": 4431,
      "##ipramine": 4432,
      "membran": 4433,
      "referred": 4434,
      "neonates": 4435,
      "Subsequ": 4436,
      "Possible": 4437,
      "deposits": 4438,
      "practice": 4439,
      "##afenone": 4440,
      "premature": 4441,
      "rupture": 4442,
      "excluded": 4443,
      "akathisia": 4444,
      "favor": 4445,
      "varicella": 4446,
      "aspergillosis": 4447,
      "antidiuretic": 4448,
      "mechanical": 4449,
      "earlier": 4450,
      "Naranjo": 4451,
      "supraventricular": 4452,
      "51": 4453,
      "500": 4454,
      "End": 4455,
      "EEG": 4456,
      "High": 4457,
      "IU": 4458,
      "Ind": 4459,
      "III": 4460,
      "PE": 4461,
      "Per": 4462,
      "Str": 4463,
      "TSH": 4464,
      "UC": 4465,
      "VII": 4466,
      "aplasia": 4467,
      "bot": 4468,
      "caps": 4469,
      "fil": 4470,
      "glyc": 4471,
      "great": 4472,
      "home": 4473,
      "iron": 4474,
      "ng": 4475,
      "nucle": 4476,
      "ray": 4477,
      "rhythm": 4478,
      "sour": 4479,
      "search": 4480,
      "squamous": 4481,
      "sarcoidosis": 4482,
      "uremic": 4483,
      "vi": 4484,
      "vag": 4485,
      "##ni": 4486,
      "##ner": 4487,
      "##oked": 4488,
      "##vascular": 4489,
      "##fort": 4490,
      "##fection": 4491,
      "##GN": 4492,
      "thal": 4493,
      "##atib": 4494,
      "##icyl": 4495,
      "##rof": 4496,
      "relev": 4497,
      "##aced": 4498,
      "##apr": 4499,
      "##apism": 4500,
      "##aparin": 4501,
      "##ocaine": 4502,
      "##amycin": 4503,
      "trem": 4504,
      "##elines": 4505,
      "##unct": 4506,
      "##anted": 4507,
      "adol": 4508,
      "aluminum": 4509,
      "##ible": 4510,
      "antif": 4511,
      "##stances": 4512,
      "prevention": 4513,
      "monocl": 4514,
      "Initi": 4515,
      "units": 4516,
      "##atinum": 4517,
      "diuretic": 4518,
      "##teen": 4519,
      "overall": 4520,
      "regular": 4521,
      "endothel": 4522,
      "painful": 4523,
      "multifocal": 4524,
      "progressed": 4525,
      "##ished": 4526,
      "confusion": 4527,
      "minor": 4528,
      "##ulfiram": 4529,
      "sometimes": 4530,
      "##azepam": 4531,
      "primarily": 4532,
      "ques": 4533,
      "sched": 4534,
      "ulcers": 4535,
      "tuberculous": 4536,
      "tolerance": 4537,
      "soft": 4538,
      "haemorrh": 4539,
      "vasopressin": 4540,
      "INR": 4541,
      "behavior": 4542,
      "##ENT": 4543,
      "irradiation": 4544,
      "arrhythmia": 4545,
      "##luor": 4546,
      "verte": 4547,
      "movements": 4548,
      "PTLD": 4549,
      "##otype": 4550,
      "ultrasound": 4551,
      "##arkable": 4552,
      "introduction": 4553,
      "quinine": 4554,
      "pemphigus": 4555,
      "relapsed": 4556,
      "microscopy": 4557,
      "family": 4558,
      "lumbar": 4559,
      "carried": 4560,
      "bicarbonate": 4561,
      "##ansferase": 4562,
      "##icrobial": 4563,
      "##omyelitis": 4564,
      "prostagland": 4565,
      "monoclonal": 4566,
      "75": 4567,
      "Dep": 4568,
      "Diss": 4569,
      "El": 4570,
      "HS": 4571,
      "MR": 4572,
      "PA": 4573,
      "Rever": 4574,
      "SD": 4575,
      "TD": 4576,
      "cle": 4577,
      "cum": 4578,
      "ju": 4579,
      "joint": 4580,
      "mis": 4581,
      "nat": 4582,
      "rates": 4583,
      "sensitive": 4584,
      "viv": 4585,
      "##rial": 4586,
      "##ii": 4587,
      "##ged": 4588,
      "##gth": 4589,
      "##cent": 4590,
      "##de": 4591,
      "##zolid": 4592,
      "##ST": 4593,
      "##titis": 4594,
      "##ensive": 4595,
      "##ength": 4596,
      "##ina": 4597,
      "insi": 4598,
      "offer": 4599,
      "##ording": 4600,
      "##atemia": 4601,
      "##icl": 4602,
      "##rees": 4603,
      "reupt": 4604,
      "degen": 4605,
      "##umerous": 4606,
      "chann": 4607,
      "##plied": 4608,
      "resemb": 4609,
      "activation": 4610,
      "alter": 4611,
      "exch": 4612,
      "clos": 4613,
      "mand": 4614,
      "complained": 4615,
      "hypert": 4616,
      "hyperp": 4617,
      "hypertensive": 4618,
      "sertraline": 4619,
      "spread": 4620,
      "substan": 4621,
      "##ropath": 4622,
      "##raves": 4623,
      "potent": 4624,
      "##ogenetic": 4625,
      "histor": 4626,
      "##genase": 4627,
      "dosages": 4628,
      "compon": 4629,
      "black": 4630,
      "arteri": 4631,
      "strateg": 4632,
      "visc": 4633,
      "myelogenous": 4634,
      "predominant": 4635,
      "autopsy": 4636,
      "nephropathy": 4637,
      "production": 4638,
      "propyl": 4639,
      "blockade": 4640,
      "##ochrome": 4641,
      "affect": 4642,
      "provide": 4643,
      "interactions": 4644,
      "Several": 4645,
      "investigations": 4646,
      "nodular": 4647,
      "behaviour": 4648,
      "unclear": 4649,
      "lamivudine": 4650,
      "methods": 4651,
      "##brid": 4652,
      "tempor": 4653,
      "mutations": 4654,
      "dystonia": 4655,
      "purpura": 4656,
      "predisposing": 4657,
      "##uscular": 4658,
      "converting": 4659,
      "##arrhythmic": 4660,
      "Epstein": 4661,
      "portal": 4662,
      "sexual": 4663,
      "melanoma": 4664,
      "hyperglycemia": 4665,
      "cycle": 4666,
      "thyrotoxicosis": 4667,
      "coinc": 4668,
      "##omonas": 4669,
      "hyperkalemia": 4670,
      "hydrochloride": 4671,
      "ratio": 4672,
      "Laboratory": 4673,
      "leishmaniasis": 4674,
      "permanent": 4675,
      "erythropo": 4676,
      "reuptake": 4677,
      "38": 4678,
      "58": 4679,
      "54": 4680,
      "Barr": 4681,
      "Cardi": 4682,
      "Disc": 4683,
      "Graves": 4684,
      "HUS": 4685,
      "My": 4686,
      "Mar": 4687,
      "Pl": 4688,
      "Sc": 4689,
      "SLE": 4690,
      "aver": 4691,
      "aort": 4692,
      "aure": 4693,
      "cogn": 4694,
      "eas": 4695,
      "none": 4696,
      "ot": 4697,
      "vig": 4698,
      "##itinib": 4699,
      "##noid": 4700,
      "##ool": 4701,
      "##pected": 4702,
      "##wing": 4703,
      "##kel": 4704,
      "##fied": 4705,
      "##tile": 4706,
      "##esophageal": 4707,
      "##thesis": 4708,
      "##oroidal": 4709,
      "##anding": 4710,
      "##rotic": 4711,
      "##oses": 4712,
      "##itud": 4713,
      "##trating": 4714,
      "conges": 4715,
      "##otal": 4716,
      "##otopic": 4717,
      "##ugment": 4718,
      "##odone": 4719,
      "##odopa": 4720,
      "proxim": 4721,
      "alert": 4722,
      "implications": 4723,
      "sten": 4724,
      "leuc": 4725,
      "##ainide": 4726,
      "##epatic": 4727,
      "presumed": 4728,
      "drain": 4729,
      "preval": 4730,
      "##chol": 4731,
      "unrespon": 4732,
      "##veness": 4733,
      "abuse": 4734,
      "serial": 4735,
      "##encing": 4736,
      "discl": 4737,
      "subac": 4738,
      "##ropion": 4739,
      "thrombotic": 4740,
      "allogene": 4741,
      "##ocytopenia": 4742,
      "##ript": 4743,
      "intake": 4744,
      "##posed": 4745,
      "blast": 4746,
      "responsive": 4747,
      "defect": 4748,
      "defined": 4749,
      "intravenously": 4750,
      "absorption": 4751,
      "angle": 4752,
      "hyd": 4753,
      "optim": 4754,
      "simple": 4755,
      "forms": 4756,
      "##ervative": 4757,
      "immunosuppressed": 4758,
      "hospitalization": 4759,
      "maintained": 4760,
      "blocker": 4761,
      "##existing": 4762,
      "counts": 4763,
      "excessive": 4764,
      "CD4": 4765,
      "applied": 4766,
      "extremity": 4767,
      "erythematous": 4768,
      "soon": 4769,
      "estrogen": 4770,
      "spontaneously": 4771,
      "Complete": 4772,
      "classic": 4773,
      "levodopa": 4774,
      "attack": 4775,
      "interventions": 4776,
      "critical": 4777,
      "closely": 4778,
      "sensory": 4779,
      "volume": 4780,
      "specimens": 4781,
      "##treated": 4782,
      "epithelial": 4783,
      "segment": 4784,
      "##athyroidism": 4785,
      "CYP2": 4786,
      "double": 4787,
      "guidelines": 4788,
      "parkinsonism": 4789,
      "##ciousness": 4790,
      "##atible": 4791,
      "antifungal": 4792,
      "verteb": 4793,
      "prostaglandin": 4794,
      "cumulative": 4795,
      "aureus": 4796,
      "congestive": 4797,
      "allogeneic": 4798,
      "47": 4799,
      "65": 4800,
      "71": 4801,
      "Af": 4802,
      "AZ": 4803,
      "Blood": 4804,
      "Is": 4805,
      "SE": 4806,
      "Symptom": 4807,
      "TP": 4808,
      "Ten": 4809,
      "Use": 4810,
      "ax": 4811,
      "around": 4812,
      "aplastic": 4813,
      "bas": 4814,
      "bup": 4815,
      "biliary": 4816,
      "dapsone": 4817,
      "fat": 4818,
      "lactic": 4819,
      "little": 4820,
      "nas": 4821,
      "numerous": 4822,
      "quetiapine": 4823,
      "ren": 4824,
      "section": 4825,
      "target": 4826,
      "##eal": 4827,
      "##ove": 4828,
      "##okinase": 4829,
      "##uting": 4830,
      "##ficial": 4831,
      "##tia": 4832,
      "##tially": 4833,
      "##ination": 4834,
      "thick": 4835,
      "##esthetic": 4836,
      "ana": 4837,
      "##arial": 4838,
      "##omes": 4839,
      "##idomide": 4840,
      "##opur": 4841,
      "##apular": 4842,
      "##ucil": 4843,
      "isoniazid": 4844,
      "##ote": 4845,
      "##ades": 4846,
      "##adine": 4847,
      "chain": 4848,
      "They": 4849,
      "##odys": 4850,
      "##ploy": 4851,
      "proved": 4852,
      "##aged": 4853,
      "##agia": 4854,
      "##epile": 4855,
      "desm": 4856,
      "Inc": 4857,
      "unex": 4858,
      "unrel": 4859,
      "corrected": 4860,
      "##ytopenia": 4861,
      "##ylated": 4862,
      "##ronate": 4863,
      "##ophenol": 4864,
      "chemical": 4865,
      "plaqu": 4866,
      "platinum": 4867,
      "shows": 4868,
      "epinephrine": 4869,
      "obsessive": 4870,
      "##ferred": 4871,
      "##achment": 4872,
      "##achnoid": 4873,
      "cortical": 4874,
      "##formation": 4875,
      "##ardial": 4876,
      "##timately": 4877,
      "pathologic": 4878,
      "cytochrome": 4879,
      "##ietin": 4880,
      "demonstrate": 4881,
      "calcification": 4882,
      "hearing": 4883,
      "withdrawn": 4884,
      "delir": 4885,
      "product": 4886,
      "femoral": 4887,
      "##ofovir": 4888,
      "sulfon": 4889,
      "muscles": 4890,
      "##opramide": 4891,
      "hematoma": 4892,
      "extrapyramidal": 4893,
      "mofetil": 4894,
      "##oclopramide": 4895,
      "localized": 4896,
      "##ambucil": 4897,
      "eruptions": 4898,
      "##asalazine": 4899,
      "intravascular": 4900,
      "acetyl": 4901,
      "United": 4902,
      "##iamine": 4903,
      "##iazide": 4904,
      "##tribution": 4905,
      "beneficial": 4906,
      "Hyper": 4907,
      "degrees": 4908,
      "Eng": 4909,
      "HCV": 4910,
      "PCR": 4911,
      "Serum": 4912,
      "implantation": 4913,
      "specimen": 4914,
      "organisms": 4915,
      "susceptible": 4916,
      "material": 4917,
      "##litaxel": 4918,
      "triggered": 4919,
      "hypercalcemia": 4920,
      "sulph": 4921,
      "ergot": 4922,
      "electrocardi": 4923,
      "rigid": 4924,
      "##adoxical": 4925,
      "inhibition": 4926,
      "##thiouracil": 4927,
      "intermittent": 4928,
      "##rofur": 4929,
      "Disseminated": 4930,
      "proximal": 4931,
      "disclosed": 4932,
      "Afric": 4933,
      "Symptoms": 4934,
      "##ophenolate": 4935,
      "41": 4936,
      "46": 4937,
      "66": 4938,
      "CO": 4939,
      "CLL": 4940,
      "Es": 4941,
      "ECG": 4942,
      "Hem": 4943,
      "Min": 4944,
      "Oral": 4945,
      "Ps": 4946,
      "P4": 4947,
      "Pneum": 4948,
      "Pseud": 4949,
      "Syst": 4950,
      "augment": 4951,
      "dL": 4952,
      "ero": 4953,
      "ging": 4954,
      "giant": 4955,
      "kne": 4956,
      "list": 4957,
      "lob": 4958,
      "norm": 4959,
      "spl": 4960,
      "tes": 4961,
      "##ration": 4962,
      "##eff": 4963,
      "##iative": 4964,
      "##aund": 4965,
      "##yositis": 4966,
      "##voxamine": 4967,
      "##hepatic": 4968,
      "##LA": 4969,
      "##AB": 4970,
      "##19": 4971,
      "##NU": 4972,
      "##ats": 4973,
      "anaemia": 4974,
      "animal": 4975,
      "##enter": 4976,
      "##ises": 4977,
      "##arn": 4978,
      "##rod": 4979,
      "rein": 4980,
      "##osum": 4981,
      "##idofovir": 4982,
      "##opia": 4983,
      "##apt": 4984,
      "##apen": 4985,
      "##ocr": 4986,
      "iss": 4987,
      "##umption": 4988,
      "##cephal": 4989,
      "##portun": 4990,
      "##imazole": 4991,
      "prothrombin": 4992,
      "accept": 4993,
      "altered": 4994,
      "strom": 4995,
      "neoplasm": 4996,
      "index": 4997,
      "tradi": 4998,
      "##velopment": 4999,
      "antih": 5000,
      "##oxaparin": 5001,
      "##etamine": 5002,
      "##actoid": 5003,
      "intram": 5004,
      "arm": 5005,
      "causal": 5006,
      "occup": 5007,
      "spe": 5008,
      "##azodone": 5009,
      "##rosy": 5010,
      "consciousness": 5011,
      "cellular": 5012,
      "intraoperative": 5013,
      "##aking": 5014,
      "malaria": 5015,
      "remain": 5016,
      "gland": 5017,
      "underst": 5018,
      "inhaled": 5019,
      "mark": 5020,
      "fluvoxamine": 5021,
      "postm": 5022,
      "outcom": 5023,
      "##ulinum": 5024,
      "Its": 5025,
      "##oplasty": 5026,
      "fibrin": 5027,
      "opportun": 5028,
      "coh": 5029,
      "reflex": 5030,
      "detail": 5031,
      "prolongation": 5032,
      "promyel": 5033,
      "contrac": 5034,
      "catheters": 5035,
      "##wenty": 5036,
      "tissues": 5037,
      "propafenone": 5038,
      "Chronic": 5039,
      "toxicities": 5040,
      "selected": 5041,
      "much": 5042,
      "##ART": 5043,
      "gastr": 5044,
      "eosinophilic": 5045,
      "mmol": 5046,
      "##iazep": 5047,
      "Within": 5048,
      "electroly": 5049,
      "disappearance": 5050,
      "mitomycin": 5051,
      "explan": 5052,
      "uncontrol": 5053,
      "##phenidate": 5054,
      "subsided": 5055,
      "believed": 5056,
      "circulation": 5057,
      "carefully": 5058,
      "subject": 5059,
      "consequence": 5060,
      "concerning": 5061,
      "##lastoma": 5062,
      "individuals": 5063,
      "switching": 5064,
      "susceptibility": 5065,
      "fetal": 5066,
      "##oprost": 5067,
      "broad": 5068,
      "fracture": 5069,
      "clarithromycin": 5070,
      "Multiple": 5071,
      "##ushing": 5072,
      "retrospective": 5073,
      "chromosome": 5074,
      "bradycardia": 5075,
      "HAART": 5076,
      "insertion": 5077,
      "elimination": 5078,
      "question": 5079,
      "haemorrhage": 5080,
      "closure": 5081,
      "propylthiouracil": 5082,
      "stenosis": 5083,
      "drainage": 5084,
      "##epileptic": 5085,
      "##rofurantoin": 5086,
      "P450": 5087,
      "outcomes": 5088,
      "promyelocytic": 5089,
      "52": 5090,
      "68": 5091,
      "AV": 5092,
      "BO": 5093,
      "Based": 5094,
      "CH": 5095,
      "Cutaneous": 5096,
      "Del": 5097,
      "DPD": 5098,
      "DAT": 5099,
      "FD": 5100,
      "GI": 5101,
      "None": 5102,
      "Tran": 5103,
      "Toxic": 5104,
      "VPA": 5105,
      "fo": 5106,
      "fif": 5107,
      "fixed": 5108,
      "gyn": 5109,
      "hall": 5110,
      "iatrogenic": 5111,
      "lid": 5112,
      "nature": 5113,
      "samples": 5114,
      "tors": 5115,
      "##laf": 5116,
      "##tub": 5117,
      "##oar": 5118,
      "##uod": 5119,
      "##yz": 5120,
      "##vac": 5121,
      "##wise": 5122,
      "##sal": 5123,
      "##LIN": 5124,
      "##13": 5125,
      "##PE": 5126,
      "##ending": 5127,
      "##onid": 5128,
      "thym": 5129,
      "##thel": 5130,
      "ing": 5131,
      "##orp": 5132,
      "##atch": 5133,
      "anesthesia": 5134,
      "androgen": 5135,
      "rejection": 5136,
      "##osm": 5137,
      "##omep": 5138,
      "##omile": 5139,
      "##oler": 5140,
      "##acity": 5141,
      "bevac": 5142,
      "deb": 5143,
      "dehydro": 5144,
      "##resh": 5145,
      "##tinoin": 5146,
      "chamb": 5147,
      "disulfiram": 5148,
      "exist": 5149,
      "except": 5150,
      "sept": 5151,
      "separ": 5152,
      "tri": 5153,
      "##eptic": 5154,
      "assay": 5155,
      "suff": 5156,
      "inducing": 5157,
      "##oxide": 5158,
      "##ologies": 5159,
      "atax": 5160,
      "causative": 5161,
      "internal": 5162,
      "##ipar": 5163,
      "##teroidal": 5164,
      "plus": 5165,
      "medias": 5166,
      "##ostatin": 5167,
      "amb": 5168,
      "##rene": 5169,
      "regression": 5170,
      "compatible": 5171,
      "color": 5172,
      "colonic": 5173,
      "##axine": 5174,
      "defin": 5175,
      "types": 5176,
      "esophageal": 5177,
      "retro": 5178,
      "repair": 5179,
      "start": 5180,
      "option": 5181,
      "options": 5182,
      "##ramycin": 5183,
      "hospitalized": 5184,
      "differenti": 5185,
      "limiting": 5186,
      "hydrocephal": 5187,
      "identify": 5188,
      "excretion": 5189,
      "OBJECTIVES": 5190,
      "dissection": 5191,
      "##okal": 5192,
      "Aspergill": 5193,
      "accum": 5194,
      "provides": 5195,
      "nephrotoxicity": 5196,
      "bronchospasm": 5197,
      "investigated": 5198,
      "cyclosporin": 5199,
      "crypt": 5200,
      "hypothesis": 5201,
      "vasospasm": 5202,
      "profound": 5203,
      "assessed": 5204,
      "peak": 5205,
      "superficial": 5206,
      "aminotr": 5207,
      "transfusions": 5208,
      "lasting": 5209,
      "contributed": 5210,
      "criteria": 5211,
      "##operfusion": 5212,
      "cystoid": 5213,
      "mutation": 5214,
      "penicillin": 5215,
      "pointes": 5216,
      "paclitaxel": 5217,
      "purpose": 5218,
      "intensity": 5219,
      "reversed": 5220,
      "reversal": 5221,
      "properties": 5222,
      "ampicillin": 5223,
      "compounds": 5224,
      "TMP": 5225,
      "matter": 5226,
      "##aperitoneal": 5227,
      "antimicrobial": 5228,
      "epilepticus": 5229,
      "##itonavir": 5230,
      "enlarg": 5231,
      "leprosy": 5232,
      "lactate": 5233,
      "warranted": 5234,
      "##pidus": 5235,
      "vessels": 5236,
      "source": 5237,
      "view": 5238,
      "relevant": 5239,
      "juven": 5240,
      "vivo": 5241,
      "insipidus": 5242,
      "degeneration": 5243,
      "visceral": 5244,
      "erythropoietin": 5245,
      "Discontinu": 5246,
      "unrelated": 5247,
      "##aundice": 5248,
      "stromal": 5249,
      "Transient": 5250,
      "##lafaxine": 5251,
      "bevacizumab": 5252,
      "chamber": 5253,
      "Aspergillus": 5254,
      "67": 5255,
      "78": 5256,
      "Ag": 5257,
      "AB": 5258,
      "Bronch": 5259,
      "Central": 5260,
      "Dec": 5261,
      "Em": 5262,
      "Ev": 5263,
      "Fl": 5264,
      "HT": 5265,
      "Long": 5266,
      "MS": 5267,
      "Mag": 5268,
      "Met": 5269,
      "Noc": 5270,
      "Of": 5271,
      "Prop": 5272,
      "foc": 5273,
      "fall": 5274,
      "mood": 5275,
      "pigment": 5276,
      "sun": 5277,
      "tonic": 5278,
      "yr": 5279,
      "##but": 5280,
      "##lin": 5281,
      "##iter": 5282,
      "##nec": 5283,
      "##gue": 5284,
      "##aec": 5285,
      "##diagn": 5286,
      "##LT": 5287,
      "##12": 5288,
      "##GF": 5289,
      "##BD": 5290,
      "##BC": 5291,
      "##ION": 5292,
      "##ores": 5293,
      "##atives": 5294,
      "##atur": 5295,
      "##atosis": 5296,
      "antine": 5297,
      "##asmin": 5298,
      "##istry": 5299,
      "##aris": 5300,
      "##arachnoid": 5301,
      "##icion": 5302,
      "##omic": 5303,
      "##usis": 5304,
      "##uscit": 5305,
      "##ulations": 5306,
      "##term": 5307,
      "##terone": 5308,
      "tob": 5309,
      "tool": 5310,
      "##idase": 5311,
      "##openic": 5312,
      "##oposide": 5313,
      "##ocys": 5314,
      "##ocycline": 5315,
      "##utamine": 5316,
      "##ucin": 5317,
      "dele": 5318,
      "##irth": 5319,
      "##tinue": 5320,
      "##imer": 5321,
      "prote": 5322,
      "resuscit": 5323,
      "actin": 5324,
      "acting": 5325,
      "acne": 5326,
      "##agen": 5327,
      "alle": 5328,
      "##abin": 5329,
      "##abapen": 5330,
      "infrequ": 5331,
      "neural": 5332,
      "neovascular": 5333,
      "prescription": 5334,
      "antiarrhythmic": 5335,
      "antiepileptic": 5336,
      "carotid": 5337,
      "##iform": 5338,
      "##actable": 5339,
      "octre": 5340,
      "able": 5341,
      "arabin": 5342,
      "dip": 5343,
      "relation": 5344,
      "##entia": 5345,
      "spine": 5346,
      "##opharyngeal": 5347,
      "administering": 5348,
      "enti": 5349,
      "consisted": 5350,
      "##raine": 5351,
      "##aker": 5352,
      "impact": 5353,
      "##ludarabine": 5354,
      "thromboembol": 5355,
      "surve": 5356,
      "neuropath": 5357,
      "##SIGN": 5358,
      "contamin": 5359,
      "score": 5360,
      "histologic": 5361,
      "##aches": 5362,
      "inhal": 5363,
      "decomp": 5364,
      "employ": 5365,
      "resolve": 5366,
      "radiological": 5367,
      "special": 5368,
      "typically": 5369,
      "microm": 5370,
      "myelodys": 5371,
      "fourth": 5372,
      "ultimately": 5373,
      "feeding": 5374,
      "##otretinoin": 5375,
      "antich": 5376,
      "##abolic": 5377,
      "producing": 5378,
      "detachment": 5379,
      "CAPD": 5380,
      "##iquimod": 5381,
      "suspicion": 5382,
      "lowering": 5383,
      "States": 5384,
      "label": 5385,
      "##ohn": 5386,
      "extrac": 5387,
      "##oking": 5388,
      "pharmacological": 5389,
      "hormonal": 5390,
      "provided": 5391,
      "chlorambucil": 5392,
      "##tidine": 5393,
      "abdomen": 5394,
      "capecitabine": 5395,
      "temper": 5396,
      "##rophysi": 5397,
      "receptors": 5398,
      "sequence": 5399,
      "embolization": 5400,
      "serotonergic": 5401,
      "dermatologic": 5402,
      "##onvulsive": 5403,
      "promptly": 5404,
      "##brile": 5405,
      "encephal": 5406,
      "keratomile": 5407,
      "ophthalmic": 5408,
      "Medical": 5409,
      "neonatal": 5410,
      "ileus": 5411,
      "##oscler": 5412,
      "unsuccessful": 5413,
      "cephal": 5414,
      "angioedema": 5415,
      "macrophages": 5416,
      "Development": 5417,
      "migraine": 5418,
      "survived": 5419,
      "reason": 5420,
      "exhibited": 5421,
      "Physicians": 5422,
      "gamma": 5423,
      "ventilation": 5424,
      "information": 5425,
      "cannot": 5426,
      "Carbamazepine": 5427,
      "inadvertent": 5428,
      "inferior": 5429,
      "rifampicin": 5430,
      "DESIGN": 5431,
      "favorable": 5432,
      "tremor": 5433,
      "histories": 5434,
      "average": 5435,
      "cognitive": 5436,
      "unresponsive": 5437,
      "vertebral": 5438,
      "English": 5439,
      "Systemic": 5440,
      "knee": 5441,
      "dehydrogenase": 5442,
      "ataxia": 5443,
      "enlargement": 5444,
      "juvenile": 5445,
      "Discontinuation": 5446,
      "Nocardia": 5447,
      "##ocystis": 5448,
      "##abapentin": 5449,
      "octreotide": 5450,
      "keratomileusis": 5451,
      "49": 5452,
      "BP": 5453,
      "BCG": 5454,
      "CI": 5455,
      "Col": 5456,
      "Cap": 5457,
      "Eight": 5458,
      "Hb": 5459,
      "Hospital": 5460,
      "Nine": 5461,
      "New": 5462,
      "Sim": 5463,
      "fer": 5464,
      "fati": 5465,
      "lapar": 5466,
      "mir": 5467,
      "porph": 5468,
      "sed": 5469,
      "sil": 5470,
      "via": 5471,
      "##mol": 5472,
      "##bl": 5473,
      "##bound": 5474,
      "##iosis": 5475,
      "##iance": 5476,
      "##irolimus": 5477,
      "##iapism": 5478,
      "##tain": 5479,
      "##taining": 5480,
      "##oat": 5481,
      "##uz": 5482,
      "##pation": 5483,
      "##pective": 5484,
      "##yle": 5485,
      "##cal": 5486,
      "##HL": 5487,
      "##erase": 5488,
      "##entical": 5489,
      "##inic": 5490,
      "thiamine": 5491,
      "##org": 5492,
      "##oric": 5493,
      "##atology": 5494,
      "antin": 5495,
      "##icc": 5496,
      "##reous": 5497,
      "##rox": 5498,
      "##osyn": 5499,
      "##ecia": 5500,
      "##urate": 5501,
      "##idol": 5502,
      "##acillin": 5503,
      "##leb": 5504,
      "##oct": 5505,
      "##tries": 5506,
      "##uten": 5507,
      "##uction": 5508,
      "debrid": 5509,
      "##celer": 5510,
      "conn": 5511,
      "distin": 5512,
      "distribution": 5513,
      "##odiazep": 5514,
      "##agnes": 5515,
      "always": 5516,
      "alkyl": 5517,
      "imiquimod": 5518,
      "##ainamide": 5519,
      "##oides": 5520,
      "hypom": 5521,
      "hypox": 5522,
      "hypophosph": 5523,
      "##oxy": 5524,
      "##oxysm": 5525,
      "##acted": 5526,
      "##vium": 5527,
      "intraperitoneal": 5528,
      "##azone": 5529,
      "priapism": 5530,
      "evident": 5531,
      "conservative": 5532,
      "play": 5533,
      "plasmin": 5534,
      "medicine": 5535,
      "thrombin": 5536,
      "conclusion": 5537,
      "otherwise": 5538,
      "remarkable": 5539,
      "scal": 5540,
      "##ogenesis": 5541,
      "metoclopramide": 5542,
      "endoscopic": 5543,
      "Anti": 5544,
      "##yroxine": 5545,
      "demyel": 5546,
      "pathology": 5547,
      "myelosupp": 5548,
      "##rophic": 5549,
      "periodic": 5550,
      "197": 5551,
      "feature": 5552,
      "##titute": 5553,
      "##loroquine": 5554,
      "METHOD": 5555,
      "##orphine": 5556,
      "##ember": 5557,
      "advant": 5558,
      "propose": 5559,
      "humans": 5560,
      "pregnant": 5561,
      "hematopoietic": 5562,
      "ulcerative": 5563,
      "accidental": 5564,
      "majority": 5565,
      "chloride": 5566,
      "healing": 5567,
      "safely": 5568,
      "deaths": 5569,
      "neuroleptics": 5570,
      "prescribing": 5571,
      "linezolid": 5572,
      "retinopathy": 5573,
      "dextro": 5574,
      "indicates": 5575,
      "photos": 5576,
      "reactivity": 5577,
      "expression": 5578,
      "intervals": 5579,
      "synthetic": 5580,
      "ulceration": 5581,
      "azithromycin": 5582,
      "asthmatic": 5583,
      "meningioma": 5584,
      "##escence": 5585,
      "contribute": 5586,
      "subjects": 5587,
      "Neurolog": 5588,
      "Methotrexate": 5589,
      "consequences": 5590,
      "characteristics": 5591,
      "anaphylaxis": 5592,
      "raised": 5593,
      "activator": 5594,
      "##standing": 5595,
      "occasionally": 5596,
      "urtic": 5597,
      "gangl": 5598,
      "maternal": 5599,
      "##oscarn": 5600,
      "maxim": 5601,
      "pericardial": 5602,
      "benzodiazep": 5603,
      "Japanese": 5604,
      "Prim": 5605,
      "burns": 5606,
      "##olinergic": 5607,
      "hypocalcemia": 5608,
      "pegylated": 5609,
      "ANCA": 5610,
      "Moreover": 5611,
      "conduction": 5612,
      "SMX": 5613,
      "deficit": 5614,
      "Neuroleptic": 5615,
      "American": 5616,
      "botulinum": 5617,
      "clearly": 5618,
      "hyperpigmentation": 5619,
      "prevalence": 5620,
      "subacute": 5621,
      "##riptan": 5622,
      "delirium": 5623,
      "African": 5624,
      "testicular": 5625,
      "hydrocephalus": 5626,
      "tobramycin": 5627,
      "anticholinergic": 5628,
      "fatigue": 5629,
      "debridement": 5630,
      "plasminogen": 5631,
      "##oscarnet": 5632,
      "59": 5633,
      "74": 5634,
      "82": 5635,
      "Aut": 5636,
      "ACT": 5637,
      "Co": 5638,
      "CK": 5639,
      "Cor": 5640,
      "Dop": 5641,
      "FM": 5642,
      "Hg": 5643,
      "John": 5644,
      "Lithium": 5645,
      "Oc": 5646,
      "PS": 5647,
      "Prol": 5648,
      "Rh": 5649,
      "Ris": 5650,
      "Top": 5651,
      "atri": 5652,
      "bul": 5653,
      "bodies": 5654,
      "birth": 5655,
      "cranial": 5656,
      "drops": 5657,
      "far": 5658,
      "final": 5659,
      "fludarabine": 5660,
      "gon": 5661,
      "junction": 5662,
      "jaundice": 5663,
      "lav": 5664,
      "mE": 5665,
      "py": 5666,
      "ruled": 5667,
      "##riam": 5668,
      "##gi": 5669,
      "##pread": 5670,
      "##habil": 5671,
      "##VII": 5672,
      "##AS": 5673,
      "##ER": 5674,
      "##NG": 5675,
      "##20": 5676,
      "##onography": 5677,
      "##inavir": 5678,
      "##inii": 5679,
      "##alim": 5680,
      "ineff": 5681,
      "offen": 5682,
      "##ortion": 5683,
      "##orting": 5684,
      "##entan": 5685,
      "##isis": 5686,
      "##anine": 5687,
      "##antib": 5688,
      "##rous": 5689,
      "reach": 5690,
      "##ostic": 5691,
      "##omfort": 5692,
      "tol": 5693,
      "##emide": 5694,
      "##emotherapy": 5695,
      "##emoglobin": 5696,
      "##itate": 5697,
      "##opram": 5698,
      "##leuk": 5699,
      "##letal": 5700,
      "##lets": 5701,
      "##ocial": 5702,
      "##trans": 5703,
      "##tically": 5704,
      "Therapy": 5705,
      "isotretinoin": 5706,
      "deple": 5707,
      "##romazine": 5708,
      "conte": 5709,
      "convul": 5710,
      "##elf": 5711,
      "##unomide": 5712,
      "choroidal": 5713,
      "distal": 5714,
      "exten": 5715,
      "exists": 5716,
      "trimes": 5717,
      "##othor": 5718,
      "##othyroxine": 5719,
      "record": 5720,
      "percent": 5721,
      "##ications": 5722,
      "olig": 5723,
      "carinii": 5724,
      "##encephal": 5725,
      "preoperative": 5726,
      "preexisting": 5727,
      "atrophy": 5728,
      "untreated": 5729,
      "unnec": 5730,
      "diaz": 5731,
      "correct": 5732,
      "severely": 5733,
      "##tisone": 5734,
      "discomfort": 5735,
      "parac": 5736,
      "subarachnoid": 5737,
      "enoxaparin": 5738,
      "obese": 5739,
      "consti": 5740,
      "myal": 5741,
      "##rand": 5742,
      "remaining": 5743,
      "scans": 5744,
      "amyloid": 5745,
      "histology": 5746,
      "endogenous": 5747,
      "##italopram": 5748,
      "##imetidine": 5749,
      "##rown": 5750,
      "##keletal": 5751,
      "discontinuing": 5752,
      "managing": 5753,
      "arteries": 5754,
      "##CTION": 5755,
      "significance": 5756,
      "specif": 5757,
      "dementia": 5758,
      "cytosine": 5759,
      "effectively": 5760,
      "##ieving": 5761,
      "prolif": 5762,
      "retard": 5763,
      "examinations": 5764,
      "120": 5765,
      "person": 5766,
      "psychotropic": 5767,
      "lungs": 5768,
      "refl": 5769,
      "identical": 5770,
      "differences": 5771,
      "cerebellar": 5772,
      "limits": 5773,
      "microb": 5774,
      "blockers": 5775,
      "pancytopenia": 5776,
      "vitreous": 5777,
      "macul": 5778,
      "osteop": 5779,
      "osteomyelitis": 5780,
      "venlafaxine": 5781,
      "##lobal": 5782,
      "headaches": 5783,
      "Addition": 5784,
      "hypothes": 5785,
      "postoperatively": 5786,
      "acetonide": 5787,
      "##ethyl": 5788,
      "growing": 5789,
      "adjust": 5790,
      "Recently": 5791,
      "##like": 5792,
      "profession": 5793,
      "##omatostatin": 5794,
      "##iazine": 5795,
      "eventually": 5796,
      "physician": 5797,
      "repeat": 5798,
      "terat": 5799,
      "dermatosis": 5800,
      "levothyroxine": 5801,
      "##azoline": 5802,
      "##azolamide": 5803,
      "##oplasmosis": 5804,
      "##idespread": 5805,
      "Neut": 5806,
      "disturbance": 5807,
      "difficulty": 5808,
      "pseudo": 5809,
      "##iversity": 5810,
      "histologically": 5811,
      "membrane": 5812,
      "##amilial": 5813,
      "allowed": 5814,
      "airway": 5815,
      "##oalveolar": 5816,
      "analogue": 5817,
      "myoclonic": 5818,
      "dilated": 5819,
      "introduced": 5820,
      "activated": 5821,
      "operation": 5822,
      "nonsteroidal": 5823,
      "blindness": 5824,
      "ATRA": 5825,
      "dogs": 5826,
      "traumatic": 5827,
      "penetrating": 5828,
      "pustular": 5829,
      "procainamide": 5830,
      "bisphosph": 5831,
      "endothelial": 5832,
      "natural": 5833,
      "optimal": 5834,
      "TPN": 5835,
      "Pneumocystis": 5836,
      "erosion": 5837,
      "traditional": 5838,
      "intramuscular": 5839,
      "opportunistic": 5840,
      "uncontrolled": 5841,
      "ambulatory": 5842,
      "aminotransferase": 5843,
      "arabinoside": 5844,
      "micromol": 5845,
      "alkylating": 5846,
      "Primary": 5847,
      "lavage": 5848,
      "mEq": 5849,
      "##riamycin": 5850,
      "ineffective": 5851,
      "context": 5852,
      "unnecess": 5853,
      "76": 5854,
      "95": 5855,
      "By": 5856,
      "Bone": 5857,
      "Cal": 5858,
      "DR": 5859,
      "EBV": 5860,
      "Gl": 5861,
      "Gen": 5862,
      "IT": 5863,
      "Liver": 5864,
      "Or": 5865,
      "Ob": 5866,
      "PU": 5867,
      "RPE": 5868,
      "Twenty": 5869,
      "aeti": 5870,
      "bol": 5871,
      "binding": 5872,
      "cas": 5873,
      "citalopram": 5874,
      "dang": 5875,
      "fist": 5876,
      "fasc": 5877,
      "foscarnet": 5878,
      "gain": 5879,
      "gram": 5880,
      "hr": 5881,
      "how": 5882,
      "just": 5883,
      "ke": 5884,
      "lor": 5885,
      "noct": 5886,
      "pil": 5887,
      "uro": 5888,
      "umb": 5889,
      "wear": 5890,
      "wave": 5891,
      "##rain": 5892,
      "##eine": 5893,
      "##mia": 5894,
      "##bar": 5895,
      "##iar": 5896,
      "##gr": 5897,
      "##uary": 5898,
      "##urop": 5899,
      "##pine": 5900,
      "##GE": 5901,
      "##eresis": 5902,
      "##onates": 5903,
      "##inc": 5904,
      "##inating": 5905,
      "##ali": 5906,
      "##alapr": 5907,
      "##ators": 5908,
      "anth": 5909,
      "##entam": 5910,
      "##roc": 5911,
      "rehabil": 5912,
      "##omod": 5913,
      "##terase": 5914,
      "##ecul": 5915,
      "##olamine": 5916,
      "##emp": 5917,
      "##acti": 5918,
      "##acaine": 5919,
      "##oconstr": 5920,
      "##uture": 5921,
      "##ilical": 5922,
      "##igm": 5923,
      "##unk": 5924,
      "##tinence": 5925,
      "challen": 5926,
      "resc": 5927,
      "acceler": 5928,
      "##aglobulin": 5929,
      "stenting": 5930,
      "stool": 5931,
      "assisted": 5932,
      "clot": 5933,
      "classi": 5934,
      "hypokal": 5935,
      "##ivacaine": 5936,
      "antitub": 5937,
      "carcin": 5938,
      "preterm": 5939,
      "monon": 5940,
      "Infl": 5941,
      "unable": 5942,
      "unilateral": 5943,
      "intractable": 5944,
      "##lotinib": 5945,
      "diphen": 5946,
      "occlusive": 5947,
      "transformation": 5948,
      "##rolene": 5949,
      "##rosine": 5950,
      "paradoxical": 5951,
      "paroxysm": 5952,
      "evol": 5953,
      "immunomod": 5954,
      "##ukast": 5955,
      "##uresis": 5956,
      "##onstitution": 5957,
      "##adily": 5958,
      "amount": 5959,
      "err": 5960,
      "erlotinib": 5961,
      "intoler": 5962,
      "completion": 5963,
      "perioperative": 5964,
      "normalization": 5965,
      "##obutamine": 5966,
      "compression": 5967,
      "decline": 5968,
      "decision": 5969,
      "multiform": 5970,
      "minocycline": 5971,
      "##oventricular": 5972,
      "Accor": 5973,
      "##phalan": 5974,
      "delusion": 5975,
      "systems": 5976,
      "angiosarcoma": 5977,
      "smear": 5978,
      "metabolites": 5979,
      "##ofluor": 5980,
      "##osporin": 5981,
      "##ohist": 5982,
      "cholesterol": 5983,
      "pharmacologic": 5984,
      "##yria": 5985,
      "Adverse": 5986,
      "according": 5987,
      "pathogenic": 5988,
      "chlorp": 5989,
      "organic": 5990,
      "Pharmac": 5991,
      "cry": 5992,
      "crisis": 5993,
      "capacity": 5994,
      "eosinophils": 5995,
      "aggrav": 5996,
      "scleroderma": 5997,
      "##omastia": 5998,
      "throughout": 5999,
      "linear": 6000,
      "nitr": 6001,
      "supported": 6002,
      "groups": 6003,
      "obstructive": 6004,
      "expected": 6005,
      "polymyositis": 6006,
      "##ectiveness": 6007,
      "substitution": 6008,
      "establish": 6009,
      "guided": 6010,
      "##operidol": 6011,
      "gradual": 6012,
      "regional": 6013,
      "excell": 6014,
      "tumours": 6015,
      "Hepat": 6016,
      "##respond": 6017,
      "##cortisone": 6018,
      "correlated": 6019,
      "##urgical": 6020,
      "emphasize": 6021,
      "microscopic": 6022,
      "derivative": 6023,
      "highlights": 6024,
      "##TIONS": 6025,
      "slowly": 6026,
      "conjunctival": 6027,
      "Seven": 6028,
      "electron": 6029,
      "agonist": 6030,
      "linked": 6031,
      "gestation": 6032,
      "ventricul": 6033,
      "hydroxyurea": 6034,
      "panic": 6035,
      "aspects": 6036,
      "palliative": 6037,
      "tyrosine": 6038,
      "tablets": 6039,
      "candid": 6040,
      "pathophysiology": 6041,
      "membranes": 6042,
      "adolescent": 6043,
      "Reversible": 6044,
      "channel": 6045,
      "strategy": 6046,
      "predominantly": 6047,
      "attacks": 6048,
      "Incre": 6049,
      "gingival": 6050,
      "contracep": 6051,
      "DATA": 6052,
      "fifth": 6053,
      "Emerg": 6054,
      "protease": 6055,
      "myelodysplastic": 6056,
      "antinuclear": 6057,
      "maximum": 6058,
      "FMF": 6059,
      "Prolong": 6060,
      "##emoglobinemia": 6061,
      "constipation": 6062,
      "unnecessary": 6063,
      "bolus": 6064,
      "umbilical": 6065,
      "According": 6066,
      "2b": 6067,
      "300": 6068,
      "63": 6069,
      "62": 6070,
      "600": 6071,
      "73": 6072,
      "77": 6073,
      "99": 6074,
      "Bef": 6075,
      "Calc": 6076,
      "CML": 6077,
      "Due": 6078,
      "Hy": 6079,
      "HB": 6080,
      "HI": 6081,
      "IL": 6082,
      "Kap": 6083,
      "MP": 6084,
      "NE": 6085,
      "Pol": 6086,
      "Panc": 6087,
      "Prog": 6088,
      "PSA": 6089,
      "Sy": 6090,
      "Some": 6091,
      "TA": 6092,
      "TB": 6093,
      "Vis": 6094,
      "cer": 6095,
      "cyp": 6096,
      "cran": 6097,
      "cidofovir": 6098,
      "duod": 6099,
      "dobutamine": 6100,
      "length": 6101,
      "nif": 6102,
      "nail": 6103,
      "pron": 6104,
      "punct": 6105,
      "swe": 6106,
      "sirolimus": 6107,
      "upt": 6108,
      "widespread": 6109,
      "##rad": 6110,
      "##razole": 6111,
      "##mar": 6112,
      "##more": 6113,
      "##bo": 6114,
      "##bital": 6115,
      "##lig": 6116,
      "##ging": 6117,
      "##taz": 6118,
      "##aution": 6119,
      "##oon": 6120,
      "##utin": 6121,
      "##uropathy": 6122,
      "##pon": 6123,
      "##vo": 6124,
      "##carb": 6125,
      "##damycin": 6126,
      "##Ds": 6127,
      "##D6": 6128,
      "##DU": 6129,
      "##MD": 6130,
      "##11": 6131,
      "##RH": 6132,
      "##RS": 6133,
      "##ICA": 6134,
      "##tiaz": 6135,
      "##editary": 6136,
      "##inary": 6137,
      "##astine": 6138,
      "##astric": 6139,
      "##arter": 6140,
      "##reg": 6141,
      "readily": 6142,
      "##osi": 6143,
      "##osulf": 6144,
      "##osomal": 6145,
      "took": 6146,
      "##olic": 6147,
      "##idov": 6148,
      "##itamin": 6149,
      "##acia": 6150,
      "##opaus": 6151,
      "##opapular": 6152,
      "##opecia": 6153,
      "##leven": 6154,
      "##iltration": 6155,
      "##amol": 6156,
      "##ample": 6157,
      "fore": 6158,
      "displ": 6159,
      "##odilat": 6160,
      "##ystitis": 6161,
      "##antrolene": 6162,
      "##imine": 6163,
      "proposed": 6164,
      "access": 6165,
      "exud": 6166,
      "neonate": 6167,
      "trache": 6168,
      "trunk": 6169,
      "##epam": 6170,
      "clonidine": 6171,
      "effort": 6172,
      "##izole": 6173,
      "##ify": 6174,
      "preced": 6175,
      "atten": 6176,
      "position": 6177,
      "##chym": 6178,
      "Ins": 6179,
      "abrupt": 6180,
      "complain": 6181,
      "hyperther": 6182,
      "##encies": 6183,
      "##ounced": 6184,
      "paralysis": 6185,
      "chemor": 6186,
      "obli": 6187,
      "showing": 6188,
      "surge": 6189,
      "##ranous": 6190,
      "novo": 6191,
      "injected": 6192,
      "amn": 6193,
      "completed": 6194,
      "##ychloroquine": 6195,
      "risks": 6196,
      "##rowth": 6197,
      "Anaphyl": 6198,
      "reveal": 6199,
      "radiographic": 6200,
      "species": 6201,
      "esophag": 6202,
      "analys": 6203,
      "##oplasia": 6204,
      "cytarabine": 6205,
      "MED": 6206,
      "reporting": 6207,
      "variable": 6208,
      "carbonate": 6209,
      "leads": 6210,
      "detect": 6211,
      "needle": 6212,
      "##ematous": 6213,
      "##arcoal": 6214,
      "limit": 6215,
      "##embranous": 6216,
      "breath": 6217,
      "##RODU": 6218,
      "labor": 6219,
      "##ituitary": 6220,
      "##pecific": 6221,
      "affective": 6222,
      "recommendations": 6223,
      "mouth": 6224,
      "##truction": 6225,
      "mucositis": 6226,
      "electrophysi": 6227,
      "CD20": 6228,
      "Review": 6229,
      "autoantib": 6230,
      "Phen": 6231,
      "achieve": 6232,
      "cryst": 6233,
      "methylphenidate": 6234,
      "saline": 6235,
      "protamine": 6236,
      "1000": 6237,
      "difficile": 6238,
      "Recent": 6239,
      "nitrofurantoin": 6240,
      "Combin": 6241,
      "##azolam": 6242,
      "irrit": 6243,
      "explain": 6244,
      "illustrate": 6245,
      "##omalacia": 6246,
      "##omegaly": 6247,
      "polymerase": 6248,
      "PDT": 6249,
      "haloperidol": 6250,
      "directly": 6251,
      "suddenly": 6252,
      "HCC": 6253,
      "etoposide": 6254,
      "enterocol": 6255,
      "antagonists": 6256,
      "Furthermore": 6257,
      "cholestatic": 6258,
      "melphalan": 6259,
      "mycophenolate": 6260,
      "coagulopathy": 6261,
      "pacing": 6262,
      "exception": 6263,
      "enhanc": 6264,
      "enhanced": 6265,
      "##oiter": 6266,
      "anaphylactoid": 6267,
      "intense": 6268,
      "anticonvulsants": 6269,
      "correlation": 6270,
      "amput": 6271,
      "switched": 6272,
      "pemphigoid": 6273,
      "fetus": 6274,
      "##litazone": 6275,
      "uterine": 6276,
      "MMF": 6277,
      "attempted": 6278,
      "center": 6279,
      "analgesic": 6280,
      "Seiz": 6281,
      "CBZ": 6282,
      "orthotopic": 6283,
      "measurements": 6284,
      "ARF": 6285,
      "lichenoid": 6286,
      "##iolitis": 6287,
      "trauma": 6288,
      "pyrid": 6289,
      "adrenergic": 6290,
      "planus": 6291,
      "community": 6292,
      "sympathetic": 6293,
      "streptokinase": 6294,
      "INTRODU": 6295,
      "Strong": 6296,
      "capsule": 6297,
      "Initial": 6298,
      "Elect": 6299,
      "misdiagn": 6300,
      "resembling": 6301,
      "exchange": 6302,
      "component": 6303,
      "easily": 6304,
      "simplex": 6305,
      "bupivacaine": 6306,
      "nasopharyngeal": 6307,
      "##opurinol": 6308,
      "electrocardiogram": 6309,
      "lobe": 6310,
      "hallucin": 6311,
      "lidocaine": 6312,
      "sunitinib": 6313,
      "resuscitation": 6314,
      "entire": 6315,
      "employed": 6316,
      "mirtaz": 6317,
      "demyelinating": 6318,
      "myelosuppression": 6319,
      "ACTH": 6320,
      "atrioventricular": 6321,
      "trimester": 6322,
      "diazepam": 6323,
      "PUVA": 6324,
      "anthrac": 6325,
      "rescue": 6326,
      "excellent": 6327,
      "Before": 6328,
      "Kaposi": 6329,
      "uptake": 6330,
      "##tiazem": 6331,
      "##idovudine": 6332,
      "##opausal": 6333,
      "obliter": 6334,
      "enterocolitis": 6335,
      "INTRODUCTION": 6336,
      "mirtazapine": 6337,
      "Bilateral": 6338,
      "CF": 6339,
      "Care": 6340,
      "Cons": 6341,
      "Cauc": 6342,
      "Cushing": 6343,
      "Gy": 6344,
      "HLA": 6345,
      "LM": 6346,
      "Me": 6347,
      "MI": 6348,
      "Mon": 6349,
      "Mic": 6350,
      "National": 6351,
      "OC": 6352,
      "Prom": 6353,
      "Rep": 6354,
      "Rapid": 6355,
      "Sal": 6356,
      "Steroid": 6357,
      "Ste": 6358,
      "Typ": 6359,
      "TLS": 6360,
      "UV": 6361,
      "avium": 6362,
      "bal": 6363,
      "bur": 6364,
      "border": 6365,
      "call": 6366,
      "dro": 6367,
      "done": 6368,
      "dimin": 6369,
      "fal": 6370,
      "fast": 6371,
      "fund": 6372,
      "finally": 6373,
      "future": 6374,
      "goiter": 6375,
      "ran": 6376,
      "som": 6377,
      "sem": 6378,
      "sib": 6379,
      "sick": 6380,
      "social": 6381,
      "yiel": 6382,
      "##ruption": 6383,
      "##ld": 6384,
      "##ik": 6385,
      "##nitol": 6386,
      "##after": 6387,
      "##uti": 6388,
      "##ufact": 6389,
      "##piratory": 6390,
      "##sA": 6391,
      "##fac": 6392,
      "##Hg": 6393,
      "##juvant": 6394,
      "##IG": 6395,
      "##PH": 6396,
      "##inosa": 6397,
      "##align": 6398,
      "##thral": 6399,
      "##thyroid": 6400,
      "##tharg": 6401,
      "instances": 6402,
      "##orous": 6403,
      "##atriptan": 6404,
      "##asian": 6405,
      "##icular": 6406,
      "##ussion": 6407,
      "##idog": 6408,
      "##idronate": 6409,
      "##eminal": 6410,
      "##acr": 6411,
      "##ople": 6412,
      "##opidine": 6413,
      "##opidog": 6414,
      "##aple": 6415,
      "##aptic": 6416,
      "##ocation": 6417,
      "##trated": 6418,
      "##ticul": 6419,
      "##version": 6420,
      "##utane": 6421,
      "##amidronate": 6422,
      "##ower": 6423,
      "##romise": 6424,
      "##adr": 6425,
      "##ported": 6426,
      "whole": 6427,
      "##uginosa": 6428,
      "##odine": 6429,
      "adh": 6430,
      "research": 6431,
      "act": 6432,
      "##yps": 6433,
      "exogenous": 6434,
      "images": 6435,
      "standing": 6436,
      "leak": 6437,
      "letharg": 6438,
      "##aind": 6439,
      "##epa": 6440,
      "##eptid": 6441,
      "living": 6442,
      "reconstitution": 6443,
      "clom": 6444,
      "clopidog": 6445,
      "draw": 6446,
      "##anch": 6447,
      "haz": 6448,
      "preven": 6449,
      "mannitol": 6450,
      "manufact": 6451,
      "follic": 6452,
      "folinic": 6453,
      "Inf": 6454,
      "##vens": 6455,
      "correspond": 6456,
      "##load": 6457,
      "arg": 6458,
      "##neuropathy": 6459,
      "hyperpar": 6460,
      "clindamycin": 6461,
      "transverse": 6462,
      "##ylate": 6463,
      "##encement": 6464,
      "spir": 6465,
      "spond": 6466,
      "spite": 6467,
      "##peritoneal": 6468,
      "##rolide": 6469,
      "partic": 6470,
      "subm": 6471,
      "evolution": 6472,
      "enalapr": 6473,
      "consumption": 6474,
      "##hex": 6475,
      "##heimer": 6476,
      "leukem": 6477,
      "##uality": 6478,
      "heter": 6479,
      "healed": 6480,
      "signal": 6481,
      "##illance": 6482,
      "contained": 6483,
      "instituted": 6484,
      "##ressant": 6485,
      "cancers": 6486,
      "dysph": 6487,
      "##formin": 6488,
      "considering": 6489,
      "##ersensitivity": 6490,
      "phenol": 6491,
      "mineral": 6492,
      "controls": 6493,
      "functional": 6494,
      "reducing": 6495,
      "Acc": 6496,
      "tested": 6497,
      "proliferative": 6498,
      "eyel": 6499,
      "##stead": 6500,
      "polyc": 6501,
      "persons": 6502,
      "requires": 6503,
      "plasmaph": 6504,
      "##enicol": 6505,
      "promising": 6506,
      "contraind": 6507,
      "hydrocortisone": 6508,
      "##iques": 6509,
      "##ofib": 6510,
      "150": 6511,
      "suspect": 6512,
      "osteomalacia": 6513,
      "##oprazole": 6514,
      "identification": 6515,
      "excision": 6516,
      "veno": 6517,
      "extra": 6518,
      "##ochond": 6519,
      "##zyme": 6520,
      "chloramph": 6521,
      "catat": 6522,
      "cleared": 6523,
      "cauti": 6524,
      "vasoconstr": 6525,
      "prevented": 6526,
      "mmHg": 6527,
      "behavioral": 6528,
      "physical": 6529,
      "twin": 6530,
      "tomographic": 6531,
      "##artan": 6532,
      "##iabetic": 6533,
      "tachy": 6534,
      "##roscopic": 6535,
      "herpetic": 6536,
      "##oea": 6537,
      "Hypersensitivity": 6538,
      "Enter": 6539,
      "endometr": 6540,
      "circulating": 6541,
      "deteriorated": 6542,
      "preparations": 6543,
      "##osterone": 6544,
      "alcoholic": 6545,
      "##aryng": 6546,
      "polyneuropathy": 6547,
      "idiosyn": 6548,
      "endocrine": 6549,
      "##oquinol": 6550,
      "allowing": 6551,
      "PTU": 6552,
      "grew": 6553,
      "hands": 6554,
      "latent": 6555,
      "discharge": 6556,
      "bacill": 6557,
      "anaphylactic": 6558,
      "diltiazem": 6559,
      "##ozyg": 6560,
      "##iramate": 6561,
      "##yloides": 6562,
      "terminal": 6563,
      "analgesia": 6564,
      "placebo": 6565,
      "agonists": 6566,
      "fraction": 6567,
      "restricted": 6568,
      "Many": 6569,
      "vaccin": 6570,
      "oncology": 6571,
      "APL": 6572,
      "pruritus": 6573,
      "ranging": 6574,
      "echocardiography": 6575,
      "mimic": 6576,
      "slightly": 6577,
      "polymorphism": 6578,
      "aeruginosa": 6579,
      "PATI": 6580,
      "##iclopidine": 6581,
      "Cardiac": 6582,
      "desmopressin": 6583,
      "unexpected": 6584,
      "sulfonamide": 6585,
      "Pseudomonas": 6586,
      "augmentation": 6587,
      "speech": 6588,
      "gastritis": 6589,
      "electrolyte": 6590,
      "accumulation": 6591,
      "antineoplastic": 6592,
      "neovascularization": 6593,
      "temperature": 6594,
      "##osclerosis": 6595,
      "##blastine": 6596,
      "##agnesemia": 6597,
      "offending": 6598,
      "maculopapular": 6599,
      "professionals": 6600,
      "##aliplatin": 6601,
      "rehabilitation": 6602,
      "antitubercul": 6603,
      "multiforme": 6604,
      "Visual": 6605,
      "crani": 6606,
      "hyperthermia": 6607,
      "Caucasian": 6608,
      "Stevens": 6609,
      "clopidogrel": 6610,
      "hyperparathyroidism": 6611,
      "chloramphenicol": 6612,
      "cautious": 6613,
      "83": 6614,
      "AA": 6615,
      "Cyt": 6616,
      "DL": 6617,
      "FK": 6618,
      "Fever": 6619,
      "GH": 6620,
      "Hum": 6621,
      "KS": 6622,
      "Line": 6623,
      "Nor": 6624,
      "NHL": 6625,
      "OCT": 6626,
      "PP": 6627,
      "Path": 6628,
      "Pers": 6629,
      "RS": 6630,
      "Ret": 6631,
      "Radiation": 6632,
      "Sh": 6633,
      "SC": 6634,
      "Such": 6635,
      "WE": 6636,
      "aid": 6637,
      "bab": 6638,
      "cost": 6639,
      "cimetidine": 6640,
      "div": 6641,
      "dial": 6642,
      "diz": 6643,
      "fell": 6644,
      "fusion": 6645,
      "familial": 6646,
      "gabapentin": 6647,
      "global": 6648,
      "je": 6649,
      "mill": 6650,
      "notic": 6651,
      "om": 6652,
      "pH": 6653,
      "pituitary": 6654,
      "rub": 6655,
      "ritonavir": 6656,
      "ster": 6657,
      "somatostatin": 6658,
      "tim": 6659,
      "taper": 6660,
      "ves": 6661,
      "##mus": 6662,
      "##bup": 6663,
      "##lined": 6664,
      "##iomas": 6665,
      "##ground": 6666,
      "##garis": 6667,
      "##tte": 6668,
      "##tently": 6669,
      "##oad": 6670,
      "##uation": 6671,
      "##uros": 6672,
      "##vage": 6673,
      "##vasive": 6674,
      "##ks": 6675,
      "##haps": 6676,
      "##dle": 6677,
      "##dural": 6678,
      "##DD": 6679,
      "##fication": 6680,
      "##TA": 6681,
      "##TTI": 6682,
      "##ziness": 6683,
      "##xia": 6684,
      "##AL": 6685,
      "##HA": 6686,
      "##int": 6687,
      "##aline": 6688,
      "##alities": 6689,
      "##esir": 6690,
      "##esias": 6691,
      "##orr": 6692,
      "##orafen": 6693,
      "anomal": 6694,
      "##asation": 6695,
      "##assive": 6696,
      "##isole": 6697,
      "##iction": 6698,
      "##icidal": 6699,
      "##anin": 6700,
      "##rover": 6701,
      "##rofen": 6702,
      "read": 6703,
      "rebound": 6704,
      "##econd": 6705,
      "##oll": 6706,
      "##idrosis": 6707,
      "##emaker": 6708,
      "##activity": 6709,
      "##opar": 6710,
      "##opyr": 6711,
      "##apl": 6712,
      "##tioners": 6713,
      "##ocrine": 6714,
      "##tra": 6715,
      "##tronid": 6716,
      "##tracted": 6717,
      "below": 6718,
      "##amisole": 6719,
      "##umably": 6720,
      "##ortem": 6721,
      "continue": 6722,
      "##adic": 6723,
      "##tinent": 6724,
      "comorbid": 6725,
      "##antadine": 6726,
      "##pler": 6727,
      "##imeric": 6728,
      "onych": 6729,
      "##agement": 6730,
      "##abutin": 6731,
      "exerc": 6732,
      "##ndrome": 6733,
      "imm": 6734,
      "ste": 6735,
      "stom": 6736,
      "##urette": 6737,
      "trypt": 6738,
      "develops": 6739,
      "presumably": 6740,
      "lipos": 6741,
      "assist": 6742,
      "##ideo": 6743,
      "perfusion": 6744,
      "##ionate": 6745,
      "effectiveness": 6746,
      "##izes": 6747,
      "##etal": 6748,
      "##etaxel": 6749,
      "mono": 6750,
      "manic": 6751,
      "description": 6752,
      "ocul": 6753,
      "##romegal": 6754,
      "compliance": 6755,
      "causality": 6756,
      "spect": 6757,
      "##azimine": 6758,
      "discover": 6759,
      "paral": 6760,
      "partially": 6761,
      "practi": 6762,
      "myopia": 6763,
      "plate": 6764,
      "##aken": 6765,
      "thrombi": 6766,
      "##ostasis": 6767,
      "##ergistic": 6768,
      "canal": 6769,
      "lymphoid": 6770,
      "allopurinol": 6771,
      "##viron": 6772,
      "##virapine": 6773,
      "methicillin": 6774,
      "##aminergic": 6775,
      "gluten": 6776,
      "##ferri": 6777,
      "##anges": 6778,
      "##angioma": 6779,
      "diffusion": 6780,
      "dosing": 6781,
      "##obil": 6782,
      "compromise": 6783,
      "hereditary": 6784,
      "##endazole": 6785,
      "empir": 6786,
      "elective": 6787,
      "Angi": 6788,
      "continuation": 6789,
      "nonc": 6790,
      "take": 6791,
      "cytogenetic": 6792,
      "##ythemia": 6793,
      "newer": 6794,
      "feas": 6795,
      "febrile": 6796,
      "involve": 6797,
      "Heal": 6798,
      "##ognized": 6799,
      "deliver": 6800,
      "persist": 6801,
      "organs": 6802,
      "##avasation": 6803,
      "changed": 6804,
      "metabolite": 6805,
      "catheterization": 6806,
      "modalities": 6807,
      "Chol": 6808,
      "Chest": 6809,
      "surgically": 6810,
      "sulfasalazine": 6811,
      "pregnancies": 6812,
      "muscular": 6813,
      "vena": 6814,
      "Strept": 6815,
      "hematological": 6816,
      "affecting": 6817,
      "##yramine": 6818,
      "granulocytopenia": 6819,
      "accident": 6820,
      "accurate": 6821,
      "progressively": 6822,
      "##icking": 6823,
      "CD3": 6824,
      "catech": 6825,
      "undergone": 6826,
      "stimul": 6827,
      "transi": 6828,
      "node": 6829,
      "intracerebral": 6830,
      "DIHS": 6831,
      "prostatic": 6832,
      "uncomplicated": 6833,
      "University": 6834,
      "salvage": 6835,
      "Recom": 6836,
      "Recurrent": 6837,
      "supports": 6838,
      "mm3": 6839,
      "irrig": 6840,
      "techniques": 6841,
      "mitochond": 6842,
      "etiologic": 6843,
      "##oplasmic": 6844,
      "dopaminergic": 6845,
      "vinblastine": 6846,
      "trigeminal": 6847,
      "lenses": 6848,
      "endometri": 6849,
      "keratoplasty": 6850,
      "circum": 6851,
      "oxaliplatin": 6852,
      "CNV": 6853,
      "##iminary": 6854,
      "world": 6855,
      "Methyl": 6856,
      "Histopath": 6857,
      "point": 6858,
      "chromat": 6859,
      "restless": 6860,
      "latter": 6861,
      "ultrasonography": 6862,
      "Hepatic": 6863,
      "##ozol": 6864,
      "operative": 6865,
      "commencement": 6866,
      "ADR": 6867,
      "pericarditis": 6868,
      "##factory": 6869,
      "##ropsych": 6870,
      "opioids": 6871,
      "pharmacokinetics": 6872,
      "##hydramine": 6873,
      "macrophage": 6874,
      "electroretin": 6875,
      "supplementation": 6876,
      "##prazolam": 6877,
      "hydroxychloroquine": 6878,
      "milk": 6879,
      "001": 6880,
      "frag": 6881,
      "osmol": 6882,
      "hairy": 6883,
      "tendon": 6884,
      "pruritic": 6885,
      "PRES": 6886,
      "vulgaris": 6887,
      "copper": 6888,
      "middle": 6889,
      "mimicking": 6890,
      "chorioretin": 6891,
      "stabilized": 6892,
      "loading": 6893,
      "Subsequent": 6894,
      "Subsequently": 6895,
      "##icylic": 6896,
      "diuretics": 6897,
      "HSCT": 6898,
      "temporary": 6899,
      "aorta": 6900,
      "SETTI": 6901,
      "rigidity": 6902,
      "foot": 6903,
      "##theless": 6904,
      "debil": 6905,
      "separate": 6906,
      "retroperitoneal": 6907,
      "Magnetic": 6908,
      "focus": 6909,
      "infrequent": 6910,
      "encephalitis": 6911,
      "##uzumab": 6912,
      "distinct": 6913,
      "hypophosphatemia": 6914,
      "ganglion": 6915,
      "Johnson": 6916,
      "Topical": 6917,
      "##alimumab": 6918,
      "##othorax": 6919,
      "records": 6920,
      "osteopor": 6921,
      "Neutrop": 6922,
      "fistula": 6923,
      "paroxysmal": 6924,
      "chlorpromazine": 6925,
      "Hydro": 6926,
      "Syndrome": 6927,
      "pronounced": 6928,
      "puncture": 6929,
      "amnesia": 6930,
      "Strongyloides": 6931,
      "hallucinations": 6932,
      "obliterans": 6933,
      "yielded": 6934,
      "##alignant": 6935,
      "manufactur": 6936,
      "eyelid": 6937,
      "plasmapheresis": 6938,
      "tachyarrhythm": 6939,
      "dizziness": 6940,
      "##buprofen": 6941,
      "##urosemide": 6942,
      "##orafenib": 6943,
      "##tronidazole": 6944,
      "practitioners": 6945,
      "endometriosis": 6946,
      "osmolality": 6947,
      "SETTING": 6948,
      "88": 6949,
      "86": 6950,
      "A1": 6951,
      "BK": 6952,
      "CR": 6953,
      "Car": 6954,
      "Clo": 6955,
      "Continu": 6956,
      "Cont": 6957,
      "Cortic": 6958,
      "Cerebral": 6959,
      "DG": 6960,
      "ED": 6961,
      "ER": 6962,
      "Finally": 6963,
      "Group": 6964,
      "Gold": 6965,
      "HR": 6966,
      "IOP": 6967,
      "RF": 6968,
      "Rif": 6969,
      "RNA": 6970,
      "SJ": 6971,
      "SMS": 6972,
      "Second": 6973,
      "Us": 6974,
      "bo": 6975,
      "born": 6976,
      "dan": 6977,
      "ef": 6978,
      "facil": 6979,
      "gast": 6980,
      "globulin": 6981,
      "gross": 6982,
      "gave": 6983,
      "lig": 6984,
      "merc": 6985,
      "making": 6986,
      "near": 6987,
      "night": 6988,
      "oil": 6989,
      "oint": 6990,
      "rit": 6991,
      "rad": 6992,
      "rose": 6993,
      "sided": 6994,
      "util": 6995,
      "vital": 6996,
      "zon": 6997,
      "##rap": 6998,
      "##lam": 6999,
      "##lip": 7000,
      "##iph": 7001,
      "##iate": 7002,
      "##iitis": 7003,
      "##gl": 7004,
      "##gular": 7005,
      "##ture": 7006,
      "##pre": 7007,
      "##ces": 7008,
      "##LP": 7009,
      "##for": 7010,
      "##MP": 7011,
      "##A4": 7012,
      "##jun": 7013,
      "##FVII": 7014,
      "##OD": 7015,
      "##OR": 7016,
      "##erence": 7017,
      "##enes": 7018,
      "##onol": 7019,
      "##edipine": 7020,
      "##inese": 7021,
      "##orded": 7022,
      "anesthetic": 7023,
      "anabolic": 7024,
      "##enteric": 7025,
      "##isamide": 7026,
      "##aring": 7027,
      "##ico": 7028,
      "##icat": 7029,
      "##antr": 7030,
      "##reported": 7031,
      "##roz": 7032,
      "##rovascular": 7033,
      "retention": 7034,
      "##ithiasis": 7035,
      "##omotor": 7036,
      "##omembranous": 7037,
      "toc": 7038,
      "tooth": 7039,
      "##ecainide": 7040,
      "##urally": 7041,
      "##ope": 7042,
      "Thir": 7043,
      "##utable": 7044,
      "##amyl": 7045,
      "iso": 7046,
      "##own": 7047,
      "##elior": 7048,
      "charcoal": 7049,
      "chimeric": 7050,
      "##odrine": 7051,
      "adriamycin": 7052,
      "reser": 7053,
      "acromegal": 7054,
      "alread": 7055,
      "alanine": 7056,
      "lefl": 7057,
      "syph": 7058,
      "true": 7059,
      "##eprazole": 7060,
      "##quid": 7061,
      "##quine": 7062,
      "liquid": 7063,
      "reconstr": 7064,
      "clonic": 7065,
      "periv": 7066,
      "perhaps": 7067,
      "incon": 7068,
      "##ested": 7069,
      "atopic": 7070,
      "mania": 7071,
      "##cratic": 7072,
      "##actam": 7073,
      "desferri": 7074,
      "##monemia": 7075,
      "unres": 7076,
      "intrad": 7077,
      "above": 7078,
      "articular": 7079,
      "##nex": 7080,
      "diver": 7081,
      "transamin": 7082,
      "interest": 7083,
      "interfer": 7084,
      "##tenosis": 7085,
      "spastic": 7086,
      "##iptine": 7087,
      "##ipipr": 7088,
      "physi": 7089,
      "symme": 7090,
      "symptomatology": 7091,
      "discussion": 7092,
      "##ropine": 7093,
      "eng": 7094,
      "ens": 7095,
      "constric": 7096,
      "immunological": 7097,
      "immunohist": 7098,
      "hemodynamic": 7099,
      "myoglobin": 7100,
      "##ometh": 7101,
      "played": 7102,
      "placed": 7103,
      "##ubation": 7104,
      "thromboc": 7105,
      "neuropsych": 7106,
      "others": 7107,
      "flut": 7108,
      "##virus": 7109,
      "##adiotherapy": 7110,
      "remed": 7111,
      "scin": 7112,
      "ampl": 7113,
      "amantadine": 7114,
      "amelior": 7115,
      "intact": 7116,
      "##omyositis": 7117,
      "cardiotoxicity": 7118,
      "multid": 7119,
      "psoral": 7120,
      "postpar": 7121,
      "##timulation": 7122,
      "nonin": 7123,
      "confined": 7124,
      "mind": 7125,
      "decreasing": 7126,
      "timely": 7127,
      "newly": 7128,
      "retrog": 7129,
      "involves": 7130,
      "reproduc": 7131,
      "erythrod": 7132,
      "calculated": 7133,
      "calciton": 7134,
      "dermal": 7135,
      "formulation": 7136,
      "performance": 7137,
      "##iatr": 7138,
      "bleb": 7139,
      "detectable": 7140,
      "##urnal": 7141,
      "CAP": 7142,
      "angiogram": 7143,
      "break": 7144,
      "modified": 7145,
      "Chinese": 7146,
      "counter": 7147,
      "suppressed": 7148,
      "glucur": 7149,
      "quick": 7150,
      "quadr": 7151,
      "cholec": 7152,
      "extravasation": 7153,
      "White": 7154,
      "metastasis": 7155,
      "mucosal": 7156,
      "##ographically": 7157,
      "infarct": 7158,
      "chloroquine": 7159,
      "weighted": 7160,
      "thyroiditis": 7161,
      "Intrav": 7162,
      "begun": 7163,
      "scleritis": 7164,
      "rhin": 7165,
      "haemolytic": 7166,
      "room": 7167,
      "grafts": 7168,
      "sequential": 7169,
      "precurs": 7170,
      "emboli": 7171,
      "papular": 7172,
      "replaced": 7173,
      "indicating": 7174,
      "1991": 7175,
      "behaviors": 7176,
      "schizophrenic": 7177,
      "populations": 7178,
      "##recognized": 7179,
      "levamisole": 7180,
      "synergistic": 7181,
      "##roscopy": 7182,
      "##oplasma": 7183,
      "azot": 7184,
      "dopa": 7185,
      "prospective": 7186,
      "phenomena": 7187,
      "approaches": 7188,
      "poorly": 7189,
      "PCP": 7190,
      "##506": 7191,
      "emphasis": 7192,
      "patterns": 7193,
      "Histological": 7194,
      "mesenteric": 7195,
      "##omyces": 7196,
      "dystrophy": 7197,
      "pacemaker": 7198,
      "sensor": 7199,
      "Herein": 7200,
      "exceed": 7201,
      "Heparin": 7202,
      "creatine": 7203,
      "dramatically": 7204,
      "attributable": 7205,
      "occasions": 7206,
      "epithelium": 7207,
      "routinely": 7208,
      "emphasized": 7209,
      "helpful": 7210,
      "herpesvirus": 7211,
      "output": 7212,
      "background": 7213,
      "gangrene": 7214,
      "rifabutin": 7215,
      "ketoac": 7216,
      "located": 7217,
      "locally": 7218,
      "Differ": 7219,
      "hypocalc": 7220,
      "Management": 7221,
      "cava": 7222,
      "##wards": 7223,
      "albumin": 7224,
      "Spontaneous": 7225,
      "Wilms": 7226,
      "BCNU": 7227,
      "bromocr": 7228,
      "dense": 7229,
      "ectopic": 7230,
      "##amphetamine": 7231,
      "Department": 7232,
      "MRSA": 7233,
      "mandatory": 7234,
      "March": 7235,
      "Plasm": 7236,
      "##itude": 7237,
      "plaque": 7238,
      "accepted": 7239,
      "neoplasms": 7240,
      "understood": 7241,
      "explanation": 7242,
      "##osmetic": 7243,
      "septal": 7244,
      "sufficient": 7245,
      "##iparesis": 7246,
      "December": 7247,
      "neuralgia": 7248
    }
  }
}