{
  "version": "1.0",
  "truncation": null,
  "padding": null,
  "added_tokens": [
    {
      "id": 0,
      "content": "[PAD]",
      "single_word": false,
      "lstrip": false,
      "rstrip": false,
      "normalized": false,
      "special": true
    },
    {
      "id": 1,
      "content": "[UNK]",
      "single_word": false,
      "lstrip": false,
      "rstrip": false,
      "normalized": false,
      "special": true
    },
    {
      "id": 2,
      "content": "[CLS]",
      "single_word": false,
      "lstrip": false,
      "rstrip": false,
      "normalized": false,
      "special": true
    },
    {
      "id": 3,
      "content": "[SEP]",
      "single_word": false,
      "lstrip": false,
      "rstrip": false,
      "normalized": false,
      "special": true
    },
    {
      "id": 4,
      "content": "[MASK]",
      "single_word": false,
      "lstrip": false,
      "rstrip": false,
      "normalized": false,
      "special": true
    }
  ],
  "normalizer": {
    "type": "BertNormalizer",
    "clean_text": true,
    "handle_chinese_chars": true,
    "strip_accents": null,
    "lowercase": false
  },
  "pre_tokenizer": {
    "type": "BertPreTokenizer"
  },
  "post_processor": {
    "type": "TemplateProcessing",
    "single": [
      {
        "SpecialToken": {
          "id": "[CLS]",
          "type_id": 0
        }
      },
      {
        "Sequence": {
          "id": "A",
          "type_id": 0
        }
      },
      {
        "SpecialToken": {
          "id": "[SEP]",
          "type_id": 0
        }
      }
    ],
    "pair": [
      {
        "SpecialToken": {
          "id": "[CLS]",
          "type_id": 0
        }
      },
      {
        "Sequence": {
          "id": "A",
          "type_id": 0
        }
      },
      {
        "SpecialToken": {
          "id": "[SEP]",
          "type_id": 0
        }
      },
      {
        "Sequence": {
          "id": "B",
          "type_id": 1
        }
      },
      {
        "SpecialToken": {
          "id": "[SEP]",
          "type_id": 1
        }
      }
    ],
    "special_tokens": {
      "[CLS]": {
        "id": "[CLS]",
        "ids": [
          2
        ],
        "tokens": [
          "[CLS]"
        ]
      },
      "[SEP]": {
        "id": "[SEP]",
        "ids": [
          3
        ],
        "tokens": [
          "[SEP]"
        ]
      }
    }
  },
  "decoder": {
    "type": "WordPiece",
    "prefix": "##",
    "cleanup": true
  },
  "model": {
    "type": "WordPiece",
    "unk_token": "[UNK]",
    "continuing_subword_prefix": "##",
    "max_input_chars_per_word": 100,
    "vocab": {
      "[PAD]": 0,
      "[UNK]": 1,
      "[CLS]": 2,
      "[SEP]": 3,
      "[MASK]": 4,
      "!": 5,
      "\"": 6,
      "#": 7,
      "$": 8,
      "%": 9,
      "&": 10,
      "'": 11,
      "(": 12,
      ")": 13,
      "*": 14,
      "+": 15,
      ",": 16,
      "-": 17,
      ".": 18,
      "/": 19,
      "0": 20,
      "1": 21,
      "2": 22,
      "3": 23,
      "4": 24,
      "5": 25,
      "6": 26,
      "7": 27,
      "8": 28,
      "9": 29,
      ":": 30,
      ";": 31,
      "=": 32,
      "?": 33,
      "@": 34,
      "A": 35,
      "B": 36,
      "C": 37,
      "D": 38,
      "E": 39,
      "F": 40,
      "G": 41,
      "H": 42,
      "I": 43,
      "J": 44,
      "K": 45,
      "L": 46,
      "M": 47,
      "N": 48,
      "O": 49,
      "P": 50,
      "Q": 51,
      "R": 52,
      "S": 53,
      "T": 54,
      "U": 55,
      "V": 56,
      "W": 57,
      "X": 58,
      "Y": 59,
      "Z": 60,
      "[": 61,
      "\\": 62,
      "]": 63,
      "_": 64,
      "`": 65,
      "a": 66,
      "b": 67,
      "c": 68,
      "d": 69,
      "e": 70,
      "f": 71,
      "g": 72,
      "h": 73,
      "i": 74,
      "j": 75,
      "k": 76,
      "l": 77,
      "m": 78,
      "n": 79,
      "o": 80,
      "p": 81,
      "q": 82,
      "r": 83,
      "s": 84,
      "t": 85,
      "u": 86,
      "v": 87,
      "w": 88,
      "x": 89,
      "y": 90,
      "z": 91,
      "}": 92,
      "£": 93,
      "§": 94,
      "«": 95,
      "®": 96,
      "°": 97,
      "·": 98,
      "»": 99,
      "½": 100,
      "à": 101,
      "ã": 102,
      "è": 103,
      "é": 104,
      "í": 105,
      "ñ": 106,
      "ó": 107,
      "ö": 108,
      "ü": 109,
      "ē": 110,
      ";": 111,
      "а": 112,
      "࿽": 113,
      "‐": 114,
      "‑": 115,
      "–": 116,
      "—": 117,
      "‘": 118,
      "’": 119,
      "“": 120,
      "”": 121,
      "†": 122,
      "•": 123,
      "…": 124,
      "⁄": 125,
      "€": 126,
      "™": 127,
      "⅔": 128,
      "−": 129,
      "●": 130,
      "总": 131,
      "数": 132,
      "股": 133,
      "##M": 134,
      "##U": 135,
      "##u": 136,
      "##y": 137,
      "##o": 138,
      "##x": 139,
      "##0": 140,
      "##1": 141,
      "##2": 142,
      "##e": 143,
      "##l": 144,
      "##a": 145,
      "##t": 146,
      "##i": 147,
      "##n": 148,
      "##s": 149,
      "##r": 150,
      "##g": 151,
      "##h": 152,
      "##v": 153,
      "##d": 154,
      "##c": 155,
      "##D": 156,
      "##C": 157,
      "##P": 158,
      "##m": 159,
      "##b": 160,
      "##5": 161,
      "##p": 162,
      "##k": 163,
      "##N": 164,
      "##Y": 165,
      "##3": 166,
      "##8": 167,
      "##9": 168,
      "##f": 169,
      "##w": 170,
      "##O": 171,
      "##F": 172,
      "##R": 173,
      "##E": 174,
      "##A": 175,
      "##T": 176,
      "##I": 177,
      "##4": 178,
      "##L": 179,
      "##7": 180,
      "##6": 181,
      "##G": 182,
      "##Q": 183,
      "##K": 184,
      "##q": 185,
      "##S": 186,
      "##z": 187,
      "##H": 188,
      "##X": 189,
      "##B": 190,
      "##V": 191,
      "##࿽": 192,
      "##j": 193,
      "##Z": 194,
      "##W": 195,
      "##J": 196,
      "##ñ": 197,
      "##é": 198,
      "##í": 199,
      "##™": 200,
      "##½": 201,
      "##ã": 202,
      "##ó": 203,
      "##ü": 204,
      "##®": 205,
      "##°": 206,
      "##ē": 207,
      "##ö": 208,
      "##⅔": 209,
      "##è": 210,
      "##he": 211,
      "##er": 212,
      "the": 213,
      "##ti": 214,
      "##on": 215,
      "##en": 216,
      "an": 217,
      "##re": 218,
      "of": 219,
      "##es": 220,
      "##ed": 221,
      "##an": 222,
      "##ent": 223,
      "##in": 224,
      "or": 225,
      "##al": 226,
      "##or": 227,
      "and": 228,
      "in": 229,
      "##tion": 230,
      "##it": 231,
      "to": 232,
      "##ec": 233,
      "##at": 234,
      "##is": 235,
      "##ment": 236,
      "##ar": 237,
      "##ch": 238,
      "any": 239,
      "##ro": 240,
      "##ing": 241,
      "th": 242,
      "be": 243,
      "##ce": 244,
      "su": 245,
      "re": 246,
      "##ation": 247,
      "##mp": 248,
      "##all": 249,
      "##ll": 250,
      "##ur": 251,
      "##ement": 252,
      "##gre": 253,
      "sh": 254,
      "##li": 255,
      "##ts": 256,
      "con": 257,
      "##ve": 258,
      "##her": 259,
      "##le": 260,
      "shall": 261,
      "##ith": 262,
      "##ther": 263,
      "##as": 264,
      "##der": 265,
      "##greement": 266,
      "by": 267,
      "with": 268,
      "as": 269,
      "Co": 270,
      "ex": 271,
      "such": 272,
      "pro": 273,
      "##ab": 274,
      "##id": 275,
      "no": 276,
      "other": 277,
      "Agreement": 278,
      "##ate": 279,
      "##ut": 280,
      "this": 281,
      "##ay": 282,
      "co": 283,
      "##ect": 284,
      "##ver": 285,
      "for": 286,
      "##ter": 287,
      "##mpan": 288,
      "##ere": 289,
      "##ig": 290,
      "##mpany": 291,
      "##ly": 292,
      "##ic": 293,
      "Company": 294,
      "de": 295,
      "##un": 296,
      "here": 297,
      "##tive": 298,
      "##im": 299,
      "##st": 300,
      "un": 301,
      "##able": 302,
      "##ty": 303,
      "##ding": 304,
      "is": 305,
      "that": 306,
      "##erm": 307,
      "ac": 308,
      "##ff": 309,
      "on": 310,
      "##ul": 311,
      "##ties": 312,
      "##qu": 313,
      "##se": 314,
      "par": 315,
      "res": 316,
      "not": 317,
      "##lo": 318,
      "##oc": 319,
      "##ran": 320,
      "##res": 321,
      "prov": 322,
      "##red": 323,
      "all": 324,
      "##hi": 325,
      "##ess": 326,
      "##tin": 327,
      "##ance": 328,
      "##ection": 329,
      "##il": 330,
      "##ac": 331,
      "##ach": 332,
      "##pp": 333,
      "##ity": 334,
      "its": 335,
      "##for": 336,
      "Par": 337,
      "##ion": 338,
      "under": 339,
      "##tr": 340,
      "##ting": 341,
      "##su": 342,
      "##ers": 343,
      "##lic": 344,
      "##ain": 345,
      "##ations": 346,
      "The": 347,
      "##ri": 348,
      "inc": 349,
      "##ated": 350,
      "##ol": 351,
      "app": 352,
      "##aw": 353,
      "term": 354,
      "whi": 355,
      "which": 356,
      "##ant": 357,
      "Ex": 358,
      "##de": 359,
      "en": 360,
      "##ments": 361,
      "may": 362,
      "resp": 363,
      "##ir": 364,
      "##ge": 365,
      "##mm": 366,
      "##ecu": 367,
      "##ted": 368,
      "##igh": 369,
      "##et": 370,
      "there": 371,
      "ha": 372,
      "##ary": 373,
      "requ": 374,
      "Section": 375,
      "##ign": 376,
      "##eri": 377,
      "##tions": 378,
      "##lu": 379,
      "##te": 380,
      "##ub": 381,
      "##di": 382,
      "##ci": 383,
      "at": 384,
      "##ase": 385,
      "each": 386,
      "st": 387,
      "cons": 388,
      "##ill": 389,
      "In": 390,
      "##ision": 391,
      "##rans": 392,
      "sub": 393,
      "have": 394,
      "ma": 395,
      "##loy": 396,
      "##mploy": 397,
      "##row": 398,
      "##lig": 399,
      "law": 400,
      "righ": 401,
      "will": 402,
      "##ow": 403,
      "provision": 404,
      "pay": 405,
      "##end": 406,
      "##orrow": 407,
      "ad": 408,
      "##ru": 409,
      "##pt": 410,
      "##ct": 411,
      "Borrow": 412,
      "##gent": 413,
      "##ender": 414,
      "##min": 415,
      "##th": 416,
      "##la": 417,
      "ob": 418,
      "##liver": 419,
      "##ocu": 420,
      "##ies": 421,
      "exp": 422,
      "are": 423,
      "am": 424,
      "##of": 425,
      "Sub": 426,
      "provid": 427,
      "##form": 428,
      "##us": 429,
      "inclu": 430,
      "pur": 431,
      "acc": 432,
      "##oun": 433,
      "deliver": 434,
      "##est": 435,
      "##oan": 436,
      "##ise": 437,
      "##ER": 438,
      "applic": 439,
      "##ecutive": 440,
      "##ffect": 441,
      "Lender": 442,
      "TH": 443,
      "##to": 444,
      "##fic": 445,
      "##ective": 446,
      "tim": 447,
      "Loan": 448,
      "##ord": 449,
      "##ee": 450,
      "party": 451,
      "Borrower": 452,
      "##per": 453,
      "##ire": 454,
      "Executive": 455,
      "##ason": 456,
      "dis": 457,
      "##iv": 458,
      "time": 459,
      "##rom": 460,
      "trans": 461,
      "##idi": 462,
      "##sidi": 463,
      "Agent": 464,
      "mat": 465,
      "reason": 466,
      "St": 467,
      "Ad": 468,
      "##ally": 469,
      "applicable": 470,
      "##ens": 471,
      "##istr": 472,
      "from": 473,
      "respect": 474,
      "##cept": 475,
      "agreement": 476,
      "oblig": 477,
      "rec": 478,
      "rep": 479,
      "##cip": 480,
      "##os": 481,
      "including": 482,
      "provided": 483,
      "No": 484,
      "noti": 485,
      "Subsidi": 486,
      "##ard": 487,
      "##out": 488,
      "##med": 489,
      "##od": 490,
      "##pon": 491,
      "##tain": 492,
      "Re": 493,
      "has": 494,
      "##ject": 495,
      "##ired": 496,
      "ass": 497,
      "AN": 498,
      "##erial": 499,
      "##ocuments": 500,
      "##ef": 501,
      "##tit": 502,
      "##ock": 503,
      "##me": 504,
      "##erson": 505,
      "##ure": 506,
      "reg": 507,
      "##ult": 508,
      "##eral": 509,
      "ta": 510,
      "Th": 511,
      "Party": 512,
      "##ative": 513,
      "##led": 514,
      "rights": 515,
      "##ore": 516,
      "without": 517,
      "comp": 518,
      "parties": 519,
      "##under": 520,
      "terms": 521,
      "This": 522,
      "##ors": 523,
      "agre": 524,
      "##fer": 525,
      "##ten": 526,
      "##TI": 527,
      "per": 528,
      "ii": 529,
      "##ON": 530,
      "it": 531,
      "set": 532,
      "##ute": 533,
      "pri": 534,
      "##anding": 535,
      "##tent": 536,
      "##vi": 537,
      "##ministr": 538,
      "##redit": 539,
      "if": 540,
      "##resent": 541,
      "##wise": 542,
      "otherwise": 543,
      "##by": 544,
      "##stru": 545,
      "date": 546,
      "##ress": 547,
      "##ecur": 548,
      "upon": 549,
      "termin": 550,
      "ag": 551,
      "subject": 552,
      "##force": 553,
      "##lated": 554,
      "inter": 555,
      "required": 556,
      "employ": 557,
      "##um": 558,
      "##eg": 559,
      "##ceed": 560,
      "##ue": 561,
      "##EN": 562,
      "obligations": 563,
      "Comm": 564,
      "##iz": 565,
      "##iness": 566,
      "##lan": 567,
      "##usiness": 568,
      "hereunder": 569,
      "ar": 570,
      "THE": 571,
      "provisions": 572,
      "forth": 573,
      "whe": 574,
      "accord": 575,
      "##alid": 576,
      "##par": 577,
      "accordance": 578,
      "been": 579,
      "##uth": 580,
      "Date": 581,
      "so": 582,
      "##ably": 583,
      "exec": 584,
      "notice": 585,
      "made": 586,
      "##fter": 587,
      "##urch": 588,
      "##ili": 589,
      "sa": 590,
      "li": 591,
      "##ministrative": 592,
      "##uthor": 593,
      "##fi": 594,
      "##ag": 595,
      "##ticip": 596,
      "##cc": 597,
      "##aries": 598,
      "go": 599,
      "than": 600,
      "prior": 601,
      "##vent": 602,
      "##los": 603,
      "herein": 604,
      "##uld": 605,
      "##ility": 606,
      "effect": 607,
      "##ees": 608,
      "Purch": 609,
      "pre": 610,
      "except": 611,
      "hereby": 612,
      "##ates": 613,
      "inv": 614,
      "transac": 615,
      "hereto": 616,
      "##vern": 617,
      "assign": 618,
      "pursu": 619,
      "Employ": 620,
      "Credit": 621,
      "##ount": 622,
      "##du": 623,
      "##ail": 624,
      "Documents": 625,
      "hereof": 626,
      "##rit": 627,
      "##ares": 628,
      "##fied": 629,
      "conn": 630,
      "pursuant": 631,
      "def": 632,
      "coun": 633,
      "Administrative": 634,
      "##ell": 635,
      "proceed": 636,
      "##dic": 637,
      "extent": 638,
      "connection": 639,
      "lim": 640,
      "##IS": 641,
      "OF": 642,
      "##ence": 643,
      "rece": 644,
      "##ces": 645,
      "##ffective": 646,
      "ca": 647,
      "material": 648,
      "cour": 649,
      "represent": 650,
      "disc": 651,
      "##irect": 652,
      "perform": 653,
      "##temp": 654,
      "##ull": 655,
      "##ED": 656,
      "##ual": 657,
      "##por": 658,
      "stat": 659,
      "issu": 660,
      "writ": 661,
      "cla": 662,
      "business": 663,
      "##uted": 664,
      "wa": 665,
      "comm": 666,
      "laws": 667,
      "their": 668,
      "##its": 669,
      "Purchas": 670,
      "OR": 671,
      "Pro": 672,
      "##and": 673,
      "thereof": 674,
      "##ven": 675,
      "dee": 676,
      "##ive": 677,
      "##ES": 678,
      "written": 679,
      "##older": 680,
      "contemp": 681,
      "##ities": 682,
      "Subsidiaries": 683,
      "##now": 684,
      "action": 685,
      "right": 686,
      "conf": 687,
      "##dem": 688,
      "author": 689,
      "Con": 690,
      "##ements": 691,
      "##ited": 692,
      "constit": 693,
      "fin": 694,
      "##ib": 695,
      "##losing": 696,
      "##age": 697,
      "##aid": 698,
      "##ber": 699,
      "##dition": 700,
      "##ENT": 701,
      "Parties": 702,
      "full": 703,
      "##itted": 704,
      "##endment": 705,
      "contemplated": 706,
      "##ke": 707,
      "Plan": 708,
      "perm": 709,
      "##perty": 710,
      "##ra": 711,
      "reasonably": 712,
      "jur": 713,
      "deemed": 714,
      "IN": 715,
      "##ew": 716,
      "##el": 717,
      "enforce": 718,
      "executed": 719,
      "consent": 720,
      "##ability": 721,
      "##eriod": 722,
      "##ecurities": 723,
      "##tw": 724,
      "##demn": 725,
      "ben": 726,
      "##isdic": 727,
      "day": 728,
      "after": 729,
      "jurisdic": 730,
      "##egal": 731,
      "direct": 732,
      "##ould": 733,
      "##enses": 734,
      "claim": 735,
      "##formation": 736,
      "##IN": 737,
      "transactions": 738,
      "##ever": 739,
      "delivered": 740,
      "##arran": 741,
      "Am": 742,
      "Stock": 743,
      "again": 744,
      "against": 745,
      "vi": 746,
      "payment": 747,
      "Particip": 748,
      "tax": 749,
      "##OR": 750,
      "##TH": 751,
      "ANY": 752,
      "ins": 753,
      "##less": 754,
      "agrees": 755,
      "##tial": 756,
      "pr": 757,
      "Purchaser": 758,
      "##TION": 759,
      "Closing": 760,
      "do": 761,
      "jurisdiction": 762,
      "proceeding": 763,
      "delivery": 764,
      "##standing": 765,
      "Sell": 766,
      "##EC": 767,
      "would": 768,
      "giv": 769,
      "##nowled": 770,
      "##pos": 771,
      "sign": 772,
      "##ffili": 773,
      "Person": 774,
      "##orpor": 775,
      "termination": 776,
      "##tained": 777,
      "##eci": 778,
      "case": 779,
      "sp": 780,
      "equ": 781,
      "event": 782,
      "##uar": 783,
      "counter": 784,
      "benef": 785,
      "valid": 786,
      "person": 787,
      "##sion": 788,
      "one": 789,
      "AND": 790,
      "Participant": 791,
      "##erc": 792,
      "agreements": 793,
      "Term": 794,
      "##ward": 795,
      "ser": 796,
      "##tric": 797,
      "An": 798,
      "##ended": 799,
      "##ange": 800,
      "respective": 801,
      "fac": 802,
      "add": 803,
      "ch": 804,
      "Each": 805,
      "govern": 806,
      "du": 807,
      "Subsidiary": 808,
      "appro": 809,
      "##ither": 810,
      "Sh": 811,
      "fil": 812,
      "##ecess": 813,
      "ow": 814,
      "instru": 815,
      "##iver": 816,
      "Un": 817,
      "##bit": 818,
      "##ear": 819,
      "Seller": 820,
      "counterpar": 821,
      "##AT": 822,
      "but": 823,
      "##verse": 824,
      "man": 825,
      "constitute": 826,
      "##riting": 827,
      "necess": 828,
      "##ank": 829,
      "fur": 830,
      "##tic": 831,
      "address": 832,
      "fore": 833,
      "reasonable": 834,
      "As": 835,
      "writing": 836,
      "##cial": 837,
      "##use": 838,
      "##fy": 839,
      "regul": 840,
      "speci": 841,
      "wh": 842,
      "fees": 843,
      "expenses": 844,
      "same": 845,
      "bre": 846,
      "interest": 847,
      "matter": 848,
      "Commit": 849,
      "##termin": 850,
      "Trans": 851,
      "necessary": 852,
      "permitted": 853,
      "amount": 854,
      "information": 855,
      "des": 856,
      "determin": 857,
      "paid": 858,
      "##AL": 859,
      "##ocument": 860,
      "constru": 861,
      "##tor": 862,
      "exerc": 863,
      "rela": 864,
      "result": 865,
      "##ault": 866,
      "##mental": 867,
      "Employee": 868,
      "##oll": 869,
      "##om": 870,
      "##are": 871,
      "##ator": 872,
      "##ud": 873,
      "state": 874,
      "##ced": 875,
      "warran": 876,
      "TO": 877,
      "All": 878,
      "##rou": 879,
      "rem": 880,
      "execu": 881,
      "##00": 882,
      "po": 883,
      "part": 884,
      "performance": 885,
      "finan": 886,
      "period": 887,
      "offic": 888,
      "relating": 889,
      "##ized": 890,
      "##AR": 891,
      "##che": 892,
      "refer": 893,
      "stock": 894,
      "legal": 895,
      "##ort": 896,
      "##ected": 897,
      "nor": 898,
      "limit": 899,
      "remed": 900,
      "##etter": 901,
      "viol": 902,
      "breach": 903,
      "mo": 904,
      "Guar": 905,
      "##uring": 906,
      "me": 907,
      "sim": 908,
      "contr": 909,
      "fa": 910,
      "effective": 911,
      "##action": 912,
      "##MENT": 913,
      "own": 914,
      "employment": 915,
      "##ome": 916,
      "shares": 917,
      "##ption": 918,
      "court": 919,
      "##ust": 920,
      "##ilar": 921,
      "##ederal": 922,
      "##ork": 923,
      "Amendment": 924,
      "##gh": 925,
      "##RE": 926,
      "##demni": 927,
      "similar": 928,
      "require": 929,
      "yo": 930,
      "whether": 931,
      "enti": 932,
      "Mat": 933,
      "20": 934,
      "sal": 935,
      "rele": 936,
      "order": 937,
      "##cy": 938,
      "##erti": 939,
      "##ING": 940,
      "##een": 941,
      "contin": 942,
      "##AN": 943,
      "##ateral": 944,
      "ab": 945,
      "betw": 946,
      "between": 947,
      "##llateral": 948,
      "statements": 949,
      "State": 950,
      "##urance": 951,
      "##uts": 952,
      "##cri": 953,
      "##ner": 954,
      "##incip": 955,
      "##ile": 956,
      "non": 957,
      "##ived": 958,
      "##urred": 959,
      "waiver": 960,
      "bin": 961,
      "occ": 962,
      "indi": 963,
      "##iden": 964,
      "Any": 965,
      "imp": 966,
      "remain": 967,
      "##ose": 968,
      "bec": 969,
      "##bitr": 970,
      "##ission": 971,
      "Li": 972,
      "Affili": 973,
      "##ditions": 974,
      "mail": 975,
      "execution": 976,
      "express": 977,
      "##tee": 978,
      "##ction": 979,
      "Lenders": 980,
      "##THER": 981,
      "year": 982,
      "##urr": 983,
      "##go": 984,
      "##igin": 985,
      "##ges": 986,
      "##oss": 987,
      "outs": 988,
      "Material": 989,
      "Bu": 990,
      "If": 991,
      "only": 992,
      "##vice": 993,
      "Shares": 994,
      "##ital": 995,
      "##nowledge": 996,
      "Collateral": 997,
      "##ased": 998,
      "##ounts": 999,
      "AG": 1000,
      "princip": 1001,
      "##tanding": 1002,
      "##clu": 1003,
      "payable": 1004,
      "given": 1005,
      "binding": 1006,
      "##ants": 1007,
      "invalid": 1008,
      "conditions": 1009,
      "financial": 1010,
      "##sets": 1011,
      "##going": 1012,
      "securities": 1013,
      "##am": 1014,
      "construed": 1015,
      "##ving": 1016,
      "conflic": 1017,
      "##ising": 1018,
      "modi": 1019,
      "addition": 1020,
      "Bank": 1021,
      "Award": 1022,
      "Letter": 1023,
      "##CH": 1024,
      "cap": 1025,
      "##ollow": 1026,
      "##tis": 1027,
      "entit": 1028,
      "agree": 1029,
      "##hol": 1030,
      "##ested": 1031,
      "el": 1032,
      "foregoing": 1033,
      "Buy": 1034,
      "insurance": 1035,
      "due": 1036,
      "further": 1037,
      "outstanding": 1038,
      "##ense": 1039,
      "##ERE": 1040,
      "Res": 1041,
      "iii": 1042,
      "Law": 1043,
      "form": 1044,
      "days": 1045,
      "federal": 1046,
      "affect": 1047,
      "fail": 1048,
      "property": 1049,
      "##oard": 1050,
      "make": 1051,
      "201": 1052,
      "##UR": 1053,
      "follow": 1054,
      "documents": 1055,
      "contained": 1056,
      "Except": 1057,
      "out": 1058,
      "Guarant": 1059,
      "##ccess": 1060,
      "Buyer": 1061,
      "##ecurity": 1062,
      "when": 1063,
      "##les": 1064,
      "##rough": 1065,
      "##idential": 1066,
      "##ization": 1067,
      "##umber": 1068,
      "counterparts": 1069,
      "entitled": 1070,
      "##iginal": 1071,
      "New": 1072,
      "unen": 1073,
      "##poses": 1074,
      "##sed": 1075,
      "##ature": 1076,
      "av": 1077,
      "##fication": 1078,
      "unenforce": 1079,
      "Adverse": 1080,
      "exercise": 1081,
      "certi": 1082,
      "success": 1083,
      "into": 1084,
      "purposes": 1085,
      "arbitr": 1086,
      "10": 1087,
      "Act": 1088,
      "gen": 1089,
      "##vid": 1090,
      "##hip": 1091,
      "thereto": 1092,
      "good": 1093,
      "##holder": 1094,
      "##ually": 1095,
      "unless": 1096,
      "##ible": 1097,
      "use": 1098,
      "##sure": 1099,
      "##ease": 1100,
      "transfer": 1101,
      "Property": 1102,
      "limitation": 1103,
      "benefit": 1104,
      "##ules": 1105,
      "withhol": 1106,
      "Effective": 1107,
      "satis": 1108,
      "coven": 1109,
      "exis": 1110,
      "defin": 1111,
      "Sche": 1112,
      "sole": 1113,
      "##ves": 1114,
      "Effect": 1115,
      "##ilities": 1116,
      "##bur": 1117,
      "##RO": 1118,
      "expected": 1119,
      "Is": 1120,
      "Ob": 1121,
      "##gate": 1122,
      "then": 1123,
      "sur": 1124,
      "##tro": 1125,
      "instrument": 1126,
      "duly": 1127,
      "Transaction": 1128,
      "##gether": 1129,
      "following": 1130,
      "number": 1131,
      "Oblig": 1132,
      "together": 1133,
      "##ong": 1134,
      "##stan": 1135,
      "Issu": 1136,
      "arising": 1137,
      "amounts": 1138,
      "##sts": 1139,
      "tak": 1140,
      "during": 1141,
      "indemni": 1142,
      "Loans": 1143,
      "within": 1144,
      "original": 1145,
      "Board": 1146,
      "##alf": 1147,
      "##ey": 1148,
      "pow": 1149,
      "oper": 1150,
      "##hed": 1151,
      "incurred": 1152,
      "Def": 1153,
      "Common": 1154,
      "##ition": 1155,
      "##rect": 1156,
      "beh": 1157,
      "SEC": 1158,
      "##sim": 1159,
      "behalf": 1160,
      "cause": 1161,
      "either": 1162,
      "##CE": 1163,
      "##dule": 1164,
      "De": 1165,
      "##ithstanding": 1166,
      "pub": 1167,
      "received": 1168,
      "THIS": 1169,
      "Ar": 1170,
      "##mber": 1171,
      "being": 1172,
      "OTHER": 1173,
      "gran": 1174,
      "##simile": 1175,
      "claims": 1176,
      "he": 1177,
      "main": 1178,
      "CON": 1179,
      "disclo": 1180,
      "##orporation": 1181,
      "costs": 1182,
      "assets": 1183,
      "issued": 1184,
      "##IT": 1185,
      "polic": 1186,
      "##crib": 1187,
      "##gregate": 1188,
      "obligation": 1189,
      "amended": 1190,
      "##ects": 1191,
      "agent": 1192,
      "##ages": 1193,
      "##gan": 1194,
      "##tig": 1195,
      "representations": 1196,
      "approv": 1197,
      "Gran": 1198,
      "ack": 1199,
      "##ax": 1200,
      "understanding": 1201,
      "##pri": 1202,
      "##tricted": 1203,
      "liability": 1204,
      "RE": 1205,
      "York": 1206,
      "##ron": 1207,
      "PAR": 1208,
      "compli": 1209,
      "dec": 1210,
      "##ight": 1211,
      "000": 1212,
      "facsimile": 1213,
      "his": 1214,
      "failure": 1215,
      "##irst": 1216,
      "become": 1217,
      "Securities": 1218,
      "Note": 1219,
      "AGRE": 1220,
      "##vic": 1221,
      "mon": 1222,
      "violation": 1223,
      "defined": 1224,
      "recei": 1225,
      "loc": 1226,
      "##edi": 1227,
      "Holder": 1228,
      "##unic": 1229,
      "##ree": 1230,
      "issuance": 1231,
      "public": 1232,
      "HERE": 1233,
      "##ings": 1234,
      "unenforceable": 1235,
      "force": 1236,
      "request": 1237,
      "Schedule": 1238,
      "filed": 1239,
      "##IC": 1240,
      "##ark": 1241,
      "##edu": 1242,
      "Document": 1243,
      "ann": 1244,
      "taxes": 1245,
      "##vive": 1246,
      "employees": 1247,
      "CO": 1248,
      "survive": 1249,
      "BY": 1250,
      "##ately": 1251,
      "##tered": 1252,
      "taken": 1253,
      "capital": 1254,
      "##reat": 1255,
      "##ests": 1256,
      "##change": 1257,
      "specific": 1258,
      "##so": 1259,
      "receipt": 1260,
      "Tax": 1261,
      "##AI": 1262,
      "manner": 1263,
      "##fore": 1264,
      "ne": 1265,
      "aggregate": 1266,
      "act": 1267,
      "##ons": 1268,
      "elect": 1269,
      "consu": 1270,
      "##owever": 1271,
      "expressly": 1272,
      "communic": 1273,
      "##ership": 1274,
      "payments": 1275,
      "service": 1276,
      "avail": 1277,
      "consumm": 1278,
      "purch": 1279,
      "Restricted": 1280,
      "more": 1281,
      "directors": 1282,
      "authority": 1283,
      "SU": 1284,
      "officers": 1285,
      "sale": 1286,
      "dam": 1287,
      "limited": 1288,
      "determined": 1289,
      "Ten": 1290,
      "##ash": 1291,
      "condu": 1292,
      "por": 1293,
      "entire": 1294,
      "governed": 1295,
      "##tly": 1296,
      "##LY": 1297,
      "##act": 1298,
      "ext": 1299,
      "Committee": 1300,
      "you": 1301,
      "##sel": 1302,
      "prep": 1303,
      "sent": 1304,
      "conflict": 1305,
      "particip": 1306,
      "mean": 1307,
      "knowledge": 1308,
      "therein": 1309,
      "proper": 1310,
      "amendment": 1311,
      "however": 1312,
      "imm": 1313,
      "##ronic": 1314,
      "##ast": 1315,
      "##cess": 1316,
      "bo": 1317,
      "##utes": 1318,
      "##ffic": 1319,
      "equity": 1320,
      "##ating": 1321,
      "Inter": 1322,
      "authorized": 1323,
      "notices": 1324,
      "##after": 1325,
      "available": 1326,
      "used": 1327,
      "default": 1328,
      "##udg": 1329,
      "could": 1330,
      "##ded": 1331,
      "##lement": 1332,
      "Tenant": 1333,
      "Go": 1334,
      "char": 1335,
      "related": 1336,
      "exclu": 1337,
      "who": 1338,
      "Affiliates": 1339,
      "ir": 1340,
      "##EMENT": 1341,
      "##tigation": 1342,
      "remedies": 1343,
      "Obligations": 1344,
      "##cum": 1345,
      "##ap": 1346,
      "withholding": 1347,
      "##low": 1348,
      "Guarantor": 1349,
      "le": 1350,
      "before": 1351,
      "##imbur": 1352,
      "immedi": 1353,
      "se": 1354,
      "Default": 1355,
      "benefits": 1356,
      "cop": 1357,
      "adv": 1358,
      "##mission": 1359,
      "AC": 1360,
      "warranties": 1361,
      "judg": 1362,
      "electronic": 1363,
      "##ous": 1364,
      "successors": 1365,
      "continue": 1366,
      "covenants": 1367,
      "##sive": 1368,
      "##ider": 1369,
      "Ass": 1370,
      "irre": 1371,
      "actions": 1372,
      "assigns": 1373,
      "cover": 1374,
      "##cing": 1375,
      "thir": 1376,
      "power": 1377,
      "##pre": 1378,
      "##olving": 1379,
      "##abilities": 1380,
      "Su": 1381,
      "##oli": 1382,
      "Sal": 1383,
      "individ": 1384,
      "##ney": 1385,
      "reimbur": 1386,
      "##twithstanding": 1387,
      "pen": 1388,
      "neg": 1389,
      "release": 1390,
      "portion": 1391,
      "AGREEMENT": 1392,
      "regard": 1393,
      "Notwithstanding": 1394,
      "##torney": 1395,
      "signed": 1396,
      "appropri": 1397,
      "plan": 1398,
      "Ser": 1399,
      "##cribed": 1400,
      "aff": 1401,
      "##ond": 1402,
      "App": 1403,
      "##voc": 1404,
      "compliance": 1405,
      "confidential": 1406,
      "signature": 1407,
      "sup": 1408,
      "##isc": 1409,
      "interpre": 1410,
      "For": 1411,
      "transaction": 1412,
      "##RIS": 1413,
      "account": 1414,
      "##ound": 1415,
      "##rust": 1416,
      "##trol": 1417,
      "attorney": 1418,
      "al": 1419,
      "##und": 1420,
      "##ersed": 1421,
      "##ensation": 1422,
      "execute": 1423,
      "Ch": 1424,
      "supersed": 1425,
      "##tives": 1426,
      "immediately": 1427,
      "##lord": 1428,
      "dem": 1429,
      "Reg": 1430,
      "approval": 1431,
      "Parent": 1432,
      "appropriate": 1433,
      "##ad": 1434,
      "provide": 1435,
      "##ient": 1436,
      "document": 1437,
      "condition": 1438,
      "respects": 1439,
      "##ganization": 1440,
      "Option": 1441,
      "regulations": 1442,
      "##lace": 1443,
      "##oin": 1444,
      "Lease": 1445,
      "through": 1446,
      "demand": 1447,
      "##eld": 1448,
      "##UT": 1449,
      "record": 1450,
      "PRO": 1451,
      "##urn": 1452,
      "duties": 1453,
      "remedy": 1454,
      "##ency": 1455,
      "assignment": 1456,
      "respons": 1457,
      "##hib": 1458,
      "BE": 1459,
      "enforceable": 1460,
      "##til": 1461,
      "coll": 1462,
      "##ved": 1463,
      "acknowled": 1464,
      "Part": 1465,
      "##urrent": 1466,
      "security": 1467,
      "first": 1468,
      "design": 1469,
      "Govern": 1470,
      "terminate": 1471,
      "##ph": 1472,
      "##rang": 1473,
      "consider": 1474,
      "##vices": 1475,
      "counsel": 1476,
      "bas": 1477,
      "proceeds": 1478,
      "Inv": 1479,
      "principles": 1480,
      "promp": 1481,
      "terminated": 1482,
      "##old": 1483,
      "En": 1484,
      "basis": 1485,
      "##VE": 1486,
      "##ecting": 1487,
      "Land": 1488,
      "Business": 1489,
      "##AW": 1490,
      "purchase": 1491,
      "##ination": 1492,
      "requirements": 1493,
      "##ecured": 1494,
      "Day": 1495,
      "giving": 1496,
      "take": 1497,
      "reli": 1498,
      "Rele": 1499,
      "WI": 1500,
      "credit": 1501,
      "rules": 1502,
      "Artic": 1503,
      "faith": 1504,
      "##cted": 1505,
      "Invest": 1506,
      "##TY": 1507,
      "until": 1508,
      "Inc": 1509,
      "Landlord": 1510,
      "inj": 1511,
      "##ures": 1512,
      "continu": 1513,
      "Base": 1514,
      "loss": 1515,
      "disp": 1516,
      "they": 1517,
      "United": 1518,
      "##ution": 1519,
      "held": 1520,
      "suit": 1521,
      "##ension": 1522,
      "governmental": 1523,
      "LAW": 1524,
      "general": 1525,
      "##ms": 1526,
      "statement": 1527,
      "States": 1528,
      "liabilities": 1529,
      "damages": 1530,
      "restric": 1531,
      "threat": 1532,
      "described": 1533,
      "Issuing": 1534,
      "Sections": 1535,
      "Period": 1536,
      "directly": 1537,
      "validity": 1538,
      "Lien": 1539,
      "irrevoc": 1540,
      "those": 1541,
      "discre": 1542,
      "agents": 1543,
      "way": 1544,
      "ret": 1545,
      "fully": 1546,
      "##mb": 1547,
      "were": 1548,
      "12": 1549,
      "maintain": 1550,
      "affili": 1551,
      "acqu": 1552,
      "discretion": 1553,
      "tra": 1554,
      "Governmental": 1555,
      "cash": 1556,
      "##OC": 1557,
      "comply": 1558,
      "##ATION": 1559,
      "requested": 1560,
      "11": 1561,
      "cir": 1562,
      "##ember": 1563,
      "judgment": 1564,
      "satisf": 1565,
      "policies": 1566,
      "return": 1567,
      "##ayment": 1568,
      "circum": 1569,
      "##alue": 1570,
      "oral": 1571,
      "certific": 1572,
      "filing": 1573,
      "##ened": 1574,
      "##orporate": 1575,
      "indirect": 1576,
      "reference": 1577,
      "month": 1578,
      "##king": 1579,
      "does": 1580,
      "##ished": 1581,
      "##orts": 1582,
      "Author": 1583,
      "proceedings": 1584,
      "int": 1585,
      "threatened": 1586,
      "##olid": 1587,
      "Noti": 1588,
      "enforcement": 1589,
      "##oid": 1590,
      "process": 1591,
      "ear": 1592,
      "additional": 1593,
      "your": 1594,
      "WITH": 1595,
      "properties": 1596,
      "promptly": 1597,
      "##ove": 1598,
      "Event": 1599,
      "Assign": 1600,
      "##ine": 1601,
      "below": 1602,
      "adj": 1603,
      "##thing": 1604,
      "Rev": 1605,
      "where": 1606,
      "THAT": 1607,
      "##TS": 1608,
      "adverse": 1609,
      "##atory": 1610,
      "Employment": 1611,
      "fact": 1612,
      "##ctions": 1613,
      "acce": 1614,
      "##ACH": 1615,
      "acknowledges": 1616,
      "##ass": 1617,
      "principal": 1618,
      "##istration": 1619,
      "Employer": 1620,
      "tw": 1621,
      "arrang": 1622,
      "##emp": 1623,
      "##IG": 1624,
      "##esting": 1625,
      "##raph": 1626,
      "understandings": 1627,
      "##ged": 1628,
      "Secured": 1629,
      "modified": 1630,
      "based": 1631,
      "cre": 1632,
      "30": 1633,
      "counterpart": 1634,
      "##losed": 1635,
      "##dings": 1636,
      "##holders": 1637,
      "##ises": 1638,
      "contain": 1639,
      "##nership": 1640,
      "granted": 1641,
      "ref": 1642,
      "ill": 1643,
      "##LL": 1644,
      "##VER": 1645,
      "inves": 1646,
      "##enew": 1647,
      "third": 1648,
      "##iration": 1649,
      "Revolving": 1650,
      "WAI": 1651,
      "poss": 1652,
      "##ks": 1653,
      "personal": 1654,
      "accru": 1655,
      "##lied": 1656,
      "EACH": 1657,
      "Laws": 1658,
      "substan": 1659,
      "##ule": 1660,
      "subsidi": 1661,
      "regis": 1662,
      "irrevocably": 1663,
      "##PL": 1664,
      "specified": 1665,
      "##tell": 1666,
      "cor": 1667,
      "consolid": 1668,
      "reco": 1669,
      "above": 1670,
      "present": 1671,
      "##atives": 1672,
      "##tellect": 1673,
      "##tellectual": 1674,
      "##oti": 1675,
      "subs": 1676,
      "exclusive": 1677,
      "Article": 1678,
      "##ases": 1679,
      "individually": 1680,
      "include": 1681,
      "##op": 1682,
      "Borrowers": 1683,
      "illegal": 1684,
      "constitutes": 1685,
      "##air": 1686,
      "equal": 1687,
      "lic": 1688,
      "compensation": 1689,
      "Code": 1690,
      "injun": 1691,
      "JUR": 1692,
      "disclosure": 1693,
      "bound": 1694,
      "existing": 1695,
      "##ECT": 1696,
      "##with": 1697,
      "comple": 1698,
      "##ffer": 1699,
      "occur": 1700,
      "arbitration": 1701,
      "TR": 1702,
      "award": 1703,
      "negoti": 1704,
      "SUCH": 1705,
      "corporate": 1706,
      "conver": 1707,
      "disclosed": 1708,
      "attorneys": 1709,
      "##trib": 1710,
      "obtain": 1711,
      "##ortg": 1712,
      "##uali": 1713,
      "employee": 1714,
      "referred": 1715,
      "##TR": 1716,
      "both": 1717,
      "##AB": 1718,
      "##stances": 1719,
      "communications": 1720,
      "contract": 1721,
      "##TO": 1722,
      "resul": 1723,
      "Del": 1724,
      "att": 1725,
      "enforceability": 1726,
      "whole": 1727,
      "EX": 1728,
      "furn": 1729,
      "consummation": 1730,
      "##aware": 1731,
      "eff": 1732,
      "##arket": 1733,
      "courts": 1734,
      "##ives": 1735,
      "pending": 1736,
      "indemnify": 1737,
      "transmission": 1738,
      "local": 1739,
      "enfor": 1740,
      "Exchange": 1741,
      "Cons": 1742,
      "##ice": 1743,
      "Salary": 1744,
      "Authority": 1745,
      "##ning": 1746,
      "Liens": 1747,
      "Affiliate": 1748,
      "manag": 1749,
      "Taxes": 1750,
      "instruments": 1751,
      "##agraph": 1752,
      "thereby": 1753,
      "Warran": 1754,
      "PARTY": 1755,
      "long": 1756,
      "current": 1757,
      "##sp": 1758,
      "##pose": 1759,
      "##itle": 1760,
      "supp": 1761,
      "was": 1762,
      "Delaware": 1763,
      "##ld": 1764,
      "##cer": 1765,
      "end": 1766,
      "Direct": 1767,
      "prac": 1768,
      "Offic": 1769,
      "regulation": 1770,
      "officer": 1771,
      "##our": 1772,
      "##ger": 1773,
      "entity": 1774,
      "give": 1775,
      "##TIES": 1776,
      "dedu": 1777,
      "Indemn": 1778,
      "commit": 1779,
      "Security": 1780,
      "##AS": 1781,
      "gener": 1782,
      "expiration": 1783,
      "solely": 1784,
      "Ne": 1785,
      "adjust": 1786,
      "19": 1787,
      "##ry": 1788,
      "purpose": 1789,
      "expense": 1790,
      "##sequ": 1791,
      "less": 1792,
      "them": 1793,
      "application": 1794,
      "services": 1795,
      "enter": 1796,
      "##ustom": 1797,
      "##fici": 1798,
      "Man": 1799,
      "pos": 1800,
      "Termination": 1801,
      "copy": 1802,
      "To": 1803,
      "renew": 1804,
      "##one": 1805,
      "change": 1806,
      "car": 1807,
      "quali": 1808,
      "representation": 1809,
      "actual": 1810,
      "interests": 1811,
      "##ful": 1812,
      "##ou": 1813,
      "thereunder": 1814,
      "circumstances": 1815,
      "share": 1816,
      "intended": 1817,
      "Change": 1818,
      "##TER": 1819,
      "ST": 1820,
      "##ptions": 1821,
      "Acc": 1822,
      "receive": 1823,
      "Information": 1824,
      "na": 1825,
      "##inan": 1826,
      "Subject": 1827,
      "##ectively": 1828,
      "among": 1829,
      "##itial": 1830,
      "sever": 1831,
      "affecting": 1832,
      "representatives": 1833,
      "Pre": 1834,
      "est": 1835,
      "registered": 1836,
      "Indemnit": 1837,
      "REL": 1838,
      "amend": 1839,
      "Investor": 1840,
      "matters": 1841,
      "14": 1842,
      "di": 1843,
      "Release": 1844,
      "##ATE": 1845,
      "validly": 1846,
      "Officer": 1847,
      "Exp": 1848,
      "##rought": 1849,
      "brought": 1850,
      "##ker": 1851,
      "rule": 1852,
      "final": 1853,
      "interpret": 1854,
      "consents": 1855,
      "There": 1856,
      "what": 1857,
      "##tially": 1858,
      "##istent": 1859,
      "collectively": 1860,
      "##ached": 1861,
      "advis": 1862,
      "Equ": 1863,
      "value": 1864,
      "rel": 1865,
      "generally": 1866,
      "COUR": 1867,
      "Conf": 1868,
      "##con": 1869,
      "##fe": 1870,
      "certified": 1871,
      "##DER": 1872,
      "Repor": 1873,
      "issue": 1874,
      "##ights": 1875,
      "Applic": 1876,
      "NO": 1877,
      "Units": 1878,
      "income": 1879,
      "bank": 1880,
      "separ": 1881,
      "impos": 1882,
      "conducted": 1883,
      "##enture": 1884,
      "Notice": 1885,
      "redu": 1886,
      "post": 1887,
      "##ier": 1888,
      "##held": 1889,
      "##laim": 1890,
      "Control": 1891,
      "enforced": 1892,
      "withheld": 1893,
      "##roup": 1894,
      "SH": 1895,
      "##dequ": 1896,
      "##oci": 1897,
      "compet": 1898,
      "hold": 1899,
      "arbitrator": 1900,
      "##xt": 1901,
      "##AC": 1902,
      "apply": 1903,
      "ACTION": 1904,
      "##hibit": 1905,
      "Corporation": 1906,
      "subsidiaries": 1907,
      "15": 1908,
      "earli": 1909,
      "sell": 1910,
      "##soever": 1911,
      "##BY": 1912,
      "eng": 1913,
      "iv": 1914,
      "##ind": 1915,
      "cal": 1916,
      "##SU": 1917,
      "##ot": 1918,
      "affiliates": 1919,
      "prot": 1920,
      "incre": 1921,
      "whatsoever": 1922,
      "##arm": 1923,
      "inure": 1924,
      "Requ": 1925,
      "specifically": 1926,
      "indirectly": 1927,
      "extension": 1928,
      "##oper": 1929,
      "prom": 1930,
      "custom": 1931,
      "##ALL": 1932,
      "##itable": 1933,
      "Trust": 1934,
      "competent": 1935,
      "##efici": 1936,
      "lat": 1937,
      "##arding": 1938,
      "had": 1939,
      "MA": 1940,
      "##ents": 1941,
      "warrants": 1942,
      "represents": 1943,
      "Commitment": 1944,
      "##duct": 1945,
      "Rate": 1946,
      "Intellectual": 1947,
      "investigation": 1948,
      "Per": 1949,
      "Commitments": 1950,
      "Dis": 1951,
      "##ite": 1952,
      "subm": 1953,
      "agreed": 1954,
      "Confidential": 1955,
      "2016": 1956,
      "know": 1957,
      "Purchasers": 1958,
      "addressed": 1959,
      "Pri": 1960,
      "##hief": 1961,
      "Applicable": 1962,
      "##arge": 1963,
      "waives": 1964,
      "invest": 1965,
      "Sec": 1966,
      "##ATI": 1967,
      "exchange": 1968,
      "PARTIES": 1969,
      "supersedes": 1970,
      "SHALL": 1971,
      "affected": 1972,
      "Grantee": 1973,
      "##imum": 1974,
      "regarding": 1975,
      "Coun": 1976,
      "del": 1977,
      "nature": 1978,
      "##formance": 1979,
      "assess": 1980,
      "Or": 1981,
      "Upon": 1982,
      "organization": 1983,
      "With": 1984,
      "accept": 1985,
      "conduct": 1986,
      "rate": 1987,
      "relief": 1988,
      "owned": 1989,
      "occurr": 1990,
      "records": 1991,
      "agency": 1992,
      "13": 1993,
      "contrary": 1994,
      "conflicts": 1995,
      "FOR": 1996,
      "##erger": 1997,
      "concer": 1998,
      "neither": 1999,
      "##ory": 2000,
      "##dequate": 2001,
      "substantially": 2002,
      "##isting": 2003,
      "Fac": 2004,
      "Indemni": 2005,
      "plans": 2006,
      "Deb": 2007,
      "##rupt": 2008,
      "making": 2009,
      "Manag": 2010,
      "harm": 2011,
      "ERIS": 2012,
      "Performance": 2013,
      "ERISA": 2014,
      "fee": 2015,
      "kind": 2016,
      "##vor": 2017,
      "NE": 2018,
      "##tention": 2019,
      "##atement": 2020,
      "##ish": 2021,
      "now": 2022,
      "##ia": 2023,
      "thereafter": 2024,
      "correct": 2025,
      "work": 2026,
      "asser": 2027,
      "policy": 2028,
      "assu": 2029,
      "Purchase": 2030,
      "dispute": 2031,
      "remaining": 2032,
      "consolidated": 2033,
      "Share": 2034,
      "reser": 2035,
      "Such": 2036,
      "confir": 2037,
      "obtained": 2038,
      "mut": 2039,
      "sett": 2040,
      "complete": 2041,
      "Mortg": 2042,
      "##CEED": 2043,
      "Rep": 2044,
      "having": 2045,
      "indemnification": 2046,
      "PROCEED": 2047,
      "name": 2048,
      "LI": 2049,
      "arrangements": 2050,
      "tru": 2051,
      "regulatory": 2052,
      "later": 2053,
      "mis": 2054,
      "cooper": 2055,
      "also": 2056,
      "PROCEEDING": 2057,
      "##sequent": 2058,
      "Partnership": 2059,
      "fair": 2060,
      "HEREBY": 2061,
      "UN": 2062,
      "violate": 2063,
      "##anty": 2064,
      "aud": 2065,
      "title": 2066,
      "waive": 2067,
      "salary": 2068,
      "disclose": 2069,
      "At": 2070,
      "##stance": 2071,
      "Interest": 2072,
      "##ily": 2073,
      "Tra": 2074,
      "##roker": 2075,
      "underst": 2076,
      "concerning": 2077,
      "true": 2078,
      "##NG": 2079,
      "##AA": 2080,
      "##paration": 2081,
      "Finan": 2082,
      "##ring": 2083,
      "Chief": 2084,
      "meaning": 2085,
      "responsib": 2086,
      "least": 2087,
      "Neither": 2088,
      "carry": 2089,
      "Member": 2090,
      "modification": 2091,
      "furnished": 2092,
      "prepaid": 2093,
      "Group": 2094,
      "over": 2095,
      "consistent": 2096,
      "HERETO": 2097,
      "attached": 2098,
      "40": 2099,
      "##ident": 2100,
      "cance": 2101,
      "##IGH": 2102,
      "interpretation": 2103,
      "##ruptcy": 2104,
      "litigation": 2105,
      "press": 2106,
      "assigned": 2107,
      "director": 2108,
      "##view": 2109,
      "two": 2110,
      "##IAL": 2111,
      "STATE": 2112,
      "holder": 2113,
      "charges": 2114,
      "prohib": 2115,
      "periods": 2116,
      "ord": 2117,
      "##UN": 2118,
      "##ness": 2119,
      "earlier": 2120,
      "Issuer": 2121,
      "##ler": 2122,
      "operations": 2123,
      "fund": 2124,
      "equitable": 2125,
      "disch": 2126,
      "sing": 2127,
      "permit": 2128,
      "satisfaction": 2129,
      "RIGH": 2130,
      "##ences": 2131,
      "##UMENT": 2132,
      "##uture": 2133,
      "coverage": 2134,
      "Ac": 2135,
      "courier": 2136,
      "ARIS": 2137,
      "subsequent": 2138,
      "authoriz": 2139,
      "aut": 2140,
      "future": 2141,
      "file": 2142,
      "distrib": 2143,
      "##LE": 2144,
      "##set": 2145,
      "defense": 2146,
      "separate": 2147,
      "registration": 2148,
      "preced": 2149,
      "sche": 2150,
      "##uses": 2151,
      "warranty": 2152,
      "##dules": 2153,
      "Warrant": 2154,
      "00": 2155,
      "void": 2156,
      "##vernight": 2157,
      "Guaranty": 2158,
      "##actor": 2159,
      "occurred": 2160,
      "delay": 2161,
      "##ior": 2162,
      "##ferred": 2163,
      "years": 2164,
      "course": 2165,
      "Rights": 2166,
      "her": 2167,
      "waived": 2168,
      "Indemnitee": 2169,
      "abs": 2170,
      "restrictions": 2171,
      "acti": 2172,
      "##ounting": 2173,
      "Perm": 2174,
      "##elf": 2175,
      "overnight": 2176,
      "Comp": 2177,
      "consideration": 2178,
      "performed": 2179,
      "##denture": 2180,
      "adequate": 2181,
      "practi": 2182,
      "##oma": 2183,
      "##ist": 2184,
      "paragraph": 2185,
      "##tes": 2186,
      "##erially": 2187,
      "covenant": 2188,
      "##RES": 2189,
      "responsible": 2190,
      "deb": 2191,
      "exercis": 2192,
      "DOC": 2193,
      "Se": 2194,
      "reports": 2195,
      "pres": 2196,
      "##mpanies": 2197,
      "DOCUMENT": 2198,
      "construction": 2199,
      "materially": 2200,
      "inde": 2201,
      "##hibits": 2202,
      "##ath": 2203,
      "NEW": 2204,
      "place": 2205,
      "2017": 2206,
      "acceler": 2207,
      "WH": 2208,
      "included": 2209,
      "certificate": 2210,
      "ARISING": 2211,
      "##sement": 2212,
      "entered": 2213,
      "intent": 2214,
      "page": 2215,
      "##EM": 2216,
      "##lass": 2217,
      "##ORK": 2218,
      "AP": 2219,
      "annual": 2220,
      "determination": 2221,
      "##omatic": 2222,
      "foreign": 2223,
      "##vant": 2224,
      "YORK": 2225,
      "##ular": 2226,
      "MAY": 2227,
      "harmless": 2228,
      "Ben": 2229,
      "accrued": 2230,
      "hand": 2231,
      "##ATED": 2232,
      "##ium": 2233,
      "possible": 2234,
      "ordin": 2235,
      "During": 2236,
      "LO": 2237,
      "last": 2238,
      "##ali": 2239,
      "automatic": 2240,
      "##ording": 2241,
      "join": 2242,
      "Notes": 2243,
      "designated": 2244,
      "EN": 2245,
      "##ections": 2246,
      "must": 2247,
      "##ex": 2248,
      "Service": 2249,
      "##ix": 2250,
      "reimburse": 2251,
      "Commission": 2252,
      "confidentiality": 2253,
      "Directors": 2254,
      "withhold": 2255,
      "copies": 2256,
      "vesting": 2257,
      "##gn": 2258,
      "trust": 2259,
      "##IR": 2260,
      "##orporated": 2261,
      "participation": 2262,
      "Gen": 2263,
      "##iting": 2264,
      "communication": 2265,
      "##den": 2266,
      "##mbers": 2267,
      "JURY": 2268,
      "standing": 2269,
      "##fficient": 2270,
      "lease": 2271,
      "Indemnified": 2272,
      "grant": 2273,
      "position": 2274,
      "satisfy": 2275,
      "cont": 2276,
      "Contr": 2277,
      "three": 2278,
      "option": 2279,
      "boo": 2280,
      "adversely": 2281,
      "Lic": 2282,
      "depos": 2283,
      "maintained": 2284,
      "free": 2285,
      "up": 2286,
      "administrative": 2287,
      "##gra": 2288,
      "conven": 2289,
      "Facility": 2290,
      "31": 2291,
      "render": 2292,
      "##FOR": 2293,
      "##vile": 2294,
      "privile": 2295,
      "clause": 2296,
      "death": 2297,
      "see": 2298,
      "company": 2299,
      "##tib": 2300,
      "anything": 2301,
      "##ances": 2302,
      "01": 2303,
      "PER": 2304,
      "hereafter": 2305,
      "##tence": 2306,
      "##apital": 2307,
      "LOAN": 2308,
      "Cour": 2309,
      "##ultant": 2310,
      "benefici": 2311,
      "##PRES": 2312,
      "applied": 2313,
      "existence": 2314,
      "##eal": 2315,
      "imposed": 2316,
      "San": 2317,
      "control": 2318,
      "##ared": 2319,
      "##ta": 2320,
      "exceed": 2321,
      "timely": 2322,
      "##eep": 2323,
      "authorization": 2324,
      "Reports": 2325,
      "providing": 2326,
      "##enior": 2327,
      "##ars": 2328,
      "##acts": 2329,
      "##aged": 2330,
      "##ession": 2331,
      "Claim": 2332,
      "review": 2333,
      "Grantor": 2334,
      "recogn": 2335,
      "incorporated": 2336,
      "relevant": 2337,
      "TRIAL": 2338,
      "five": 2339,
      "Exhibit": 2340,
      "Adv": 2341,
      "accounting": 2342,
      "##lacement": 2343,
      "considered": 2344,
      "favor": 2345,
      "16": 2346,
      "##if": 2347,
      "Hol": 2348,
      "COURT": 2349,
      "acknowledge": 2350,
      "automatically": 2351,
      "powers": 2352,
      "postage": 2353,
      "Second": 2354,
      "occurrence": 2355,
      "General": 2356,
      "##vidence": 2357,
      "norm": 2358,
      "Enti": 2359,
      "##ata": 2360,
      "##LAI": 2361,
      "##LAIM": 2362,
      "##ide": 2363,
      "##alance": 2364,
      "Agreements": 2365,
      "letter": 2366,
      "therewith": 2367,
      "##ligible": 2368,
      "businesses": 2369,
      "Disc": 2370,
      "GAA": 2371,
      "GAAP": 2372,
      "Other": 2373,
      "corporation": 2374,
      "##ires": 2375,
      "Represent": 2376,
      "##ival": 2377,
      "On": 2378,
      "##roll": 2379,
      "supplement": 2380,
      "Certi": 2381,
      "##actions": 2382,
      "preceding": 2383,
      "##II": 2384,
      "forfe": 2385,
      "##see": 2386,
      "##vities": 2387,
      "commitments": 2388,
      "decree": 2389,
      "##abl": 2390,
      "sufficient": 2391,
      "becom": 2392,
      "keep": 2393,
      "qu": 2394,
      "sec": 2395,
      "Nothing": 2396,
      "via": 2397,
      "##DIC": 2398,
      "##ously": 2399,
      "IR": 2400,
      "##MIT": 2401,
      "##SE": 2402,
      "vested": 2403,
      "##als": 2404,
      "results": 2405,
      "bankruptcy": 2406,
      "she": 2407,
      "##ss": 2408,
      "operation": 2409,
      "Form": 2410,
      "##withstanding": 2411,
      "cost": 2412,
      "notwithstanding": 2413,
      "proced": 2414,
      "em": 2415,
      "om": 2416,
      "First": 2417,
      "OUT": 2418,
      "ownership": 2419,
      "evidence": 2420,
      "activities": 2421,
      "Initial": 2422,
      "statute": 2423,
      "IND": 2424,
      "normal": 2425,
      "Pled": 2426,
      "##ack": 2427,
      "continuing": 2428,
      "Existing": 2429,
      "Transactions": 2430,
      "losses": 2431,
      "trade": 2432,
      "Market": 2433,
      "commence": 2434,
      "fullest": 2435,
      "Certific": 2436,
      "RES": 2437,
      "administr": 2438,
      "books": 2439,
      "broker": 2440,
      "##nal": 2441,
      "injunction": 2442,
      "Acqu": 2443,
      "##gin": 2444,
      "cle": 2445,
      "##ial": 2446,
      "serve": 2447,
      "funds": 2448,
      "Dec": 2449,
      "##ip": 2450,
      "commen": 2451,
      "iden": 2452,
      "##enue": 2453,
      "##olved": 2454,
      "Federal": 2455,
      "unre": 2456,
      "lap": 2457,
      "offer": 2458,
      "Financial": 2459,
      "cancell": 2460,
      "base": 2461,
      "decision": 2462,
      "off": 2463,
      "investment": 2464,
      "##bted": 2465,
      "DE": 2466,
      "dele": 2467,
      "dates": 2468,
      "Permitted": 2469,
      "##adings": 2470,
      "contro": 2471,
      "payroll": 2472,
      "Unless": 2473,
      "Equity": 2474,
      "establ": 2475,
      "##ading": 2476,
      "located": 2477,
      "demands": 2478,
      "ordinary": 2479,
      "months": 2480,
      "practices": 2481,
      "vac": 2482,
      "successor": 2483,
      "By": 2484,
      "Holdings": 2485,
      "capac": 2486,
      "##endar": 2487,
      "THERE": 2488,
      "prepared": 2489,
      "certificates": 2490,
      "report": 2491,
      "previ": 2492,
      "clear": 2493,
      "##btedness": 2494,
      "venue": 2495,
      "##losure": 2496,
      "times": 2497,
      "avoid": 2498,
      "Capital": 2499,
      "unp": 2500,
      "assignee": 2501,
      "real": 2502,
      "Consultant": 2503,
      "conveni": 2504,
      "email": 2505,
      "##sements": 2506,
      "##used": 2507,
      "Related": 2508,
      "reimbursement": 2509,
      "##olven": 2510,
      "##olvency": 2511,
      "Assets": 2512,
      "CONS": 2513,
      "##ical": 2514,
      "supersede": 2515,
      "##ently": 2516,
      "suits": 2517,
      "differ": 2518,
      "lapse": 2519,
      "LL": 2520,
      "Administr": 2521,
      "##ivers": 2522,
      "Trading": 2523,
      "next": 2524,
      "interpreted": 2525,
      "accep": 2526,
      "personally": 2527,
      "approved": 2528,
      "##erve": 2529,
      "##posed": 2530,
      "member": 2531,
      "Certificate": 2532,
      "December": 2533,
      "sentence": 2534,
      "known": 2535,
      "efforts": 2536,
      "##ood": 2537,
      "Letters": 2538,
      "returns": 2539,
      "underta": 2540,
      "disbur": 2541,
      "##iving": 2542,
      "satisfactor": 2543,
      "##tible": 2544,
      "limiting": 2545,
      "means": 2546,
      "##udic": 2547,
      "employed": 2548,
      "satisfactory": 2549,
      "##etary": 2550,
      "##ligence": 2551,
      "##organization": 2552,
      "##REV": 2553,
      "Grant": 2554,
      "##VES": 2555,
      "prevent": 2556,
      "regardless": 2557,
      "HA": 2558,
      "Rec": 2559,
      "##oice": 2560,
      "calendar": 2561,
      "mailed": 2562,
      "NOT": 2563,
      "##ulting": 2564,
      "Subs": 2565,
      "notify": 2566,
      "audit": 2567,
      "Sw": 2568,
      "WAIVER": 2569,
      "options": 2570,
      "invalidity": 2571,
      "Distr": 2572,
      "prohibited": 2573,
      "unpaid": 2574,
      "##other": 2575,
      "AM": 2576,
      "##SUs": 2577,
      "##ATING": 2578,
      "pat": 2579,
      "another": 2580,
      "##vail": 2581,
      "RIGHT": 2582,
      "Deliver": 2583,
      "##nia": 2584,
      "##very": 2585,
      "refl": 2586,
      "vacation": 2587,
      "perf": 2588,
      "Persons": 2589,
      "market": 2590,
      "Cali": 2591,
      "##OCAB": 2592,
      "RELATING": 2593,
      "IRREV": 2594,
      "IRREVOCAB": 2595,
      "leg": 2596,
      "##fornia": 2597,
      "chan": 2598,
      "covered": 2599,
      "discharge": 2600,
      "California": 2601,
      "##iscal": 2602,
      "409": 2603,
      "procedures": 2604,
      "extended": 2605,
      "penal": 2606,
      "creditors": 2607,
      "word": 2608,
      "others": 2609,
      "uncon": 2610,
      "filings": 2611,
      "stated": 2612,
      "Proceed": 2613,
      "identi": 2614,
      "balance": 2615,
      "Servic": 2616,
      "capacity": 2617,
      "409A": 2618,
      "##TED": 2619,
      "settlement": 2620,
      "##cent": 2621,
      "reorganization": 2622,
      "publicly": 2623,
      "cooperate": 2624,
      "IRREVOCABLY": 2625,
      "Mar": 2626,
      "single": 2627,
      "uncondition": 2628,
      "none": 2629,
      "licenses": 2630,
      "Delivery": 2631,
      "##cul": 2632,
      "##arily": 2633,
      "##ators": 2634,
      "bear": 2635,
      "contains": 2636,
      "ten": 2637,
      "##fere": 2638,
      "Regul": 2639,
      "AS": 2640,
      "##sc": 2641,
      "responsibilities": 2642,
      "##ote": 2643,
      "##pend": 2644,
      "##demark": 2645,
      "operate": 2646,
      "indemn": 2647,
      "Registration": 2648,
      "Trustee": 2649,
      "Administrator": 2650,
      "##law": 2651,
      "##ctive": 2652,
      "##EG": 2653,
      "Amer": 2654,
      "##leading": 2655,
      "Po": 2656,
      "##ending": 2657,
      "dire": 2658,
      "CLAIM": 2659,
      "headings": 2660,
      "modify": 2661,
      "Payment": 2662,
      "div": 2663,
      "insolvency": 2664,
      "Supp": 2665,
      "##ISDIC": 2666,
      "Amount": 2667,
      "JURISDIC": 2668,
      "Americ": 2669,
      "JURISDICTION": 2670,
      "##ATIONS": 2671,
      "##ners": 2672,
      "##atures": 2673,
      "beli": 2674,
      "persons": 2675,
      "WAIVES": 2676,
      "Court": 2677,
      "##ID": 2678,
      "misleading": 2679,
      "becomes": 2680,
      "financing": 2681,
      "RESP": 2682,
      "convenience": 2683,
      "##ority": 2684,
      "deal": 2685,
      "ev": 2686,
      "offi": 2687,
      "Ins": 2688,
      "Cash": 2689,
      "office": 2690,
      "Mortgage": 2691,
      "can": 2692,
      "##ste": 2693,
      "currently": 2694,
      "Assignment": 2695,
      "whom": 2696,
      "implied": 2697,
      "IT": 2698,
      "created": 2699,
      "gro": 2700,
      "stockholders": 2701,
      "##scrow": 2702,
      "Interests": 2703,
      "LAWS": 2704,
      "belie": 2705,
      "##PLIC": 2706,
      "disbursements": 2707,
      "##isite": 2708,
      "##ANCE": 2709,
      "qualified": 2710,
      "Swing": 2711,
      "damage": 2712,
      "Me": 2713,
      "Pr": 2714,
      "##ody": 2715,
      "sit": 2716,
      "indic": 2717,
      "guar": 2718,
      "##UD": 2719,
      "Ow": 2720,
      "You": 2721,
      "##ational": 2722,
      "annivers": 2723,
      "prof": 2724,
      "determine": 2725,
      "conversion": 2726,
      "exhibits": 2727,
      "doub": 2728,
      "Sp": 2729,
      "percent": 2730,
      "individual": 2731,
      "negotiations": 2732,
      "heir": 2733,
      "closing": 2734,
      "HAVE": 2735,
      "contracts": 2736,
      "max": 2737,
      "City": 2738,
      "light": 2739,
      "una": 2740,
      "##fying": 2741,
      "recognized": 2742,
      "Doll": 2743,
      "AGENT": 2744,
      "##itions": 2745,
      "appoin": 2746,
      "Borrowing": 2747,
      "meanings": 2748,
      "Without": 2749,
      "herewith": 2750,
      "companies": 2751,
      "renewal": 2752,
      "##mises": 2753,
      "organ": 2754,
      "excess": 2755,
      "commission": 2756,
      "heirs": 2757,
      "##quid": 2758,
      "preemp": 2759,
      "maximum": 2760,
      "##cription": 2761,
      "increase": 2762,
      "te": 2763,
      "Arbitr": 2764,
      "amendments": 2765,
      "Pres": 2766,
      "proposed": 2767,
      "##vey": 2768,
      "acceleration": 2769,
      "##ane": 2770,
      "##utable": 2771,
      "price": 2772,
      "unenforceability": 2773,
      "engaged": 2774,
      "mutually": 2775,
      "##ABLE": 2776,
      "avoidance": 2777,
      "##velo": 2778,
      "commer": 2779,
      "most": 2780,
      "IS": 2781,
      "min": 2782,
      "##rd": 2783,
      "##andard": 2784,
      "ALL": 2785,
      "com": 2786,
      "fun": 2787,
      "money": 2788,
      "acting": 2789,
      "different": 2790,
      "consummate": 2791,
      "##ause": 2792,
      "County": 2793,
      "asserted": 2794,
      "anniversary": 2795,
      "Merger": 2796,
      "Conver": 2797,
      "doubt": 2798,
      "##ural": 2799,
      "partic": 2800,
      "liable": 2801,
      "particular": 2802,
      "18": 2803,
      "##BL": 2804,
      "##cribe": 2805,
      "section": 2806,
      "##CL": 2807,
      "Partner": 2808,
      "ph": 2809,
      "pled": 2810,
      "vest": 2811,
      "organizational": 2812,
      "##ocket": 2813,
      "##ISE": 2814,
      "cancellation": 2815,
      "requests": 2816,
      "Thi": 2817,
      "##ST": 2818,
      "conclu": 2819,
      "APPLIC": 2820,
      "ended": 2821,
      "##cially": 2822,
      "##UL": 2823,
      "CONT": 2824,
      "reserves": 2825,
      "President": 2826,
      "Awards": 2827,
      "pocket": 2828,
      "sc": 2829,
      "like": 2830,
      "ability": 2831,
      "Manager": 2832,
      "prosp": 2833,
      "associ": 2834,
      "Compensation": 2835,
      "Disclosure": 2836,
      "tri": 2837,
      "inf": 2838,
      "thirty": 2839,
      "unconditionally": 2840,
      "advance": 2841,
      "members": 2842,
      "customary": 2843,
      "participate": 2844,
      "##utions": 2845,
      "##velop": 2846,
      "02": 2847,
      "fiscal": 2848,
      "Inde": 2849,
      "acquire": 2850,
      "Benef": 2851,
      "##ORD": 2852,
      "##OVER": 2853,
      "contrib": 2854,
      "requirement": 2855,
      "negotiation": 2856,
      "lis": 2857,
      "##OW": 2858,
      "released": 2859,
      "license": 2860,
      "ques": 2861,
      "Oper": 2862,
      "##gated": 2863,
      "##cts": 2864,
      "##ETHER": 2865,
      "executive": 2866,
      "unreason": 2867,
      "Cor": 2868,
      "##essee": 2869,
      "injunctive": 2870,
      "DIS": 2871,
      "##olute": 2872,
      "Services": 2873,
      "class": 2874,
      "protect": 2875,
      "##ury": 2876,
      "understood": 2877,
      "insu": 2878,
      "##ict": 2879,
      "##WISE": 2880,
      "extend": 2881,
      "Required": 2882,
      "Pay": 2883,
      "omission": 2884,
      "##raw": 2885,
      "##ulti": 2886,
      "consult": 2887,
      "##elec": 2888,
      "Third": 2889,
      "Non": 2890,
      "##TENT": 2891,
      "##idend": 2892,
      "acceptable": 2893,
      "preparation": 2894,
      "OTHERWISE": 2895,
      "conting": 2896,
      "##ANS": 2897,
      "satisfied": 2898,
      "absolute": 2899,
      "exercisable": 2900,
      "bond": 2901,
      "ris": 2902,
      "##rov": 2903,
      "##bran": 2904,
      "Days": 2905,
      "WHETHER": 2906,
      "prevail": 2907,
      "need": 2908,
      "##cumbran": 2909,
      "Statement": 2910,
      "advisors": 2911,
      "##entive": 2912,
      "initial": 2913,
      "acts": 2914,
      "excluding": 2915,
      "Le": 2916,
      "##try": 2917,
      "owing": 2918,
      "GOVER": 2919,
      "##udited": 2920,
      "confirm": 2921,
      "words": 2922,
      "GOVERN": 2923,
      "TRANS": 2924,
      "ENFOR": 2925,
      "penalties": 2926,
      "rev": 2927,
      "merger": 2928,
      "##PRESENT": 2929,
      "REPRESENT": 2930,
      "17": 2931,
      "AD": 2932,
      "involving": 2933,
      "Arbitration": 2934,
      "him": 2935,
      "telec": 2936,
      "##ime": 2937,
      "requisite": 2938,
      "signatures": 2939,
      "op": 2940,
      "##stall": 2941,
      "creation": 2942,
      "Premises": 2943,
      "best": 2944,
      "untr": 2945,
      "eviden": 2946,
      "show": 2947,
      "Contract": 2948,
      "schedules": 2949,
      "complied": 2950,
      "therefor": 2951,
      "193": 2952,
      "100": 2953,
      "port": 2954,
      "approvals": 2955,
      "privilege": 2956,
      "six": 2957,
      "resulting": 2958,
      "untrue": 2959,
      "sold": 2960,
      "District": 2961,
      "##tim": 2962,
      "convertible": 2963,
      "indu": 2964,
      "incur": 2965,
      "internal": 2966,
      "pages": 2967,
      "##ACTION": 2968,
      "##iron": 2969,
      "impair": 2970,
      "##viron": 2971,
      "Stockholder": 2972,
      "acquired": 2973,
      "ON": 2974,
      "infring": 2975,
      "Require": 2976,
      "TRANSACTION": 2977,
      "preclu": 2978,
      "indenture": 2979,
      "repayment": 2980,
      "##US": 2981,
      "defend": 2982,
      "Sellers": 2983,
      "EXTENT": 2984,
      "ACC": 2985,
      "telecop": 2986,
      "RSUs": 2987,
      "##kes": 2988,
      "contested": 2989,
      "##gram": 2990,
      "##df": 2991,
      "said": 2992,
      "dated": 2993,
      "##hen": 2994,
      "Price": 2995,
      "ITS": 2996,
      "##tary": 2997,
      "##des": 2998,
      "##FF": 2999,
      "##ertain": 3000,
      "jointly": 3001,
      "##IRECT": 3002,
      "##vel": 3003,
      "itself": 3004,
      "##ned": 3005,
      "relations": 3006,
      "##pendent": 3007,
      "##vironmental": 3008,
      "##ensed": 3009,
      "Ann": 3010,
      "SE": 3011,
      "partnership": 3012,
      "arrangement": 3013,
      "##uarter": 3014,
      "sales": 3015,
      "##ITY": 3016,
      "It": 3017,
      "loan": 3018,
      "##ANT": 3019,
      "##ope": 3020,
      "##isition": 3021,
      "##ducts": 3022,
      "SUB": 3023,
      "subsection": 3024,
      "estate": 3025,
      "pdf": 3026,
      "##vers": 3027,
      "RESPECT": 3028,
      "Debt": 3029,
      "Off": 3030,
      "gross": 3031,
      "Escrow": 3032,
      "orders": 3033,
      "##emption": 3034,
      "##not": 3035,
      "calcul": 3036,
      "assessments": 3037,
      "Account": 3038,
      "unaudited": 3039,
      "previously": 3040,
      "seek": 3041,
      "indemnity": 3042,
      "36": 3043,
      "thereon": 3044,
      "##eries": 3045,
      "Separation": 3046,
      "##hing": 3047,
      "##olun": 3048,
      "understand": 3049,
      "organized": 3050,
      "scope": 3051,
      "Sanctions": 3052,
      "GOVERNED": 3053,
      "Guarantors": 3054,
      "subscribe": 3055,
      "APPLICABLE": 3056,
      "Tex": 3057,
      "Expo": 3058,
      "submit": 3059,
      "Dollars": 3060,
      "##asing": 3061,
      "LLC": 3062,
      "insured": 3063,
      "##tire": 3064,
      "##olution": 3065,
      "COM": 3066,
      "stric": 3067,
      "unreasonably": 3068,
      "forum": 3069,
      "accur": 3070,
      "releases": 3071,
      "SECTION": 3072,
      "##laws": 3073,
      "60": 3074,
      "##line": 3075,
      "##ENDER": 3076,
      "disputes": 3077,
      "working": 3078,
      "liquid": 3079,
      "Associ": 3080,
      "##onduct": 3081,
      "convey": 3082,
      "nothing": 3083,
      "Fee": 3084,
      "##tru": 3085,
      "dispar": 3086,
      "##isconduct": 3087,
      "Texas": 3088,
      "ACCORD": 3089,
      "choice": 3090,
      "Entity": 3091,
      "misconduct": 3092,
      "references": 3093,
      "preclude": 3094,
      "ite": 3095,
      "##lor": 3096,
      "##tern": 3097,
      "##land": 3098,
      "managers": 3099,
      "LENDER": 3100,
      "certain": 3101,
      "##NOW": 3102,
      "negligence": 3103,
      "established": 3104,
      "##tirement": 3105,
      "##TRU": 3106,
      "pl": 3107,
      "red": 3108,
      "##orator": 3109,
      "insur": 3110,
      "judgments": 3111,
      "##yp": 3112,
      "discus": 3113,
      "addresses": 3114,
      "Indebtedness": 3115,
      "contingent": 3116,
      "Senior": 3117,
      "##ECTION": 3118,
      "distribution": 3119,
      "preemptive": 3120,
      "flow": 3121,
      "##ruption": 3122,
      "ACCORDANCE": 3123,
      "caused": 3124,
      "2015": 3125,
      "might": 3126,
      "##co": 3127,
      "rest": 3128,
      "##umul": 3129,
      "clauses": 3130,
      "AGREES": 3131,
      "Insurance": 3132,
      "guarant": 3133,
      "sum": 3134,
      "occurs": 3135,
      "supplemented": 3136,
      "Servicer": 3137,
      "##END": 3138,
      "03": 3139,
      "PROV": 3140,
      "##ranch": 3141,
      "mailing": 3142,
      "shareholders": 3143,
      "indicated": 3144,
      "relationship": 3145,
      "materials": 3146,
      "limitations": 3147,
      "CONSTRU": 3148,
      "adjustments": 3149,
      "Value": 3150,
      "##ys": 3151,
      "instit": 3152,
      "sets": 3153,
      "secre": 3154,
      "requires": 3155,
      "##ough": 3156,
      "transm": 3157,
      "soon": 3158,
      "representative": 3159,
      "remainder": 3160,
      "offices": 3161,
      "UNDER": 3162,
      "Pledg": 3163,
      "obligated": 3164,
      "Assignee": 3165,
      "willful": 3166,
      "##ALLY": 3167,
      "Debtor": 3168,
      "Jun": 3169,
      "morator": 3170,
      "moratorium": 3171,
      "##TIG": 3172,
      "sel": 3173,
      "adjustment": 3174,
      "Owner": 3175,
      "us": 3176,
      "##ince": 3177,
      "Rest": 3178,
      "Sale": 3179,
      "Conversion": 3180,
      "opp": 3181,
      "##OL": 3182,
      "susp": 3183,
      "owns": 3184,
      "conclusive": 3185,
      "manually": 3186,
      "controvers": 3187,
      "04": 3188,
      "Lessee": 3189,
      "##irm": 3190,
      "CONTR": 3191,
      "restriction": 3192,
      "incorporation": 3193,
      "Incre": 3194,
      "Exposure": 3195,
      "great": 3196,
      "##yste": 3197,
      "obj": 3198,
      "indemnified": 3199,
      "LITIG": 3200,
      "asset": 3201,
      "accrue": 3202,
      "practic": 3203,
      "holders": 3204,
      "##MIN": 3205,
      "##tal": 3206,
      "##raf": 3207,
      "##orting": 3208,
      "Schedules": 3209,
      "preserve": 3210,
      "resign": 3211,
      "Preferred": 3212,
      "promises": 3213,
      "None": 3214,
      "judic": 3215,
      "eligible": 3216,
      "##foli": 3217,
      "lien": 3218,
      "debts": 3219,
      "Options": 3220,
      "Indenture": 3221,
      "decla": 3222,
      "commencing": 3223,
      "##tail": 3224,
      "##OUT": 3225,
      "install": 3226,
      "tele": 3227,
      "listed": 3228,
      "##OF": 3229,
      "minimum": 3230,
      "##AIN": 3231,
      "##folio": 3232,
      "##DI": 3233,
      "partial": 3234,
      "finder": 3235,
      "dividend": 3236,
      "25": 3237,
      "Des": 3238,
      "##eti": 3239,
      "##mium": 3240,
      "Transfer": 3241,
      "reduction": 3242,
      "liens": 3243,
      "##urrency": 3244,
      "forms": 3245,
      "reimbursed": 3246,
      "##inion": 3247,
      "allow": 3248,
      "##prietary": 3249,
      "beneficiary": 3250,
      "LITIGATION": 3251,
      "attemp": 3252,
      "common": 3253,
      "WITHOUT": 3254,
      "reduce": 3255,
      "Disability": 3256,
      "PERMIT": 3257,
      "##IRECTLY": 3258,
      "CONSTRUED": 3259,
      "Proceeding": 3260,
      "includes": 3261,
      "BOR": 3262,
      "alleg": 3263,
      "jurisdictions": 3264,
      "prevailing": 3265,
      "##ordin": 3266,
      "CONTEM": 3267,
      "HAS": 3268,
      "Knowledge": 3269,
      "Rece": 3270,
      "06": 3271,
      "body": 3272,
      "##part": 3273,
      "Director": 3274,
      "according": 3275,
      "fairly": 3276,
      "##truct": 3277,
      "##ORT": 3278,
      "CONN": 3279,
      "trial": 3280,
      "##oting": 3281,
      "involved": 3282,
      "##eth": 3283,
      "exist": 3284,
      "##ROW": 3285,
      "Vesting": 3286,
      "##EST": 3287,
      "Defa": 3288,
      "21": 3289,
      "Claims": 3290,
      "permits": 3291,
      "Holders": 3292,
      "consummated": 3293,
      "management": 3294,
      "200": 3295,
      "substance": 3296,
      "transferred": 3297,
      "nam": 3298,
      "standard": 3299,
      "##omic": 3300,
      "trademark": 3301,
      "deposit": 3302,
      "PERMITTED": 3303,
      "charge": 3304,
      "consolidation": 3305,
      "furnish": 3306,
      "Pledgor": 3307,
      "mortg": 3308,
      "null": 3309,
      "replacement": 3310,
      "Product": 3311,
      "COUN": 3312,
      "Optionee": 3313,
      "investig": 3314,
      "legally": 3315,
      "hour": 3316,
      "##uro": 3317,
      "Stat": 3318,
      "announ": 3319,
      "exercising": 3320,
      "possession": 3321,
      "Pat": 3322,
      "opinion": 3323,
      "Offer": 3324,
      "rise": 3325,
      "quarter": 3326,
      "##up": 3327,
      "##fications": 3328,
      "call": 3329,
      "##iss": 3330,
      "Paragraph": 3331,
      "severance": 3332,
      "##aneous": 3333,
      "##unity": 3334,
      "Addition": 3335,
      "legality": 3336,
      "##ATIVE": 3337,
      "Office": 3338,
      "Action": 3339,
      "PR": 3340,
      "Notices": 3341,
      "patent": 3342,
      "LC": 3343,
      "##ured": 3344,
      "collateral": 3345,
      "##conomic": 3346,
      "recip": 3347,
      "##venue": 3348,
      "determines": 3349,
      "##iti": 3350,
      "##acter": 3351,
      "##ERAL": 3352,
      "US": 3353,
      "Registr": 3354,
      "DOCUMENTS": 3355,
      "associated": 3356,
      "Jan": 3357,
      "##ationally": 3358,
      "##iring": 3359,
      "arise": 3360,
      "judicial": 3361,
      "Fair": 3362,
      "events": 3363,
      "##undred": 3364,
      "designate": 3365,
      "severally": 3366,
      "License": 3367,
      "pledge": 3368,
      "well": 3369,
      "makes": 3370,
      "character": 3371,
      "board": 3372,
      "new": 3373,
      "##enting": 3374,
      "incons": 3375,
      "portfolio": 3376,
      "##ROWER": 3377,
      "Ag": 3378,
      "economic": 3379,
      "##CC": 3380,
      "dispos": 3381,
      "independent": 3382,
      "circumstance": 3383,
      "BORROWER": 3384,
      "borrow": 3385,
      "deductions": 3386,
      "debt": 3387,
      "Association": 3388,
      "##uary": 3389,
      "##ech": 3390,
      "revo": 3391,
      "Design": 3392,
      "##eed": 3393,
      "irrepar": 3394,
      "Report": 3395,
      "forfeited": 3396,
      "Euro": 3397,
      "##IP": 3398,
      "premium": 3399,
      "affiliate": 3400,
      "##ang": 3401,
      "January": 3402,
      "##uting": 3403,
      "##alu": 3404,
      "undertak": 3405,
      "##ectus": 3406,
      "contra": 3407,
      "Representative": 3408,
      "executing": 3409,
      "TRANSACTIONS": 3410,
      "##CON": 3411,
      "##mption": 3412,
      "recipient": 3413,
      "intellectual": 3414,
      "##uty": 3415,
      "##ecti": 3416,
      "##vered": 3417,
      "contempor": 3418,
      "partners": 3419,
      "rendered": 3420,
      "CONTEMPL": 3421,
      "Perc": 3422,
      "##CED": 3423,
      "##onus": 3424,
      "CONTEMPLATED": 3425,
      "duty": 3426,
      "##ida": 3427,
      "Anti": 3428,
      "When": 3429,
      "hereinafter": 3430,
      "##veness": 3431,
      "create": 3432,
      "engage": 3433,
      "CONTRAC": 3434,
      "Ma": 3435,
      "Time": 3436,
      "election": 3437,
      "Incorporation": 3438,
      "##ectiveness": 3439,
      "Percent": 3440,
      "deduction": 3441,
      "risks": 3442,
      "##hes": 3443,
      "increased": 3444,
      "nationally": 3445,
      "rely": 3446,
      "##IL": 3447,
      "responsibility": 3448,
      "things": 3449,
      "served": 3450,
      "prepayment": 3451,
      "accepted": 3452,
      "franch": 3453,
      "assert": 3454,
      "practicable": 3455,
      "draf": 3456,
      "develop": 3457,
      "##lose": 3458,
      "Expenses": 3459,
      "submits": 3460,
      "##ealth": 3461,
      "Registrable": 3462,
      "should": 3463,
      "Defaulting": 3464,
      "flows": 3465,
      "about": 3466,
      "authorizations": 3467,
      "Operating": 3468,
      "##urity": 3469,
      "annum": 3470,
      "##ULL": 3471,
      "##ugh": 3472,
      "##lar": 3473,
      "begin": 3474,
      "suffer": 3475,
      "detail": 3476,
      "profession": 3477,
      "hours": 3478,
      "##odi": 3479,
      "reputable": 3480,
      "participations": 3481,
      "forfeit": 3482,
      "##ught": 3483,
      "notes": 3484,
      "attention": 3485,
      "copyr": 3486,
      "properly": 3487,
      "obtaining": 3488,
      "##aging": 3489,
      "administration": 3490,
      "Polic": 3491,
      "##cumbrances": 3492,
      "regular": 3493,
      "funding": 3494,
      "shown": 3495,
      "understands": 3496,
      "fid": 3497,
      "##uci": 3498,
      "sought": 3499,
      "Obligor": 3500,
      "sitting": 3501,
      "FULL": 3502,
      "##01": 3503,
      "applications": 3504,
      "accountants": 3505,
      "Released": 3506,
      "effectiveness": 3507,
      "exercised": 3508,
      "March": 3509,
      "CLAIMS": 3510,
      "senior": 3511,
      "##TIONALLY": 3512,
      "##ICT": 3513,
      "##ASED": 3514,
      "Series": 3515,
      "multi": 3516,
      "##FI": 3517,
      "##GES": 3518,
      "##ARD": 3519,
      "perfect": 3520,
      "##ERTI": 3521,
      "disability": 3522,
      "Wa": 3523,
      "ending": 3524,
      "Swingline": 3525,
      "self": 3526,
      "##man": 3527,
      "##ister": 3528,
      "names": 3529,
      "Statements": 3530,
      "Placement": 3531,
      "four": 3532,
      "Equival": 3533,
      "ENFORCE": 3534,
      "every": 3535,
      "tr": 3536,
      "typ": 3537,
      "conform": 3538,
      "causes": 3539,
      "executives": 3540,
      "##claim": 3541,
      "subsidiary": 3542,
      "qualification": 3543,
      "##umulative": 3544,
      "data": 3545,
      "##ESS": 3546,
      "changes": 3547,
      "mortgage": 3548,
      "##raud": 3549,
      "AMEND": 3550,
      "confer": 3551,
      "Ext": 3552,
      "Assignor": 3553,
      "CERTI": 3554,
      "Eligible": 3555,
      "Title": 3556,
      "##dated": 3557,
      "##ully": 3558,
      "location": 3559,
      "cumulative": 3560,
      "##rim": 3561,
      "decre": 3562,
      "COURTS": 3563,
      "Al": 3564,
      "##QU": 3565,
      "net": 3566,
      "##limin": 3567,
      "Environmental": 3568,
      "prospective": 3569,
      "##etition": 3570,
      "intention": 3571,
      "Participants": 3572,
      "taking": 3573,
      "June": 3574,
      "Reci": 3575,
      "##pient": 3576,
      "##utory": 3577,
      "acceptance": 3578,
      "##ethod": 3579,
      "Recipient": 3580,
      "pertain": 3581,
      "disclosing": 3582,
      "documentation": 3583,
      "expire": 3584,
      "lie": 3585,
      "continued": 3586,
      "Supplement": 3587,
      "method": 3588,
      "inqu": 3589,
      "Order": 3590,
      "contraven": 3591,
      "fiduci": 3592,
      "Shareholder": 3593,
      "LEG": 3594,
      "Sever": 3595,
      "##ie": 3596,
      "##LED": 3597,
      "counterclaim": 3598,
      "exclusively": 3599,
      "Priority": 3600,
      "close": 3601,
      "##EO": 3602,
      "##ION": 3603,
      "Proper": 3604,
      "##elve": 3605,
      "Warrants": 3606,
      "##og": 3607,
      "commitment": 3608,
      "Benefici": 3609,
      "favorable": 3610,
      "commercially": 3611,
      "irreparable": 3612,
      "AR": 3613,
      "facts": 3614,
      "Unit": 3615,
      "waivers": 3616,
      "EV": 3617,
      "volun": 3618,
      "appeal": 3619,
      "CONTRACT": 3620,
      "From": 3621,
      "##sures": 3622,
      "transmitted": 3623,
      "contemporaneous": 3624,
      "FULLEST": 3625,
      "Purchased": 3626,
      "exists": 3627,
      "alter": 3628,
      "reporting": 3629,
      "twelve": 3630,
      "controversy": 3631,
      "Join": 3632,
      "voting": 3633,
      "assist": 3634,
      "jury": 3635,
      "wire": 3636,
      "##gy": 3637,
      "##onven": 3638,
      "##eng": 3639,
      "Articles": 3640,
      "LEGAL": 3641,
      "American": 3642,
      "##fully": 3643,
      "##eeting": 3644,
      "Princip": 3645,
      "greater": 3646,
      "er": 3647,
      "Companies": 3648,
      "inconven": 3649,
      "Confidentiality": 3650,
      "evidencing": 3651,
      "CONNECTION": 3652,
      "##chan": 3653,
      "appear": 3654,
      "compar": 3655,
      "since": 3656,
      "treat": 3657,
      "disposition": 3658,
      "lieu": 3659,
      "AT": 3660,
      "##utors": 3661,
      "##sions": 3662,
      "##ortunity": 3663,
      "Entities": 3664,
      "Commer": 3665,
      "items": 3666,
      "resignation": 3667,
      "AMENDMENT": 3668,
      "##fies": 3669,
      "incident": 3670,
      "purpor": 3671,
      "##urchase": 3672,
      "Asset": 3673,
      "former": 3674,
      "confirmation": 3675,
      "undertakings": 3676,
      "MAT": 3677,
      "##lus": 3678,
      "##TING": 3679,
      "Capitalized": 3680,
      "rat": 3681,
      "##vation": 3682,
      "administrators": 3683,
      "Additional": 3684,
      "retain": 3685,
      "actually": 3686,
      "portions": 3687,
      "omitted": 3688,
      "Speci": 3689,
      "Waiver": 3690,
      "inconvenient": 3691,
      "VII": 3692,
      "##ral": 3693,
      "cooperation": 3694,
      "mar": 3695,
      "##ciation": 3696,
      "Incentive": 3697,
      "imposition": 3698,
      "Secre": 3699,
      "1934": 3700,
      "##cement": 3701,
      "##ables": 3702,
      "commenced": 3703,
      "Properties": 3704,
      "##olvent": 3705,
      "statutory": 3706,
      "fails": 3707,
      "##ystem": 3708,
      "##ror": 3709,
      "##from": 3710,
      "Exhibits": 3711,
      "attach": 3712,
      "Fund": 3713,
      "TORT": 3714,
      "##ivil": 3715,
      "fax": 3716,
      "fiduciary": 3717,
      "Severance": 3718,
      "##RED": 3719,
      "dom": 3720,
      "stockholder": 3721,
      "##respon": 3722,
      "format": 3723,
      "assume": 3724,
      "##feree": 3725,
      "objection": 3726,
      "comparable": 3727,
      "Agents": 3728,
      "correspon": 3729,
      "dischar": 3730,
      "alleged": 3731,
      "tre": 3732,
      "provides": 3733,
      "Prosp": 3734,
      "Guaranteed": 3735,
      "longer": 3736,
      "Flor": 3737,
      "##estic": 3738,
      "total": 3739,
      "privileges": 3740,
      "Regulation": 3741,
      "cannot": 3742,
      "##KNOW": 3743,
      "second": 3744,
      "##UDG": 3745,
      "Receiv": 3746,
      "JUDG": 3747,
      "500": 3748,
      "violations": 3749,
      "relate": 3750,
      "LIB": 3751,
      "##grams": 3752,
      "Class": 3753,
      "##PER": 3754,
      "##FIC": 3755,
      "periodic": 3756,
      "Arrang": 3757,
      "Florida": 3758,
      "past": 3759,
      "equival": 3760,
      "poten": 3761,
      "Set": 3762,
      "##train": 3763,
      "##airs": 3764,
      "submitted": 3765,
      "reflected": 3766,
      "accurate": 3767,
      "OBL": 3768,
      "done": 3769,
      "##ied": 3770,
      "governing": 3771,
      "##ada": 3772,
      "EXPRES": 3773,
      "##arget": 3774,
      "Advis": 3775,
      "Prospectus": 3776,
      "OBLIG": 3777,
      "EXPRESS": 3778,
      "executors": 3779,
      "government": 3780,
      "capitalized": 3781,
      "directed": 3782,
      "proprietary": 3783,
      "admin": 3784,
      "acco": 3785,
      "access": 3786,
      "##changed": 3787,
      "Year": 3788,
      "fraud": 3789,
      "##pte": 3790,
      "assum": 3791,
      "Septe": 3792,
      "September": 3793,
      "GU": 3794,
      "exa": 3795,
      "prohibit": 3796,
      "installments": 3797,
      "GUAR": 3798,
      "fif": 3799,
      "comb": 3800,
      "intend": 3801,
      "Subscription": 3802,
      "Cause": 3803,
      "Vice": 3804,
      "plus": 3805,
      "alloc": 3806,
      "Retirement": 3807,
      "RIGHTS": 3808,
      "Members": 3809,
      "Work": 3810,
      "##aired": 3811,
      "conte": 3812,
      "owed": 3813,
      "substit": 3814,
      "changed": 3815,
      "telecopy": 3816,
      "##reciation": 3817,
      "##inal": 3818,
      "exce": 3819,
      "entirety": 3820,
      "insurers": 3821,
      "05": 3822,
      "50": 3823,
      "##acy": 3824,
      "Corruption": 3825,
      "deems": 3826,
      "awards": 3827,
      "exchangeable": 3828,
      "controll": 3829,
      "opportunity": 3830,
      "Principal": 3831,
      "context": 3832,
      "den": 3833,
      "operating": 3834,
      "UNCON": 3835,
      "joint": 3836,
      "liquidation": 3837,
      "##DITIONALLY": 3838,
      "Rules": 3839,
      "consequ": 3840,
      "whose": 3841,
      "COMP": 3842,
      "Extension": 3843,
      "LIBOR": 3844,
      "UNCONDITIONALLY": 3845,
      "expressed": 3846,
      "America": 3847,
      "##jority": 3848,
      "##ENCE": 3849,
      "receiving": 3850,
      "Investors": 3851,
      "reduced": 3852,
      "JUDGMENT": 3853,
      "programs": 3854,
      "deem": 3855,
      "Percentage": 3856,
      "Fore": 3857,
      "Contrib": 3858,
      "bind": 3859,
      "ACKNOW": 3860,
      "Counsel": 3861,
      "audited": 3862,
      "ACKNOWLED": 3863,
      "CEO": 3864,
      "##ental": 3865,
      "Fur": 3866,
      "mer": 3867,
      "##app": 3868,
      "delivering": 3869,
      "artic": 3870,
      "Assu": 3871,
      "According": 3872,
      "Attention": 3873,
      "##ordinated": 3874,
      "Further": 3875,
      "these": 3876,
      "mutual": 3877,
      "Annual": 3878,
      "Accordingly": 3879,
      "Covered": 3880,
      "##aches": 3881,
      "status": 3882,
      "##AND": 3883,
      "##arks": 3884,
      "strict": 3885,
      "Ret": 3886,
      "##IVE": 3887,
      "##llary": 3888,
      "##cillary": 3889,
      "Amended": 3890,
      "collection": 3891,
      "deduct": 3892,
      "posting": 3893,
      "Advances": 3894,
      "selected": 3895,
      "lawful": 3896,
      "disclosures": 3897,
      "potential": 3898,
      "##DF": 3899,
      "bylaws": 3900,
      "owner": 3901,
      "##ROM": 3902,
      "advisable": 3903,
      "##echn": 3904,
      "professional": 3905,
      "PDF": 3906,
      "therefrom": 3907,
      "defa": 3908,
      "earned": 3909,
      "contractual": 3910,
      "trustee": 3911,
      "BASED": 3912,
      "CA": 3913,
      "wee": 3914,
      "##lease": 3915,
      "impaired": 3916,
      "##vocation": 3917,
      "singular": 3918,
      "pertaining": 3919,
      "restrain": 3920,
      "CONF": 3921,
      "assessable": 3922,
      "treated": 3923,
      "Line": 3924,
      "##jections": 3925,
      "signing": 3926,
      "breaches": 3927,
      "authorizes": 3928,
      "90": 3929,
      "Current": 3930,
      "##fill": 3931,
      "##reas": 3932,
      "##ana": 3933,
      "##TIVE": 3934,
      "carri": 3935,
      "RELATED": 3936,
      "Original": 3937,
      "##enty": 3938,
      "resolved": 3939,
      "##licit": 3940,
      "##iry": 3941,
      "Payments": 3942,
      "El": 3943,
      "##tarily": 3944,
      "promul": 3945,
      "question": 3946,
      "never": 3947,
      "pros": 3948,
      "##pons": 3949,
      "##ize": 3950,
      "AGAIN": 3951,
      "patents": 3952,
      "Beneficiary": 3953,
      "Secretary": 3954,
      "EXPRESSLY": 3955,
      "AGAINST": 3956,
      "##OING": 3957,
      "accounts": 3958,
      "terminates": 3959,
      "reviewed": 3960,
      "declared": 3961,
      "promulgated": 3962,
      "Broker": 3963,
      "meeting": 3964,
      "##vested": 3965,
      "vii": 3966,
      "questions": 3967,
      "WO": 3968,
      "cease": 3969,
      "Obligation": 3970,
      "register": 3971,
      "FOREG": 3972,
      "attempted": 3973,
      "FOREGOING": 3974,
      "##avor": 3975,
      "##AM": 3976,
      "withholdings": 3977,
      "Approv": 3978,
      "STAT": 3979,
      "THEREOF": 3980,
      "##ULD": 3981,
      "bring": 3982,
      "monetary": 3983,
      "reserved": 3984,
      "Foreign": 3985,
      "recently": 3986,
      "Prior": 3987,
      "dev": 3988,
      "recover": 3989,
      "##CLUD": 3990,
      "plural": 3991,
      "exemp": 3992,
      "Liabilities": 3993,
      "refus": 3994,
      "Management": 3995,
      "confirmed": 3996,
      "confirms": 3997,
      "authorize": 3998,
      "Benefits": 3999,
      "Offering": 4000,
      "percentage": 4001,
      "though": 4002,
      "special": 4003,
      "covering": 4004,
      "FROM": 4005,
      "Treas": 4006,
      "##current": 4007,
      "##zard": 4008,
      "##idence": 4009,
      "Stre": 4010,
      "documented": 4011,
      "relied": 4012,
      "travel": 4013,
      "II": 4014,
      "Sign": 4015,
      "ful": 4016,
      "##AY": 4017,
      "##vider": 4018,
      "Provider": 4019,
      "furtherance": 4020,
      "occurring": 4021,
      "discussions": 4022,
      "Rule": 4023,
      "##irable": 4024,
      "because": 4025,
      "monthly": 4026,
      "schedule": 4027,
      "##CLUDING": 4028,
      "22": 4029,
      "##writ": 4030,
      "##chie": 4031,
      "suc": 4032,
      "injury": 4033,
      "desirable": 4034,
      "Guarantee": 4035,
      "WOULD": 4036,
      "medi": 4037,
      "deed": 4038,
      "ensure": 4039,
      "taxable": 4040,
      "##ISION": 4041,
      "entities": 4042,
      "relie": 4043,
      "Disp": 4044,
      "fulfill": 4045,
      "##eb": 4046,
      "##ecution": 4047,
      "Products": 4048,
      "relates": 4049,
      "refusal": 4050,
      "##istered": 4051,
      "interfere": 4052,
      "chall": 4053,
      "OBLIGATIONS": 4054,
      "CONFL": 4055,
      "succeed": 4056,
      "##pr": 4057,
      "revocation": 4058,
      "indebtedness": 4059,
      "Equivalents": 4060,
      "SO": 4061,
      "sections": 4062,
      "initi": 4063,
      "concurrent": 4064,
      "##cies": 4065,
      "Good": 4066,
      "Subscri": 4067,
      "Requirements": 4068,
      "premiums": 4069,
      "##TEN": 4070,
      "##abor": 4071,
      "##agor": 4072,
      "else": 4073,
      "Mortgagor": 4074,
      "Financing": 4075,
      "##CLUS": 4076,
      "sheet": 4077,
      "FIN": 4078,
      "bro": 4079,
      "ela": 4080,
      "INTER": 4081,
      "twenty": 4082,
      "presently": 4083,
      "multip": 4084,
      "elap": 4085,
      "Lim": 4086,
      "lender": 4087,
      "##oen": 4088,
      "anticip": 4089,
      "Incremental": 4090,
      "##partment": 4091,
      "Subscriber": 4092,
      "Flo": 4093,
      "ine": 4094,
      "secur": 4095,
      "modifications": 4096,
      "endors": 4097,
      "deposited": 4098,
      "Sanction": 4099,
      "trademarks": 4100,
      "##CLUSIVE": 4101,
      "ABL": 4102,
      "list": 4103,
      "##ults": 4104,
      "arbitrators": 4105,
      "continuation": 4106,
      "omit": 4107,
      "Whenever": 4108,
      "type": 4109,
      "##ength": 4110,
      "elapsed": 4111,
      "achie": 4112,
      "##ranche": 4113,
      "participant": 4114,
      "beginning": 4115,
      "equivalent": 4116,
      "while": 4117,
      "receives": 4118,
      "entering": 4119,
      "likely": 4120,
      "Requirement": 4121,
      "##MINIS": 4122,
      "ACKNOWLEDGES": 4123,
      "Legal": 4124,
      "##draw": 4125,
      "INTO": 4126,
      "inquiry": 4127,
      "Nev": 4128,
      "ADMINIS": 4129,
      "Commercial": 4130,
      "Ancillary": 4131,
      "establish": 4132,
      "##REDIT": 4133,
      "Nevada": 4134,
      "##eh": 4135,
      "##vision": 4136,
      "replace": 4137,
      "SUIT": 4138,
      "customarily": 4139,
      "indust": 4140,
      "valu": 4141,
      "##IV": 4142,
      "Exerc": 4143,
      "REG": 4144,
      "consultants": 4145,
      "##FFECT": 4146,
      "copyrights": 4147,
      "CREDIT": 4148,
      "IV": 4149,
      "##hec": 4150,
      "origin": 4151,
      "##alth": 4152,
      "Program": 4153,
      "specify": 4154,
      "acquisition": 4155,
      "articles": 4156,
      "##mptions": 4157,
      "##ousand": 4158,
      "##enewal": 4159,
      "commercial": 4160,
      "Sett": 4161,
      "Street": 4162,
      "ADMINISTR": 4163,
      "length": 4164,
      "##tenant": 4165,
      "performing": 4166,
      "settled": 4167,
      "Sanctioned": 4168,
      "##encies": 4169,
      "##aster": 4170,
      "Coven": 4171,
      "subp": 4172,
      "effectu": 4173,
      "effecting": 4174,
      "dilig": 4175,
      "calculated": 4176,
      "##NI": 4177,
      "##here": 4178,
      "##atural": 4179,
      "##ices": 4180,
      "priority": 4181,
      "country": 4182,
      "negotiate": 4183,
      "adjusted": 4184,
      "redemption": 4185,
      "sound": 4186,
      "##ICH": 4187,
      "delayed": 4188,
      "INDU": 4189,
      "appoint": 4190,
      "instituted": 4191,
      "secrets": 4192,
      "forfeiture": 4193,
      "Sales": 4194,
      "Consent": 4195,
      "PROVISION": 4196,
      "subpoen": 4197,
      "INCLUDING": 4198,
      "health": 4199,
      "##ronting": 4200,
      "absence": 4201,
      "ENTER": 4202,
      "Acquisition": 4203,
      "Regulations": 4204,
      "phys": 4205,
      "inconsistent": 4206,
      "COMPAN": 4207,
      "##wealth": 4208,
      "##edical": 4209,
      "Trademark": 4210,
      "WHICH": 4211,
      "reflect": 4212,
      "Benefit": 4213,
      "National": 4214,
      "##lit": 4215,
      "restricted": 4216,
      "issuable": 4217,
      "previous": 4218,
      "SER": 4219,
      "hol": 4220,
      "##off": 4221,
      "##CI": 4222,
      "##mor": 4223,
      "projections": 4224,
      "##teg": 4225,
      "Real": 4226,
      "##jected": 4227,
      "Bankruptcy": 4228,
      "Commonwealth": 4229,
      "affairs": 4230,
      "assumptions": 4231,
      "situ": 4232,
      "investigations": 4233,
      "nonass": 4234,
      "prompt": 4235,
      "hundred": 4236,
      "natural": 4237,
      "generality": 4238,
      "promise": 4239,
      "calls": 4240,
      "subpoena": 4241,
      "24": 4242,
      "##TOR": 4243,
      "registr": 4244,
      "assignments": 4245,
      "BEEN": 4246,
      "##ipment": 4247,
      "##ised": 4248,
      "##formed": 4249,
      "Maturity": 4250,
      "delegate": 4251,
      "sixty": 4252,
      "Right": 4253,
      "##dul": 4254,
      "unvested": 4255,
      "expired": 4256,
      "setting": 4257,
      "publ": 4258,
      "secu": 4259,
      "tort": 4260,
      "##INGS": 4261,
      "named": 4262,
      "securing": 4263,
      "nonassess": 4264,
      "products": 4265,
      "resolution": 4266,
      "Revenue": 4267,
      "##TIC": 4268,
      "PROPER": 4269,
      "Aggregate": 4270,
      "franchises": 4271,
      "Exercise": 4272,
      "nonassessable": 4273,
      "##ICE": 4274,
      "##enced": 4275,
      "instructions": 4276,
      "##ehic": 4277,
      "Less": 4278,
      "struct": 4279,
      "product": 4280,
      "##tical": 4281,
      "annually": 4282,
      "seeking": 4283,
      "delegated": 4284,
      "DISTR": 4285,
      "##ternative": 4286,
      "holding": 4287,
      "Bonus": 4288,
      "##ton": 4289,
      "##bal": 4290,
      "##lient": 4291,
      "care": 4292,
      "ineffective": 4293,
      "Project": 4294,
      "forec": 4295,
      "remains": 4296,
      "Restric": 4297,
      "licensed": 4298,
      "LLP": 4299,
      "error": 4300,
      "##tinu": 4301,
      "containing": 4302,
      "Restatement": 4303,
      "succeeding": 4304,
      "Settlement": 4305,
      "COMPANY": 4306,
      "##EE": 4307,
      "##SON": 4308,
      "##resenting": 4309,
      "charter": 4310,
      "Licensee": 4311,
      "PERSON": 4312,
      "restated": 4313,
      "DISTRICT": 4314,
      "##uration": 4315,
      "##tenance": 4316,
      "outside": 4317,
      "##ific": 4318,
      "##PUT": 4319,
      "Subtenant": 4320,
      "formation": 4321,
      "commencement": 4322,
      "believes": 4323,
      "Lessor": 4324,
      "Target": 4325,
      "##oy": 4326,
      "##BR": 4327,
      "requiring": 4328,
      "grants": 4329,
      "severable": 4330,
      "accepts": 4331,
      "secure": 4332,
      "##GH": 4333,
      "instance": 4334,
      "authorities": 4335,
      "recordation": 4336,
      "INDEM": 4337,
      "Mortgagee": 4338,
      "Designated": 4339,
      "relieve": 4340,
      "Master": 4341,
      "found": 4342,
      "Indi": 4343,
      "identified": 4344,
      "##UGH": 4345,
      "##lin": 4346,
      "representing": 4347,
      "electronically": 4348,
      "voluntarily": 4349,
      "Receivables": 4350,
      "Fronting": 4351,
      "Nor": 4352,
      "anti": 4353,
      "examin": 4354,
      "doll": 4355,
      "definition": 4356,
      "Expiration": 4357,
      "##IDED": 4358,
      "industry": 4359,
      "Renewal": 4360,
      "duration": 4361,
      "##UM": 4362,
      "##ONG": 4363,
      "priv": 4364,
      "effected": 4365,
      "tes": 4366,
      "##enn": 4367,
      "##employ": 4368,
      "integ": 4369,
      "projected": 4370,
      "##olve": 4371,
      "obs": 4372,
      "description": 4373,
      "financially": 4374,
      "##crip": 4375,
      "possess": 4376,
      "renewed": 4377,
      "Advance": 4378,
      "infringement": 4379,
      "cure": 4380,
      "draw": 4381,
      "secured": 4382,
      "sums": 4383,
      "##ublic": 4384,
      "affects": 4385,
      "##ixed": 4386,
      "attachment": 4387,
      "rata": 4388,
      "retained": 4389,
      "continuance": 4390,
      "SP": 4391,
      "Tranche": 4392,
      "##endi": 4393,
      "##ters": 4394,
      "conditioned": 4395,
      "substantive": 4396,
      "AMONG": 4397,
      "DISPUT": 4398,
      "treatment": 4399,
      "combination": 4400,
      "ADMINISTRATIVE": 4401,
      "##lac": 4402,
      "##encement": 4403,
      "disco": 4404,
      "processing": 4405,
      "substantial": 4406,
      "believe": 4407,
      "commissions": 4408,
      "discharged": 4409,
      "devote": 4410,
      "##endix": 4411,
      "recent": 4412,
      "Commencement": 4413,
      "Terms": 4414,
      "prohibition": 4415,
      "FED": 4416,
      "##TC": 4417,
      "##hold": 4418,
      "illegality": 4419,
      "earliest": 4420,
      "Licensed": 4421,
      "FEDERAL": 4422,
      "Fif": 4423,
      "##ouse": 4424,
      "content": 4425,
      "assessment": 4426,
      "Patent": 4427,
      "MATTER": 4428,
      "registrations": 4429,
      "emb": 4430,
      "diss": 4431,
      "insp": 4432,
      "effectively": 4433,
      "irrevocable": 4434,
      "decisions": 4435,
      "DIRECTLY": 4436,
      "incap": 4437,
      "impro": 4438,
      "adjudic": 4439,
      "offering": 4440,
      "##UAL": 4441,
      "incentive": 4442,
      "replac": 4443,
      "prim": 4444,
      "Internal": 4445,
      "Appendix": 4446,
      "Representatives": 4447,
      "INDIRECTLY": 4448,
      "##rovements": 4449,
      "Plans": 4450,
      "indemnifying": 4451,
      "APP": 4452,
      "##ilding": 4453,
      "Limited": 4454,
      "diligently": 4455,
      "Min": 4456,
      "UCC": 4457,
      "aw": 4458,
      "system": 4459,
      "##ked": 4460,
      "requesting": 4461,
      "surv": 4462,
      "Acquired": 4463,
      "IP": 4464,
      "##minated": 4465,
      "maintenance": 4466,
      "##empor": 4467,
      "Treasury": 4468,
      "07": 4469,
      "##USE": 4470,
      "##tof": 4471,
      "##back": 4472,
      "##erted": 4473,
      "arises": 4474,
      "perman": 4475,
      "##ave": 4476,
      "Register": 4477,
      "loans": 4478,
      "Restated": 4479,
      "defaults": 4480,
      "effectuate": 4481,
      "##tofore": 4482,
      "##ANTOR": 4483,
      "teleph": 4484,
      "MUT": 4485,
      "##lements": 4486,
      "##dian": 4487,
      "Under": 4488,
      "similarly": 4489,
      "practice": 4490,
      "EVENT": 4491,
      "tempor": 4492,
      "Depos": 4493,
      "declar": 4494,
      "PRIN": 4495,
      "improper": 4496,
      "##yn": 4497,
      "##lain": 4498,
      "attrib": 4499,
      "split": 4500,
      "Loss": 4501,
      "Rent": 4502,
      "##ari": 4503,
      "proof": 4504,
      "occup": 4505,
      "##soli": 4506,
      "converted": 4507,
      "Cop": 4508,
      "encumbrances": 4509,
      "deliveries": 4510,
      "repay": 4511,
      "invoice": 4512,
      "partner": 4513,
      "managed": 4514,
      "conveyance": 4515,
      "##morand": 4516,
      "ce": 4517,
      "firm": 4518,
      "employer": 4519,
      "WAIVE": 4520,
      "contribution": 4521,
      "corresponding": 4522,
      "##ehicle": 4523,
      "42": 4524,
      "Mon": 4525,
      "##olo": 4526,
      "produ": 4527,
      "respectively": 4528,
      "truth": 4529,
      "Advisor": 4530,
      "##ponsor": 4531,
      "III": 4532,
      "deri": 4533,
      "##yond": 4534,
      "beyond": 4535,
      "area": 4536,
      "referenced": 4537,
      "invalidate": 4538,
      "Eng": 4539,
      "incidental": 4540,
      "##CIPL": 4541,
      "PRINCIPL": 4542,
      "##national": 4543,
      "pror": 4544,
      "participating": 4545,
      "qualify": 4546,
      "disparage": 4547,
      "situated": 4548,
      "##solidated": 4549,
      "28": 4550,
      "##ECTIVE": 4551,
      "Origin": 4552,
      "dealing": 4553,
      "assuming": 4554,
      "Elect": 4555,
      "REGARD": 4556,
      "##ues": 4557,
      "##ets": 4558,
      "##vity": 4559,
      "##NE": 4560,
      "##utation": 4561,
      "##agement": 4562,
      "manif": 4563,
      "warrant": 4564,
      "Appreciation": 4565,
      "Accru": 4566,
      "protection": 4567,
      "##UNDER": 4568,
      "purported": 4569,
      "##BIT": 4570,
      "Sublease": 4571,
      "notified": 4572,
      "forever": 4573,
      "injunctions": 4574,
      "protest": 4575,
      "PROVIDED": 4576,
      "Deposit": 4577,
      "ra": 4578,
      "##EK": 4579,
      "THEIR": 4580,
      "offset": 4581,
      "SEEK": 4582,
      "announcement": 4583,
      "unchanged": 4584,
      "Reason": 4585,
      "computed": 4586,
      "invo": 4587,
      "remit": 4588,
      "2014": 4589,
      "##duled": 4590,
      "SAR": 4591,
      "##doll": 4592,
      "withdraw": 4593,
      "constituting": 4594,
      "Bylaws": 4595,
      "##dollar": 4596,
      "group": 4597,
      "nine": 4598,
      "##ROUGH": 4599,
      "completed": 4600,
      "support": 4601,
      "360": 4602,
      "revoke": 4603,
      "ATTOR": 4604,
      "##NEY": 4605,
      "ATTORNEY": 4606,
      "Currency": 4607,
      "##inqu": 4608,
      "Instru": 4609,
      "carrying": 4610,
      "omits": 4611,
      "PRINCIPLES": 4612,
      "Outs": 4613,
      "fo": 4614,
      "##irt": 4615,
      "arm": 4616,
      "level": 4617,
      "reliance": 4618,
      "Organization": 4619,
      "CERTIFI": 4620,
      "Dispute": 4621,
      "Accrued": 4622,
      "ina": 4623,
      "program": 4624,
      "##ilit": 4625,
      "##ASE": 4626,
      "several": 4627,
      "omissions": 4628,
      "29": 4629,
      "MAN": 4630,
      "##olly": 4631,
      "Partners": 4632,
      "advisor": 4633,
      "##ocial": 4634,
      "appointed": 4635,
      "08": 4636,
      "Ite": 4637,
      "##teen": 4638,
      "inserted": 4639,
      "Short": 4640,
      "lev": 4641,
      "restrict": 4642,
      "1933": 4643,
      "disparaging": 4644,
      "challen": 4645,
      "aware": 4646,
      "Corporate": 4647,
      "##50": 4648,
      "summ": 4649,
      "ascribed": 4650,
      "##portion": 4651,
      "statutes": 4652,
      "enforcing": 4653,
      "Servicing": 4654,
      "Assumption": 4655,
      "Ju": 4656,
      "elimin": 4657,
      "##ling": 4658,
      "##thern": 4659,
      "aside": 4660,
      "##ulent": 4661,
      "Reserve": 4662,
      "##comp": 4663,
      "fraudulent": 4664,
      "es": 4665,
      "setoff": 4666,
      "##ady": 4667,
      "diligence": 4668,
      "undertaking": 4669,
      "domestic": 4670,
      "temporary": 4671,
      "Bo": 4672,
      "facility": 4673,
      "meas": 4674,
      "surr": 4675,
      "##FICATIONS": 4676,
      "foot": 4677,
      "BROUGH": 4678,
      "Fil": 4679,
      "##MPL": 4680,
      "##uter": 4681,
      "Thousand": 4682,
      "represented": 4683,
      "Investment": 4684,
      "shareholder": 4685,
      "Accounts": 4686,
      "Eurodollar": 4687,
      "Policies": 4688,
      "weeks": 4689,
      "surrender": 4690,
      "BROUGHT": 4691,
      "After": 4692,
      "dil": 4693,
      "scrip": 4694,
      "##sign": 4695,
      "##ention": 4696,
      "##mple": 4697,
      "confidence": 4698,
      "Fees": 4699,
      "virt": 4700,
      "collect": 4701,
      "Managing": 4702,
      "Solvent": 4703,
      "pred": 4704,
      "##yr": 4705,
      "resc": 4706,
      "enc": 4707,
      "consistently": 4708,
      "CAUSE": 4709,
      "May": 4710,
      "Sponsor": 4711,
      "specifying": 4712,
      "ASS": 4713,
      "believed": 4714,
      "evidenced": 4715,
      "##appro": 4716,
      "##oyal": 4717,
      "Electronic": 4718,
      "July": 4719,
      "Apr": 4720,
      "Sur": 4721,
      "Consolidated": 4722,
      "able": 4723,
      "Department": 4724,
      "purchases": 4725,
      "activity": 4726,
      "beneficiaries": 4727,
      "exempt": 4728,
      "April": 4729,
      "##ich": 4730,
      "##payment": 4731,
      "sue": 4732,
      "2018": 4733,
      "Representations": 4734,
      "ENFORCED": 4735,
      "##issible": 4736,
      "Policy": 4737,
      "restraining": 4738,
      "Four": 4739,
      "Mass": 4740,
      "##DA": 4741,
      "adop": 4742,
      "##izations": 4743,
      "direction": 4744,
      "REPRESENTED": 4745,
      "dividends": 4746,
      "23": 4747,
      "Cana": 4748,
      "Ter": 4749,
      "##NER": 4750,
      "Standard": 4751,
      "trading": 4752,
      "awarded": 4753,
      "positions": 4754,
      "brokerage": 4755,
      "WAIVERS": 4756,
      "ISSU": 4757,
      "guarantee": 4758,
      "COUNTER": 4759,
      "structure": 4760,
      "attributable": 4761,
      "gender": 4762,
      "##uf": 4763,
      "##liance": 4764,
      "##lying": 4765,
      "therefore": 4766,
      "compens": 4767,
      "##andatory": 4768,
      "extensions": 4769,
      "##stead": 4770,
      "##notes": 4771,
      "Specified": 4772,
      "footnotes": 4773,
      "Ha": 4774,
      "vote": 4775,
      "##uid": 4776,
      "##udi": 4777,
      "##atis": 4778,
      "##CA": 4779,
      "##kers": 4780,
      "##ential": 4781,
      "##ready": 4782,
      "##inance": 4783,
      "Buyers": 4784,
      "DEL": 4785,
      "administered": 4786,
      "virtue": 4787,
      "##ufact": 4788,
      "##uage": 4789,
      "##ony": 4790,
      "unk": 4791,
      "note": 4792,
      "Subland": 4793,
      "reputation": 4794,
      "sour": 4795,
      "##nown": 4796,
      "implement": 4797,
      "already": 4798,
      "superseded": 4799,
      "Pledge": 4800,
      "##anguage": 4801,
      "Return": 4802,
      "integr": 4803,
      "Copyr": 4804,
      "Canadian": 4805,
      "advice": 4806,
      "Creditor": 4807,
      "RELE": 4808,
      "UNIT": 4809,
      "suffered": 4810,
      "prosecution": 4811,
      "anticipated": 4812,
      "##ificant": 4813,
      "##morandum": 4814,
      "Originator": 4815,
      "manifest": 4816,
      "unknown": 4817,
      "Sublandlord": 4818,
      "throughout": 4819,
      "WILL": 4820,
      "##cumbrance": 4821,
      "Leases": 4822,
      "SUBMIT": 4823,
      "quarterly": 4824,
      "conformity": 4825,
      "WAY": 4826,
      "et": 4827,
      "language": 4828,
      "##tts": 4829,
      "entry": 4830,
      "##ibility": 4831,
      "Licens": 4832,
      "Distrib": 4833,
      "##aneously": 4834,
      "exemption": 4835,
      "assignable": 4836,
      "##usetts": 4837,
      "recovery": 4838,
      "sheets": 4839,
      "Joinder": 4840,
      "##signed": 4841,
      "chec": 4842,
      "rating": 4843,
      "Subordinated": 4844,
      "recording": 4845,
      "Suite": 4846,
      "carried": 4847,
      "multiple": 4848,
      "physical": 4849,
      "CH": 4850,
      "##ores": 4851,
      "##PT": 4852,
      "orally": 4853,
      "##achusetts": 4854,
      "Banks": 4855,
      "seven": 4856,
      "Repurchase": 4857,
      "##UNT": 4858,
      "Grantors": 4859,
      "Lead": 4860,
      "Massachusetts": 4861,
      "Multi": 4862,
      "fe": 4863,
      "ste": 4864,
      "##GE": 4865,
      "retirement": 4866,
      "breached": 4867,
      "Indemnitor": 4868,
      "REPRESENTATIVE": 4869,
      "STATES": 4870,
      "originally": 4871,
      "SERV": 4872,
      "UNITED": 4873,
      "##fers": 4874,
      "##att": 4875,
      "unable": 4876,
      "deliverable": 4877,
      "##ritory": 4878,
      "completion": 4879,
      "Contracts": 4880,
      "borrowing": 4881,
      "VI": 4882,
      "##ino": 4883,
      "respon": 4884,
      "facilit": 4885,
      "Building": 4886,
      "Chair": 4887,
      "Shareholders": 4888,
      "##rimination": 4889,
      "ratably": 4890,
      "DISPUTE": 4891,
      "PUR": 4892,
      "##ug": 4893,
      "majority": 4894,
      "relative": 4895,
      "SECUR": 4896,
      "precedent": 4897,
      "##tructuring": 4898,
      "contravention": 4899,
      "##echnolo": 4900,
      "vehicle": 4901,
      "##ne": 4902,
      "##ric": 4903,
      "##FTER": 4904,
      "##RIT": 4905,
      "appell": 4906,
      "solicit": 4907,
      "preferred": 4908,
      "county": 4909,
      "immediate": 4910,
      "##mbership": 4911,
      "affiliated": 4912,
      "dollars": 4913,
      "dissolution": 4914,
      "inadequate": 4915,
      "appellate": 4916,
      "Fun": 4917,
      "crim": 4918,
      "##75": 4919,
      "transferee": 4920,
      "##ARI": 4921,
      "manager": 4922,
      "comments": 4923,
      "Car": 4924,
      "af": 4925,
      "listing": 4926,
      "remo": 4927,
      "designed": 4928,
      "subsequently": 4929,
      "deno": 4930,
      "permanent": 4931,
      "AAA": 4932,
      "Custom": 4933,
      "Penn": 4934,
      "my": 4935,
      "marks": 4936,
      "##ps": 4937,
      "approve": 4938,
      "import": 4939,
      "resulted": 4940,
      "CERTIFIES": 4941,
      "##RITTEN": 4942,
      "ARE": 4943,
      "She": 4944,
      "undersigned": 4945,
      "Continu": 4946,
      "HEREUNDER": 4947,
      "availability": 4948,
      "acknowledg": 4949,
      "contest": 4950,
      "appoints": 4951,
      "risk": 4952,
      "Annex": 4953,
      "MUTUAL": 4954,
      "Imm": 4955,
      "civil": 4956,
      "##aily": 4957,
      "##gation": 4958,
      "##DE": 4959,
      "THINGS": 4960,
      "##udge": 4961,
      "acknowledged": 4962,
      "Encumbrances": 4963,
      "Consulting": 4964,
      "cancel": 4965,
      "Courts": 4966,
      "One": 4967,
      "estim": 4968,
      "bu": 4969,
      "Costs": 4970,
      "##lobal": 4971,
      "##cluded": 4972,
      "deducted": 4973,
      "Contractor": 4974,
      "using": 4975,
      "contravene": 4976,
      "Floor": 4977,
      "INDUCED": 4978,
      "Fifth": 4979,
      "Client": 4980,
      "Net": 4981,
      "##the": 4982,
      "##isitions": 4983,
      "whereby": 4984,
      "197": 4985,
      "KNOW": 4986,
      "##CLAIM": 4987,
      "202": 4988,
      "Issuers": 4989,
      "restrictive": 4990,
      "sooner": 4991,
      "Increase": 4992,
      "##appropri": 4993,
      "adopted": 4994,
      "##oresaid": 4995,
      "aforesaid": 4996,
      "Mr": 4997,
      "##lv": 4998,
      "##nel": 4999,
      "unf": 5000,
      "heard": 5001,
      "purchased": 5002,
      "International": 5003,
      "designee": 5004,
      "separation": 5005,
      "scheduled": 5006,
      "contributions": 5007,
      "##liminary": 5008,
      "Chairman": 5009,
      "Hundred": 5010,
      "Your": 5011,
      "pass": 5012,
      "##tili": 5013,
      "##andon": 5014,
      "Transition": 5015,
      "Mortgaged": 5016,
      "shor": 5017,
      "defici": 5018,
      "heretofore": 5019,
      "##ORY": 5020,
      "necessity": 5021,
      "abandon": 5022,
      "controlling": 5023,
      "##SO": 5024,
      "incurr": 5025,
      "distributions": 5026,
      "announced": 5027,
      "Licensor": 5028,
      "social": 5029,
      "##igu": 5030,
      "transfers": 5031,
      "prej": 5032,
      "##inancing": 5033,
      "development": 5034,
      "criminal": 5035,
      "HE": 5036,
      "##ob": 5037,
      "knowing": 5038,
      "absent": 5039,
      "##timony": 5040,
      "drafting": 5041,
      "marke": 5042,
      "Arranger": 5043,
      "intends": 5044,
      "private": 5045,
      "testimony": 5046,
      "check": 5047,
      "Civil": 5048,
      "rul": 5049,
      "##quali": 5050,
      "submission": 5051,
      "repurchase": 5052,
      "waiving": 5053,
      "finally": 5054,
      "facilities": 5055,
      "##vidual": 5056,
      "AGREEMENTS": 5057,
      "EXEC": 5058,
      "accelerate": 5059,
      "redee": 5060,
      "CERTIFICATIONS": 5061,
      "assistance": 5062,
      "##zardous": 5063,
      "Individual": 5064,
      "EFFECT": 5065,
      "cas": 5066,
      "vari": 5067,
      "yet": 5068,
      "##ump": 5069,
      "##isten": 5070,
      "##ays": 5071,
      "##igger": 5072,
      "environmental": 5073,
      "issuing": 5074,
      "noncomp": 5075,
      "Develop": 5076,
      "CONSENT": 5077,
      "45": 5078,
      "Feb": 5079,
      "Imp": 5080,
      "did": 5081,
      "##CP": 5082,
      "##bigu": 5083,
      "proportion": 5084,
      "##utor": 5085,
      "##ruary": 5086,
      "simult": 5087,
      "fam": 5088,
      "prepare": 5089,
      "deduc": 5090,
      "letters": 5091,
      "Maker": 5092,
      "Penns": 5093,
      "February": 5094,
      "26": 5095,
      "VOL": 5096,
      "venture": 5097,
      "purchas": 5098,
      "inconsisten": 5099,
      "incapable": 5100,
      "Funding": 5101,
      "Ill": 5102,
      "##OY": 5103,
      "##ancy": 5104,
      "unused": 5105,
      "lawsu": 5106,
      "gives": 5107,
      "determining": 5108,
      "presentment": 5109,
      "1401": 5110,
      "Losses": 5111,
      "VOLUNT": 5112,
      "EMPL": 5113,
      "UP": 5114,
      "##raction": 5115,
      "##Co": 5116,
      "interim": 5117,
      "##ventory": 5118,
      "Prot": 5119,
      "THEREBY": 5120,
      "Alternative": 5121,
      "##employer": 5122,
      "EMPLOY": 5123,
      "##na": 5124,
      "##dent": 5125,
      "##ines": 5126,
      "THAN": 5127,
      "##ANTY": 5128,
      "Withhol": 5129,
      "Margin": 5130,
      "FINAL": 5131,
      "SUBMITS": 5132,
      "##attan": 5133,
      "Global": 5134,
      "bonus": 5135,
      "##ober": 5136,
      "##hattan": 5137,
      "granting": 5138,
      "locations": 5139,
      "committee": 5140,
      "Manhattan": 5141,
      "investments": 5142,
      "Covenants": 5143,
      "Aug": 5144,
      "WAR": 5145,
      "bill": 5146,
      "permissible": 5147,
      "official": 5148,
      "Deed": 5149,
      "##ources": 5150,
      "Indemnitees": 5151,
      "customers": 5152,
      "VIII": 5153,
      "August": 5154,
      "guid": 5155,
      "lay": 5156,
      "##ists": 5157,
      "read": 5158,
      "Coll": 5159,
      "finance": 5160,
      "##IGN": 5161,
      "##TERMIN": 5162,
      "DETERMIN": 5163,
      "PROPERTY": 5164,
      "obser": 5165,
      "ninety": 5166,
      "dilution": 5167,
      "casual": 5168,
      "CF": 5169,
      "Follow": 5170,
      "mas": 5171,
      "medical": 5172,
      "##SS": 5173,
      "##lies": 5174,
      "deferred": 5175,
      "##statement": 5176,
      "enable": 5177,
      "invalidating": 5178,
      "follows": 5179,
      "managing": 5180,
      "ordinance": 5181,
      "perfection": 5182,
      "item": 5183,
      "appointment": 5184,
      "Following": 5185,
      "fre": 5186,
      "encumbrance": 5187,
      "ambigu": 5188,
      "becoming": 5189,
      "telecopier": 5190,
      "However": 5191,
      "Ph": 5192,
      "lump": 5193,
      "##son": 5194,
      "Counter": 5195,
      "distribute": 5196,
      "merged": 5197,
      "inconsistency": 5198,
      "Pension": 5199,
      "fraction": 5200,
      "##UC": 5201,
      "##UE": 5202,
      "##itive": 5203,
      "formed": 5204,
      "life": 5205,
      "Conditions": 5206,
      "serving": 5207,
      "##CEPT": 5208,
      "charged": 5209,
      "levi": 5210,
      "leave": 5211,
      "Char": 5212,
      "LIMIT": 5213,
      "misappropri": 5214,
      "profits": 5215,
      "published": 5216,
      "contents": 5217,
      "Based": 5218,
      "GEN": 5219,
      "fixed": 5220,
      "lack": 5221,
      "rent": 5222,
      "##ylv": 5223,
      "anyone": 5224,
      "##acc": 5225,
      "Inven": 5226,
      "insist": 5227,
      "recorded": 5228,
      "Assigned": 5229,
      "prorated": 5230,
      "Outstanding": 5231,
      "##ARILY": 5232,
      "levied": 5233,
      "##ylvan": 5234,
      "lo": 5235,
      "##iform": 5236,
      "informed": 5237,
      "limits": 5238,
      "Att": 5239,
      "perfected": 5240,
      "penalty": 5241,
      "Multiemployer": 5242,
      "##inois": 5243,
      "Pennsylvan": 5244,
      "Illinois": 5245,
      "Pennsylvania": 5246,
      "Quali": 5247,
      "SIT": 5248,
      "str": 5249,
      "##val": 5250,
      "manage": 5251,
      "Transferee": 5252,
      "updated": 5253,
      "Proceeds": 5254,
      "Memorandum": 5255,
      "365": 5256,
      "Patents": 5257,
      "bon": 5258,
      "##pts": 5259,
      "##where": 5260,
      "##SA": 5261,
      "forward": 5262,
      "##unded": 5263,
      "Excluded": 5264,
      "complain": 5265,
      "##ENS": 5266,
      "198": 5267,
      "marketable": 5268,
      "text": 5269,
      "infringe": 5270,
      "drafted": 5271,
      "COUNTERCLAIM": 5272,
      "rates": 5273,
      "utili": 5274,
      "pursue": 5275,
      "instrumental": 5276,
      "operated": 5277,
      "Defer": 5278,
      "REIT": 5279,
      "leasehold": 5280,
      "##FORM": 5281,
      "phr": 5282,
      "##angible": 5283,
      "margin": 5284,
      "Approvals": 5285,
      "predecess": 5286,
      "VOLUNTARILY": 5287,
      "Withholding": 5288,
      "##02": 5289,
      "##rain": 5290,
      "##PRE": 5291,
      "##sual": 5292,
      "defenses": 5293,
      "acquires": 5294,
      "earn": 5295,
      "MADE": 5296,
      "investors": 5297,
      "plac": 5298,
      "##ILI": 5299,
      "steps": 5300,
      "shorter": 5301,
      "knowingly": 5302,
      "WARR": 5303,
      "Div": 5304,
      "eigh": 5305,
      "hear": 5306,
      "vers": 5307,
      "asp": 5308,
      "notification": 5309,
      "FORUM": 5310,
      "preser": 5311,
      "Corp": 5312,
      "secret": 5313,
      "ARTIC": 5314,
      "appealable": 5315,
      "GUARANTOR": 5316,
      "controlled": 5317,
      "##yndic": 5318,
      "Fourth": 5319,
      "Oct": 5320,
      "Sou": 5321,
      "cases": 5322,
      "##ace": 5323,
      "Color": 5324,
      "Stockholders": 5325,
      "##ORS": 5326,
      "Materials": 5327,
      "contractors": 5328,
      "relying": 5329,
      "##ograph": 5330,
      "laying": 5331,
      "SITTING": 5332,
      "ARTICLE": 5333,
      "Southern": 5334,
      "09": 5335,
      "Balance": 5336,
      "##amp": 5337,
      "##aper": 5338,
      "parent": 5339,
      "consulting": 5340,
      "Review": 5341,
      "personnel": 5342,
      "added": 5343,
      "wholly": 5344,
      "advances": 5345,
      "maintains": 5346,
      "franchise": 5347,
      "Avenue": 5348,
      "Use": 5349,
      "##orough": 5350,
      "##mptly": 5351,
      "##asion": 5352,
      "##loc": 5353,
      "Promptly": 5354,
      "impose": 5355,
      "leases": 5356,
      "reservation": 5357,
      "methods": 5358,
      "October": 5359,
      "OP": 5360,
      "Obligors": 5361,
      "capitalization": 5362,
      "holds": 5363,
      "beneficial": 5364,
      "Post": 5365,
      "COUNTY": 5366,
      "Approval": 5367,
      "PROVISIONS": 5368,
      "Customer": 5369,
      "Dom": 5370,
      "REC": 5371,
      "RSU": 5372,
      "##more": 5373,
      "##ington": 5374,
      "enj": 5375,
      "payee": 5376,
      "##ado": 5377,
      "insurer": 5378,
      "##echnology": 5379,
      "escrow": 5380,
      "##ok": 5381,
      "##RING": 5382,
      "consists": 5383,
      "adver": 5384,
      "afford": 5385,
      "delinqu": 5386,
      "distributed": 5387,
      "declare": 5388,
      "closely": 5389,
      "adjudication": 5390,
      "Colorado": 5391,
      "Lending": 5392,
      "determinations": 5393,
      "relation": 5394,
      "Pledged": 5395,
      "CONFLIC": 5396,
      "North": 5397,
      "Hazardous": 5398,
      "denominated": 5399,
      "##theless": 5400,
      "41": 5401,
      "even": 5402,
      "ge": 5403,
      "##urances": 5404,
      "provider": 5405,
      "failed": 5406,
      "prepay": 5407,
      "calculation": 5408,
      "developed": 5409,
      "primary": 5410,
      "declaration": 5411,
      "truthful": 5412,
      "DETERMINED": 5413,
      "27": 5414,
      "Gro": 5415,
      "WRITTEN": 5416,
      "sti": 5417,
      "##aterial": 5418,
      "ende": 5419,
      "##ords": 5420,
      "maturity": 5421,
      "assurances": 5422,
      "claiming": 5423,
      "captions": 5424,
      "followed": 5425,
      "originals": 5426,
      "assessed": 5427,
      "ground": 5428,
      "exception": 5429,
      "SERVICE": 5430,
      "redeem": 5431,
      "utiliz": 5432,
      "Ear": 5433,
      "##WE": 5434,
      "##entions": 5435,
      "assigning": 5436,
      "violates": 5437,
      "Accounting": 5438,
      "ENFORCEMENT": 5439,
      "allocation": 5440,
      "INDEMNI": 5441,
      "49": 5442,
      "##lish": 5443,
      "instead": 5444,
      "##antom": 5445,
      "compr": 5446,
      "returned": 5447,
      "convert": 5448,
      "trustees": 5449,
      "indemnities": 5450,
      "ARBIT": 5451,
      "CONFLICT": 5452,
      "casualty": 5453,
      "advertis": 5454,
      "ARBITR": 5455,
      "Tw": 5456,
      "national": 5457,
      "occasion": 5458,
      "COLL": 5459,
      "Funds": 5460,
      "administer": 5461,
      "levies": 5462,
      "instrumentality": 5463,
      "CONFLICTS": 5464,
      "He": 5465,
      "inventions": 5466,
      "purchasing": 5467,
      "recoup": 5468,
      "customer": 5469,
      "presu": 5470,
      "Acquir": 5471,
      "##culine": 5472,
      "INTERPRE": 5473,
      "Items": 5474,
      "Copyright": 5475,
      "UPON": 5476,
      "masculine": 5477,
      "Avail": 5478,
      "##VEN": 5479,
      "##art": 5480,
      "##ick": 5481,
      "##illion": 5482,
      "##endit": 5483,
      "##ferences": 5484,
      "##demnation": 5485,
      "Liability": 5486,
      "misstatement": 5487,
      "absolutely": 5488,
      "revoked": 5489,
      "consequences": 5490,
      "foreclosure": 5491,
      "Development": 5492,
      "Domestic": 5493,
      "series": 5494,
      "##aff": 5495,
      "##iqu": 5496,
      "##vement": 5497,
      "##urate": 5498,
      "exc": 5499,
      "2013": 5500,
      "individuals": 5501,
      "allowed": 5502,
      "embodi": 5503,
      "Underwrit": 5504,
      "MANNER": 5505,
      "Surv": 5506,
      "bar": 5507,
      "holid": 5508,
      "##sey": 5509,
      "ado": 5510,
      "##THING": 5511,
      "equally": 5512,
      "breaching": 5513,
      "Disbur": 5514,
      "Support": 5515,
      "Contractual": 5516,
      "portable": 5517,
      "SET": 5518,
      "GUARANTY": 5519,
      "telephone": 5520,
      "abandoned": 5521,
      "##qualified": 5522,
      "noncompliance": 5523,
      "Jer": 5524,
      "##credit": 5525,
      "##JECT": 5526,
      "##vember": 5527,
      "##minine": 5528,
      "November": 5529,
      "materiality": 5530,
      "Income": 5531,
      "continues": 5532,
      "144": 5533,
      "auditors": 5534,
      "feminine": 5535,
      "##creditor": 5536,
      "NON": 5537,
      "##URE": 5538,
      "##upon": 5539,
      "stay": 5540,
      "repaid": 5541,
      "##INGLY": 5542,
      "lists": 5543,
      "nevertheless": 5544,
      "inspection": 5545,
      "marketing": 5546,
      "La": 5547,
      "Ohi": 5548,
      "daily": 5549,
      "how": 5550,
      "##ield": 5551,
      "##zation": 5552,
      "proc": 5553,
      "defer": 5554,
      "unlaw": 5555,
      "seq": 5556,
      "##ystems": 5557,
      "Joint": 5558,
      "##oyalty": 5559,
      "geograph": 5560,
      "endeavor": 5561,
      "Ohio": 5562,
      "chief": 5563,
      "num": 5564,
      "##orrect": 5565,
      "incorrect": 5566,
      "refrain": 5567,
      "identity": 5568,
      "180": 5569,
      "##udice": 5570,
      "prejudice": 5571,
      "recoupment": 5572,
      "Acquiror": 5573,
      "Borough": 5574,
      "##MS": 5575,
      "##ole": 5576,
      "##ging": 5577,
      "matured": 5578,
      "elects": 5579,
      "Releasees": 5580,
      "paragraphs": 5581,
      "accordingly": 5582,
      "Arrangers": 5583,
      "Furthermore": 5584,
      "Standards": 5585,
      "Jersey": 5586,
      "Labor": 5587,
      "Rata": 5588,
      "ess": 5589,
      "pru": 5590,
      "##RA": 5591,
      "##aring": 5592,
      "Ref": 5593,
      "discon": 5594,
      "certification": 5595,
      "designation": 5596,
      "interpretations": 5597,
      "rendering": 5598,
      "showing": 5599,
      "incurs": 5600,
      "media": 5601,
      "Restrictive": 5602,
      "surviving": 5603,
      "unfavor": 5604,
      "##gies": 5605,
      "##itness": 5606,
      "##cements": 5607,
      "##uman": 5608,
      "preliminary": 5609,
      "Employees": 5610,
      "PERFORM": 5611,
      "Dollar": 5612,
      "Convertible": 5613,
      "SUBJECT": 5614,
      "guarantor": 5615,
      "source": 5616,
      "deficiency": 5617,
      "frequ": 5618,
      "##ltim": 5619,
      "##AFTER": 5620,
      "##orne": 5621,
      "##abled": 5622,
      "arre": 5623,
      "Proprietary": 5624,
      "##ICA": 5625,
      "altered": 5626,
      "BET": 5627,
      "accelerated": 5628,
      "exceeds": 5629,
      "transmit": 5630,
      "attempt": 5631,
      "furnishing": 5632,
      "Majority": 5633,
      "##FIED": 5634,
      "elsewhere": 5635,
      "ceases": 5636,
      "Returns": 5637,
      "simultaneously": 5638,
      "33": 5639,
      "Bro": 5640,
      "LE": 5641,
      "rental": 5642,
      "ultim": 5643,
      "##FER": 5644,
      "prove": 5645,
      "depart": 5646,
      "subdi": 5647,
      "obligate": 5648,
      "equipment": 5649,
      "meet": 5650,
      "HEREAFTER": 5651,
      "##self": 5652,
      "Authorities": 5653,
      "cancelled": 5654,
      "DEF": 5655,
      "association": 5656,
      "strictly": 5657,
      "broad": 5658,
      "discovery": 5659,
      "ruling": 5660,
      "##WEEN": 5661,
      "unlawful": 5662,
      "unfavorable": 5663,
      "BETWEEN": 5664,
      "Either": 5665,
      "Fiscal": 5666,
      "GIV": 5667,
      "im": 5668,
      "##EX": 5669,
      "##acted": 5670,
      "##ordination": 5671,
      "INC": 5672,
      "EXCLUSIVE": 5673,
      "NOW": 5674,
      "discussed": 5675,
      "standards": 5676,
      "challenges": 5677,
      "integrated": 5678,
      "prudent": 5679,
      "anal": 5680,
      "lawfully": 5681,
      "manufact": 5682,
      "HEREOF": 5683,
      "##certain": 5684,
      "suspension": 5685,
      "decrees": 5686,
      "family": 5687,
      "Dividend": 5688,
      "subdivision": 5689,
      "Back": 5690,
      "Final": 5691,
      "##EL": 5692,
      "##ower": 5693,
      "defending": 5694,
      "issues": 5695,
      "view": 5696,
      "spouse": 5697,
      "improvements": 5698,
      "successive": 5699,
      "Noteholder": 5700,
      "credited": 5701,
      "Indemnification": 5702,
      "offers": 5703,
      "Pool": 5704,
      "fifteen": 5705,
      "Organizational": 5706,
      "JAM": 5707,
      "Mary": 5708,
      "consultant": 5709,
      "computing": 5710,
      "competition": 5711,
      "##ference": 5712,
      "NOTHING": 5713,
      "FORTH": 5714,
      "Facilities": 5715,
      "identification": 5716,
      "trigger": 5717,
      "deriv": 5718,
      "KNOWINGLY": 5719,
      "HEARD": 5720,
      "BRING": 5721,
      "experi": 5722,
      "doing": 5723,
      "##itals": 5724,
      "supplements": 5725,
      "NEG": 5726,
      "copyright": 5727,
      "Reviewer": 5728,
      "arrears": 5729,
      "JAMS": 5730,
      "Maryland": 5731,
      "OTC": 5732,
      "Public": 5733,
      "subordinated": 5734,
      "Selling": 5735,
      "Uniform": 5736,
      "##troll": 5737,
      "Indemnifying": 5738,
      "comment": 5739,
      "accuracy": 5740,
      "correspond": 5741,
      "response": 5742,
      "PSUs": 5743,
      "##mer": 5744,
      "##charge": 5745,
      "expires": 5746,
      "some": 5747,
      "##earch": 5748,
      "convenient": 5749,
      "accepting": 5750,
      "inducement": 5751,
      "ple": 5752,
      "##currency": 5753,
      "##CESS": 5754,
      "##ater": 5755,
      "consecutive": 5756,
      "ORAL": 5757,
      "taxing": 5758,
      "Intercreditor": 5759,
      "##ota": 5760,
      "Debenture": 5761,
      "assumed": 5762,
      "assumption": 5763,
      "functions": 5764,
      "pledged": 5765,
      "controversies": 5766,
      "##issory": 5767,
      "##naire": 5768,
      "enjoin": 5769,
      "Sa": 5770,
      "sm": 5771,
      "veri": 5772,
      "##ME": 5773,
      "Inventory": 5774,
      "files": 5775,
      "dispose": 5776,
      "increases": 5777,
      "Permits": 5778,
      "##tibles": 5779,
      "investigative": 5780,
      "brokers": 5781,
      "withdrawal": 5782,
      "##ris": 5783,
      "##rong": 5784,
      "##vance": 5785,
      "Controll": 5786,
      "REQU": 5787,
      "##ECTED": 5788,
      "Records": 5789,
      "comes": 5790,
      "open": 5791,
      "called": 5792,
      "consequence": 5793,
      "deductibles": 5794,
      "##enditures": 5795,
      "Cent": 5796,
      "System": 5797,
      "lending": 5798,
      "sk": 5799,
      "##bun": 5800,
      "##fin": 5801,
      "##EES": 5802,
      "##lier": 5803,
      "##iche": 5804,
      "##acti": 5805,
      "comprom": 5806,
      "involun": 5807,
      "addres": 5808,
      "Resources": 5809,
      "HEREIN": 5810,
      "##apers": 5811,
      "Country": 5812,
      "domain": 5813,
      "departure": 5814,
      "Well": 5815,
      "flo": 5816,
      "ver": 5817,
      "##SP": 5818,
      "inacc": 5819,
      "##ather": 5820,
      "##itholder": 5821,
      "paying": 5822,
      "##ANK": 5823,
      "199": 5824,
      "contribute": 5825,
      "oppos": 5826,
      "opinions": 5827,
      "MATER": 5828,
      "substitute": 5829,
      "concurrently": 5830,
      "APPE": 5831,
      "Minn": 5832,
      "AB": 5833,
      "##DUC": 5834,
      "connected": 5835,
      "Should": 5836,
      "Unitholder": 5837,
      "leased": 5838,
      "##UTED": 5839,
      "RESPECTIVE": 5840,
      "decrease": 5841,
      "aspect": 5842,
      "MATERIAL": 5843,
      "BANK": 5844,
      "ke": 5845,
      "##ak": 5846,
      "accumul": 5847,
      "recapital": 5848,
      "assignees": 5849,
      "PROCESS": 5850,
      "162": 5851,
      "reflecting": 5852,
      "liquidated": 5853,
      "Junior": 5854,
      "Signatures": 5855,
      "GENERAL": 5856,
      "##bunal": 5857,
      "kept": 5858,
      "Modi": 5859,
      "##IED": 5860,
      "##WI": 5861,
      "##onic": 5862,
      "##reg": 5863,
      "##rep": 5864,
      "##enth": 5865,
      "##ina": 5866,
      "##orld": 5867,
      "inoper": 5868,
      "super": 5869,
      "extr": 5870,
      "##verage": 5871,
      "reset": 5872,
      "subro": 5873,
      "##orporations": 5874,
      "EXCEPT": 5875,
      "Total": 5876,
      "placement": 5877,
      "Eurocurrency": 5878,
      "assumes": 5879,
      "Inventions": 5880,
      "DAM": 5881,
      "borne": 5882,
      "mach": 5883,
      "ter": 5884,
      "##bear": 5885,
      "insure": 5886,
      "THEORY": 5887,
      "lead": 5888,
      "lesser": 5889,
      "sells": 5890,
      "401": 5891,
      "rati": 5892,
      "inoperative": 5893,
      "DAMA": 5894,
      "DEM": 5895,
      "adequ": 5896,
      "witness": 5897,
      "##pted": 5898,
      "##irc": 5899,
      "applicability": 5900,
      "##ensurate": 5901,
      "##tending": 5902,
      "involve": 5903,
      "commensurate": 5904,
      "Transferred": 5905,
      "##ustodi": 5906,
      "Matters": 5907,
      "2019": 5908,
      "alone": 5909,
      "creditor": 5910,
      "120": 5911,
      "ACTIONS": 5912,
      "Discharge": 5913,
      "recognition": 5914,
      "Practi": 5915,
      "drawn": 5916,
      "invoices": 5917,
      "predecessors": 5918,
      "procure": 5919,
      "DEMAND": 5920,
      "Di": 5921,
      "Health": 5922,
      "NY": 5923,
      "Pur": 5924,
      "wrong": 5925,
      "##onor": 5926,
      "##ined": 5927,
      "##ale": 5928,
      "units": 5929,
      "##quar": 5930,
      "resolve": 5931,
      "##resp": 5932,
      "underwrit": 5933,
      "appra": 5934,
      "applies": 5935,
      "stop": 5936,
      "Participating": 5937,
      "##umbered": 5938,
      "CONCLUSIVE": 5939,
      "refund": 5940,
      "Within": 5941,
      "prescribed": 5942,
      "Proceedings": 5943,
      "Spin": 5944,
      "needs": 5945,
      "EVID": 5946,
      "voluntary": 5947,
      "Counterpar": 5948,
      "GIVING": 5949,
      "small": 5950,
      "Bas": 5951,
      "VEN": 5952,
      "##rid": 5953,
      "##gen": 5954,
      "##plic": 5955,
      "##itor": 5956,
      "Proced": 5957,
      "writings": 5958,
      "invalidated": 5959,
      "2010": 5960,
      "accruing": 5961,
      "preempted": 5962,
      "Transferor": 5963,
      "##ILITY": 5964,
      "Wh": 5965,
      "##argo": 5966,
      "come": 5967,
      "active": 5968,
      "appreciation": 5969,
      "##ligibility": 5970,
      "exper": 5971,
      "##oftw": 5972,
      "duplic": 5973,
      "##THERN": 5974,
      "entitle": 5975,
      "negative": 5976,
      "##inances": 5977,
      "advised": 5978,
      "Equipment": 5979,
      "ordinances": 5980,
      "decreased": 5981,
      "alteration": 5982,
      "examination": 5983,
      "Territory": 5984,
      "removal": 5985,
      "derivative": 5986,
      "addressee": 5987,
      "Wells": 5988,
      "##WITH": 5989,
      "##oftware": 5990,
      "Five": 5991,
      "dim": 5992,
      "labor": 5993,
      "##mpanied": 5994,
      "underlying": 5995,
      "##medi": 5996,
      "##IND": 5997,
      "significant": 5998,
      "expression": 5999,
      "Chan": 6000,
      "CONTRO": 6001,
      "restatement": 6002,
      "appearing": 6003,
      "accompanied": 6004,
      "accumulated": 6005,
      "ever": 6006,
      "##cting": 6007,
      "##just": 6008,
      "##esota": 6009,
      "conferred": 6010,
      "forty": 6011,
      "##venth": 6012,
      "fines": 6013,
      "whiche": 6014,
      "forma": 6015,
      "AGREE": 6016,
      "receipts": 6017,
      "maintaining": 6018,
      "banker": 6019,
      "DEAL": 6020,
      "organizations": 6021,
      "allocated": 6022,
      "rescin": 6023,
      "frequently": 6024,
      "Minnesota": 6025,
      "VENUE": 6026,
      "whichever": 6027,
      "AFF": 6028,
      "ABR": 6029,
      "Data": 6030,
      "Fran": 6031,
      "PB": 6032,
      "Ques": 6033,
      "##tionnaire": 6034,
      "delivers": 6035,
      "entirely": 6036,
      "unconditional": 6037,
      "Prime": 6038,
      "profit": 6039,
      "viii": 6040,
      "occupancy": 6041,
      "Refinancing": 6042,
      "dimin": 6043,
      "rescinded": 6044,
      "Questionnaire": 6045,
      "Ge": 6046,
      "Hed": 6047,
      "IX": 6048,
      "mark": 6049,
      "tender": 6050,
      "##ism": 6051,
      "##active": 6052,
      "receiver": 6053,
      "charitable": 6054,
      "excluded": 6055,
      "seeks": 6056,
      "beneficially": 6057,
      "offered": 6058,
      "suspend": 6059,
      "250": 6060,
      "valuation": 6061,
      "wages": 6062,
      "##atever": 6063,
      "##eria": 6064,
      "agencies": 6065,
      "save": 6066,
      "consented": 6067,
      "whatever": 6068,
      "describ": 6069,
      "elected": 6070,
      "Regulatory": 6071,
      "regularly": 6072,
      "week": 6073,
      "##ricted": 6074,
      "lawsuit": 6075,
      "observance": 6076,
      "machine": 6077,
      "##ustodian": 6078,
      "Key": 6079,
      "Port": 6080,
      "back": 6081,
      "##IVER": 6082,
      "##itles": 6083,
      "##state": 6084,
      "##stricted": 6085,
      "Add": 6086,
      "forthwith": 6087,
      "##riteria": 6088,
      "definitions": 6089,
      "Investments": 6090,
      "subsections": 6091,
      "JURISDICTIONS": 6092,
      "tribunal": 6093,
      "Debtors": 6094,
      "Covenant": 6095,
      "replaces": 6096,
      "incurring": 6097,
      "purchaser": 6098,
      "correspondence": 6099,
      "apprais": 6100,
      "##lation": 6101,
      "##SY": 6102,
      "##let": 6103,
      "REFER": 6104,
      "neuter": 6105,
      "immaterial": 6106,
      "Events": 6107,
      "COURSE": 6108,
      "promote": 6109,
      "mutatis": 6110,
      "indefin": 6111,
      "##SEL": 6112,
      "summary": 6113,
      "ASSIGN": 6114,
      "fractional": 6115,
      "delinquent": 6116,
      "##respective": 6117,
      "EVIDENCE": 6118,
      "indefinite": 6119,
      "AFFECT": 6120,
      "Fargo": 6121,
      "Medical": 6122,
      "##onoun": 6123,
      "##organ": 6124,
      "short": 6125,
      "##astern": 6126,
      "Exce": 6127,
      "Install": 6128,
      "##titution": 6129,
      "pronoun": 6130,
      "head": 6131,
      "196": 6132,
      "division": 6133,
      "prospects": 6134,
      "##ternate": 6135,
      "INDEMN": 6136,
      "CHO": 6137,
      "EXECUTED": 6138,
      "Improvements": 6139,
      "earnings": 6140,
      "Disbursement": 6141,
      "Body": 6142,
      "si": 6143,
      "##urer": 6144,
      "assure": 6145,
      "nomin": 6146,
      "##tries": 6147,
      "timing": 6148,
      "##tainment": 6149,
      "##venues": 6150,
      "violated": 6151,
      "##AIL": 6152,
      "along": 6153,
      "Releas": 6154,
      "##UND": 6155,
      "Accept": 6156,
      "book": 6157,
      "COMM": 6158,
      "COUNSEL": 6159,
      "Equivalent": 6160,
      "accomp": 6161,
      "lenders": 6162,
      "replaced": 6163,
      "##ique": 6164,
      "EQU": 6165,
      "Finance": 6166,
      "Ho": 6167,
      "Judg": 6168,
      "Max": 6169,
      "Vir": 6170,
      "paper": 6171,
      "sending": 6172,
      "##vis": 6173,
      "once": 6174,
      "issuer": 6175,
      "##andis": 6176,
      "prin": 6177,
      "instructed": 6178,
      "engagement": 6179,
      "mutandis": 6180,
      "THERETO": 6181,
      "dealings": 6182,
      "SOU": 6183,
      "achieve": 6184,
      "DELIVER": 6185,
      "strate": 6186,
      "Virgin": 6187,
      "Human": 6188,
      "Quarter": 6189,
      "Vested": 6190,
      "##over": 6191,
      "##itially": 6192,
      "##IOR": 6193,
      "##GC": 6194,
      "instances": 6195,
      "rein": 6196,
      "retro": 6197,
      "conce": 6198,
      "mature": 6199,
      "Participation": 6200,
      "owners": 6201,
      "nonp": 6202,
      "irrespective": 6203,
      "leasing": 6204,
      "##LLER": 6205,
      "presented": 6206,
      "Consenting": 6207,
      "reserve": 6208,
      "canceled": 6209,
      "identifying": 6210,
      "guaranty": 6211,
      "SELLER": 6212,
      "select": 6213,
      "greatest": 6214,
      "Special": 6215,
      "endorsements": 6216,
      "SECURITY": 6217,
      "##bearance": 6218,
      "Installment": 6219,
      "32": 6220,
      "Six": 6221,
      "currency": 6222,
      "restructuring": 6223,
      "##osen": 6224,
      "defam": 6225,
      "Amounts": 6226,
      "##ARE": 6227,
      "takes": 6228,
      "communicated": 6229,
      "acquiring": 6230,
      "##contr": 6231,
      "latest": 6232,
      "settle": 6233,
      "Payee": 6234,
      "consultation": 6235,
      "passage": 6236,
      "guidance": 6237,
      "hearing": 6238,
      "ARBITRATION": 6239,
      "SOUTHERN": 6240,
      "mandatory": 6241,
      "##lack": 6242,
      "uns": 6243,
      "unique": 6244,
      "expenditures": 6245,
      "vice": 6246,
      "interpreting": 6247,
      "traded": 6248,
      "##LLATE": 6249,
      "##ABILITY": 6250,
      "advisory": 6251,
      "banking": 6252,
      "Distribution": 6253,
      "Protection": 6254,
      "APPELLATE": 6255,
      "Basic": 6256,
      "35": 6257,
      "Mo": 6258,
      "##mmod": 6259,
      "disposed": 6260,
      "counterparty": 6261,
      "useful": 6262,
      "##cery": 6263,
      "Facsimile": 6264,
      "deposits": 6265,
      "publish": 6266,
      "solicitation": 6267,
      "Attn": 6268,
      "##VENI": 6269,
      "recapitalization": 6270,
      "Chancery": 6271,
      "Eastern": 6272,
      "GR": 6273,
      "der": 6274,
      "##ken": 6275,
      "prox": 6276,
      "##ided": 6277,
      "##license": 6278,
      "stamp": 6279,
      "protected": 6280,
      "undertake": 6281,
      "evalu": 6282,
      "achievement": 6283,
      "providers": 6284,
      "excise": 6285,
      "##quarters": 6286,
      "indefinitely": 6287,
      "papers": 6288,
      "##bers": 6289,
      "##RI": 6290,
      "##HIP": 6291,
      "initially": 6292,
      "##lief": 6293,
      "##stain": 6294,
      "parts": 6295,
      "Relief": 6296,
      "##tentions": 6297,
      "##ARY": 6298,
      "communicate": 6299,
      "institution": 6300,
      "discharges": 6301,
      "fifth": 6302,
      "AFFILI": 6303,
      "Virginia": 6304,
      "nonpublic": 6305,
      "Out": 6306,
      "Ro": 6307,
      "Ste": 6308,
      "eligibility": 6309,
      "##ics": 6310,
      "##olina": 6311,
      "##del": 6312,
      "Adjust": 6313,
      "prepar": 6314,
      "discrimination": 6315,
      "spin": 6316,
      "membership": 6317,
      "discretionary": 6318,
      "corre": 6319,
      "Receivable": 6320,
      "fulfillment": 6321,
      "eliminate": 6322,
      "Filing": 6323,
      "##yndication": 6324,
      "Modification": 6325,
      "software": 6326,
      "web": 6327,
      "##mn": 6328,
      "disse": 6329,
      "Affiliated": 6330,
      "arbitral": 6331,
      "complies": 6332,
      "COBR": 6333,
      "separately": 6334,
      "Agency": 6335,
      "Carolina": 6336,
      "analys": 6337,
      "skill": 6338,
      "subrogation": 6339,
      "COBRA": 6340,
      "FUR": 6341,
      "##PO": 6342,
      "##EVER": 6343,
      "Int": 6344,
      "protective": 6345,
      "##FORE": 6346,
      "conveniens": 6347,
      "NOTE": 6348,
      "Operative": 6349,
      "Instrument": 6350,
      "facilitating": 6351,
      "inaccur": 6352,
      "headquarters": 6353,
      "CL": 6354,
      "Gather": 6355,
      "MO": 6356,
      "Mandatory": 6357,
      "Since": 6358,
      "VAL": 6359,
      "West": 6360,
      "gain": 6361,
      "pun": 6362,
      "##EA": 6363,
      "##org": 6364,
      "reformed": 6365,
      "revenues": 6366,
      "condemnation": 6367,
      "exhibit": 6368,
      "noted": 6369,
      "##irms": 6370,
      "##outh": 6371,
      "##resentation": 6372,
      "Employers": 6373,
      "##elines": 6374,
      "##ediately": 6375,
      "faithfully": 6376,
      "ITSEL": 6377,
      "relationships": 6378,
      "appears": 6379,
      "invoic": 6380,
      "Immediately": 6381,
      "complaint": 6382,
      "flood": 6383,
      "Judgment": 6384,
      "ITSELF": 6385,
      "Black": 6386,
      "LTI": 6387,
      "bad": 6388,
      "techn": 6389,
      "titles": 6390,
      "##ha": 6391,
      "##jun": 6392,
      "exchanged": 6393,
      "propos": 6394,
      "##own": 6395,
      "claimed": 6396,
      "signs": 6397,
      "poli": 6398,
      "Prepayment": 6399,
      "workers": 6400,
      "misrep": 6401,
      "legis": 6402,
      "tenant": 6403,
      "uses": 6404,
      "suspending": 6405,
      "CONNECTED": 6406,
      "fifty": 6407,
      "##entioned": 6408,
      "CONTROVER": 6409,
      "retroactive": 6410,
      "DIP": 6411,
      "Red": 6412,
      "corporations": 6413,
      "petition": 6414,
      "##ii": 6415,
      "##VING": 6416,
      "##ries": 6417,
      "computer": 6418,
      "executes": 6419,
      "quot": 6420,
      "phantom": 6421,
      "##irmation": 6422,
      "ratable": 6423,
      "Contribution": 6424,
      "measures": 6425,
      "Filings": 6426,
      "CONSENTS": 6427,
      "numbers": 6428,
      "Practices": 6429,
      "simple": 6430,
      "derog": 6431,
      "Fail": 6432,
      "Mich": 6433,
      "Technology": 6434,
      "Where": 6435,
      "cured": 6436,
      "lend": 6437,
      "sustain": 6438,
      "retention": 6439,
      "OFAC": 6440,
      "prices": 6441,
      "releasing": 6442,
      "##ott": 6443,
      "investor": 6444,
      "Acquisitions": 6445,
      "identical": 6446,
      "APPLICATION": 6447,
      "accommod": 6448,
      "Contributions": 6449,
      "deeds": 6450,
      "initiated": 6451,
      "produce": 6452,
      "Two": 6453,
      "triggered": 6454,
      "DAMAGES": 6455,
      "wrongful": 6456,
      "CHOICE": 6457,
      "Aut": 6458,
      "Bri": 6459,
      "CASE": 6460,
      "Ener": 6461,
      "Gre": 6462,
      "hig": 6463,
      "systems": 6464,
      "##POR": 6465,
      "inform": 6466,
      "##lim": 6467,
      "##ders": 6468,
      "respecting": 6469,
      "compell": 6470,
      "INV": 6471,
      "alternative": 6472,
      "collected": 6473,
      "##SEQU": 6474,
      "dealt": 6475,
      "##ULES": 6476,
      "substitution": 6477,
      "INDUCE": 6478,
      "APPLY": 6479,
      "advertising": 6480,
      "presumption": 6481,
      "INTERPRETED": 6482,
      "##DUCT": 6483,
      "PBGC": 6484,
      "Maximum": 6485,
      "FURTHER": 6486,
      "political": 6487,
      "CONTROVERSY": 6488,
      "Failure": 6489,
      "South": 6490,
      "fire": 6491,
      "nd": 6492,
      "sw": 6493,
      "##11": 6494,
      "##OG": 6495,
      "##IES": 6496,
      "##orage": 6497,
      "motion": 6498,
      "Litigation": 6499,
      "advise": 6500,
      "##feas": 6501,
      "##ULT": 6502,
      "LENDERS": 6503,
      "USA": 6504,
      "SARs": 6505,
      "Continuation": 6506,
      "afforded": 6507,
      "quotation": 6508,
      "75": 6509,
      "BUT": 6510,
      "home": 6511,
      "##otion": 6512,
      "##zon": 6513,
      "remove": 6514,
      "participants": 6515,
      "##ideration": 6516,
      "refinance": 6517,
      "RELATIONS": 6518,
      "Marke": 6519,
      "buy": 6520,
      "INDEMNIT": 6521,
      "misrepresentation": 6522,
      "IM": 6523,
      "##ame": 6524,
      "##orted": 6525,
      "##urse": 6526,
      "##ley": 6527,
      "residence": 6528,
      "proving": 6529,
      "subcontr": 6530,
      "recitals": 6531,
      "repair": 6532,
      "employs": 6533,
      "Conn": 6534,
      "##ATES": 6535,
      "remarks": 6536,
      "Deal": 6537,
      "complying": 6538,
      "##ferees": 6539,
      "##STAND": 6540,
      "366": 6541,
      "##itization": 6542,
      "PROPERTIES": 6543,
      "LIMITATION": 6544,
      "versa": 6545,
      "embodies": 6546,
      "essential": 6547,
      "EQUITY": 6548,
      "invoiced": 6549,
      "400": 6550,
      "sick": 6551,
      "target": 6552,
      "##UDIC": 6553,
      "##jects": 6554,
      "##ero": 6555,
      "##utations": 6556,
      "##endum": 6557,
      "advan": 6558,
      "Enter": 6559,
      "presentation": 6560,
      "PRIOR": 6561,
      "telephonic": 6562,
      "holidays": 6563,
      "PO": 6564,
      "So": 6565,
      "dental": 6566,
      "pension": 6567,
      "size": 6568,
      "##cor": 6569,
      "##CO": 6570,
      "##ble": 6571,
      "##will": 6572,
      "sure": 6573,
      "hazard": 6574,
      "##uston": 6575,
      "Leaseback": 6576,
      "recourse": 6577,
      "Holding": 6578,
      "Membership": 6579,
      "Additionally": 6580,
      "Alternate": 6581,
      "endorsement": 6582,
      "##lined": 6583,
      "surrendered": 6584,
      "compensate": 6585,
      "acknowledgment": 6586,
      "ambiguity": 6587,
      "Qualified": 6588,
      "describing": 6589,
      "Houston": 6590,
      "Bond": 6591,
      "Estate": 6592,
      "KIND": 6593,
      "OB": 6594,
      "##15": 6595,
      "##din": 6596,
      "##pul": 6597,
      "sharing": 6598,
      "These": 6599,
      "Execution": 6600,
      "disreg": 6601,
      "terminations": 6602,
      "Prof": 6603,
      "##ATERAL": 6604,
      "##vided": 6605,
      "PART": 6606,
      "Noteholders": 6607,
      "accountant": 6608,
      "acquisitions": 6609,
      "independ": 6610,
      "unrelated": 6611,
      "Independent": 6612,
      "guarantees": 6613,
      "types": 6614,
      "substituted": 6615,
      "fulfilled": 6616,
      "facilitate": 6617,
      "RELATIONSHIP": 6618,
      "RULES": 6619,
      "air": 6620,
      "criteria": 6621,
      "emp": 6622,
      "million": 6623,
      "tif": 6624,
      "##AG": 6625,
      "respond": 6626,
      "defects": 6627,
      "EXIS": 6628,
      "supplemental": 6629,
      "administrator": 6630,
      "prospectus": 6631,
      "detailed": 6632,
      "valuable": 6633,
      "Trademarks": 6634,
      "Sheet": 6635,
      "bonuses": 6636,
      "COLLATERAL": 6637,
      "derogatory": 6638,
      "Can": 6639,
      "UK": 6640,
      "Ver": 6641,
      "hire": 6642,
      "lod": 6643,
      "##PM": 6644,
      "##30": 6645,
      "thereupon": 6646,
      "disabled": 6647,
      "affirm": 6648,
      "##AWARE": 6649,
      "Indemnity": 6650,
      "qualifications": 6651,
      "suspended": 6652,
      "Depositor": 6653,
      "DELAWARE": 6654,
      "Georg": 6655,
      "Energy": 6656,
      "independently": 6657,
      "Georgia": 6658,
      "300": 6659,
      "Ari": 6660,
      "Wash": 6661,
      "bi": 6662,
      "bur": 6663,
      "##lay": 6664,
      "##inder": 6665,
      "##ayer": 6666,
      "##stone": 6667,
      "##antage": 6668,
      "##tel": 6669,
      "dish": 6670,
      "References": 6671,
      "interruption": 6672,
      "entitlement": 6673,
      "CONSU": 6674,
      "REM": 6675,
      "##apter": 6676,
      "disputed": 6677,
      "Ordin": 6678,
      "completely": 6679,
      "indefeas": 6680,
      "stricken": 6681,
      "##ypot": 6682,
      "excepted": 6683,
      "possesses": 6684,
      "various": 6685,
      "EMPLOYEE": 6686,
      "412": 6687,
      "INDUCEMENT": 6688,
      "Ordinary": 6689,
      "FCP": 6690,
      "gra": 6691,
      "hypot": 6692,
      "##au": 6693,
      "##da": 6694,
      "##arb": 6695,
      "writs": 6696,
      "INS": 6697,
      "abatement": 6698,
      "Liquid": 6699,
      "Restructuring": 6700,
      "Tenn": 6701,
      "Consents": 6702,
      "Consideration": 6703,
      "annualized": 6704,
      "controls": 6705,
      "installment": 6706,
      "example": 6707,
      "1986": 6708,
      "phrase": 6709,
      "grounds": 6710,
      "INDEMNIFIED": 6711,
      "geographic": 6712,
      "Green": 6713,
      "FCPA": 6714,
      "hypothec": 6715,
      "PL": 6716,
      "Rating": 6717,
      "##amental": 6718,
      "##mat": 6719,
      "##ERS": 6720,
      "##port": 6721,
      "Appro": 6722,
      "Authorized": 6723,
      "1402": 6724,
      "funded": 6725,
      "##enging": 6726,
      "Extensions": 6727,
      "challenging": 6728,
      "preservation": 6729,
      "preparing": 6730,
      "compelled": 6731,
      "Tennessee": 6732,
      "Bi": 6733,
      "CB": 6734,
      "ED": 6735,
      "SN": 6736,
      "our": 6737,
      "usual": 6738,
      "world": 6739,
      "##lf": 6740,
      "##LT": 6741,
      "##JECTION": 6742,
      "##entures": 6743,
      "conjun": 6744,
      "##igan": 6745,
      "Park": 6746,
      "states": 6747,
      "transition": 6748,
      "##orship": 6749,
      "consummating": 6750,
      "saleable": 6751,
      "406": 6752,
      "Licenses": 6753,
      "sufficiently": 6754,
      "Fundamental": 6755,
      "Significant": 6756,
      "INTERN": 6757,
      "stipul": 6758,
      "plead": 6759,
      "##ridge": 6760,
      "Washington": 6761,
      "Age": 6762,
      "DO": 6763,
      "DES": 6764,
      "TER": 6765,
      "doc": 6766,
      "late": 6767,
      "##edic": 6768,
      "##ans": 6769,
      "##suant": 6770,
      "premises": 6771,
      "Produ": 6772,
      "Resolution": 6773,
      "refunded": 6774,
      "Disabilities": 6775,
      "discuss": 6776,
      "Orders": 6777,
      "RELEASED": 6778,
      "##udget": 6779,
      "Pursuant": 6780,
      "Hedge": 6781,
      "accomplish": 6782,
      "webs": 6783,
      "Hold": 6784,
      "LP": 6785,
      "client": 6786,
      "hinder": 6787,
      "##ins": 6788,
      "prob": 6789,
      "##icing": 6790,
      "depend": 6791,
      "safe": 6792,
      "attend": 6793,
      "severed": 6794,
      "upd": 6795,
      "legate": 6796,
      "minim": 6797,
      "unreasonable": 6798,
      "usage": 6799,
      "Americans": 6800,
      "rather": 6801,
      "mediation": 6802,
      "physic": 6803,
      "elimination": 6804,
      "Availability": 6805,
      "adopt": 6806,
      "extra": 6807,
      "conjunction": 6808,
      "Voting": 6809,
      "cri": 6810,
      "##zz": 6811,
      "##orti": 6812,
      "##ishes": 6813,
      "novation": 6814,
      "goodwill": 6815,
      "Issuance": 6816,
      "processes": 6817,
      "corruption": 6818,
      "delegation": 6819,
      "##IDITY": 6820,
      "bonds": 6821,
      "himself": 6822,
      "##ordinary": 6823,
      "boards": 6824,
      "##ESSORS": 6825,
      "Supplemental": 6826,
      "prosec": 6827,
      "Flood": 6828,
      "observe": 6829,
      "MATTERS": 6830,
      "SECURED": 6831,
      "Postal": 6832,
      "4975": 6833,
      "Addendum": 6834,
      "Michigan": 6835,
      "Dealer": 6836,
      "EXISTING": 6837,
      "37": 6838,
      "Dri": 6839,
      "Fam": 6840,
      "clar": 6841,
      "##mark": 6842,
      "##LIG": 6843,
      "##HI": 6844,
      "sublease": 6845,
      "renewals": 6846,
      "Discrimination": 6847,
      "Corrupt": 6848,
      "counterclaims": 6849,
      "SPEC": 6850,
      "Instruments": 6851,
      "Underwritten": 6852,
      "NEGLIG": 6853,
      "INTERNAL": 6854,
      "Family": 6855,
      "OW": 6856,
      "##net": 6857,
      "##ross": 6858,
      "inclusive": 6859,
      "##arded": 6860,
      "Creditors": 6861,
      "issuances": 6862,
      "##ATOR": 6863,
      "desires": 6864,
      "describe": 6865,
      "contractor": 6866,
      "succession": 6867,
      "Governors": 6868,
      "generated": 6869,
      "Express": 6870,
      "increasing": 6871,
      "MAK": 6872,
      "##ealable": 6873,
      "scan": 6874,
      "Designation": 6875,
      "Month": 6876,
      "derived": 6877,
      "ISSUER": 6878,
      "Charges": 6879,
      "utilized": 6880,
      "opening": 6881,
      "LTIP": 6882,
      "OBJECTION": 6883,
      "Be": 6884,
      "Cal": 6885,
      "Custodian": 6886,
      "age": 6887,
      "met": 6888,
      "tear": 6889,
      "##oted": 6890,
      "reaff": 6891,
      "department": 6892,
      "##acks": 6893,
      "##ago": 6894,
      "signatory": 6895,
      "##lessee": 6896,
      "transferor": 6897,
      "##EMENTS": 6898,
      "advantage": 6899,
      "001": 6900,
      "##elfare": 6901,
      "Comply": 6902,
      "debtor": 6903,
      "Institution": 6904,
      "inducements": 6905,
      "Associate": 6906,
      "##etitive": 6907,
      "##idav": 6908,
      "bringing": 6909,
      "##employment": 6910,
      "summons": 6911,
      "Deferred": 6912,
      "WARRAN": 6913,
      "Redemption": 6914,
      "advanced": 6915,
      "surety": 6916,
      "doctr": 6917,
      "Full": 6918,
      "LOC": 6919,
      "Secur": 6920,
      "Te": 6921,
      "average": 6922,
      "mess": 6923,
      "san": 6924,
      "wear": 6925,
      "##xim": 6926,
      "##10": 6927,
      "##ITHER": 6928,
      "##VED": 6929,
      "##ectives": 6930,
      "##icago": 6931,
      "consisting": 6932,
      "##ffected": 6933,
      "##iree": 6934,
      "##ENE": 6935,
      "##ENSE": 6936,
      "INTEN": 6937,
      "insolvent": 6938,
      "approxim": 6939,
      "supporting": 6940,
      "procedure": 6941,
      "Acquiree": 6942,
      "fourth": 6943,
      "##rorism": 6944,
      "Advisory": 6945,
      "territory": 6946,
      "Acceptance": 6947,
      "punitive": 6948,
      "swap": 6949,
      "FICA": 6950,
      "Up": 6951,
      "ix": 6952,
      "##13": 6953,
      "##LESS": 6954,
      "exha": 6955,
      "##tri": 6956,
      "computations": 6957,
      "define": 6958,
      "Goals": 6959,
      "exclude": 6960,
      "contact": 6961,
      "deleted": 6962,
      "Supply": 6963,
      "Supplier": 6964,
      "guaranteed": 6965,
      "Percentages": 6966,
      "FINRA": 6967,
      "dishonor": 6968,
      "Approved": 6969,
      "extraordinary": 6970,
      "FL": 6971,
      "JV": 6972,
      "Omn": 6973,
      "aid": 6974,
      "##ification": 6975,
      "##IB": 6976,
      "##40": 6977,
      "##anel": 6978,
      "intentions": 6979,
      "##acting": 6980,
      "##dily": 6981,
      "##using": 6982,
      "notifies": 6983,
      "assurance": 6984,
      "Provided": 6985,
      "became": 6986,
      "accrual": 6987,
      "effort": 6988,
      "IRS": 6989,
      "capacities": 6990,
      "ADEA": 6991,
      "telex": 6992,
      "testi": 6993,
      "phrases": 6994,
      "##zona": 6995,
      "Arizona": 6996,
      "Qu": 6997,
      "##eer": 6998,
      "##tieth": 6999,
      "acted": 7000,
      "explicit": 7001,
      "servic": 7002,
      "##ANC": 7003,
      "nonapp": 7004,
      "##ffici": 7005,
      "Chapter": 7006,
      "Managers": 7007,
      "Operator": 7008,
      "1000": 7009,
      "212": 7010,
      "professionals": 7011,
      "combined": 7012,
      "exceptions": 7013,
      "Retention": 7014,
      "encumber": 7015,
      "ASSER": 7016,
      "misappropriation": 7017,
      "comprising": 7018,
      "Headings": 7019,
      "Survival": 7020,
      "experience": 7021,
      "Sixth": 7022,
      "AFFILIATES": 7023,
      "VALIDITY": 7024,
      "legislation": 7025,
      "INTENTIONALLY": 7026,
      "nonappealable": 7027,
      "48": 7028,
      "77": 7029,
      "Ell": 7030,
      "FIL": 7031,
      "GP": 7032,
      "HOL": 7033,
      "Wil": 7034,
      "##oking": 7035,
      "##cumbered": 7036,
      "##IE": 7037,
      "##SC": 7038,
      "##SR": 7039,
      "##essation": 7040,
      "stating": 7041,
      "##ofar": 7042,
      "##uality": 7043,
      "##ibus": 7044,
      "participated": 7045,
      "Chicago": 7046,
      "continuously": 7047,
      "EXP": 7048,
      "selling": 7049,
      "Commissioners": 7050,
      "identifies": 7051,
      "advancement": 7052,
      "suspected": 7053,
      "bills": 7054,
      "ambiguities": 7055,
      "looking": 7056,
      "discontinu": 7057,
      "image": 7058,
      "verbal": 7059,
      "adequately": 7060,
      "Counterparty": 7061,
      "DELIVERED": 7062,
      "GRANTOR": 7063,
      "INVOL": 7064,
      "disregarded": 7065,
      "Versu": 7066,
      "##fficiency": 7067,
      "Foun": 7068,
      "IF": 7069,
      "Jo": 7070,
      "Mer": 7071,
      "Rock": 7072,
      "dies": 7073,
      "vend": 7074,
      "##iries": 7075,
      "##ky": 7076,
      "##99": 7077,
      "##OT": 7078,
      "##gree": 7079,
      "##iggy": 7080,
      "##olver": 7081,
      "entries": 7082,
      "##paragraph": 7083,
      "preven": 7084,
      "Condition": 7085,
      "abide": 7086,
      "audits": 7087,
      "THEREIN": 7088,
      "Owned": 7089,
      "impairment": 7090,
      "SUBSEQU": 7091,
      "institute": 7092,
      "##raft": 7093,
      "telegram": 7094,
      "inquiries": 7095,
      "merge": 7096,
      "primarily": 7097,
      "NEGLIGENCE": 7098,
      "SUBSEQUENT": 7099,
      "GSO": 7100,
      "JPM": 7101,
      "Main": 7102,
      "Top": 7103,
      "auth": 7104,
      "mental": 7105,
      "##ones": 7106,
      "thousand": 7107,
      "reti": 7108,
      "##aining": 7109,
      "##anta": 7110,
      "##ounded": 7111,
      "reasons": 7112,
      "##TIT": 7113,
      "cho": 7114,
      "certifying": 7115,
      "successful": 7116,
      "101": 7117,
      "Defin": 7118,
      "##unicip": 7119,
      "publicity": 7120,
      "SUCC": 7121,
      "affidav": 7122,
      "enterpr": 7123,
      "reducing": 7124,
      "postpon": 7125,
      "asserting": 7126,
      "PROCEEDINGS": 7127,
      "Seventh": 7128,
      "ADD": 7129,
      "telecopied": 7130,
      "Commerce": 7131,
      "initiate": 7132,
      "1974": 7133,
      "Controlled": 7134,
      "Frank": 7135,
      "##VENIENT": 7136,
      "doctrine": 7137,
      "Omnibus": 7138,
      "##unicipal": 7139,
      "62": 7140,
      "Ta": 7141,
      "municipal": 7142,
      "solvent": 7143,
      "##ixt": 7144,
      "##pe": 7145,
      "##urisdic": 7146,
      "##lients": 7147,
      "ascertain": 7148,
      "unit": 7149,
      "Provision": 7150,
      "##bery": 7151,
      "insofar": 7152,
      "Unre": 7153,
      "nonpayment": 7154,
      "2012": 7155,
      "COP": 7156,
      "conducting": 7157,
      "ACT": 7158,
      "reimbursements": 7159,
      "Forbearance": 7160,
      "diffic": 7161,
      "Expense": 7162,
      "allowance": 7163,
      "##echan": 7164,
      "Contributor": 7165,
      "valued": 7166,
      "discovered": 7167,
      "embody": 7168,
      "experts": 7169,
      "Securitization": 7170,
      "sanctions": 7171,
      "FI": 7172,
      "PF": 7173,
      "Put": 7174,
      "##rodu": 7175,
      "##alloc": 7176,
      "##ulted": 7177,
      "##acity": 7178,
      "##olutions": 7179,
      "transferees": 7180,
      "reprodu": 7181,
      "##izes": 7182,
      "causing": 7183,
      "commences": 7184,
      "instruct": 7185,
      "##atories": 7186,
      "End": 7187,
      "Releasing": 7188,
      "licens": 7189,
      "ends": 7190,
      "Therefore": 7191,
      "##SUANT": 7192,
      "promissory": 7193,
      "DEAC": 7194,
      "bearing": 7195,
      "purporting": 7196,
      "survival": 7197,
      "Item": 7198,
      "##atisfied": 7199,
      "PURCH": 7200,
      "PURSUANT": 7201,
      "Deferral": 7202,
      "places": 7203,
      "Ground": 7204,
      "compromise": 7205,
      "Road": 7206,
      "MODI": 7207,
      "probable": 7208,
      "##iggyback": 7209,
      "##urisdiction": 7210,
      "difficult": 7211,
      "Bloc": 7212,
      "Eigh": 7213,
      "MAIL": 7214,
      "Rod": 7215,
      "Royalty": 7216,
      "mere": 7217,
      "mechan": 7218,
      "##way": 7219,
      "##incial": 7220,
      "##atch": 7221,
      "##idents": 7222,
      "sublet": 7223,
      "Stand": 7224,
      "reported": 7225,
      "invol": 7226,
      "defect": 7227,
      "INCON": 7228,
      "chosen": 7229,
      "Enforce": 7230,
      "certifications": 7231,
      "refused": 7232,
      "subscription": 7233,
      "effects": 7234,
      "Manufact": 7235,
      "banks": 7236,
      "Request": 7237,
      "Trade": 7238,
      "##RESS": 7239,
      "##seeable": 7240,
      "tenants": 7241,
      "telef": 7242,
      "undertaken": 7243,
      "intentional": 7244,
      "Money": 7245,
      "levy": 7246,
      "incurrence": 7247,
      "ultimately": 7248,
      "Blackstone": 7249,
      "technical": 7250,
      "Jurisdiction": 7251,
      "Piggyback": 7252,
      "##ati": 7253,
      "##ian": 7254,
      "##ren": 7255,
      "##roy": 7256,
      "##utral": 7257,
      "research": 7258,
      "##erior": 7259,
      "Reimbur": 7260,
      "Respons": 7261,
      "arbitrate": 7262,
      "transferable": 7263,
      "Optional": 7264,
      "Relevant": 7265,
      "illness": 7266,
      "accruals": 7267,
      "150": 7268,
      "clearing": 7269,
      "clearly": 7270,
      "Administration": 7271,
      "Leased": 7272,
      "accurately": 7273,
      "##AINED": 7274,
      "Assumed": 7275,
      "multiplied": 7276,
      "production": 7277,
      "estimated": 7278,
      "2020": 7279,
      "administering": 7280,
      "Surviving": 7281,
      "deferral": 7282,
      "##mediary": 7283,
      "subcontract": 7284,
      "affirmative": 7285,
      "REMED": 7286,
      "legatees": 7287,
      "Versus": 7288,
      "preventing": 7289,
      "59": 7290,
      "CD": 7291,
      "DIRECT": 7292,
      "FAT": 7293,
      "city": 7294,
      "half": 7295,
      "land": 7296,
      "line": 7297,
      "role": 7298,
      "##oto": 7299,
      "##long": 7300,
      "belong": 7301,
      "sufficiency": 7302,
      "Comb": 7303,
      "extending": 7304,
      "provincial": 7305,
      "##tinue": 7306,
      "##lue": 7307,
      "##tholder": 7308,
      "instruction": 7309,
      "desire": 7310,
      "impact": 7311,
      "2011": 7312,
      "monies": 7313,
      "seal": 7314,
      "BEFORE": 7315,
      "obtainable": 7316,
      "engaging": 7317,
      "Requisite": 7318,
      "##UNITY": 7319,
      "authorizing": 7320,
      "exceeding": 7321,
      "recognize": 7322,
      "Subsection": 7323,
      "conveyances": 7324,
      "initio": 7325,
      "challenge": 7326,
      "version": 7327,
      "OPP": 7328,
      "RECOG": 7329,
      "PERFORMANCE": 7330,
      "ultimate": 7331,
      "Center": 7332,
      "diminish": 7333,
      "REFERENCE": 7334,
      "SUCCESSORS": 7335,
      "ADDRESS": 7336,
      "INCONVENIENT": 7337,
      "Responsible": 7338,
      "FATCA": 7339,
      "RECOGNI": 7340,
      "600": 7341,
      "85": 7342,
      "87": 7343,
      "Aud": 7344,
      "Gold": 7345,
      "XI": 7346,
      "ali": 7347,
      "cessation": 7348,
      "judge": 7349,
      "put": 7350,
      "panel": 7351,
      "ren": 7352,
      "##PAR": 7353,
      "##alse": 7354,
      "und": 7355,
      "unemployment": 7356,
      "##ford": 7357,
      "ener": 7358,
      "pricing": 7359,
      "CONDUCT": 7360,
      "Documentation": 7361,
      "SUP": 7362,
      "##selves": 7363,
      "Registered": 7364,
      "possibility": 7365,
      "themselves": 7366,
      "Dispos": 7367,
      "satisfying": 7368,
      "freely": 7369,
      "Claimholders": 7370,
      "legend": 7371,
      "pledges": 7372,
      "SECTIONS": 7373,
      "Paragraphs": 7374,
      "consequential": 7375,
      "adjudicated": 7376,
      "Both": 7377,
      "rescission": 7378,
      "compensated": 7379,
      "EXECU": 7380,
      "##ENSES": 7381,
      "divisions": 7382,
      "proxy": 7383,
      "Budget": 7384,
      "Draw": 7385,
      "Fid": 7386,
      "Mail": 7387,
      "clients": 7388,
      "##ipt": 7389,
      "##hest": 7390,
      "##onci": 7391,
      "##eness": 7392,
      "reverse": 7393,
      "provis": 7394,
      "storage": 7395,
      "subordination": 7396,
      "##undering": 7397,
      "constituted": 7398,
      "mails": 7399,
      "formal": 7400,
      "Interim": 7401,
      "refinancing": 7402,
      "recognizes": 7403,
      "objections": 7404,
      "practical": 7405,
      "1977": 7406,
      "prepayments": 7407,
      "discontinue": 7408,
      "ASSIGNS": 7409,
      "unsatisfied": 7410,
      "inaccuracy": 7411,
      "Auto": 7412,
      "LOCATED": 7413,
      "explicitly": 7414,
      "Unrestricted": 7415,
      "RECOGNITION": 7416,
      "55": 7417,
      "Ox": 7418,
      "Prom": 7419,
      "TI": 7420,
      "TEX": 7421,
      "dest": 7422,
      "false": 7423,
      "rated": 7424,
      "send": 7425,
      "vary": 7426,
      "##UP": 7427,
      "##opp": 7428,
      "##20": 7429,
      "##VP": 7430,
      "ongoing": 7431,
      "repairs": 7432,
      "transact": 7433,
      "pursuing": 7434,
      "##elity": 7435,
      "##termination": 7436,
      "certifies": 7437,
      "##oint": 7438,
      "cancellations": 7439,
      "delete": 7440,
      "realized": 7441,
      "insufficient": 7442,
      "contingencies": 7443,
      "achieved": 7444,
      "Restriction": 7445,
      "dollar": 7446,
      "still": 7447,
      "Available": 7448,
      "##ircraft": 7449,
      "Gatherer": 7450,
      "##limit": 7451,
      "website": 7452,
      "SPECI": 7453,
      "COPY": 7454,
      "Cy": 7455,
      "HC": 7456,
      "Los": 7457,
      "Long": 7458,
      "Number": 7459,
      "royalty": 7460,
      "welfare": 7461,
      "##TTER": 7462,
      "unex": 7463,
      "uncertain": 7464,
      "##geles": 7465,
      "##mmend": 7466,
      "THEM": 7467,
      "Angeles": 7468,
      "##criptions": 7469,
      "agreeing": 7470,
      "decided": 7471,
      "histor": 7472,
      "documentary": 7473,
      "continuous": 7474,
      "Equal": 7475,
      "Confirmation": 7476,
      "knows": 7477,
      "works": 7478,
      "revised": 7479,
      "REPRESENTATIONS": 7480,
      "naming": 7481,
      "##issan": 7482,
      "Extended": 7483,
      "equivalents": 7484,
      "forecas": 7485,
      "sources": 7486,
      "estimates": 7487,
      "LETTER": 7488,
      "involuntary": 7489,
      "Procedures": 7490,
      "Exceptions": 7491,
      "defamatory": 7492,
      "disseminated": 7493,
      "proposals": 7494,
      "grace": 7495,
      "TEXAS": 7496,
      "destroy": 7497,
      "Bill": 7498,
      "Cle": 7499,
      "DATE": 7500,
      "Har": 7501,
      "ICA": 7502,
      "Meeting": 7503,
      "Nas": 7504,
      "fixt": 7505,
      "zero": 7506,
      "##right": 7507,
      "##pired": 7508,
      "##funded": 7509,
      "##wide": 7510,
      "##GAR": 7511,
      "##onent": 7512,
      "##ison": 7513,
      "cond": 7514,
      "Sublimit": 7515,
      "##osp": 7516,
      "litig": 7517,
      "##tics": 7518,
      "exercises": 7519,
      "contracting": 7520,
      "whenever": 7521,
      "monitor": 7522,
      "sentences": 7523,
      "Success": 7524,
      "suitable": 7525,
      "negotiated": 7526,
      "DEEM": 7527,
      "##otel": 7528,
      "needed": 7529,
      "STATUT": 7530,
      "Disputes": 7531,
      "Restrictions": 7532,
      "##linical": 7533,
      "##SOEVER": 7534,
      "Charter": 7535,
      "adoption": 7536,
      "involuntarily": 7537,
      "INDEMNITEE": 7538,
      "##daq": 7539,
      "##matured": 7540,
      "DESC": 7541,
      "Drive": 7542,
      "SUPPL": 7543,
      "proviso": 7544,
      "Nasdaq": 7545,
      "38": 7546,
      "34": 7547,
      "EITHER": 7548,
      "Gas": 7549,
      "Loc": 7550,
      "Rents": 7551,
      "Uta": 7552,
      "down": 7553,
      "job": 7554,
      "tangible": 7555,
      "##25": 7556,
      "##rors": 7557,
      "##gement": 7558,
      "##hn": 7559,
      "##mentioned": 7560,
      "##Gen": 7561,
      "##inn": 7562,
      "realloc": 7563,
      "enacted": 7564,
      "##tees": 7565,
      "pays": 7566,
      "##lause": 7567,
      "##osition": 7568,
      "disclaim": 7569,
      "##lessor": 7570,
      "Shared": 7571,
      "appropriately": 7572,
      "collecting": 7573,
      "Government": 7574,
      "Revolver": 7575,
      "Warrantholder": 7576,
      "relinqu": 7577,
      "promotion": 7578,
      "ARISE": 7579,
      "##ordinate": 7580,
      "Receipt": 7581,
      "Election": 7582,
      "lawsuits": 7583,
      "placed": 7584,
      "eighth": 7585,
      "RECE": 7586,
      "opposite": 7587,
      "EDGAR": 7588,
      "Producer": 7589,
      "approximately": 7590,
      "authorship": 7591,
      "DEEMED": 7592,
      "Utah": 7593,
      "Ab": 7594,
      "Due": 7595,
      "Es": 7596,
      "Tr": 7597,
      "Tri": 7598,
      "afore": 7599,
      "civ": 7600,
      "pas": 7601,
      "table": 7602,
      "##bank": 7603,
      "##HL": 7604,
      "##encing": 7605,
      "thing": 7606,
      "noon": 7607,
      "##range": 7608,
      "additions": 7609,
      "##uthorized": 7610,
      "construe": 7611,
      "principle": 7612,
      "indemnifies": 7613,
      "PARTIC": 7614,
      "annex": 7615,
      "neutral": 7616,
      "##adline": 7617,
      "Authorizations": 7618,
      "302": 7619,
      "Replacement": 7620,
      "disbursement": 7621,
      "dealer": 7622,
      "secrecy": 7623,
      "UNDERSTAND": 7624,
      "alleging": 7625,
      "Designations": 7626,
      "errors": 7627,
      "ceased": 7628,
      "RELEASE": 7629,
      "responding": 7630,
      "Shelf": 7631,
      "PERFORMED": 7632,
      "weekly": 7633,
      "Wherever": 7634,
      "Canada": 7635,
      "dependents": 7636,
      "aforementioned": 7637,
      "TEN": 7638,
      "Wall": 7639,
      "fault": 7640,
      "vis": 7641,
      "##UY": 7642,
      "##wood": 7643,
      "##IDER": 7644,
      "##ze": 7645,
      "##stop": 7646,
      "entail": 7647,
      "Sublessor": 7648,
      "inclusion": 7649,
      "##ivable": 7650,
      "Rem": 7651,
      "##ureau": 7652,
      "signatories": 7653,
      "destru": 7654,
      "construing": 7655,
      "violating": 7656,
      "face": 7657,
      "decide": 7658,
      "Officers": 7659,
      "entertainment": 7660,
      "Disclosing": 7661,
      "quoted": 7662,
      "CONSIDER": 7663,
      "Space": 7664,
      "Nonqualified": 7665,
      "investigating": 7666,
      "irreparably": 7667,
      "meetings": 7668,
      "incapacity": 7669,
      "English": 7670,
      "purchasers": 7671,
      "verification": 7672,
      "underwriters": 7673,
      "destruction": 7674,
      "BUY": 7675,
      "ML": 7676,
      "Mis": 7677,
      "PM": 7678,
      "Pier": 7679,
      "fring": 7680,
      "technology": 7681,
      "##menting": 7682,
      "##pet": 7683,
      "##ering": 7684,
      "##alo": 7685,
      "##orth": 7686,
      "##ites": 7687,
      "degree": 7688,
      "##rand": 7689,
      "##forfe": 7690,
      "compul": 7691,
      "perpet": 7692,
      "terminating": 7693,
      "goals": 7694,
      "constitu": 7695,
      "##ATSOEVER": 7696,
      "##tility": 7697,
      "wherever": 7698,
      "enters": 7699,
      "concern": 7700,
      "Permit": 7701,
      "WHATSOEVER": 7702,
      "contesting": 7703,
      "##ackage": 7704,
      "Insolvency": 7705,
      "calculating": 7706,
      "mortgages": 7707,
      "carrier": 7708,
      "Treasurer": 7709,
      "enterprise": 7710,
      "PFG": 7711,
      "Promissory": 7712,
      "fringe": 7713,
      "66": 7714,
      "Dam": 7715,
      "Million": 7716,
      "PAT": 7717,
      "Tys": 7718,
      "har": 7719,
      "tenth": 7720,
      "##MM": 7721,
      "##lations": 7722,
      "##FY": 7723,
      "##AD": 7724,
      "##IRE": 7725,
      "##rehen": 7726,
      "##une": 7727,
      "hereon": 7728,
      "##rug": 7729,
      "amending": 7730,
      "Substances": 7731,
      "compel": 7732,
      "ORIG": 7733,
      "foreseeable": 7734,
      "##ALI": 7735,
      "nonforfe": 7736,
      "HEREWITH": 7737,
      "assertion": 7738,
      "cooperating": 7739,
      "Compliance": 7740,
      "handle": 7741,
      "Certificates": 7742,
      "induce": 7743,
      "disparagement": 7744,
      "SOUND": 7745,
      "PERSONAL": 7746,
      "##ILITIES": 7747,
      "DEALINGS": 7748,
      "accommodation": 7749,
      "safety": 7750,
      "##rehensive": 7751,
      "ORIGIN": 7752,
      "nonforfeitable": 7753,
      "SOUNDING": 7754,
      "64": 7755,
      "83": 7756,
      "Ci": 7757,
      "Cap": 7758,
      "DS": 7759,
      "Fixed": 7760,
      "Shi": 7761,
      "##payer": 7762,
      "##KE": 7763,
      "##enger": 7764,
      "##liers": 7765,
      "theretofore": 7766,
      "Subsequent": 7767,
      "receivers": 7768,
      "##vings": 7769,
      "operates": 7770,
      "coverages": 7771,
      "designs": 7772,
      "Governing": 7773,
      "##raphic": 7774,
      "refers": 7775,
      "##TRUMENT": 7776,
      "realization": 7777,
      "unauthorized": 7778,
      "Leave": 7779,
      "conclusively": 7780,
      "Receiving": 7781,
      "Indiana": 7782,
      "implementation": 7783,
      "Early": 7784,
      "Brokers": 7785,
      "DEALING": 7786,
      "printing": 7787,
      "analysis": 7788,
      "INSTRUMENT": 7789,
      "EXPENSES": 7790,
      "entails": 7791,
      "Tyson": 7792,
      "80": 7793,
      "EFF": 7794,
      "LIC": 7795,
      "NAS": 7796,
      "near": 7797,
      "##gency": 7798,
      "##CTION": 7799,
      "##PC": 7800,
      "##anes": 7801,
      "##ectic": 7802,
      "subparagraph": 7803,
      "admission": 7804,
      "expect": 7805,
      "areas": 7806,
      "Sublessee": 7807,
      "Reference": 7808,
      "Until": 7809,
      "injur": 7810,
      "acquies": 7811,
      "principals": 7812,
      "obtains": 7813,
      "suppliers": 7814,
      "amends": 7815,
      "Competition": 7816,
      "##timate": 7817,
      "objectives": 7818,
      "denied": 7819,
      "Contributed": 7820,
      "anticipate": 7821,
      "examinations": 7822,
      "produced": 7823,
      "measured": 7824,
      "##oyalties": 7825,
      "Distributor": 7826,
      "guidelines": 7827,
      "manufacture": 7828,
      "duplicate": 7829,
      "retroactively": 7830,
      "highest": 7831,
      "Connectic": 7832,
      "WARRANTIES": 7833,
      "messenger": 7834,
      "PURCHAS": 7835,
      "Combination": 7836,
      "condensed": 7837,
      "Connecticut": 7838,
      "Actions": 7839,
      "AFTER": 7840,
      "Cre": 7841,
      "Nissan": 7842,
      "Oil": 7843,
      "TA": 7844,
      "clos": 7845,
      "##tter": 7846,
      "##war": 7847,
      "##inding": 7848,
      "##isen": 7849,
      "resale": 7850,
      "Instead": 7851,
      "Subordination": 7852,
      "dissim": 7853,
      "##TIAL": 7854,
      "permission": 7855,
      "Unen": 7856,
      "owning": 7857,
      "##amble": 7858,
      "##onsin": 7859,
      "Sup": 7860,
      "Application": 7861,
      "occurrences": 7862,
      "accelerations": 7863,
      "AGENTS": 7864,
      "selection": 7865,
      "2002": 7866,
      "announcements": 7867,
      "Europe": 7868,
      "Northern": 7869,
      "inspect": 7870,
      "truthfully": 7871,
      "##ECTIVELY": 7872,
      "Terrorism": 7873,
      "genders": 7874,
      "Copyrights": 7875,
      "RELEAS": 7876,
      "removed": 7877,
      "Qualifying": 7878,
      "barg": 7879,
      "viewed": 7880,
      "strategies": 7881,
      "update": 7882,
      "John": 7883,
      "forecasts": 7884,
      "dissimilar": 7885,
      "Aff": 7886,
      "CALI": 7887,
      "FUT": 7888,
      "ILL": 7889,
      "PTO": 7890,
      "branch": 7891,
      "peer": 7892,
      "##gic": 7893,
      "##cle": 7894,
      "##mington": 7895,
      "##int": 7896,
      "##inter": 7897,
      "##liation": 7898,
      "detri": 7899,
      "unaware": 7900,
      "##riot": 7901,
      "payables": 7902,
      "##though": 7903,
      "Start": 7904,
      "arisen": 7905,
      "##templated": 7906,
      "Consu": 7907,
      "finding": 7908,
      "qualifying": 7909,
      "WHO": 7910,
      "##FORNI": 7911,
      "##SETS": 7912,
      "DEB": 7913,
      "infringements": 7914,
      "restates": 7915,
      "Patriot": 7916,
      "faxed": 7917,
      "CAUS": 7918,
      "endorsed": 7919,
      "Outside": 7920,
      "measure": 7921,
      "etc": 7922,
      "WARRANT": 7923,
      "Gross": 7924,
      "Procedure": 7925,
      "Releasor": 7926,
      "Adjustment": 7927,
      "exhaust": 7928,
      "Provisions": 7929,
      "European": 7930,
      "CALIFORNI": 7931,
      "CALIFORNIA": 7932,
      "65": 7933,
      "750": 7934,
      "JUDIC": 7935,
      "SW": 7936,
      "puts": 7937,
      "syndication": 7938,
      "##ft": 7939,
      "##OIS": 7940,
      "##OTHER": 7941,
      "##AGE": 7942,
      "##STS": 7943,
      "##eration": 7944,
      "often": 7945,
      "##liquid": 7946,
      "##dee": 7947,
      "adm": 7948,
      "reclass": 7949,
      "Relations": 7950,
      "Three": 7951,
      "assignor": 7952,
      "Cont": 7953,
      "fine": 7954,
      "##clusive": 7955,
      "COSTS": 7956,
      "Super": 7957,
      "creating": 7958,
      "##ABILITIES": 7959,
      "Releasee": 7960,
      "SHO": 7961,
      "settlements": 7962,
      "LIABILITIES": 7963,
      "APA": 7964,
      "depositions": 7965,
      "undertakes": 7966,
      "divul": 7967,
      "restate": 7968,
      "2007": 7969,
      "borrowed": 7970,
      "mortgagee": 7971,
      "attachments": 7972,
      "devise": 7973,
      "estimate": 7974,
      "Earned": 7975,
      "holiday": 7976,
      "geographical": 7977,
      "Quarterly": 7978,
      "Holdco": 7979,
      "minimize": 7980,
      "Wilmington": 7981,
      "OPPORT": 7982,
      "BUYER": 7983,
      "receivership": 7984,
      "JUDICIAL": 7985,
      "##liquidated": 7986,
      "Awar": 7987,
      "Bra": 7988,
      "Circ": 7989,
      "FO": 7990,
      "Mc": 7991,
      "Op": 7992,
      "Sarb": 7993,
      "Wal": 7994,
      "Whi": 7995,
      "far": 7996,
      "##bo": 7997,
      "##writing": 7998,
      "##OVE": 7999,
      "##60": 8000,
      "##tiff": 8001,
      "intro": 8002,
      "reve": 8003,
      "##herence": 8004,
      "##igital": 8005,
      "##ilest": 8006,
      "sublicense": 8007,
      "object": 8008,
      "transport": 8009,
      "ANOTHER": 8010,
      "connote": 8011,
      "defraud": 8012,
      "find": 8013,
      "manual": 8014,
      "transferring": 8015,
      "Determination": 8016,
      "Grants": 8017,
      "##AID": 8018,
      "reimburs": 8019,
      "recordable": 8020,
      "intangible": 8021,
      "##istle": 8022,
      "Former": 8023,
      "HAD": 8024,
      "licensees": 8025,
      "Pledgors": 8026,
      "USD": 8027,
      "contemporaneously": 8028,
      "deny": 8029,
      "##licitation": 8030,
      "SPA": 8031,
      "encour": 8032,
      "Phantom": 8033,
      "INTERPRET": 8034,
      "1964": 8035,
      "CONSULT": 8036,
      "prosecute": 8037,
      "JPMorgan": 8038,
      "FILE": 8039,
      "licensing": 8040,
      "##onciliation": 8041,
      "Oxley": 8042,
      "injuries": 8043,
      "Consumer": 8044,
      "OPPORTUNITY": 8045,
      "Awardee": 8046,
      "Sarbanes": 8047,
      "800": 8048,
      "Bre": 8049,
      "Dall": 8050,
      "DEC": 8051,
      "Ir": 8052,
      "Lt": 8053,
      "PRE": 8054,
      "Wisc": 8055,
      "XII": 8056,
      "lear": 8057,
      "rounded": 8058,
      "##ored": 8059,
      "##itimate": 8060,
      "##sory": 8061,
      "##NC": 8062,
      "##anties": 8063,
      "better": 8064,
      "reb": 8065,
      "##stated": 8066,
      "underfunded": 8067,
      "##lumb": 8068,
      "Sublicense": 8069,
      "repurch": 8070,
      "Constru": 8071,
      "##ibly": 8072,
      "##INOIS": 8073,
      "descent": 8074,
      "agreeable": 8075,
      "REAS": 8076,
      "WITHIN": 8077,
      "supply": 8078,
      "singly": 8079,
      "autom": 8080,
      "presence": 8081,
      "Oncor": 8082,
      "Ownership": 8083,
      "Paying": 8084,
      "sixtieth": 8085,
      "infringes": 8086,
      "##FFIC": 8087,
      "finders": 8088,
      "revokes": 8089,
      "details": 8090,
      "appeals": 8091,
      "integral": 8092,
      "ISSUING": 8093,
      "Continuous": 8094,
      "Collection": 8095,
      "Backstop": 8096,
      "supervision": 8097,
      "conceived": 8098,
      "Bribery": 8099,
      "clarity": 8100,
      "merely": 8101,
      "Disposition": 8102,
      "compulsory": 8103,
      "ILLINOIS": 8104,
      "Dallas": 8105,
      "Ltd": 8106,
      "Wisconsin": 8107,
      "REASON": 8108,
      "Case": 8109,
      "Ford": 8110,
      "Mic": 8111,
      "eas": 8112,
      "##usual": 8113,
      "##ming": 8114,
      "##RIP": 8115,
      "##HC": 8116,
      "inability": 8117,
      "##isted": 8118,
      "##roc": 8119,
      "reach": 8120,
      "reloc": 8121,
      "resto": 8122,
      "resident": 8123,
      "##acsimile": 8124,
      "adherence": 8125,
      "Contemplated": 8126,
      "INT": 8127,
      "referring": 8128,
      "nonex": 8129,
      "implic": 8130,
      "arbitrations": 8131,
      "Defect": 8132,
      "WAIVED": 8133,
      "subscriptions": 8134,
      "TRIED": 8135,
      "die": 8136,
      "handling": 8137,
      "contributed": 8138,
      "borrowings": 8139,
      "exemptions": 8140,
      "Engagement": 8141,
      "levels": 8142,
      "complaints": 8143,
      "comprised": 8144,
      "OTCQ": 8145,
      "ABOVE": 8146,
      "Diligence": 8147,
      "Releasors": 8148,
      "vendors": 8149,
      "Reimbursement": 8150,
      "Audit": 8151,
      "civic": 8152,
      "TENANT": 8153,
      "PURCHASER": 8154,
      "INTERPRETATION": 8155,
      "43": 8156,
      "Cut": 8157,
      "LAND": 8158,
      "Yield": 8159,
      "##MIS": 8160,
      "##sh": 8161,
      "##sw": 8162,
      "##blow": 8163,
      "##90": 8164,
      "##RT": 8165,
      "##SED": 8166,
      "##tici": 8167,
      "##lex": 8168,
      "parents": 8169,
      "enlar": 8170,
      "consist": 8171,
      "##arest": 8172,
      "specifications": 8173,
      "nearest": 8174,
      "leading": 8175,
      "credits": 8176,
      "Applicant": 8177,
      "Trustor": 8178,
      "##ishment": 8179,
      "direc": 8180,
      "indicate": 8181,
      "calculations": 8182,
      "contradic": 8183,
      "purport": 8184,
      "Years": 8185,
      "Limit": 8186,
      "DISPUTES": 8187,
      "Engine": 8188,
      "preserving": 8189,
      "utilize": 8190,
      "Markets": 8191,
      "lodged": 8192,
      "burden": 8193,
      "critici": 8194,
      "Rodman": 8195,
      "telefacsimile": 8196,
      "Harris": 8197,
      "Damages": 8198,
      "##istleblow": 8199,
      "OTCQB": 8200,
      "GRO": 8201,
      "Medi": 8202,
      "MEM": 8203,
      "Sing": 8204,
      "Sel": 8205,
      "Syndication": 8206,
      "Will": 8207,
      "key": 8208,
      "usu": 8209,
      "##uit": 8210,
      "##oGen": 8211,
      "##iott": 8212,
      "##cher": 8213,
      "##cence": 8214,
      "##80": 8215,
      "##SI": 8216,
      "##erv": 8217,
      "rea": 8218,
      "##gress": 8219,
      "unusual": 8220,
      "##tine": 8221,
      "##pper": 8222,
      "##teenth": 8223,
      "stand": 8224,
      "consulted": 8225,
      "subjects": 8226,
      "comprehensive": 8227,
      "Committed": 8228,
      "discount": 8229,
      "waiting": 8230,
      "committed": 8231,
      "insuring": 8232,
      "##imbursed": 8233,
      "administratively": 8234,
      "normally": 8235,
      "Disclosed": 8236,
      "conveyed": 8237,
      "SPV": 8238,
      "Fifty": 8239,
      "declarations": 8240,
      "PURPO": 8241,
      "cancels": 8242,
      "bona": 8243,
      "ratified": 8244,
      "Wholly": 8245,
      "While": 8246,
      "directives": 8247,
      "usually": 8248,
      "3rd": 8249,
      "BENE": 8250,
      "CAN": 8251,
      "CIC": 8252,
      "DI": 8253,
      "DTC": 8254,
      "Emer": 8255,
      "Flow": 8256,
      "Nu": 8257,
      "Pac": 8258,
      "Press": 8259,
      "Tit": 8260,
      "fide": 8261,
      "##MP": 8262,
      "##ea": 8263,
      "##OTI": 8264,
      "##IA": 8265,
      "##SING": 8266,
      "answ": 8267,
      "##inc": 8268,
      "##iture": 8269,
      "##attel": 8270,
      "##uri": 8271,
      "proposes": 8272,
      "unc": 8273,
      "##hill": 8274,
      "expedi": 8275,
      "accident": 8276,
      "Not": 8277,
      "##ponso": 8278,
      "perqu": 8279,
      "community": 8280,
      "Condemnation": 8281,
      "Personal": 8282,
      "remitted": 8283,
      "whereupon": 8284,
      "posted": 8285,
      "deleg": 8286,
      "Swap": 8287,
      "directions": 8288,
      "##oluntary": 8289,
      "##DITION": 8290,
      "draft": 8291,
      "Beneficiaries": 8292,
      "permanently": 8293,
      "Underlying": 8294,
      "raise": 8295,
      "Survey": 8296,
      "implemented": 8297,
      "Pledgee": 8298,
      "EMPLOYEES": 8299,
      "eighteen": 8300,
      "NEGOTI": 8301,
      "nominee": 8302,
      "indefeasibly": 8303,
      "scanned": 8304,
      "FILO": 8305,
      "Founder": 8306,
      "Unencumbered": 8307,
      "##RIPTION": 8308,
      "MEMB": 8309,
      "##ponsored": 8310,
      "CUS": 8311,
      "EG": 8312,
      "ME": 8313,
      "Mor": 8314,
      "MORT": 8315,
      "NB": 8316,
      "aro": 8317,
      "lower": 8318,
      "lacks": 8319,
      "royalties": 8320,
      "sponsored": 8321,
      "##ADIC": 8322,
      "##TA": 8323,
      "##KF": 8324,
      "##BB": 8325,
      "theft": 8326,
      "##cel": 8327,
      "##leased": 8328,
      "Columb": 8329,
      "##iding": 8330,
      "unto": 8331,
      "unliquidated": 8332,
      "##reshold": 8333,
      "##tingu": 8334,
      "dism": 8335,
      "OFFIC": 8336,
      "findings": 8337,
      "taxation": 8338,
      "noncon": 8339,
      "elections": 8340,
      "formul": 8341,
      "publication": 8342,
      "##astle": 8343,
      "lea": 8344,
      "##assment": 8345,
      "##outine": 8346,
      "prohibits": 8347,
      "joinder": 8348,
      "RESULT": 8349,
      "unreimbursed": 8350,
      "legitimate": 8351,
      "##IDENT": 8352,
      "1001": 8353,
      "##company": 8354,
      "CONTRADIC": 8355,
      "debtors": 8356,
      "article": 8357,
      "carriers": 8358,
      "drawing": 8359,
      "##DAQ": 8360,
      "lost": 8361,
      "DEFEND": 8362,
      "imaging": 8363,
      "##SPC": 8364,
      "adequacy": 8365,
      "expert": 8366,
      "COMMENCE": 8367,
      "Eighth": 8368,
      "Local": 8369,
      "NASDAQ": 8370,
      "FUTURE": 8371,
      "devisees": 8372,
      "MORTG": 8373,
      "CONTRADICTED": 8374,
      "70": 8375,
      "Aircraft": 8376,
      "Daily": 8377,
      "Fed": 8378,
      "GKF": 8379,
      "Paper": 8380,
      "Play": 8381,
      "Systems": 8382,
      "Tier": 8383,
      "Way": 8384,
      "fall": 8385,
      "site": 8386,
      "utility": 8387,
      "##sight": 8388,
      "##FR": 8389,
      "##IM": 8390,
      "##HAL": 8391,
      "theory": 8392,
      "inventory": 8393,
      "##lementing": 8394,
      "code": 8395,
      "##ston": 8396,
      "##rie": 8397,
      "payout": 8398,
      "##ounted": 8399,
      "assent": 8400,
      "competitive": 8401,
      "international": 8402,
      "whistleblow": 8403,
      "##ANEO": 8404,
      "imped": 8405,
      "REV": 8406,
      "damaged": 8407,
      "BEHAL": 8408,
      "factual": 8409,
      "Preliminary": 8410,
      "Thereafter": 8411,
      "overall": 8412,
      "oversight": 8413,
      "404": 8414,
      "Compound": 8415,
      "Exposures": 8416,
      "CONTEMPOR": 8417,
      "2009": 8418,
      "SERP": 8419,
      "280": 8420,
      "buil": 8421,
      "Phase": 8422,
      "OTCBB": 8423,
      "Controlling": 8424,
      "REQUIRE": 8425,
      "duplication": 8426,
      "physician": 8427,
      "discontinuance": 8428,
      "alien": 8429,
      "Esq": 8430,
      "nearly": 8431,
      "acquiescence": 8432,
      "Superior": 8433,
      "WHOLE": 8434,
      "enlargement": 8435,
      "Playa": 8436,
      "##ANEOUS": 8437,
      "BEHALF": 8438,
      "CONTEMPORANEOUS": 8439,
      "Bid": 8440,
      "Castle": 8441,
      "ET": 8442,
      "Firm": 8443,
      "FEES": 8444,
      "Over": 8445,
      "Petition": 8446,
      "Package": 8447,
      "We": 8448,
      "clinical": 8449,
      "eight": 8450,
      "##MI": 8451,
      "##21": 8452,
      "##etit": 8453,
      "##ade": 8454,
      "##iam": 8455,
      "##EP": 8456,
      "##45": 8457,
      "##LORD": 8458,
      "##67": 8459,
      "##anti": 8460,
      "##cell": 8461,
      "concept": 8462,
      "unsu": 8463,
      "##seen": 8464,
      "Communic": 8465,
      "preamble": 8466,
      "receivable": 8467,
      "Union": 8468,
      "imposs": 8469,
      "goods": 8470,
      "retali": 8471,
      "Prep": 8472,
      "engages": 8473,
      "unrestricted": 8474,
      "ISO": 8475,
      "PRSUs": 8476,
      "Reportable": 8477,
      "CONTRACTS": 8478,
      "Assuming": 8479,
      "establishing": 8480,
      "ATTORNEYS": 8481,
      "acknowledgments": 8482,
      "2021": 8483,
      "eighty": 8484,
      "essence": 8485,
      "TERMS": 8486,
      "##ansas": 8487,
      "Beach": 8488,
      "HOLD": 8489,
      "postpone": 8490,
      "TIME": 8491,
      "monitoring": 8492,
      "Trigger": 8493,
      "reclassification": 8494,
      "LANDLORD": 8495,
      "impossible": 8496,
      "Affected": 8497,
      "Free": 8498,
      "Farm": 8499,
      "Hotel": 8500,
      "Vac": 8501,
      "War": 8502,
      "hard": 8503,
      "mand": 8504,
      "##mi": 8505,
      "##fection": 8506,
      "##OD": 8507,
      "##SID": 8508,
      "##onst": 8509,
      "device": 8510,
      "##endices": 8511,
      "disa": 8512,
      "Nov": 8513,
      "##ISH": 8514,
      "Condu": 8515,
      "Amend": 8516,
      "##ECTS": 8517,
      "##ATURE": 8518,
      "remun": 8519,
      "failures": 8520,
      "operative": 8521,
      "Summ": 8522,
      "demonst": 8523,
      "supplier": 8524,
      "Official": 8525,
      "Premium": 8526,
      "advisers": 8527,
      "compete": 8528,
      "engine": 8529,
      "Perfection": 8530,
      "Disqualified": 8531,
      "prohibiting": 8532,
      "Acti": 8533,
      "##IRD": 8534,
      "16b": 8535,
      "realize": 8536,
      "difference": 8537,
      "auditor": 8538,
      "Owners": 8539,
      "conclusions": 8540,
      "insureds": 8541,
      "COMPL": 8542,
      "judici": 8543,
      "Defaults": 8544,
      "defame": 8545,
      "ENTERING": 8546,
      "drawings": 8547,
      "422": 8548,
      "deficiencies": 8549,
      "##obile": 8550,
      "distributees": 8551,
      "COLLECTIVELY": 8552,
      "numer": 8553,
      "INCIDENT": 8554,
      "underwriter": 8555,
      "pronouns": 8556,
      "analyses": 8557,
      "Monthly": 8558,
      "Elliott": 8559,
      "Standby": 8560,
      "belonging": 8561,
      "DESCRIPTION": 8562,
      "Abb": 8563,
      "divulge": 8564,
      "Single": 8565,
      "71": 8566,
      "Audited": 8567,
      "EST": 8568,
      "List": 8569,
      "MD": 8570,
      "NOR": 8571,
      "Plain": 8572,
      "XV": 8573,
      "claw": 8574,
      "la": 8575,
      "quality": 8576,
      "run": 8577,
      "ww": 8578,
      "##Med": 8579,
      "##22": 8580,
      "##lary": 8581,
      "##PI": 8582,
      "##LI": 8583,
      "##61": 8584,
      "##SION": 8585,
      "##za": 8586,
      "unmatured": 8587,
      "resolutions": 8588,
      "##achute": 8589,
      "Excess": 8590,
      "Inf": 8591,
      "provisional": 8592,
      "##ERC": 8593,
      "##osing": 8594,
      "interfer": 8595,
      "interview": 8596,
      "##fier": 8597,
      "discounts": 8598,
      "Projections": 8599,
      "Cham": 8600,
      "Notification": 8601,
      "Nex": 8602,
      "Reporting": 8603,
      "protections": 8604,
      "LOSS": 8605,
      "AMER": 8606,
      "photo": 8607,
      "conclusion": 8608,
      "infringing": 8609,
      "conveys": 8610,
      "##comm": 8611,
      "##aluation": 8612,
      "situation": 8613,
      "privacy": 8614,
      "REGARDING": 8615,
      "building": 8616,
      "proportionate": 8617,
      "observed": 8618,
      "reinstated": 8619,
      "corrected": 8620,
      "hazards": 8621,
      "ASSERTED": 8622,
      "subcontractors": 8623,
      "reveal": 8624,
      "Columbia": 8625,
      "whistleblower": 8626,
      "Beg": 8627,
      "Fin": 8628,
      "Opp": 8629,
      "Pla": 8630,
      "Vend": 8631,
      "dra": 8632,
      "honor": 8633,
      "routine": 8634,
      "we": 8635,
      "##eased": 8636,
      "##vill": 8637,
      "##care": 8638,
      "##ka": 8639,
      "ancillary": 8640,
      "##ink": 8641,
      "##inning": 8642,
      "##ortion": 8643,
      "##iled": 8644,
      "underwriting": 8645,
      "##ained": 8646,
      "attainment": 8647,
      "Rein": 8648,
      "interbank": 8649,
      "Commencing": 8650,
      "THEY": 8651,
      "ACCEPT": 8652,
      "although": 8653,
      "designates": 8654,
      "subsisting": 8655,
      "supplies": 8656,
      "Securityholders": 8657,
      "imposts": 8658,
      "differences": 8659,
      "SUBST": 8660,
      "usury": 8661,
      "BORROWERS": 8662,
      "developments": 8663,
      "GUARANT": 8664,
      "COUNTERPAR": 8665,
      "Protected": 8666,
      "DEFENSE": 8667,
      "compromised": 8668,
      "Liquidation": 8669,
      "MAKES": 8670,
      "affidavits": 8671,
      "##ilestone": 8672,
      "reimbursable": 8673,
      "disagreement": 8674,
      "Abbott": 8675,
      "www": 8676,
      "Chamber": 8677,
      "Beginning": 8678,
      "drafter": 8679,
      "99": 8680,
      "BRE": 8681,
      "East": 8682,
      "Mid": 8683,
      "NATURE": 8684,
      "Sch": 8685,
      "bri": 8686,
      "ll": 8687,
      "rents": 8688,
      "testing": 8689,
      "water": 8690,
      "##ipp": 8691,
      "##run": 8692,
      "##vants": 8693,
      "extingu": 8694,
      "##ictor": 8695,
      "unil": 8696,
      "residents": 8697,
      "Borrowings": 8698,
      "THIRD": 8699,
      "Process": 8700,
      "Unused": 8701,
      "Scheduled": 8702,
      "survey": 8703,
      "neglig": 8704,
      "Involuntary": 8705,
      "consolidate": 8706,
      "recommend": 8707,
      "correctly": 8708,
      "Attorney": 8709,
      "Course": 8710,
      "Claimholder": 8711,
      "offending": 8712,
      "emailed": 8713,
      "ASSETS": 8714,
      "Mezz": 8715,
      "function": 8716,
      "disparages": 8717,
      "news": 8718,
      "Workers": 8719,
      "Goods": 8720,
      "diligent": 8721,
      "encumbered": 8722,
      "famili": 8723,
      "Invention": 8724,
      "predecessor": 8725,
      "delinquency": 8726,
      "REQUEST": 8727,
      "1967": 8728,
      "sustained": 8729,
      "Solicitation": 8730,
      "##ortization": 8731,
      "##HIBIT": 8732,
      "servicing": 8733,
      "##oppel": 8734,
      "EFFECTIVE": 8735,
      "nonexclusive": 8736,
      "readily": 8737,
      "Pacific": 8738,
      "impede": 8739,
      "remuneration": 8740,
      "judicially": 8741,
      "AMERICA": 8742,
      "BREACH": 8743,
      "Best": 8744,
      "CITY": 8745,
      "HAR": 8746,
      "Mut": 8747,
      "Morgan": 8748,
      "PAY": 8749,
      "Rich": 8750,
      "Syndic": 8751,
      "Vehicle": 8752,
      "dat": 8753,
      "house": 8754,
      "ide": 8755,
      "##ios": 8756,
      "##vals": 8757,
      "##day": 8758,
      "##PA": 8759,
      "##point": 8760,
      "##fidential": 8761,
      "##wen": 8762,
      "##wich": 8763,
      "##rea": 8764,
      "##rill": 8765,
      "Reorganization": 8766,
      "intervals": 8767,
      "##egoti": 8768,
      "Anal": 8769,
      "Ash": 8770,
      "remote": 8771,
      "##MENTAL": 8772,
      "salaries": 8773,
      "electing": 8774,
      "outlined": 8775,
      "ACQU": 8776,
      "Incorporated": 8777,
      "125": 8778,
      "early": 8779,
      "Assignees": 8780,
      "supplied": 8781,
      "committees": 8782,
      "Disabled": 8783,
      "Priv": 8784,
      "ENTI": 8785,
      "CONSTIT": 8786,
      "Split": 8787,
      "prospectively": 8788,
      "##ORDIN": 8789,
      "SUBORDIN": 8790,
      "institutions": 8791,
      "drafts": 8792,
      "Joining": 8793,
      "medium": 8794,
      "predic": 8795,
      "Immaterial": 8796,
      "ARBITRATOR": 8797,
      "NONEX": 8798,
      "Counterparts": 8799,
      "Whole": 8800,
      "Portfolio": 8801,
      "Greenwich": 8802,
      "Calendar": 8803,
      "reaffirms": 8804,
      "Definitions": 8805,
      "involves": 8806,
      "Fidelity": 8807,
      "SPECIFIC": 8808,
      "HCM": 8809,
      "##ospital": 8810,
      "ORIGINAL": 8811,
      "retaliation": 8812,
      "INCIDENTAL": 8813,
      "##ville": 8814,
      "NONEXCLUSIVE": 8815,
      "Bridge": 8816,
      "CM": 8817,
      "Cases": 8818,
      "FCC": 8819,
      "ID": 8820,
      "Lu": 8821,
      "Linn": 8822,
      "Ol": 8823,
      "Pl": 8824,
      "Sim": 8825,
      "Whe": 8826,
      "cross": 8827,
      "lessee": 8828,
      "sender": 8829,
      "vou": 8830,
      "##uity": 8831,
      "##ourn": 8832,
      "##jection": 8833,
      "##itably": 8834,
      "toward": 8835,
      "##aried": 8836,
      "Cowen": 8837,
[...]
