[PAD]
[UNK]
[CLS]
[SEP]
[MASK]
!
"
#
%
&
'
(
)
*
+
,
-
.
/
0
1
2
3
4
5
6
7
8
9
:
;
<
=
>
?
A
B
C
D
E
F
G
H
I
J
K
L
M
N
O
P
Q
R
S
T
U
V
W
X
Y
Z
[
]
a
b
c
d
e
f
g
h
i
j
k
l
m
n
o
p
q
r
s
t
u
v
w
x
y
z
##h
##o
##t
##b
##l
##e
##a
##c
##i
##n
##g
##m
##s
##y
##p
##r
##f
##A
##T
##I
##E
##N
##d
##v
##u
##Q
##H
##2
##G
##B
##7
##8
##k
##L
##w
##x
##3
##6
##M
##z
##P
##D
##O
##j
##9
##0
##q
##S
##C
##F
##W
##1
##R
##V
##4
##K
##U
##5
##X
##Y
##J
##Z
##ti
##er
##en
##on
##ed
##in
th
##al
##es
##th
in
of
##or
##ati
##at
an
##ent
##as
##is
##ar
##ic
the
##an
##re
##ro
and
re
##ith
with
##os
##om
##ve
##us
##ul
##ter
##ing
to
##ec
##ation
##ol
##ur
##id
##em
##ly
##it
##ac
##atient
##op
patient
##ap
##tion
##le
##ia
##oc
##tr
##tic
be
Th
##ated
##ver
was
##ut
##ment
##il
##ase
##am
##uc
is
tre
for
de
##si
##ine
##um
##ce
as
##ort
##ow
##rom
con
##erap
##el
##ir
##ph
##ot
##og
##ad
##res
##ig
##un
patients
##port
##erapy
wh
##tin
ch
The
dis
##se
##ug
com
##fter
##od
##atment
##ere
##ical
##ous
##ys
##ant
##pl
report
##im
pro
treatment
ad
##ff
after
##iti
##ear
res
##ate
ac
on
##ag
##yp
##vel
al
##ib
##ab
therapy
ex
##ect
case
se
##nd
inf
##ity
im
st
##ure
le
ne
by
or
##ay
that
sy
##ain
sh
ind
##ath
tr
##osis
##oth
##ep
##velop
##yc
##di
develop
were
##ess
year
##one
##ary
##oid
pres
##qu
li
ass
rec
##pt
cl
##ell
We
##ide
hyp
this
dr
##ular
per
##ion
eff
##ist
##igh
su
##iv
anti
##ial
are
##iz
##itis
induc
##ox
##oci
inc
##aus
##ans
##et
##ication
##st
associ
##ection
##est
##orm
drug
ol
##low
##anc
car
##if
##ence
##emia
##pp
developed
##ose
##ud
been
ha
induced
pre
##our
##olog
who
at
##ute
##ases
##min
mon
##tive
old
man
pos
associated
##cr
##act
##vi
##sion
##ting
ag
des
fol
may
##ch
not
oc
##ory
##mon
In
un
we
##gn
sever
##ym
##rome
follow
dia
had
dise
##ven
##sive
##urr
present
##ved
##atin
##ther
##ast
treated
synd
effect
intr
cases
ab
cor
##lo
##ative
ar
from
##yt
compl
##ne
caus
di
syndrome
have
##oma
##crib
##ON
disease
hyper
occ
##ally
##ign
clin
##wo
trans
dur
ser
##ult
acute
##yl
inter
##ple
rel
##enti
##mun
##ten
##ue
##enc
sp
us
rece
has
##az
##ip
use
##ptom
##ich
##ore
##minis
##ge
##oul
##ould
ph
##ese
##action
##atic
##enal
##ron
##age
during
severe
resp
month
##per
sym
describ
##oph
me
##oun
##rol
clinical
##ong
##ors
##tis
hep
adminis
##otherapy
reported
##ium
##ros
This
##ever
##ations
symptom
##yst
which
disc
par
pr
sub
##are
diagn
##teroid
##te
chem
##entr
##ond
##rop
infection
##ful
receiv
ev
high
##ew
en
##ormal
##romb
##sib
ob
suc
cons
##ail
##erm
##ugh
cell
incre
mg
immun
hem
two
##plant
my
##tinu
da
app
##usion
##tration
renal
months
dose
##ree
##ective
##uk
##ight
complication
##ome
following
##ance
##der
##ra
##ism
pl
##able
it
med
##ased
##icity
symptoms
##ies
but
intra
##ak
##cess
##eral
imp
##tiv
##he
##ub
show
##lud
thromb
##ding
effects
##ost
##athy
should
##atitis
##ane
reaction
und
sur
tox
##ild
neu
##ction
##ile
chemotherapy
##ement
##bin
leuk
ep
##all
transplant
mal
##ures
conc
##ymph
##ual
##ature
##erg
he
##hy
sug
##otic
can
sugg
##atory
##kin
lymph
##ating
other
all
##up
fl
##ici
pot
##ek
##ole
##ents
##out
sign
##ough
##ill
##ran
##sible
##SI
week
##ysis
##emic
sec
wom
no
these
rare
##vir
cont
##ons
level
##adi
fail
rem
##ized
##ronic
administration
##ted
##ite
inj
sc
##irst
##view
Al
##ocyt
first
##aneous
occurr
##dition
syst
bet
##ulmon
##ogen
obs
##ulmonary
days
##ard
##ency
ris
##ently
result
review
chronic
am
##ior
meth
liter
second
##00
##ren
##osp
##ected
used
hist
low
##ogr
one
due
##amin
literature
suggest
er
gl
##fer
##ific
over
impro
##ri
int
##verse
comple
liver
##ution
##SION
related
potenti
##ang
includ
showed
woman
child
##ological
day
##unction
peri
presented
##omy
##ression
diff
under
##etic
reg
years
inv
##ych
fact
normal
##gen
##ycl
diagnosis
dos
##ob
failure
well
##ulti
comp
bec
##ach
##order
inh
ins
met
##amine
##vious
##ound
cortic
nec
##lood
##now
three
end
##opathy
antib
pain
##ive
##ft
##CL
cardi
##cessful
##inal
##asm
her
##end
dec
##pos
combin
##ital
disorder
##tivity
##ancer
##cin
##and
##osteroid
##ressive
##ime
risk
mar
col
em
previous
##ater
##ech
##ress
##acter
surg
CON
##ontinu
##row
##rosis
blood
adverse
toxicity
##ame
cause
##USION
##CLUSION
CONCLUSION
cancer
receiving
el
corticosteroid
both
##so
multi
##amide
bl
pulmonary
##aled
drugs
side
##ptic
##ery
weeks
ps
##inding
initi
without
describe
flu
##oin
##ef
An
tum
also
##venous
##ograp
##sy
##owever
##ung
##ained
##alc
##ibit
post
serum
gen
##ens
##ates
##ause
know
our
##though
obser
##ider
resol
##iop
acid
##duc
##ensi
out
respon
long
##fe
##ulation
##we
##asc
when
leukemia
10
##ke
##enia
reve
cour
dys
##ening
discontinu
##ious
##peri
##ix
##vement
oral
##ologic
finding
##ax
##esion
levels
radi
##utaneous
dep
received
##form
experi
such
##ytic
##asis
##ardi
##tered
manag
hepatitis
##ES
##idence
infl
arter
injection
def
##yro
##apine
##fore
##sequ
common
described
red
transplantation
##ities
##CT
successful
revealed
##eu
##ritis
##ycin
signific
recurr
lesion
##erative
##ema
consider
increased
prob
spec
##ween
intravenous
inhibit
##ral
caused
##ler
##IV
##ulin
##amm
##over
##tine
between
dem
his
typ
str
It
To
more
vis
mic
complete
findings
##ll
##tim
prog
##ass
diagnos
significant
there
##itive
its
##ct
##alu
path
up
##med
##ers
##ish
##ade
phen
than
continu
myel
course
non
tak
##rh
##DS
##neum
appear
##ily
##arin
conf
infusion
##astic
systemic
min
##led
##arly
##ology
##cinoma
##ied
##thm
es
##udi
##quir
possible
decre
reports
control
sus
##tal
within
agents
medication
anal
##uss
##osph
##onstr
cycl
steroid
##anism
combination
##ov
##atal
##tinal
neuro
function
##normal
##ility
##udy
##opl
##ocal
only
##azole
time
##pha
abs
##iciency
potential
reduc
cyt
studi
occurred
Ac
##ric
effective
response
mus
most
##ness
##erc
##iotic
##icated
##roph
##ock
study
doses
management
pneum
##ural
discuss
malign
period
##yth
##terior
abnormal
##entric
Although
including
##ie
##upp
ang
##ange
vir
new
##tensive
complications
history
previously
observed
biop
fib
condition
four
##cop
##tern
children
19
After
ul
fe
concentr
br
bone
hy
test
##ulf
##iven
##TS
##dro
occur
pred
multiple
##requ
##osupp
##ereb
prol
alpha
skin
##tit
##apid
##eutic
aut
ret
secondary
ME
##esis
arth
invol
He
ey
##SE
rep
##ody
examin
agent
because
antibiotic
mech
##lor
##rem
care
later
var
##iss
##erapeutic
import
12
##zapine
##orrh
##ogn
seiz
demonstr
administered
tumor
##yroid
term
These
##phal
star
neph
##raw
However
##ts
##draw
##ascular
Two
op
##ission
she
##oxicity
diab
lesions
given
sim
tub
##rine
top
##ste
carcinoma
eryth
##ensitivity
hour
##ked
##lev
recover
##vention
##ography
considered
calc
##ually
development
reactions
##ospital
hear
##TH
withdraw
##lyc
##ilat
##otre
pol
rapid
##openia
del
pers
RES
##com
antic
##abol
corticosteroids
psych
inflamm
sa
##mit
##ving
##UL
RESUL
derm
##ps
##par
##tial
form
carb
##feron
##pite
surgery
##ram
##urther
##itor
perform
using
subsequ
RESULTS
co
##erv
##onia
produc
lead
factor
##iat
positive
biopsy
lung
##enced
evidence
evalu
There
addition
immunosupp
CONCLUSIONS
studies
##aemia
##ition
ref
requir
##ranul
cardiac
topical
found
frequ
##eter
##ale
##arm
arthritis
20
ble
##ian
det
expos
need
recom
val
METH
METHO
##entricular
She
id
##operative
before
while
like
sup
marrow
known
los
interferon
fever
hospital
##xate
##urn
##ants
##rolog
diagnosed
taking
hours
##otrexate
Cl
org
##ization
##ancy
manif
differ
mechanism
some
##ND
##ticular
##istent
plasm
prolong
##uth
##icin
##oxic
system
improved
av
##entral
heart
CA
cereb
early
##av
monitor
##AC
##orph
##atheter
male
##ergic
angi
##enic
##thal
left
##ilateral
manifest
sm
##til
##ont
##emat
chang
followed
##azep
improvement
loss
main
##ori
##ice
performed
prom
##arc
##arr
their
##lear
association
withdrawal
lim
##ood
##emb
##ace
##aph
resist
##ately
metabol
confir
any
contr
##set
resolved
ill
##nis
life
##ophil
successfully
micro
METHODS
On
ben
bre
cutaneous
##ges
##reat
serious
##tension
hemorrh
thrombosis
factors
necrosis
experienced
type
##iatric
##ract
##eding
##ack
several
##armac
catheter
elev
fem
##went
adv
tiss
therapeutic
##uted
recogn
increase
##hythm
hydro
##lish
##arge
prop
prim
signs
methotrexate
##isod
total
appro
##tig
##ised
##ithium
##olone
hypers
daily
doc
right
##rin
##omycin
##iratory
episod
mod
##of
##tained
##iqu
##xim
##ety
##icians
block
discontinuation
Ch
could
ed
panc
##ex
##asing
char
onset
15
fatal
##RO
##ialysis
##entif
hepatic
infections
visual
discussed
##umb
All
vit
##aps
##app
##tric
##abine
##heum
##ata
##olysis
##olytic
surgical
examination
central
mac
##tes
##ced
##gative
##PO
##use
##astro
##raft
toxic
potentially
susp
plasma
changes
coun
hum
sulf
rever
##odium
pregn
hypertension
lower
regim
seizures
ir
ker
##rogen
cells
musc
did
oste
rheum
##atus
##ental
##opr
##occ
##ocardi
neurolog
##ospor
abnormalities
prolonged
character
sin
##ument
##rect
epid
##ercul
##mitted
identif
One
five
##air
##vent
##arb
##ffer
exc
negative
##ronch
artery
range
ven
##onic
##atures
##lob
##ipi
resulted
demonstrated
##azepine
edema
OB
St
gr
sel
##fen
hepat
##ropathy
hemat
results
malignant
auth
lab
##ECT
##itu
##ilar
ext
recipi
supp
gluc
brain
hypersensitivity
lithium
po
##oh
##dom
##KG
##JECT
respiratory
underwent
virus
BAC
qu
##line
##pec
##red
##ury
chol
extr
possib
Acute
tissue
OBJECT
OBJECTIV
##UND
##actic
diss
lymphoma
insulin
radiation
recurrent
##ROUND
##KGROUND
BACKGROUND
##ok
##mend
##onitis
##esting
##reatment
##och
##aining
short
features
important
24
if
often
being
##ically
seen
infil
pharmac
##ledge
HIV
bilateral
large
sodium
##sure
##atoid
##ash
##ococc
status
respond
meas
into
disorders
inflammatory
document
authors
Wh
aw
aff
role
##lastic
##yr
##arg
eye
##ias
##fusion
corne
metast
recommend
Clin
pancre
further
sch
##onary
threat
##its
##amazepine
##ential
##tein
head
##ardia
medications
##thalm
small
11
horm
kg
mo
##aj
##son
##val
##inated
##asia
##leptic
##ists
##etes
##ropri
knowledge
ulc
##ves
decreased
As
data
##pro
##function
##ortic
##osin
##truc
increasing
suggests
confirmed
breast
threatening
Ad
granul
gastro
##rough
##acin
age
marked
fluor
exposure
##ajor
##oag
##ise
##ocl
acc
##uption
general
inhibitor
progressive
pathogen
diabetes
tubercul
rheumatoid
ful
local
muc
##zym
##oscop
##uria
##idine
##opath
##allen
discontinued
female
16
Patient
mild
major
##esia
##oral
##ick
##pheral
medical
##ograph
started
##aphyl
hemorrhage
50
Treatment
even
lup
##usual
toler
##olar
##ocytic
treat
infar
##ophosph
injury
similar
refract
resistant
do
prov
thrombocyt
resolution
continued
antibiotics
primary
##pir
##oratory
chlor
##ably
pressure
coronary
reviewed
psori
fluid
dysfunction
bleeding
##lished
corneal
lupus
25
however
very
##sti
##tid
##erb
abdom
inhibitors
nephro
CASE
##ropriate
refractory
rate
##AR
##istic
##ited
admitted
activity
clo
suffer
##anced
died
interaction
beta
elect
human
##trial
##und
##lovir
usually
##oblastic
recovery
calcium
required
OBJECTIVE
CD
Re
Sever
ap
cat
made
##ovir
those
##roup
##ulting
##amb
##sient
adult
unusual
weight
particular
immune
underg
##ressed
auto
extrem
##stitial
few
##lem
##acil
resulting
heal
suggested
overd
peripheral
pregnancy
regimen
##osinophil
bronch
##avi
##xy
##estig
anemia
Three
##cet
despite
complicated
investig
##medi
##ieved
safe
##ontaneous
based
numb
sol
##ert
##itone
##uct
##immun
##ially
##ectively
emerg
organ
14
Ph
pat
##oy
##ene
##acement
death
##otoxicity
whom
again
causes
remission
pneumonia
##testinal
clozapine
bacter
stim
ventricular
##avir
##II
##tiz
##odies
ach
##aging
stop
stage
tran
about
occurrence
eruption
problem
neuroleptic
prednis
erythemat
carbamazepine
documented
13
30
six
##auc
##upt
##ality
##ycardia
presence
antid
##urrent
heparin
##ocyte
##ameth
cyclospor
return
infarction
##itoneal
At
cr
cap
so
##fl
##rel
##omp
##eminated
protein
##ects
##ectomy
hypoth
combined
continuous
concentrations
cir
nod
##enting
##onate
##intestinal
##orb
##asal
##isting
##very
isch
##cept
neut
##other
noted
intrac
initial
initiation
fibrosis
subsequent
##pecially
ped
rash
##cit
thyroid
they
##phyl
##oton
##platin
Intr
presentation
enzym
##kinson
##illin
methyl
dosage
postoperative
deficiency
analysis
##arcoma
Des
clear
gas
sw
##ingle
##ache
##let
proced
##ances
intrav
##ychotic
especially
Am
No
eosinophil
wide
##TI
##vul
##ided
beg
##plication
##imal
##ages
##ypical
##ability
##ayed
##oxication
##azine
prior
intoxication
##axis
abscess
anticoag
##psychotic
stopp
acet
cis
est
single
tem
war
##come
##gal
##ption
##ML
##FN
##UR
##icac
beh
where
agg
epile
scler
cerebral
##ique
DI
rh
##anzapine
##omas
prost
altern
antipsychotic
haem
rarely
emb
arterial
recurrence
steroids
##rophy
concentration
monitoring
undergo
Both
Ig
cre
cult
less
##eth
##iod
##ded
##uff
through
##oglyc
prescrib
##ival
##ouracil
uncom
spontaneous
included
diffuse
##phalopathy
elevated
aware
gastrointestinal
Un
ca
grow
line
##thetic
##trates
##irl
lip
##ytoin
interstitial
spinal
occurring
##ocardial
##lobulin
number
200
ro
sal
##toxicity
##iting
##yn
##tib
##omer
##ecal
##iam
prot
immedi
##ize
ocular
##ake
depend
experience
tests
100
CS
vas
##ning
##rug
intensive
##ust
deter
adj
many
recept
##ermal
##rav
##viral
complex
diffic
commonly
specific
decrease
##titution
subsequently
hormone
##allenge
##ophosphamide
##immune
IFN
Par
Rec
mas
nerv
tach
##li
##ae
##farin
##US
retin
##ulating
##acerb
prof
stand
efficac
relative
depression
advanced
muscle
thrombocytopenia
graft
nit
##cutaneous
##ird
##imes
prophyl
sequ
prevent
mean
clinically
##rosp
impair
##ocytosis
outcome
##ventional
support
suspected
schiz
Patients
group
mm
mag
##tro
##TX
##den
##arone
##ither
##osus
##omat
##olol
##ured
##iaz
##ili
although
infant
olanzapine
prec
arr
colon
gener
reduced
reduction
must
mechanisms
transient
pediatric
embol
17
IV
dam
might
pap
##ines
repl
##idual
dex
##seud
##plasia
##imus
indic
assess
##ophren
surv
neuropathy
glomer
became
rapidly
evaluation
episodes
##appear
reversible
identified
abdominal
antidep
18
IN
##mission
##CA
##ension
##onazole
though
third
stem
atypical
describes
event
##ogenic
necess
199
autoimmune
health
behavi
schizophren
Com
Our
With
led
##hip
aden
active
exacerb
class
##isted
seroton
phot
phys
##ationship
shown
##ogram
insuff
##ungal
observ
appears
repe
laboratory
tuberculosis
##ographic
Despite
undergoing
tw
ter
##man
##EN
##NA
##MS
##onal
##ind
##lying
##itation
##atelet
imaging
##ains
incidence
##ymptom
##rolimus
cyclophosphamide
recovered
dermat
immunosuppressive
electro
Severe
standard
antidepress
pur
pop
tom
##var
##rec
reac
##itre
##pho
set
trial
##oxif
relationship
diabetic
venous
psoriasis
warfarin
##iodarone
dialysis
girl
ve
##lusion
##old
##trib
##agon
intrath
useful
phosph
##oung
obstruc
acidosis
avail
manifestations
overdose
cyclosporine
efficacy
Im
tech
young
##otr
##iety
##art
##iab
##ocular
white
disappear
exp
seem
lev
##azol
myocardial
conclud
completely
count
irr
recommended
##ovirus
cisplatin
damage
##photer
techn
body
boy
mit
##ling
##SC
##uring
expl
hypot
##pper
interval
##ences
respectively
##tivation
phenytoin
persistent
avoid
illus
erythematosus
uncommon
tachycardia
##photericin
PUR
eti
free
tac
upper
##light
##onvul
then
ant
retinal
##osed
##ull
dist
extensive
syn
##oxacin
unc
##roscop
##ogenous
probably
pneumonitis
recognized
##POSE
disseminated
metastatic
PURPOSE
CM
lam
pe
##af
anterior
##ict
##retion
##omal
##urb
##idne
##itant
##unt
##essation
recently
att
series
intervention
consistent
##omegal
##ranial
women
necro
antibody
herp
##oplasm
importance
different
benef
characterized
nephrotic
##orbid
nervous
21
Drug
bi
kidne
mass
##oe
##asone
##ison
##omen
##ides
##uccessful
alone
scan
method
colitis
occurs
polym
ulcer
available
CT
az
pub
##ational
##iagn
##oglo
##tention
events
compar
##ovascular
dermatitis
microg
Clinical
achieved
CSF
insufficiency
##oglobin
Hyp
cessation
dop
late
same
##assi
##roh
admission
##yclovir
##mong
diseases
appropriate
remained
viral
conditions
ultr
frequently
likely
neurologic
arrhythm
40
Ex
PD
hal
vin
##lu
##RI
##erve
deg
asthm
aspir
pros
recent
phenomen
controlled
valpro
keratitis
sinus
When
particularly
growth
schizophrenia
vein
intrathecal
Ne
each
mening
optic
te
wors
##les
##kal
##PA
##ositis
##ulitis
##ters
##amic
##umab
##otoxic
super
hemod
amiodarone
injections
repres
prompt
##ximab
possibility
##ococcus
tolerated
##aucoma
alternative
prescribed
massive
48
AI
amin
ovar
##iel
##nes
##PD
##esc
##icine
##osa
##ecti
##ysm
infected
trig
hypoglyc
sud
until
direct
transfusion
##derly
contact
underlying
diagnostic
absence
approach
epidural
recipients
pancreatitis
headache
enzyme
receptor
##itreal
eth
las
morph
urin
##br
##ses
##domy
##HD
##eric
##idone
##ments
##phen
##imab
##abdomy
presenting
subs
ence
platelet
lymphoblastic
antibodies
##iximab
##yroidism
contrib
##gestion
poor
##ochem
against
returned
estab
setting
hypotension
disturb
sudden
En
HC
et
here
##ioid
##renal
##LL
##till
##edema
##ined
##essive
##itus
##apse
bel
##igment
change
posterior
cord
enter
containing
##ocytes
amphotericin
glaucoma
elderly
inflammation
metabolic
recipient
responded
stopped
aggressive
antagon
CMV
Further
PC
gu
lens
vasc
##pred
##inase
##roduc
##emcit
##opic
##ocol
##amp
conventional
##otor
##iferative
partial
obtained
concom
##arditis
##obacter
endome
appeared
episode
kerat
##ohol
fluorouracil
circ
dependent
difficult
urinary
##emcitabine
AC
SU
atrial
either
m2
##otid
##50
##oside
##ocomp
deterior
##unc
developing
##ella
higher
appar
emph
strong
involvement
saf
immunosuppression
detected
neurological
since
##ituximab
cholest
emergency
relatively
population
##abdomyolysis
Croh
LA
Ser
Tr
cri
ox
##cohol
##iated
##iasis
##oper
##try
##tical
isol
immunod
##ieve
careful
seizure
illness
generalized
pattern
neutrop
replacement
tomography
concomitant
safety
Crohn
Four
Her
TN
among
every
mel
ple
pseud
vascular
##iver
##ision
##read
##trac
##amoxif
infants
induction
prepar
complic
##ophthalm
subj
##binant
##hyd
histological
neurotoxicity
eyes
leading
additional
frequency
##amethasone
temp
kidney
ovarian
##amoxifen
AML
CN
During
bow
hel
host
nerve
##yel
##MM
ingestion
##oration
##rog
##ithel
##oster
##trate
##imin
alcohol
implant
##uretic
##aryn
##ancies
artic
##ensitiz
taken
starting
poly
vitamin
generally
serotonin
SUMM
TNF
SUMMAR
Case
II
Neu
cyst
idi
times
ver
wor
##toxic
##etine
##MT
##SA
##ules
##ites
##tral
##romised
##phthalm
##ellular
##oxetine
duration
##ipr
allergic
endoc
##eficiency
##ixed
progression
predis
involving
delayed
valve
grade
prednisone
DISC
##USSION
DISCUSSION
60
His
don
myc
memb
##oqu
thor
##orn
another
##asion
##oprol
##amil
##ucle
septic
close
##chlor
##perg
immunocomp
failed
remov
include
##ycline
##imeth
tumors
infliximab
vision
requiring
grad
poison
pathogenesis
suffered
obstruction
Meth
QT
der
mut
penic
##gia
thyro
##esth
##rob
rele
##omide
##ident
##itch
##tions
consequ
##aden
acyclovir
allow
shunt
##ancomycin
concer
lymphocytic
typical
##rogenic
movement
##oscopic
problems
ischemic
intravitreal
widely
rhabdomyolysis
Parkinson
prophylaxis
thought
##ymptomatic
##omegalovirus
hemodialysis
##prednis
immunodeficiency
bowel
Hist
MTX
PT
air
mes
poin
site
valu
##oal
##ays
##utine
##ins
##asive
##anth
##retro
##osine
##omyc
treating
##ump
##oglobulin
chrom
##ystic
acu
##udine
##netic
symptomatic
enc
mediated
intraocular
leukaemia
remains
coll
radiotherapy
myeloid
analog
various
coag
monitored
characteristic
hepatotoxicity
methylprednis
gastric
repeated
published
phenomenon
SUMMARY
##pergill
##retroviral
23
35
dyst
good
ml
men
morbid
pac
sens
##tent
##less
##vant
##xt
##ened
##onance
##isc
refer
##ulated
dev
##inetic
##umin
conj
##otyp
process
rest
acquir
leg
indicated
##minant
part
region
dyskin
elevation
possibly
tacrolimus
##ophthalmitis
poisoning
methylprednisolone
Bec
FU
Here
fac
gre
gemcitabine
hand
lat
mort
pal
rituximab
situ
still
vol
##mine
##ida
##idal
##emph
##trum
chest
disch
resonance
exce
seven
having
##ageal
##ophageal
##ross
enh
myocl
therefore
exposed
limited
recognition
##opril
glucose
anticoagul
glomerul
healthy
##artment
disappeared
ultras
acuity
Because
##emphig
Myc
Successful
bac
ophthalm
sarcoma
vom
##oi
##ioma
##CG
##RT
##ator
anaphyl
##icial
##veolar
##ocar
##ocortic
##agic
##abil
antiretroviral
induce
##peridone
hemolytic
##adiation
scre
computed
initiated
tumour
anticonvul
Intra
necessary
purp
phosphate
##ield
complicating
predispos
removal
acquired
22
Hep
dil
duct
tamoxifen
will
##oz
##equ
##BV
##onat
##onec
inten
##ark
##aract
##roke
toge
##adder
##odg
tract
perit
peritoneal
##izing
##hea
##ospasm
##ressin
spectrum
significantly
psychiatric
##psis
formation
macular
##ertain
creatin
##assium
neutropenia
vomiting
together
Med
testing
vancomycin
##ire
##sential
##ysi
##rill
##AD
##RA
##round
##ule
##tri
asymptomatic
##romycin
##resp
##plastic
accom
neon
rech
##ividual
antigen
unit
##nea
subcutaneous
immunoglobulin
##ergy
suggesting
##rief
introduc
initially
specim
##remia
recombinant
organism
mainly
##ximately
revers
irre
##oscopy
application
cataract
eosinophilia
dexamethasone
technique
compared
asthma
##ectious
vasculitis
article
donor
anticonvuls
36
DNA
RA
eight
lo
mental
past
ra
##tre
##aine
##cor
##ger
##pan
##AT
##ues
##VHD
##asth
##ithromycin
##opulmonary
##mental
##amatic
##cep
adrenal
activ
sepsis
state
least
orig
##elling
dramatic
##stan
attrib
correl
occasion
thrombus
epithel
potassium
##ranolol
endophthalmitis
probable
appearance
involved
moder
affected
##opathic
adults
intracranial
epilep
routine
established
##unctiv
morbidity
##odgkin
28
Early
Five
Hodgkin
Post
SI
base
byp
field
mol
oper
pul
##oence
##ty
##last
##EPO
##LD
##olid
##urg
##urysm
##utol
whe
proper
individual
areas
##lofen
thrombolytic
amp
##alcemia
responsible
##ardive
suscep
##rophil
198
psychosis
##ranulocytosis
limb
quin
##ambutol
switch
procedure
##iliary
survival
twice
emphas
help
##oproliferative
peritonitis
bypass
susceptib
Sub
dig
pemphig
##uvant
##onus
##ising
##rept
##roid
##ectr
##lex
deep
##umed
##els
##otrop
comm
##plement
stent
hyponat
##ification
##cris
##urrently
relaps
##ipro
microscop
myeloma
minimal
essential
metabolism
epidermal
determin
seems
herpes
##ochemical
##ensitization
immunocompromised
mortality
##onecrosis
Fol
Pos
ur
would
##arding
##ics
##icillin
##usc
##itary
conver
##erapies
challenge
coma
##plicated
add
##earch
along
##oxin
attention
##crip
Inter
clinicians
relapse
##ministration
parent
parame
myasth
##omyopathy
cardiomyopathy
bladder
outp
cytomegalovirus
malignancy
evaluated
Therefore
##arrhythm
##arged
extreme
procedures
immediate
physicians
observation
antidepressant
conclude
illustrates
encephalopathy
##esthesia
release
dyskinesia
##ocarcinoma
epilepsy
##oencephalopathy
##cristine
AD
Diagn
Sin
back
brief
fet
fungal
gang
ile
mater
nor
nons
rif
##lit
##LS
##OP
##osc
##omin
##terol
##empt
##opressin
depos
##phrine
##rest
whose
cho
action
##ypt
shock
perf
effusion
##oxazole
hyperplasia
respons
practic
leukoencephalopathy
##hydro
##icient
##illary
secretion
institution
cytotoxic
studied
fibrill
frequent
needed
resistance
self
infiltration
pancreatic
began
caution
immediately
reactivation
laser
deterioration
deriv
values
responses
bull
current
dox
ear
mL
rib
uter
##afen
##nal
##ying
##famide
##eration
##enol
##ord
##aren
##arily
##osfamide
##uric
##acic
##opro
##ocellular
aspar
##iram
##tinib
seg
stroke
##quam
##ellitus
prem
weak
hyperg
##yloid
##ylline
##ubicin
sugges
remo
intes
compound
become
##ausea
courses
malignancies
bleomycin
approximately
vitro
selective
suppression
##okinetic
stimulating
prednisolone
sclerosis
impairment
assessment
exacerbation
vincristine
disturbances
parameters
fibrillation
000
27
37
IC
MM
NMS
SS
best
dental
focal
gold
ket
loc
last
mellitus
nausea
pel
urine
wall
##hood
##eti
##iant
##sity
##erous
therapies
##orption
them
##ann
##osarcoma
##ulatory
##sies
congen
added
infectious
##urea
triam
trimeth
##chicine
##atinib
occlusion
highlight
regarding
##cinolone
##oplatin
propranolol
suppor
##ococcal
granulomat
clearance
##TION
culture
protocol
profile
sequel
attempt
dopamine
trigger
ethambutol
morphine
##obacterium
isolated
CNS
idiopathic
##ocorticoid
accompan
hyponatremia
triamcinolone
26
Di
Ep
TM
max
oxy
port
slow
##hibit
##topril
##most
##face
##utr
##utes
adequ
##athiop
tric
peric
severity
##tenance
highly
risperidone
invasive
fluoxetine
managed
struct
sustained
##ternal
##odyn
variety
confirm
benz
infiltrates
measured
investigation
solution
anticoagulation
prostate
magnetic
termin
##rected
etiology
encoun
conjunctiv
anticoagulant
moderate
whether
Follow
Since
congenital
##athioprine
32
Pulmonary
aim
cent
ec
ech
tardive
##oic
##tle
##aum
##sis
##yan
##fact
##king
##VA
##ercept
##ones
##thromb
##orubicin
##anercept
requ
##veitis
##apan
##leep
##phosph
distr
treatments
sex
neur
##oneph
##ified
agranulocytosis
uns
arrest
causing
receive
##ichen
##ophylline
##rops
myopathy
median
##athyroid
##SIK
analges
examined
opioid
erythema
pharmacokinetic
measures
bacterial
##avirin
##floxacin
proteinuria
determine
##nesium
antagonist
LASIK
##traconazole
##hydr
##omycosis
facial
parenteral
extremely
ribavirin
oxygen
31
72
BMT
CY
Con
Japan
MRI
Res
Se
ST
bro
ce
fract
mat
rupt
sleep
ten
##vic
##know
##PS
##arabine
##tering
##ecular
##lysis
##ograft
progn
resection
almost
unique
phase
##tisol
##erma
thrombolysis
lymphocyte
##illamine
improve
normalized
neck
blind
dysp
##axel
##tity
persisted
psychotic
differential
angio
maintenance
hemorrhagic
macroph
##oprim
hematologic
glucocorticoid
fulminant
suffering
##plications
##oeb
rechallenge
choice
##areness
suggestive
supportive
45
70
AT
AND
De
GVHD
cystic
certain
dog
fam
grav
light
##bal
##lic
##focal
##IN
##onide
ane
##osing
##opa
##opsy
##otens
##ept
unknow
diarr
hyperc
chemoth
entity
increases
place
lymphaden
cardiovascular
electr
defects
##ervical
supplement
##embol
##appropriate
exclud
full
fully
##tizing
IgG
trials
##icture
meningitis
##igmentation
ACE
melan
endocarditis
creatinine
irrever
baseline
hyperglyc
sequelae
##odynamic
encountered
require
distress
##otensin
unknown
diarrhea
42
53
55
CB
Fatal
MA
Most
Pr
aortic
bip
equ
flow
face
lack
mig
motor
nine
zoster
##aemic
##ivery
##pr
##path
##way
##ways
##aria
##iclovir
##itating
##aper
##apar
##ume
orth
##othel
##oidal
clar
##ellar
antim
##oxamine
##anciclovir
##ologous
agon
presents
##geal
##kinase
flap
scale
##angi
##yclic
##oplastic
nephritis
##rams
products
contrast
benign
hydrox
ifosfamide
infiltrate
measure
While
Administration
granulocyte
does
stimulation
neutrophil
whereas
epileptic
precip
colony
paper
indicate
surviv
prosthetic
valproate
cholestasis
preparation
##aryngeal
glomeruloneph
Mycobacterium
##iprofloxacin
##cription
CYP
gravis
AR
REPO
Six
ak
burn
cyc
fav
lumb
lichen
mil
sul
uveitis
water
##oac
##bil
##lus
##land
##aw
##iol
##itic
##ief
##yg
##utive
##xiety
##jective
##tiapine
inappropriate
##teria
##ecutive
##olin
##olution
##ura
##idental
##itr
##iton
##amoeb
##uclear
##inephrine
##adver
##igine
traum
hypoc
area
##izumab
desensitization
##astatin
diet
##uetiapine
subc
enl
consecutive
concurrent
better
##ologically
cardiopulmonary
##oint
##ensitive
recurred
probability
autologous
varic
carboplatin
manifested
doub
extremities
swelling
cultures
##rospinal
magnesium
adenocarcinoma
antidepressants
##otrigine
peg
biochemical
azathioprine
hypoglycemia
guid
strongly
##oquine
gradually
thyrotoxic
origin
myasthenia
##ominant
##quamous
trimethoprim
aneurysm
chemotherapeutic
irreversible
glomerulonephritis
00
90
Cand
HD
Le
Multi
coin
cef
dl
fr
itraconazole
os
pyr
sensitivity
##yram
##LE
##inent
##alysis
##isia
##aran
##omon
##ush
##ecting
##itated
##erapamil
adren
restric
##ectable
lep
orally
order
##ather
percutaneous
carri
##asty
hyperkal
relief
spasm
##ophag
parkinson
genetic
department
cycles
retrosp
tubular
##lycer
delivery
produced
evaluate
angiotensin
hydrochlor
approved
sulfate
osteonecrosis
Clinicians
##aphylococcus
cirrh
begin
impaired
necrotizing
benefit
arrhythmias
half
worsening
AIDS
endometrial
apparent
pleural
penicillamine
##anthamoeb
determined
perforation
Candida
##yramidal
AN
Man
Other
Pro
basis
cav
cross
cyan
lin
lact
nasal
vac
warr
##event
##me
##pid
##rac
##rane
##fa
##EG
##uter
##kyl
##ward
##ties
thus
off
theophylline
##anol
reas
##ittle
aspergill
##romes
##otomy
residual
onc
##aginase
alb
alfa
exhibit
next
hair
haemat
monotherapy
agitation
unevent
syndromes
clinic
plan
leukopenia
allograft
weekly
erg
regard
colchicine
minim
demonstrates
detection
manifestation
##ophilia
sulfameth
regimens
shortly
Phys
lipid
electroc
lamotrigine
degree
valproic
represent
etanercept
believe
temporal
concern
chromos
coagulation
discharged
myoclonus
baclofen
##oietic
anticonvulsant
molecular
pulse
doxorubicin
weakness
##utrition
Following
REPORT
##anthamoeba
uneventful
39
43
AP
HBV
More
Sp
Wil
cm
cough
currently
gamm
ganciclovir
pene
rati
rig
tend
venti
##oembol
##lation
##loxacin
##ave
##aqu
##ry
##HS
##Cs
##inol
##ession
##thyroidism
##atis
anxiety
##osal
##ulate
##ulopathy
Thus
##ampl
##adox
inform
never
##athisia
antidi
aged
##ophysi
prur
lymphoproliferative
##obarb
inhib
##ishman
biopsies
brad
##tituted
mechan
##remic
##apsone
Staphylococcus
hepatocellular
markedly
solid
hypothyroidism
acetate
antipsychotics
IgA
observations
micrograms
represents
thoracic
device
##uminum
greater
Intravenous
outpatient
Diagnosis
earli
asparaginase
intestinal
pelvic
prognosis
dyspnea
lymphadenopathy
bipolar
sulfamethoxazole
##obarbital
57
BC
ECT
For
If
MDS
PR
Pre
bic
brom
den
fung
gest
hip
kinase
mul
mother
now
pust
pump
picture
rang
rather
vul
vess
vers
ventric
wound
##born
##cious
##zid
##jection
##SH
##iness
##inally
thi
##esterol
##ored
##idate
##tional
conduc
##oderma
proc
proven
once
stable
##ultaneous
paras
objective
##ostatic
cann
allergy
##ogene
rise
longer
progress
pathological
phenobarbital
Acanthamoeba
periods
abnormality
##erebral
delay
##oniazid
produce
cerebrospinal
##ontrol
hydroxy
metastases
mucosa
patch
captopril
nodules
adjuvant
retinoic
embolism
glomerular
Immun
##iable
concluded
mitral
necrolysis
##otide
screening
##ADH
attributed
SIADH
##otropic
removed
accompanied
adequate
echocardi
##lusive
beginning
versus
33
34
56
69
64
80
Ab
CP
Carb
Eff
HA
Lab
PV
Renal
SM
bile
basal
cur
cop
cervical
ciprofloxacin
date
ect
mid
mim
nutrition
oedema
pan
size
slight
ure
verapamil
##ez
##na
##ms
##rupt
##xine
##als
inadver
##atrogenic
##rection
##used
##ula
##ulative
##ecit
##opoietic
##apyramidal
Thromb
##uch
asp
chori
commun
##antoin
##ateg
alkal
existing
infer
implicated
imatinib
stabil
lethal
recall
##ansfer
##ologists
##ipine
sympath
##ount
hemoglobin
placement
lymphocytes
novel
childhood
inser
herbal
gene
##fetil
depressive
defic
stress
upon
infusions
reduce
newborn
open
##tility
prominent
Only
extraction
psoriatic
ischemia
cream
prophylactic
polymorph
worsened
##escent
Neuro
##traline
legs
##respon
load
digoxin
rifamp
bullous
granulomatous
tricyclic
##thrombin
cirrhosis
##amples
##ecitabine
29
44
400
61
Ar
ALL
DE
Naran
Over
TEN
aer
bis
lysis
mixed
pall
sum
sites
ty
table
yet
##tum
##jo
##enz
##onidine
##thi
##icrob
##uled
##ulsive
##urs
##itol
##amph
trem
##imod
alveolar
external
strept
leishman
##oidosis
perman
##ivudine
antiviral
cortisol
hyperthyroidism
intermit
##plete
##oretin
consisting
surface
toxin
cand
##ician
histopath
##omyel
compulsive
elimin
influ
##times
pathophysi
minutes
simultaneous
##stein
erythrop
value
suprav
angiography
##arcoidosis
##rectomy
##arbonate
awareness
##arget
increasingly
Report
bacteremia
enzymes
Americ
stopping
prostag
INT
aspirin
aspiration
superior
apparently
Trans
work
##ipramine
membran
referred
neonates
Subsequ
Possible
deposits
practice
##afenone
premature
rupture
excluded
akathisia
favor
varicella
aspergillosis
antidiuretic
mechanical
earlier
Naranjo
supraventricular
51
500
End
EEG
High
IU
Ind
III
PE
Per
Str
TSH
UC
VII
aplasia
bot
caps
fil
glyc
great
home
iron
ng
nucle
ray
rhythm
sour
search
squamous
sarcoidosis
uremic
vi
vag
##oked
##ni
##ner
##fort
##fection
##vascular
##GN
thal
##atib
##icyl
##rof
relev
##aced
##apr
##apism
##aparin
##ocaine
##amycin
##elines
##unct
##anted
adol
aluminum
##ible
antif
##stances
prevention
monocl
Initi
units
##atinum
diuretic
##teen
overall
regular
endothel
painful
multifocal
progressed
##ished
confusion
minor
##ulfiram
sometimes
##azepam
primarily
ques
sched
ulcers
tuberculous
tolerance
soft
haemorrh
vasopressin
INR
behavior
##ENT
irradiation
arrhythmia
##luor
verte
movements
PTLD
##otype
ultrasound
##arkable
introduction
quinine
pemphigus
relapsed
microscopy
family
lumbar
carried
bicarbonate
##ansferase
##icrobial
##omyelitis
prostagland
monoclonal
75
Dep
Diss
El
HS
MR
PA
Rever
SD
TD
cle
cum
ju
joint
mis
nat
rates
sensitive
viv
##cent
##ii
##ged
##gth
##rial
##de
##zolid
##ST
##titis
##ensive
##ength
##ina
insi
offer
##ording
##atemia
##icl
##rees
reupt
degen
##umerous
chann
##plied
resemb
activation
alter
exch
clos
mand
complained
hypert
hyperp
hypertensive
sertraline
spread
substan
##ropath
##raves
potent
##ogenetic
histor
##genase
dosages
compon
black
arteri
strateg
visc
myelogenous
predominant
autopsy
nephropathy
production
propyl
blockade
##ochrome
affect
provide
interactions
Several
investigations
nodular
behaviour
unclear
lamivudine
methods
##brid
tempor
mutations
dystonia
purpura
predisposing
##uscular
converting
##arrhythmic
Epstein
portal
sexual
melanoma
hyperglycemia
cycle
thyrotoxicosis
coinc
##omonas
hyperkalemia
hydrochloride
ratio
Laboratory
leishmaniasis
permanent
erythropo
reuptake
38
58
54
Barr
Cardi
Disc
Em
Graves
HUS
My
Mar
Pl
Sc
SLE
aver
aort
aure
cogn
eas
none
ot
vig
##ool
##itinib
##noid
##pected
##fied
##kel
##wing
##tile
##esophageal
##thesis
##oroidal
##anding
##rotic
##oses
##itud
##trating
conges
##otal
##otopic
##ugment
##odone
##odopa
proxim
alert
implications
sten
leuc
##ainide
##epatic
presumed
drain
preval
##chol
unrespon
##veness
abuse
serial
##encing
discl
subac
##ropion
thrombotic
allogene
##ocytopenia
##ript
intake
##posed
blast
responsive
defect
defined
intravenously
absorption
angle
hyd
optim
simple
forms
##ervative
immunosuppressed
hospitalization
maintained
blocker
##existing
counts
excessive
CD4
applied
extremity
erythematous
soon
estrogen
spontaneously
Complete
classic
levodopa
attack
interventions
critical
closely
sensory
volume
specimens
##treated
epithelial
segment
##athyroidism
CYP2
double
guidelines
parkinsonism
##ciousness
##atible
antifungal
verteb
prostaglandin
cumulative
aureus
congestive
allogeneic
47
65
71
Af
AZ
Blood
Is
SE
Symptom
TP
Ten
Use
ax
around
aplastic
bas
bup
biliary
dapsone
fat
lactic
little
nas
numerous
quetiapine
ren
section
target
##ove
##okinase
##eal
##ficial
##uting
##tia
##tially
##ination
thick
##esthetic
ana
##arial
##omes
##idomide
##opur
##apular
##ucil
isoniazid
##ote
##ades
##adine
chain
They
##odys
##ploy
proved
##aged
##agia
##epile
desm
Inc
unex
unrel
corrected
##ytopenia
##ylated
##ronate
##ophenol
chemical
plaqu
platinum
shows
epinephrine
obsessive
##ferred
##achment
##achnoid
cortical
##formation
##ardial
##timately
pathologic
cytochrome
##ietin
demonstrate
calcification
hearing
withdrawn
delir
product
femoral
##ofovir
sulfon
muscles
##opramide
hematoma
extrapyramidal
mofetil
##oclopramide
localized
##ambucil
eruptions
##asalazine
intravascular
acetyl
United
##iamine
##iazide
##tribution
beneficial
Hyper
degrees
Eng
HCV
PCR
Serum
implantation
specimen
organisms
susceptible
material
##litaxel
triggered
hypercalcemia
sulph
ergot
electrocardi
rigid
##adoxical
inhibition
##thiouracil
intermittent
##rofur
Disseminated
proximal
disclosed
Afric
Symptoms
##ophenolate
46
41
66
CO
CLL
Es
ECG
Hem
Min
Oral
Ps
P4
Pneum
Pseud
Syst
augment
dL
ero
ging
giant
kne
list
lob
norm
spl
tes
##hepatic
##eff
##aund
##iative
##yositis
##ration
##AB
##NU
##voxamine
##LA
##19
##ats
anaemia
animal
##enter
##ises
##arn
##rod
rein
##osum
##idofovir
##opia
##apt
##apen
##ocr
iss
##umption
##cephal
##portun
##imazole
prothrombin
accept
altered
strom
neoplasm
index
tradi
##velopment
antih
##oxaparin
##etamine
##actoid
intram
arm
causal
occup
spe
##azodone
##rosy
consciousness
cellular
intraoperative
##aking
malaria
remain
gland
underst
inhaled
mark
fluvoxamine
postm
outcom
##ulinum
Its
##oplasty
fibrin
opportun
coh
reflex
detail
prolongation
promyel
contrac
catheters
##wenty
tissues
propafenone
Chronic
toxicities
selected
much
##ART
gastr
eosinophilic
mmol
##iazep
Within
electroly
disappearance
mitomycin
explan
uncontrol
##phenidate
subsided
believed
circulation
carefully
subject
consequence
concerning
##lastoma
individuals
switching
susceptibility
fetal
##oprost
broad
fracture
clarithromycin
Multiple
##ushing
retrospective
chromosome
bradycardia
HAART
insertion
elimination
question
haemorrhage
closure
propylthiouracil
stenosis
drainage
##epileptic
##rofurantoin
P450
outcomes
promyelocytic
52
68
AV
BO
Based
CH
Cutaneous
Del
DPD
DAT
FD
GI
None
Tran
Toxic
VPA
fo
fif
fixed
gyn
hall
iatrogenic
lid
nature
samples
tors
##oar
##tub
##laf
##sal
##yz
##vac
##uod
##LIN
##wise
##PE
##13
##ending
##onid
thym
##thel
ing
##orp
##atch
anesthesia
androgen
rejection
##osm
##omep
##omile
##oler
##acity
bevac
dehydro
##resh
##tinoin
chamb
disulfiram
exist
except
sept
separ
tri
##eptic
assay
suff
inducing
##oxide
##ologies
atax
causative
internal
##ipar
##teroidal
plus
medias
##ostatin
amb
##rene
regression
compatible
color
colonic
##axine
defin
types
esophageal
retro
repair
start
option
options
##ramycin
hospitalized
differenti
limiting
hydrocephal
identify
excretion
OBJECTIVES
dissection
##okal
Aspergill
accum
provides
nephrotoxicity
bronchospasm
investigated
cyclosporin
crypt
hypothesis
vasospasm
profound
assessed
peak
superficial
aminotr
transfusions
lasting
contributed
criteria
##operfusion
cystoid
mutation
penicillin
pointes
paclitaxel
purpose
intensity
reversed
reversal
properties
ampicillin
compounds
TMP
matter
##aperitoneal
antimicrobial
epilepticus
##itonavir
enlarg
leprosy
lactate
warranted
##pidus
vessels
source
view
relevant
juven
vivo
insipidus
degeneration
visceral
erythropoietin
Discontinu
unrelated
##aundice
stromal
Transient
##lafaxine
bevacizumab
chamber
Aspergillus
67
78
Ag
AB
Bronch
Central
Dec
Ev
Fl
HT
Long
MS
Mag
Met
Noc
Of
Prop
foc
fall
mood
pigment
sun
tonic
yr
##but
##lin
##aec
##iter
##nec
##gue
##ION
##diagn
##GF
##BD
##BC
##LT
##12
##ores
##atives
##atur
##atosis
antine
##asmin
##istry
##aris
##arachnoid
##icion
##omic
##usis
##uscit
##ulations
##term
##terone
tob
tool
##idase
##openic
##oposide
##ocys
##ocycline
##utamine
##ucin
dele
##irth
##tinue
##imer
prote
resuscit
actin
acting
acne
##agen
alle
##abin
##abapen
infrequ
neural
neovascular
prescription
antiarrhythmic
antiepileptic
carotid
##iform
##actable
octre
able
arabin
dip
relation
##entia
spine
##opharyngeal
administering
enti
consisted
##raine
##aker
impact
##ludarabine
thromboembol
surve
neuropath
##SIGN
contamin
score
histologic
##aches
inhal
decomp
employ
resolve
radiological
special
typically
microm
myelodys
fourth
ultimately
feeding
##otretinoin
antich
##abolic
producing
detachment
CAPD
##iquimod
suspicion
lowering
States
label
##ohn
extrac
##oking
pharmacological
hormonal
provided
chlorambucil
##tidine
abdomen
capecitabine
temper
##rophysi
receptors
sequence
embolization
serotonergic
dermatologic
##onvulsive
promptly
##brile
encephal
keratomile
ophthalmic
Medical
neonatal
ileus
##oscler
unsuccessful
cephal
angioedema
macrophages
Development
migraine
survived
reason
exhibited
Physicians
gamma
ventilation
information
cannot
Carbamazepine
inadvertent
inferior
rifampicin
DESIGN
tremor
favorable
histories
average
cognitive
unresponsive
vertebral
English
Systemic
knee
dehydrogenase
ataxia
enlargement
juvenile
Discontinuation
Nocardia
##ocystis
##abapentin
octreotide
keratomileusis
49
BP
BCG
CI
Col
Cap
Eight
Hb
Hospital
Nine
New
Sim
fer
fati
lapar
mir
porph
sed
sil
via
##oat
##tain
##taining
##bl
##bound
##cal
##iosis
##iance
##irolimus
##iapism
##mol
##yle
##pation
##pective
##uz
##HL
##erase
##entical
##inic
thiamine
##org
##oric
##atology
antin
##icc
##reous
##rox
##osyn
##ecia
##urate
##idol
##acillin
##leb
##oct
##tries
##uten
##uction
debrid
##celer
conn
distin
distribution
##odiazep
##agnes
always
alkyl
imiquimod
##ainamide
##oides
hypom
hypox
hypophosph
##oxy
##oxysm
##acted
##vium
intraperitoneal
##azone
priapism
evident
conservative
play
plasmin
medicine
thrombin
conclusion
otherwise
remarkable
scal
##ogenesis
metoclopramide
endoscopic
Anti
##yroxine
demyel
pathology
myelosupp
##rophic
periodic
197
feature
##titute
##loroquine
METHOD
##orphine
##ember
advant
propose
humans
pregnant
hematopoietic
ulcerative
accidental
majority
chloride
healing
safely
deaths
neuroleptics
prescribing
linezolid
retinopathy
dextro
indicates
photos
reactivity
expression
intervals
synthetic
ulceration
azithromycin
asthmatic
meningioma
##escence
contribute
subjects
Neurolog
Methotrexate
consequences
characteristics
anaphylaxis
raised
activator
##standing
occasionally
urtic
gangl
maternal
##oscarn
maxim
pericardial
benzodiazep
Japanese
Prim
burns
##olinergic
hypocalcemia
pegylated
ANCA
Moreover
conduction
SMX
deficit
Neuroleptic
American
botulinum
clearly
hyperpigmentation
prevalence
subacute
##riptan
delirium
African
testicular
hydrocephalus
tobramycin
anticholinergic
fatigue
debridement
plasminogen
##oscarnet
59
74
82
Aut
ACT
Co
CK
Cor
Dop
FM
Hg
John
Lithium
Oc
PS
Prol
Rh
Ris
Top
atri
bul
bodies
birth
cranial
drops
far
final
fludarabine
gon
junction
jaundice
lav
mE
py
ruled
##habil
##gi
##pread
##riam
##AS
##ER
##NG
##20
##VII
##onography
##inavir
##inii
##alim
ineff
offen
##ortion
##orting
##entan
##isis
##anine
##antib
##rous
reach
##ostic
##omfort
tol
##emide
##emotherapy
##emoglobin
##itate
##opram
##leuk
##letal
##lets
##ocial
##trans
##tically
Therapy
isotretinoin
deple
##romazine
conte
convul
##elf
##unomide
choroidal
distal
exten
exists
trimes
##othor
##othyroxine
record
percent
##ications
olig
carinii
##encephal
preoperative
preexisting
atrophy
untreated
unnec
diaz
correct
severely
##tisone
discomfort
parac
subarachnoid
enoxaparin
obese
consti
myal
##rand
remaining
scans
amyloid
histology
endogenous
##italopram
##imetidine
##rown
##keletal
discontinuing
managing
arteries
##CTION
significance
specif
dementia
cytosine
effectively
##ieving
prolif
retard
examinations
120
person
psychotropic
lungs
refl
identical
differences
cerebellar
limits
microb
blockers
pancytopenia
vitreous
macul
osteop
osteomyelitis
venlafaxine
##lobal
headaches
Addition
hypothes
postoperatively
acetonide
##ethyl
growing
adjust
Recently
##like
profession
##omatostatin
##iazine
eventually
physician
repeat
terat
dermatosis
levothyroxine
##azoline
##azolamide
##oplasmosis
##idespread
Neut
disturbance
difficulty
pseudo
##iversity
histologically
membrane
##amilial
allowed
airway
##oalveolar
analogue
myoclonic
dilated
introduced
activated
operation
nonsteroidal
blindness
ATRA
dogs
traumatic
penetrating
pustular
procainamide
bisphosph
endothelial
natural
optimal
TPN
Pneumocystis
erosion
traditional
intramuscular
opportunistic
uncontrolled
ambulatory
aminotransferase
arabinoside
micromol
alkylating
Primary
lavage
mEq
##riamycin
ineffective
context
unnecess
76
95
By
Bone
Cal
DR
EBV
Gl
Gen
IT
Liver
Ob
Or
PU
RPE
Twenty
aeti
bol
binding
cas
citalopram
dang
fist
fasc
foscarnet
gain
gram
hr
how
just
ke
lor
noct
pil
um
uro
wear
wave
##bar
##eine
##iar
##gr
##mia
##pine
##rain
##uary
##urop
##GE
##eresis
##onates
##inc
##inating
##ali
##alapr
##ators
anth
##entam
##roc
rehabil
##omod
##terase
##ecul
##olamine
##emp
##acti
##acaine
##oconstr
##uture
##igm
##unk
##tinence
challen
resc
acceler
##aglobulin
stenting
stool
assisted
clot
classi
hypokal
##ivacaine
antitub
carcin
preterm
monon
Infl
unable
unilateral
intractable
##lotinib
diphen
occlusive
transformation
##rolene
##rosine
paradoxical
paroxysm
evol
immunomod
##ukast
##uresis
##onstitution
##adily
amount
err
erlotinib
intoler
completion
perioperative
normalization
##obutamine
compression
decline
decision
multiform
minocycline
##oventricular
Accor
##phalan
delusion
systems
angiosarcoma
smear
metabolites
##ofluor
##osporin
##ohist
cholesterol
pharmacologic
##yria
Adverse
according
pathogenic
chlorp
organic
Pharmac
cry
crisis
capacity
eosinophils
aggrav
scleroderma
##omastia
throughout
linear
nitr
supported
groups
obstructive
expected
polymyositis
##ectiveness
substitution
establish
guided
##operidol
gradual
regional
excell
tumours
Hepat
##respond
##cortisone
correlated
##urgical
emphasize
microscopic
derivative
highlights
##TIONS
slowly
conjunctival
Seven
electron
agonist
##bilical
linked
gestation
ventricul
hydroxyurea
panic
aspects
palliative
tyrosine
tablets
candid
pathophysiology
membranes
adolescent
Reversible
channel
strategy
predominantly
Emerg
attacks
Incre
gingival
contracep
DATA
fifth
protease
myelodysplastic
antinuclear
maximum
FMF
Prolong
##emoglobinemia
constipation
unnecessary
bolus
umbilical
According
2b
300
62
63
600
77
73
99
Bef
Calc
CML
Due
Hy
HI
HB
IL
Kap
MP
NE
Pol
Panc
Prog
PSA
Sy
Some
TA
TB
Vis
cer
cyp
cran
cidofovir
duod
dobutamine
length
nif
nail
pron
punct
swe
sirolimus
upt
widespread
##oon
##taz
##bo
##bital
##lig
##aution
##carb
##ging
##mar
##more
##pon
##rad
##razole
##ICA
##damycin
##vo
##utin
##uropathy
##MD
##Ds
##D6
##DU
##11
##RH
##RS
##tiaz
##editary
##inary
##astine
##astric
##arter
##reg
readily
##osi
##osulf
##osomal
took
##olic
##idov
##itamin
##acia
##opaus
##opapular
##opecia
##leven
##iltration
##amol
##ample
fore
displ
##odilat
##ystitis
##antrolene
##imine
proposed
access
exud
neonate
trache
trunk
##epam
clonidine
effort
##izole
##ify
preced
atten
position
##chym
Ins
abrupt
complain
hyperther
##encies
##ounced
paralysis
chemor
obli
showing
surge
##ranous
novo
injected
amn
completed
##ychloroquine
risks
##rowth
Anaphyl
reveal
radiographic
species
esophag
analys
##oplasia
cytarabine
MED
reporting
variable
carbonate
leads
detect
needle
##ematous
##arcoal
limit
##embranous
breath
##RODU
labor
##ituitary
##pecific
affective
recommendations
mouth
##truction
mucositis
electrophysi
CD20
Review
autoantib
Phen
achieve
cryst
methylphenidate
saline
protamine
1000
difficile
Recent
nitrofurantoin
Combin
##azolam
irrit
explain
illustrate
##omalacia
##omegaly
polymerase
PDT
haloperidol
directly
suddenly
HCC
etoposide
enterocol
antagonists
Furthermore
cholestatic
melphalan
mycophenolate
coagulopathy
pacing
exception
enhanc
enhanced
##oiter
anaphylactoid
intense
anticonvulsants
correlation
amput
switched
pemphigoid
fetus
##litazone
uterine
MMF
attempted
center
analgesic
Seiz
CBZ
orthotopic
measurements
ARF
lichenoid
##iolitis
trauma
pyrid
adrenergic
planus
community
sympathetic
streptokinase
INTRODU
Strong
capsule
Initial
Elect
misdiagn
resembling
exchange
component
easily
simplex
bupivacaine
nasopharyngeal
##opurinol
electrocardiogram
lobe
hallucin
lidocaine
sunitinib
resuscitation
entire
employed
mirtaz
demyelinating
myelosuppression
ACTH
atrioventricular
trimester
diazepam
PUVA
anthrac
rescue
excellent
Before
Kaposi
uptake
##tiazem
##idovudine
##opausal
obliter
enterocolitis
INTRODUCTION
mirtazapine
Bilateral
CF
Care
Cons
Cauc
Cushing
Gy
HLA
LM
Me
MI
Mon
Mic
National
OC
Prom
Rep
Rapid
Sal
Steroid
Ste
Typ
TLS
UV
avium
bal
bur
border
call
dro
done
dimin
fal
fast
fund
finally
future
goiter
ran
som
sem
sib
sick
social
yiel
##ld
##after
##ik
##nitol
##sA
##piratory
##ruption
##fac
##IG
##uti
##ufact
##Hg
##PH
##juvant
##inosa
##align
##thral
##thyroid
##tharg
instances
##orous
##atriptan
##asian
##icular
##ussion
##idog
##idronate
##eminal
##acr
##ople
##opidine
##opidog
##aple
##aptic
##ocation
##trated
##ticul
##version
##utane
##amidronate
##ower
##romise
##adr
##ported
whole
##uginosa
##odine
adh
research
act
##yps
exogenous
images
standing
leak
letharg
##aind
##epa
##eptid
living
reconstitution
clom
clopidog
draw
##anch
haz
preven
mannitol
manufact
follic
folinic
Inf
##vens
correspond
##load
arg
##neuropathy
hyperpar
clindamycin
transverse
##ylate
##encement
spir
spond
spite
##peritoneal
##rolide
partic
subm
evolution
enalapr
consumption
##hex
##heimer
leukem
##uality
heter
healed
signal
##illance
contained
instituted
##ressant
cancers
dysph
##formin
considering
##ersensitivity
phenol
mineral
controls
functional
reducing
Acc
tested
proliferative
eyel
##stead
polyc
persons
requires
plasmaph
##enicol
promising
contraind
hydrocortisone
##ofib
##iques
150
suspect
osteomalacia
##oprazole
identification
excision
veno
extra
##ochond
##zyme
chloramph
catat
cleared
cauti
vasoconstr
prevented
mmHg
behavioral
physical
twin
tomographic
##artan
##iabetic
tachy
##roscopic
herpetic
##oea
Hypersensitivity
Enter
endometr
circulating
deteriorated
preparations
##osterone
alcoholic
##aryng
polyneuropathy
idiosyn
endocrine
##oquinol
allowing
PTU
grew
hands
latent
discharge
bacill
anaphylactic
diltiazem
##ozyg
##iramate
##yloides
terminal
analgesia
placebo
agonists
fraction
restricted
Many
vaccin
oncology
APL
pruritus
ranging
echocardiography
mimic
slightly
polymorphism
aeruginosa
PATI
##iclopidine
Cardiac
desmopressin
unexpected
sulfonamide
Pseudomonas
augmentation
speech
gastritis
electrolyte
accumulation
antineoplastic
neovascularization
temperature
##osclerosis
##blastine
##agnesemia
offending
maculopapular
professionals
##aliplatin
rehabilitation
antitubercul
multiforme
Visual
crani
hyperthermia
Caucasian
Stevens
clopidogrel
hyperparathyroidism
chloramphenicol
cautious
83
AA
Cyt
DL
FK
Fever
GH
Hum
KS
Line
Nor
NHL
OCT
PP
Path
Pers
RS
Ret
Radiation
Sh
SC
Such
WE
aid
bab
cost
cimetidine
div
dial
diz
fell
fusion
familial
gabapentin
global
je
mill
notic
om
pH
pituitary
rub
ritonavir
ster
somatostatin
tim
taper
ves
##haps
##oad
##tte
##tently
##ber
##bul
##bup
##lined
##iomas
##ground
##garis
##mus
##fication
##AL
##TA
##TTI
##dle
##dural
##vage
##vasive
##uation
##uros
##HA
##ks
##xia
##ziness
##DD
##int
##aline
##alities
##esir
##esias
##orr
##orafen
anomal
##asation
##assive
##isole
##iction
##icidal
##anin
##rover
##rofen
read
rebound
##econd
##oll
##idrosis
##emaker
##activity
##opar
##opyr
##apl
##tioners
##ocrine
##tra
##tronid
##tracted
below
##amisole
debil
##umably
##ortem
continue
##adic
##tinent
comorbid
##antadine
##pler
##imeric
onych
##agement
##abutin
exerc
##ndrome
imm
ste
stom
##urette
trypt
develops
presumably
lipos
assist
##ideo
perfusion
##ionate
effectiveness
##izes
##etal
##etaxel
mono
manic
description
ocul
##romegal
compliance
causality
spect
##azimine
discover
paral
partially
practi
myopia
plate
##aken
thrombi
##ostasis
##ergistic
canal
lymphoid
allopurinol
##viron
##virapine
methicillin
##aminergic
gluten
##ferri
##anges
##angioma
diffusion
dosing
##obil
compromise
hereditary
##endazole
empir
elective
Angi
continuation
nonc
take
cytogenetic
##ythemia
newer
feas
febrile
involve
Heal
##ognized
deliver
persist
organs
##avasation
changed
metabolite
catheterization
modalities
Chol
Chest
surgically
sulfasalazine
pregnancies
muscular
vena
Strept
hematological
affecting
##yramine
granulocytopenia
accident
accurate
progressively
##icking
CD3
catech
undergone
stimul
transi
node
intracerebral
DIHS
prostatic
uncomplicated
University
salvage
Recom
Recurrent
supports
mm3
irrig
techniques
mitochond
etiologic
##oplasmic
dopaminergic
vinblastine
trigeminal
lenses
endometri
keratoplasty
circum
oxaliplatin
CNV
##iminary
world
Methyl
Histopath
point
chromat
restless
latter
ultrasonography
Hepatic
##ozol
operative
commencement
ADR
pericarditis
##factory
##ropsych
opioids
pharmacokinetics
##hydramine
macrophage
electroretin
supplementation
##prazolam
hydroxychloroquine
milk
001
frag
osmol
hairy
tendon
pruritic
PRES
vulgaris
copper
middle
mimicking
chorioretin
stabilized
loading
Subsequent
Subsequently
##icylic
diuretics
HSCT
temporary
aorta
SETTI
rigidity
foot
##theless
separate
retroperitoneal
Magnetic
focus
infrequent
encephalitis
##uzumab
distinct
hypophosphatemia
ganglion
Johnson
Topical
##alimumab
##othorax
records
osteopor
Neutrop
fistula
paroxysmal
chlorpromazine
Hydro
Syndrome
pronounced
puncture
amnesia
Strongyloides
hallucinations
obliterans
yielded
##alignant
manufactur
eyelid
plasmapheresis
tachyarrhythm
dizziness
##buprofen
##urosemide
##orafenib
##tronidazole
practitioners
endometriosis
osmolality
SETTING
88
86
A1
BK
CR
Car
Clo
Continu
Cont
Cortic
Cerebral
DG
ED
ER
Finally
Group
Gold
HR
IOP
RF
Rif
RNA
SJ
SMS
Second
Us
bo
born
dan
ef
facil
gast
globulin
gross
gave
lig
merc
making
near
night
oil
oint
rit
rad
rose
sided
util
vital
zon
##ture
##lam
##lip
##ces
##iph
##iate
##iitis
##gl
##gular
##pre
##rap
##for
##A4
##LP
##MP
##OD
##OR
##jun
##FVII
##erence
##enes
##onol
##edipine
##inese
##orded
anesthetic
anabolic
##enteric
##isamide
##aring
##ico
##icat
##antr
##reported
##roz
##rovascular
retention
##ithiasis
##omotor
##omembranous
##vem
toc
tooth
##ecainide
##urally
##ope
Thir
##utable
##amyl
iso
##own
##elior
charcoal
chimeric
##odrine
adriamycin
reser
acromegal
alread
alanine
lefl
syph
true
##eprazole
##quid
##quine
liquid
reconstr
clonic
periv
perhaps
incon
##ested
atopic
mania
##cratic
##actam
desferri
##monemia
unres
intrad
above
articular
##nex
diver
transamin
interest
interfer
##tenosis
spastic
##iptine
##ipipr
physi
symme
symptomatology
discussion
##ropine
eng
ens
constric
immunological
immunohist
hemodynamic
myoglobin
##ometh
played
placed
##ubation
thromboc
neuropsych
others
flut
##virus
##adiotherapy
remed
scin
ampl
amantadine
amelior
intact
##omyositis
cardiotoxicity
multid
psoral
postpar
##timulation
nonin
confined
mind
decreasing
timely
newly
retrog
involves
reproduc
erythrod
calculated
calciton
dermal
formulation
performance
##iatr
bleb
detectable
##urnal
CAP
angiogram
break
modified
Chinese
counter
suppressed
glucur
quick
quadr
cholec
extravasation
White
metastasis
mucosal
##ographically
infarct
chloroquine
weighted
thyroiditis
Intrav
begun
scleritis
rhin
haemolytic
room
grafts
sequential
precurs
emboli
papular
replaced
indicating
1991
behaviors
schizophrenic
populations
##recognized
levamisole
synergistic
##roscopy
##oplasma
azot
dopa
prospective
phenomena
approaches
poorly
PCP
##506
emphasis
patterns
Histological
mesenteric
##omyces
dystrophy
pacemaker
sensor
Herein
exceed
Heparin
creatine
dramatically
attributable
occasions
epithelium
routinely
emphasized
helpful
herpesvirus
output
background
gangrene
rifabutin
ketoac
located
locally
Differ
hypocalc
Management
cava
##wards
albumin
Spontaneous
Wilms
BCNU
bromocr
dense
ectopic
##amphetamine
Department
MRSA
mandatory
March
Plasm
##itude
plaque
accepted
neoplasms
understood
explanation
##osmetic
septal
sufficient
##iparesis
December
neuralgia
thromboembolism
decompression
Similar
sedation
##oatrophy
advantage
Doppler
##transplant
myalgia
proliferation
retardation
##igmoid
##ofluorescence
Emergency
Prolonged
HIT
Pancre
TAE
foreign
complaints
LMW
borderline
spondyl
enalapril
catatonia
vaccination
FK506
jejun
platelets
Streptococcus
mitochondrial
##ozolomide
osteoporosis
Corticosteroid
DGTX
SJS
ointment
zonisamide
already
leflunomide
desferrioxamine
##ipiprazole
postpartum
calcitonin
ketoacid
bromocriptine
81
Biop
BAL
Cy
Center
Er
ES
Even
EPS
Ewing
Food
FAB
Given
LE
Op
Oste
PI
Pent
RLS
Sm
Skin
Ul
UL
VW
Var
VAD
WBC
bed
bound
ces
cosmetic
fron
furosemide
gel
lay
lines
mum
make
narc
nurs
pa
put
pauc
ral
ros
rand
rats
scr
sole
tin
tear
tone
tip
tong
turn
tics
vary
wk
##hidrosis
##oir
##ourea
##tosis
##leral
##liminary
##ah
##ament
##aff
##care
##ient
##iation
##iac
##iological
##nac
##gent
##side
##ye
##rate
##rade
##A1
##NS
##ds
##vis
##vity
##ky
##xone
##ME
##zine
##OL
##onium
##onazepam
##onomic
##edrine
##ediatric
thiazide
thresh
##alox
##allow
##alpha
##thritis
instead
ofloxacin
##oresis
##ateral
anast
ankyl
##aser
##articular
##ices
##roun
reverse
##ostr
##osage
##ositive
##ostig
##olate
##idemia
##emetic
##emination
##active
##oped
##opositive
##ocent
##ammonemia
##umor
const
##phedrine
##oto
##otoxin
##otepa
##ogl
##adolin
what
##tinic
chel
chron
Their
##odermal
##platelet
##imetic
##iminated
protracted
adalimumab
alive
alopecia
alprazolam
##ectal
statin
staining
nebul
trazodone
##oids
recorded
dry
##ionic
antithyroid
antiemetic
antiplatelet
##oxid
##stem
##pped
preliminary
manip
##actone
##sions
design
unlike
wean
##rometh
diam
correction
arising
diaph
dihydro
directed
transcr
transferred
seropositive
intern
relieve
space
usual
##ipran
means
##tism
##rosourea
paran
subt
##arean
##teroides
environ
obvious
success
cellulitis
immunologic
hemangioma
medium
intraves
##ubated
##aneurysm
surroun
neurom
allerg
flare
remit
injur
##ogenes
amoun
methanol
methimazole
methemoglobinemia
##amines
##angiop
includes
periocular
regressed
becomes
metformin
endemic
coli
##ressing
blis
initiating
Antib
postulate
##ensity
longitud
##esional
experimental
##ESS
##ammatory
diagnoses
itself
continues
myeloblastic
confocal
estr
estim
escal
decreases
controlling
angina
branch
tube
former
needs
##ophilic
##ofloxacin
blocking
Chemotherapy
vitrectomy
osteogenic
osteosarcoma
rheumatic
epiderm
hepatotoxic
brainstem
##ortical
thrombocytopenic
nephrotoxic
overdosage
##mediate
Phil
##flu
hypotherm
Novem
haemophilia
2000
##ynamic
retinitis
nitrog
nitrosourea
##omatosis
##iliar
IVIG
papillary
adenosine
exacerbated
photodynamic
##ENTS
electroencephal
seemed
explained
uncertain
##untary
herpeti
kidneys
masses
Extensive
Neither
##ochemistry
herein
enteropathy
PCI
##operitoneal
##tracycline
implanted
mycobacter
thorough
collagen
dystonic
palp
situations
enhances
predisposition
irregular
original
emphasizes
relapsing
conversion
Interferon
practical
derived
utero
uterus
remove
ICD
granulomatosis
Diff
TMA
structures
conjunctivitis
ecz
cysticerc
##angiopathy
measurement
precipitated
dietary
enlarged
restriction
##lycerin
cavity
vacu
##uterine
reasons
concerns
Spinal
tendency
##atisfactory
gestational
multic
aspect
sumatriptan
influence
INTER
VIII
thalidomide
schedule
CYP2D6
AZA
basic
issues
occupational
BOOP
FDA
gynaec
torsades
##yzed
mediastin
cryptococcal
##aturation
deletion
surveillance
##oriconazole
hypoxemia
reached
depletion
specifically
pseudoaneurysm
DRESS
dangerous
##entamicin
##eculiar
hypokalemia
diphenhydramine
ventriculoperitoneal
Progressive
nifedipine
preceded
autoantibodies
Phenytoin
Seizures
Salmon
false
##ticulum
hazard
noticed
omeprazole
vesic
##orrhea
debilitating
Health
Rifamp
ritodrine
##onolactone
reconstruction
thrombocythemia
noninvasive
spondylitis
CyA
VWF
random
tongue
##nacipran
threshold
ankylosing
##ostigmine
##adolinium
intravesical
surrounding
longitudinal
November
nitroglycerin
herpetiform
01
2a
AL
App
Cult
Comp
CLIN
Dis
Data
Et
Europ
Eleven
Fab
Fungal
Gram
Gemcitabine
Growth
Jan
Lymph
Mec
MAC
Massive
Malignant
NC
Nit
NSA
OD
OU
Quetiapine
RE
Ray
SO
Spec
Total
Val
aph
cover
cicat
duc
dim
dual
euth
erection
fentan
gly
gut
give
gentamicin
hom
hot
him
harm
ili
iodine
ibuprofen
kept
lis
lost
mix
mamm
nar
ov
owing
pent
pup
pigmentation
p13
pamidronate
peculiar
sen
sorafenib
tia
tun
tib
titr
utility
vs
video
voriconazole
wal
zaf
##hib
##oke
##cine
##ipl
##iacin
##iphyl
##ihood
##nel
##gabine
##sess
##yx
##ria
##ERI
##vin
##vastatin
##uan
##uated
##GS
##BT
##wh
##welling
##zole
##zheimer
##DP
##DCA
##O2
##OS
##VI
##erin
##eridine
##enectomy
##enchym
##enopausal
##enzyme
##inine
thin
inst
##ora
##ork
##orus
##astin
##icopl
##anic
##roterone
androgenic
##oming
##veol
##ulos
##olet
##iding
##acent
##oconazole
##tria
##utaline
##ilis
##amiv
##ucl
deox
##cein
##ception
asc
##romatic
##elph
##ada
##adone
##adiazine
##adelph
##unte
##unately
##odialysis
##pling
##plase
##plained
##imidine
reserv
acral
##agi
##agent
alveol
##ibular
##abs
excess
extension
neoad
orbital
indications
indwelling
##eperidine
##dial
preser
likel
recur
##ellate
hypopar
induces
##oxacillin
##ets
##etamol
##stomy
preferred
##ologist
monocyt
manner
##astating
##loquine
aripiprazole
##neal
hyperuric
hyperactivity
hyperhidrosis
transl
serous
##ults
interpre
metronidazole
parathyroid
praz
subf
subep
evoked
energy
succin
consult
consists
hemoperfusion
myositis
itch
intrauterine
##ements
leukocytosis
concurrently
lymphomas
scro
Alzheimer
amph
histoplasmosis
##angitis
##obic
compr
becoming
inher
metal
heroin
##anded
##androgen
eluc
Analysis
outside
radiologic
depressed
experiencing
deficient
considerable
inhibits
strain
Tourette
visit
microl
thereafter
phenyl
myelin
myeloproliferative
absent
potentials
concentrate
terms
topiramate
##psia
produces
topically
201
Clostr
cerebrovascular
maintain
microangiopathy
docetaxel
suspension
countries
extent
glucagon
viruses
pancreas
111
hormones
pathogenetic
##icken
250
##erbutaline
bronchial
bronchoalveolar
##aviolet
emergence
bacteraemia
achieving
intraventricular
Amiodarone
Amphotericin
abscesses
acetazolamide
IgE
##irlukast
lipoatrophy
salt
proton
dependence
adjunc
adjacent
nerves
##rospective
generation
##inesterase
INH
1993
healthcare
Common
Complications
classical
##ograms
reactive
phosphorus
##iability
avoided
people
##afil
benefits
ultraviolet
Neph
aminosal
hypoglycaemia
hypoglycaemic
contributing
HCQ
enteritis
keratopathy
Seroton
Trich
critically
oxidase
neutropenic
pseudomembranous
cysts
##ucleosis
allows
airways
mesal
points
valuable
collection
reference
devastating
restar
palsy
situation
volunte
ophthalmologic
raises
Postoperative
limbs
urgent
Diagnostic
aspart
segmental
ketoconazole
structural
termination
neuritis
ceased
fractures
tender
glucocorticoids
ARDS
milnacipran
retrospectively
link
haematoma
regarded
minimize
Physical
ventil
informed
bromide
denied
ranged
thiotepa
##naud
communication
summar
typh
histopathologic
simultaneously
UCBT
VIIa
##icylate
Myocl
ototoxicity
anaesthesia
plaques
antihist
glands
detailed
Delayed
##LINE
ingested
allevi
neuropathic
contamination
connection
hypomagnesemia
scalp
dextrose
Autopsy
Risperidone
extended
paracetamol
amyloidosis
personality
adjustment
bisphosphonates
Org
lorazepam
urokinase
clotting
classified
mononucleosis
candidiasis
Polym
duodenal
##carbazepine
##ICAL
exudative
MEDLINE
electrophysiological
amputation
misdiagnosed
Careful
Prompt
Type
lethargy
corresponding
spironolactone
polycystic
idiosyncratic
##ozygous
Persistent
anomalies
##opyramide
liposomal
feasible
delivered
Recombinant
chromatography
manufacturer
Continuous
danazol
diverticulum
ensu
constriction
remedies
scintig
quickly
Intravitreal
ketoacidosis
Various
mumol
nursing
##aloxone
anastom
international
##angiopath
Philadelph
hypothermia
CLINICAL
Europe
January
Raynaud
fentanyl
iliac
tiagabine
zafirlukast
##iphylaxis
##icoplanin
##amivir
reservoir
neoadjuvant
likelihood
monocytogenes
Clostrid
adjunctive
Philadelphia
84
85
98
Amin
Among
Be
Bet
B12
CC
Cancer
DDD
Fluor
GAB
Hash
IGF
Klu
Lis
Lif
MC
MAT
Na
Pub
Perc
Rituximab
SA
Sur
Syn
Tors
Tamoxifen
VZ
Ven
Wol
ather
bar
bil
brown
cres
came
cram
cured
cystitis
dom
drop
drow
educ
fill
food
flex
gout
goal
gadolinium
laryngeal
mor
mast
nad
nond
naloxone
outer
pen
pant
peptic
sk
sac
session
sigmoid
saturation
ti
tax
zol
##ton
##bine
##io
##itin
##ipt
##iple
##irect
##gias
##yric
##yrin
##ping
##pof
##rhythm
##fazodone
##filtration
##floquine
##TP
##ID
##vents
##uish
##RTI
##VEN
##ertensive
##enolol
##inergic
thigh
##aling
##alesional
inn
##orin
##orel
anuria
##entation
##any
##reak
##ropl
real
reticular
##omorphine
##ulosis
##ullob
##ecycline
##urine
##ittal
##acing
##acial
##open
##opinavir
##apamide
##trig
##trument
Though
##ilities
##amen
forear
dehydr
##ortex
##romy
##elt
##igecycline
disopyramide
##ode
##antar
adip
adding
##ffeine
##agittal
##ypertensive
##abis
example
step
staphyl
nefazodone
shap
shun
indapamide
##othiazide
##epinephrine
press
##que
cla
clof
clonazepam
pertinent
suicidal
##iving
antitum
##izer
##oxine
##oxapine
inclusion
incident
atenolol
destruction
note
Inves
Infection
unreported
presentations
##cribed
hyperphosph
occult
transport
transfer
transesophageal
##yline
interesting
interventional
interruption
describing
##ophyt
mefloquine
parenchym
submitted
diagnose
evid
ensure
hemangi
appropri
intrahepatic
##head
epig
transplants
malt
flash
##adiol
scar
scarr
Altern
##amination
overload
##riasis
undert
understanding
compromised
computer
instill
instrument
##position
combinations
##ands
##acterium
eluting
Another
##ungin
postulated
genotyp
genotype
101
radio
radiograph
consideration
##ammaglobulin
stri
strict
strength
pathway
phenoth
phenotyp
phenotype
appearing
##arinic
cytoplasmic
##ricial
##cope
autonomic
arthropl
varenic
variant
##orrhagia
tubul
polys
dermis
##part
##ervation
evaluating
##avy
maleate
angiographic
smoking
mainst
recognised
propionate
mode
modality
##exist
##astrozole
##raftment
sulfadiazine
##dominal
quite
cholangitis
cholinergic
dissemination
pharmacotherapy
responding
cornea
granuloma
##oagul
##oagulation
account
mucoc
##opathies
tolerability
treatable
fluids
CD8
apnea
bronchi
bronchodilat
bronchiolitis
emerged
pneumoniae
antidiabetic
Atypical
capable
Amp
temozolomide
sclerosing
rhEPO
alternating
caffeine
route
adjunct
##omatous
##iazolid
IVC
necessitated
1997
1996
1999
exacerbate
exacerbations
insufficient
twins
usefulness
Impro
scanning
comparison
sinusitis
veins
teicoplanin
##escents
ethyl
substituted
vascul
cholestyramine
oxid
illnesses
concomitantly
Herp
hosts
mycosis
mycotic
thorac
immunocompet
thyroxine
collapse
menorrhagia
processes
restoration
restored
regions
lateral
intensi
immunoglobulins
adrenaline
pulses
1989
commerc
myasthenic
ileum
norepinephrine
nonspecific
deposition
derivatives
bullae
##oprotein
ICU
attempts
confirming
conjunctiva
##factor
familiar
supplements
requirements
CBDCA
MAO
migration
precipitating
##itrate
spasms
##ractive
##ranean
haematological
fungemia
fungoides
cannabis
curative
##rupted
deficits
##enza
streptococcal
greatly
vaginal
thalass
adolescents
scheduled
alteration
exchanges
substantially
components
blasts
CYP2C
renin
sections
##oveal
thickening
thickness
COX
Psych
animals
issue
antihypertensive
understand
markers
postmortem
gynec
mediastinal
definite
##iterranean
Captopril
laparotomy
porphyria
photosensitivity
Neurological
urticaria
urticarial
benzodiazepines
gonad
General
ITB
aetiology
fasciitis
challenges
immunomodulatory
contraceptive
HBsA
cyproterone
##arterial
chemoradiotherapy
analyses
enhancement
Repe
called
dropped
diminished
sibling
##ikacin
##aplegia
##eptide
clomipramine
follicular
particip
dysphagia
Accutane
contraindicated
PATIENTS
Cytomegalovirus
Human
dialys
timing
discovered
paralle
irrigation
A1C
ERG
Using
gastrectomy
syphilis
incontinence
unresectable
##omethacin
azotemia
Plasma
Osteonecrosis
paucity
constant
##oxidil
manipulation
injuries
Antibiotic
estradiol
Diffuse
INTERVEN
Salmonella
narrow
##triaxone
alveolitis
##absorption
hypoparathyroidism
aminosalicylic
Serotonin
restarted
##angiopathic
GABA
Listeria
MATERI
VZV
Wolff
skull
##pofungin
clofazimine
Investig
varenicline
##iazolidined
04
05
1a
79
800
96
AE
Aw
Az
ASA
ALT
B19
Brain
C1
C4
Cycl
Cef
Camp
Caution
DH
D2
Det
E1
Each
Ful
Fail
Flu
GM
GC
Gastro
HH
HV
ILD
IOL
LT
Late
Mg
MN
MB
MVI
NI
Nons
Ol
OH
Oxy
OHS
PTX
QRS
Ro
So
SP
Sus
Sch
Sign
Sequ
Surg
T3
TC
TK
Ter
TAC
UI
VV
WP
atr
aromatic
bu
buc
brough
denti
dark
dantrolene
down
density
dynamic
fresh
froz
gall
har
hicc
irin
jus
larg
lopinavir
mT
mist
mism
miss
nur
niacin
oesophageal
por
pure
pass
power
ptosis
quality
rule
rFVII
sent
skeletal
sagittal
tap
tel
tPA
ticlopidine
uric
vel
went
zidovudine
##hensive
##okin
##trop
##treatment
##tuzumab
##best
##aise
##cessive
##iace
##ipheral
##ioquinol
##gol
##group
##ming
##siness
##patient
##pox
##ray
##ALS
##Is
##vovirus
##vision
##uro
##uit
##urox
##23
##GA
##GVHD
##B19
##LB
##MENT
##CO
##FT
##WI
##RE
##KT
##enomegaly
##oni
##onj
##ontic
##ales
##escein
##thym
inade
##oring
##atrin
anap
antral
anastrozole
##entre
##isation
##arth
##arium
##icans
##rex
##rehensive
withh
##osh
##osac
##ostine
##osides
##omb
##omated
##omimetic
##uster
##ulse
##ulide
##terious
##inger
##ecan
##olip
##uration
##emtuzumab
##itory
##acid
##acrine
##opo
##opt
##apyr
##iafiltration
##trative
##transferase
##ticasone
##illo
##ilance
##amn
##ineur
##ineural
##umig
ascit
##romat
##eld
##elzine
##irc
##irm
##pher
##otecan
disin
##odyst
##odontic
##antel
##imide
##imoxazole
##imoto
##itide
resected
restenosis
##abatrin
exanth
##ector
##ectasis
leup
leaf
neither
neoplastic
nevirapine
indep
indomethacin
trab
trend
##oiditis
##quate
lif
lived
recording
hypoplasia
pergol
##ighten
antiin
##auss
##anserin
##ifying
##ifostine
##udin
##ouraged
atropine
older
manage
##cher
unch
unrecognized
abus
abated
##neic
dipl
hyperammonemia
##ylase
interface
relax
sparing
usage
##oreal
##actions
##enalidomide
##perfusion
discon
discol
pars
paraplegia
parvovirus
prick
##tegr
##ropr
highest
ent
enough
immuno
immunity
immunofluorescence
hemolysis
hemiparesis
myot
##ometry
medullob
##iesis
##uble
##binaf
transplanted
malaise
hex
##ups
fluc
flecainide
##iciently
potency
##illar
controver
remote
scores
##ogenicity
resultant
amni
##renosum
erad
glioma
potentiation
##omyosis
unders
##ychn
##oblast
composed
comprehensive
painless
cardiover
##endocrine
decade
cold
emission
eliminated
multiorg
Anterior
##enstr
##iders
dysrhythm
discontinuance
proges
phenelzine
confused
minute
analyzed
##ovastatin
##ovorin
reduces
cytostatic
feet
hyal
hyph
testosterone
predict
autosomal
125
nephrogenic
simvastatin
developmental
anticip
psychiatr
##itoring
coad
immunosuppressant
supr
Close
##aves
##orphic
metabolized
Onc
elevations
advised
recognize
hyperstimulation
model
modest
##iquantel
Child
Churg
maculopathy
##ocardiosis
##osporins
identifying
##arbit
selection
suppress
quan
##oker
largely
documentation
affects
##yrid
##tructive
Aden
gastrostomy
##ickets
provoked
providers
##erbal
Reg
##immunoblastic
130
sixth
capillary
hypothyroid
nodes
intracor
intracellular
clearing
cultured
Until
2004
root
efficacious
nitrogen
##imesulide
171
INF
necessitating
1998
Compar
purple
levofloxacin
etiologies
lamellar
biological
##rohept
##lux
prosthesis
hypoglycemic
ethanol
morphologic
guide
LABD
Serial
isolates
complicate
subjective
##ithelial
implantable
QTc
Histologic
collected
sensation
referral
devices
palm
screened
predisposed
Mediterranean
rechallen
cataracts
correlate
occasional
##lasty
digital
commenced
Posterior
additive
Interstitial
gangrenosum
SSRI
lasted
accompanying
maximal
Resolution
Results
##eptor
MAHA
Prior
clarify
neutrophils
neutrophilic
aneurysms
Leuk
adrenocortic
parkinsonian
##lyceride
Prot
cyanamide
albicans
haematopoietic
electroconvulsive
Willeb
outpatients
PRCA
vessel
thiosulf
progressing
CPH
Effect
PVB19
urea
inadvertently
Thrombotic
chorio
polymorphic
rifampin
Overall
histopathological
influenza
America
Endoscopic
PET
Strauss
nucleoside
vagina
##nitine
Initially
offers
channels
alterations
hypertrophy
hypertrophic
strategies
Marked
aorto
vigorous
leucovorin
##choline
##cholinesterase
hydration
anaesthetic
unexplained
##ocrit
postmenopausal
cohosh
##oprostenol
##orporeal
##omepizole
sufficiently
definitive
differentiation
Evidence
##linical
deleterious
actinomycosis
Colchicine
Capecitabine
##ylephrine
dextroamphetamine
Neurologic
benzodiazepine
convulsions
Additionally
Obs
caspofungin
key
nocturia
nocturnal
Infliximab
evolving
intolerance
delusional
Hepatotoxicity
Increased
995
NEH
##ligo
surgeon
Combined
pyridoxine
Monitoring
fundus
sickness
preventive
vasoconstriction
Enterococcus
bacilli
antituberculous
Retrospective
baby
tapered
##esiritide
exercise
tryptase
##obilization
empirical
catecholamine
electroretinography
Neutropenic
tachyarrhythmias
HRCT
##raphy
##icotinic
tocolysis
reserpine
spasticity
symmetric
engraftment
flutter
amplitude
retrograde
sensorineural
hypocalcaemia
LMWH
ESR
varying
##ocentesis
blistering
mycobacterial
herpetiformis
Computed
cicatricial
##uloskeletal
amphetamine
##ickenpox
Nephrotic
volunteers
aspartate
Myoclonus
Clostridium
Hashimoto
Life
Percutaneous
drowsiness
morning
antitumor
hemangiomas
appropriately
maltophilia
scarring
arthroplasty
mainstay
immunocompetent
HBsAg
Awareness
Fulminant
Failure
HHV
VVR
WPW
brought
frozen
irinotecan
mTOR
rFVIIa
##uroxime
inadequate
anaplastic
##apyridine
ascites
##odystrophy
independ
pergolide
##binafine
##roheptadine
Willebrand
thiosulfate
03
1b
3A4
450
93
AS
AU
Aus
Ara
Apr
AHS
Bl
Bi
Bis
Bac
Brown
C3
Can
Cereb
Dr
DM
DS
DES
Dapsone
Dantrolene
DWI
EM
Elev
EPO
Eosinophil
Fe
Fort
From
Fif
Iatrogenic
JH
LD
Low
Little
MH
MG
Mer
Mac
Musc
Never
OG
Pe
Pot
Pain
Pri
PTH
RI
RH
Red
Rem
Radi
Ritonavir
Sud
Swe
SCT
Sulf
Te
T4
Tox
Turn
TCA
Tardive
TRH
Tumor
TTP
UG
Upon
Unex
War
Zidovudine
audi
afl
bus
bum
bim
cure
centr
catal
dors
dilat
dominant
erec
fas
fair
fumig
fomepizole
go
germ
gran
gained
gamb
ground
hence
ion
jud
jaw
kind
lac
lib
lang
lax
lovastatin
ms
mem
miz
moxif
nyst
name
nesiritide
nicotinic
ow
pit
pip
rating
rickets
spp
sternal
sicc
trough
tigecycline
von
van
waves
yell
zyg
##hisc
##oor
##oum
##oful
##tus
##tally
##aem
##ih
##ione
##ike
##iology
##ianserin
##nat
##norm
##noea
##go
##gressive
##men
##yre
##ruc
##flow
##As
##AN
##ATION
##TB
##TCO
##ux
##uage
##utis
##GH
##69
##Ms
##zoar
##CE
##FP
##10
##54
##tif
##enil
##enna
##enafil
##inone
##inopril
thion
thiazolidined
##alin
##esonide
##therapeutic
inability
##orec
##orid
##orated
##orib
##oracic
##atid
##atoprost
ann
##entgen
##astim
##istries
##arrh
##icle
##antile
##ret
##rove
remin
##oss
##osen
##ospl
##osity
##osamide
##osentan
##omn
##usted
##uspid
##ulent
##ulbar
##terstitial
##ings
too
totally
##ecally
##olved
##uran
##urge
##idermal
##itative
##achy
##aptive
##aprox
##tioned
##ocon
##ocated
beats
bezoar
##vern
##ilst
##amed
##amus
##amole
##amipr
##amizole
dehisc
##sial
##sian
##cell
asteroides
##romial
##elve
##elective
##irone
##irub
##phth
whilst
##tinin
disting
##sex
##odular
##yster
progen
prochlor
##itid
##itiligo
##aginal
ald
allo
alarm
examine
seeding
infest
infancy
infantile
impl
stay
stages
stones
statis
net
neoplasia
shallow
indinavir
indirect
##athecal
tris
##epez
##ycycline
##dii
assumed
rectal
clioquinol
Wegen
hypo
hypoal
perosp
antimon
##oxitin
##ociation
incision
incorp
##ansoprazole
##etectable
##stone
carmus
carnitine
##udesonide
prep
pretreatment
possess
##crine
##acts
##vix
ago
desipramine
fold
foliace
unm
unf
unrem
unless
intran
intralesional
arch
complement
hyperchlor
hyperchol
clinician
transmission
serological
serologic
interleuk
intermediate
relieved
##encl
spor
sperm
spray
##azide
##ichia
respect
##perative
##perazine
meg
parents
subthal
subdural
subtherapeutic
##teplase
chemistries
enuresis
consolid
hemophag
hemiple
myd
apprec
##raemia
media
intraarterial
##akes
leukemic
leukocyte
males
heavy
heighten
##upor
##uptive
flar
##illing
content
contagi
##adione
scleral
betamethasone
reviews
ammon
amoxapine
seconds
glue
##rier
##ritic
##anged
##ulties
##endronate
declined
##andem
##aterally
adversely
elic
blue
flux
fluticasone
##ointerstitial
##ensis
##iopurine
outb
outlet
##ascial
dysplasia
recurrences
inhibited
strains
micros
##ishing
phenylephrine
myelopathy
nonp
cycling
neurob
neuroendocrine
functions
functioning
Actin
discusses
fibrous
conditioning
196
brachy
##requency
automated
arthral
demonstrating
tuberc
polyps
persisting
##comas
safer
evaluations
reflux
##oxicillin
cerebell
##avudine
##orphyria
changing
##aphic
Once
females
##tigo
##rinogen
models
##ofantr
Allergic
##apsular
osteoar
##arbose
Stage
hematuria
hematocrit
extubated
suppressive
gluconate
possibilities
pharmacodynamic
##ococcosis
Ass
##proate
##truct
Adrenal
gastroenter
##iseoful
generalised
localization
similarity
similarities
provocation
thrombocytosis
overdoses
investigate
numbness
emergent
emerging
organizing
140
Phot
bacteria
##avirenz
cruc
##flammatory
Intrac
Intrathecal
##URES
behind
epilept
DIC
rhGH
##oglycoside
Unfort
lipomatosis
roentgen
salts
##ynin
complexes
difficulties
##iliac
precise
embolic
embolus
papules
180
1995
photop
dermatological
intrathecally
##otri
##iably
expan
explored
avoiding
synthesis
syncope
necrotic
biologic
##oetin
public
##tentional
comparable
Extr
Examination
halofantr
degrad
aspirate
tea
tetr
tetracycline
AIN
amino
morphology
settings
keratectomy
Serious
oxcarbazepine
subjected
##roglitazone
##arynx
verified
septicemia
thyrotrop
releasing
consequent
mesylate
analogs
analogues
repeatedly
conjunction
dyskinesias
enhance
anticoagulants
Mycophenolate
Intraocular
dilution
subcutaneously
loop
raise
##unctival
##lofenac
commencing
address
##criptions
briefly
effusions
structure
structurally
confirmation
terminated
aimed
eccrine
analgesics
##hydrate
ruptured
orthoped
precipitate
##oactive
subcl
Multifocal
ceftriaxone
hydrochlorothiazide
cyanosis
warrants
allografts
regardless
gammaglobulin
penetration
inhibiting
Previous
##esterolemia
conducted
parasite
parasitic
Immune
echocardiogram
Abdominal
Effects
curve
ureter
alkaline
tablet
PEC
Peripheral
nucleus
##ENTATION
Electr
Reversal
##iclosporin
substantial
behavioural
coincident
coincidental
Scale
vigabatrin
leucopenia
axillary
bupropion
fatty
calcifications
splenic
splenectomy
coherence
reflexes
gastrin
explanations
thymectomy
triple
colorectal
differentiated
Agranulocytosis
ABL
HT2
##butynin
thromboembolic
survey
contaminated
inhalation
extracorporeal
ophthalmicus
cephalosporins
porphyrin
Occ
Ocular
Rhod
tolazoline
convulsive
oliguric
microbial
Additional
hypotheses
bisphosphonate
##empor
accelerated
carcinomas
evolved
error
intolerable
cervix
sweat
##regulation
displacement
displayed
trachea
efforts
Institute
surgeons
crystall
irritability
pyridostigmine
entirely
OCD
somatic
submuc
cautiously
DLK
Linear
North
divided
stere
comorbidities
onycholysis
stomatitis
Angio
nonconvulsive
circumstances
ADRs
PRESENTATION
chorioretinitis
Hydroxy
RFA
efavirenz
ligament
##lampsia
##amylamine
acromegaly
perivascular
intradermal
neuropsychological
multidrug
psoralens
reproductive
erythroderma
quadrant
precursor
exceeded
Biopsy
frontal
scrap
unlikely
weaning
paranoid
neuromuscular
amounts
estimated
eczema
cysticerci
Meckel
OUTCO
Valproate
aphasia
euthyroid
lisinopril
mixture
mammary
tunnel
tibial
##iplinary
preserved
praziquantel
subepithelial
itching
anastomosis
CCNU
SAH
barrier
cresc
nadir
titers
forearm
hyperphosphatemia
parenchyma
evidenced
undertaken
striking
##existence
Improvement
commercial
MATERIALS
Olanzapine
OHSS
hiccups
mismatch
##onjunctival
##rexed
##optysis
trends
antiinflammatory
unchanged
medulloblastoma
controversial
##ychnine
multiorgan
##enstrual
##yridamole
independent
Austral
April
Nevertheless
OGC
Priapism
Sweet
Toxoplasma
Turner
UGT
Warfarin
aflat
bimatoprost
erectile
fumigatus
gambling
language
memory
mizorib
moxifloxacin
sicca
yellow
##normally
##aproxen
##amipril
dehiscence
##irubin
prochlorperazine
alarming
infestation
##epezil
Wegener
perospirone
carmustine
foliaceus
hypercholesterolemia
interleukin
consolidation
##iseofulvin
Unfortunately
halofantrine
thyrotropin
OUTCOME
7th
87
91
Av
AM
ART
AMD
BU
Ben
Brug
BTX
Bart
Cis
Cop
CPS
Ciprofloxacin
Cidofovir
Do
DT
D3
Don
Dan
Derm
Fus
Few
Gn
Gu
GD
Granul
Gyn
Gabapentin
Gastric
HL
HU
HCL
HPS
Herbal
Luc
Lip
Later
Lex
LPD
MD
Mit
Muc
May
Merc
Non
NST
Optic
Pa
PB
Pres
PPA
Pemphig
Qu
Rare
SN
Sodium
Surgical
T2
Tre
Tax
TSC
Ticlopidine
VP
Vancomycin
VAS
apro
bid
bite
band
bind
barbit
bosentan
budesonide
cam
cra
ciclosporin
dent
dac
fa
fed
gef
hor
hith
hyster
jer
join
lar
lic
lum
lamin
lock
lind
lenalidomide
mc
mer
mec
mare
nab
nuclear
nimesulide
pound
popl
prometh
rip
sti
sar
sough
sensi
sorb
sensitization
sample
satisfactory
tar
tet
trop
titer
terbutaline
tandem
troglitazone
vic
vec
vocal
vitiligo
way
zone
zomep
##ha
##hr
##oer
##off
##otism
##to
##be
##bumin
##bida
##luse
##lines
##ai
##au
##cainide
##cending
##iologic
##iffer
##nitus
##mg
##molol
##sel
##yes
##yver
##pose
##prop
##pinal
##rag
##frin
##dac
##dermal
##vular
##vitamin
##uper
##uinal
##HT
##82
##ker
##ken
##wide
##Ps
##PT
##PTION
##DY
##97
##CF
##CRI
##VN
##UDY
##XT
##tified
##era
##err
##erian
##eracillin
##enoc
##ense
##edronic
##inity
##infection
therm
thiopurine
##alt
##alizumab
##alarial
##alactam
##albida
##esity
##therapy
##thimide
inpatient
##oria
##orionic
##oroiditis
##atum
##atrob
anec
anore
anhydr
##asic
##asidone
##asatinib
##isable
##arol
##arran
##icide
theory
##antic
##anial
##rete
##roximately
reappear
##osol
##osuria
##omical
##omib
##omatoid
##usually
towards
##ecox
##oline
##olute
##uronium
##iden
##idis
##idum
##idyl
##empl
##emet
##itz
##itness
##itazine
##acc
##acy
##aconazole
##acyclovir
##opy
##oporphyria
##apro
##apac
##iad
##ocorm
##utum
##utamide
##utrophil
##iline
##ameral
##amides
foramen
##siveness
asbest
##ortly
##ortez
congestion
##irac
##oted
##otactic
##otensive
##ogammaglobulin
##advant
##iglitazone
chec
chore
chickenpox
chosen
disk
disori
disadvant
##seous
##uge
##imonidine
##itivity
reserve
resumed
actions
acenoc
##agmus
alemtuzumab
alteplase
alendronate
##ibencl
##abling
exact
exper
examples
exalbida
see
infused
imipramine
imperative
stasis
stellate
indolog
indisting
tried
##ycosis
##quer
##quitazine
assumption
recessive
recluse
##ptyline
##ptocorm
clob
cluster
hypere
perior
permitted
perme
##ionitis
##ived
##ivastatin
antipar
##izers
##oxime
incapac
##stance
##estrogen
##ormycosis
carry
##uditory
preec
attained
##utethimide
posaconazole
positivity
##cras
ages
agitated
desquam
folic
unt
unusually
##rometry
##atine
ability
ablation
abnormally
arms
hypertrig
hypernat
hypersex
transc
dural
serology
##ylhyd
reliable
spac
spider
##azan
##ipex
##oretical
mequitazine
##ysty
para
parotid
pren
princ
subgroup
substance
enven
obtaining
##ails
hemostatic
hemoptysis
myopic
daun
applying
##raemic
##ismus
plann
imping
impulse
##tives
thrombosed
shoulder
undetectable
epiph
epoprostenol
##allergic
malad
heat
height
lymphoprol
##illes
##rank
##SIS
##adiated
##iteal
sci
scapular
Also
systolic
amikacin
amifostine
methadone
##renavir
glass
gliomas
glibencl
##fers
##ificant
overl
intubation
completing
##omyce
differs
##ycholate
factory
##obiliary
##oblastoma
metamizole
endoscop
endoscopy
endotoxin
##ivefrin
cardiogenic
cardiores
decades
##posure
##andard
##imetry
emo
multiagent
Antic
##syn
##alcitr
posts
##ensed
##ensus
##ensatory
resolves
##ioplasty
##duction
##febrile
##keting
dysarth
##ixation
radiof
depth
##formations
experiences
##ardiac
defib
speculate
inhibitory
##ulindac
##overy
stricture
strychnine
##time
program
continuing
myelocytic
myelomon
nonm
noncom
##usside
##anisms
##ovaqu
neurotoxic
neurolysis
absolute
cytok
cytokin
pneumococcal
pneumothorax
angioplasty
fiber
fibrotic
concentrated
hybrid
##ulfan
prolapse
##titutes
MEAS
involuntary
vari
variability
withdrawing
polysty
personal
perspective
anticancer
carbon
coexisting
refractive
##alein
valacyclovir
ideal
losartan
hospitals
difference
##oxicosis
avidum
smoke
improvements
promote
##aceous
microc
microangiopathic
advocated
advisable
proportion
modification
Chlor
macrolide
muscarinic
##osporon
characterised
excit
excised
Standard
griseofulvin
hepatospl
author
labour
cholangi
dissolution
##ochoroiditis
pharmacogenetic
##ococci
affinity
Asthm
fluoroscopy
pathogens
160
providing
##piration
##ARAC
CDT
Reye
apomorphine
cats
catabol
solitary
##erto
proteins
methyltransferase
AmB
intoxications
##icacy
aggression
haemoperfusion
embry
Unit
Unusual
caud
lipodystrophy
2007
2003
salaz
protective
vasodilat
adjusted
Paradoxical
Recovery
masquer
tachyp
retinochoroiditis
nitropr
magn
preclud
precaution
arrival
colonoscopy
generic
eventual
1994
adenoma
adenovirus
photo
repeti
terbinafine
dermatomyositis
##oxifene
Imaging
##iabendazole
irritant
irradiated
hypotensive
antacid
##ullary
extensively
uncons
##ictable
latex
admissions
arrhythmic
Experi
PDCs
vinorel
prosp
optical
teg
teach
hemodiafiltration
triglyceride
##bruary
aggressively
##predictable
ACS
LAM
Tradi
oxide
pleur
prepared
##ophthalmos
##iprasidone
predispose
septicaemia
##esthes
##umping
collaps
mentioned
##isciplinary
glomerulosclerosis
ophthalmopathy
ductus
##triptyline
##cores
wheez
properly
1983
1985
quinidine
quinacrine
helped
##otropin
##plementation
relapses
Interventional
norad
intestine
MMC
Epid
##utramine
adequately
tricuspid
centers
##thrombotic
Conc
Respiratory
STUDY
maturation
hyperglycemic
MAIN
equi
equal
lacking
##aparoid
hydroxyc
surviving
CYP3
ARB
akinetic
cyclo
lumbosac
subcortical
subclinical
subconjunctival
guidance
HDAs
HDARAC
Lev
lepromat
hyperkalaemia
ANLL
cyanide
##anolamine
plana
ergotism
minimally
Wilson
brady
vulvar
vulner
Immunosupp
##lusively
Abnormal
urethral
alkali
alkaloids
infertility
stabilization
sympathectomy
sympathomimetic
hemoglobinuria
newborns
Neurotoxicity
Arter
aerobic
aerosol
##imodipine
candida
histopathology
membranous
filtration
##apride
SDC
hypertonic
temporally
Scler
easy
Isoniazid
axis
render
targeted
##opurine
sulphate
sulphasalazine
ergotamine
Hemolytic
Psori
##aptopurine
electrolytes
CHF
torsade
thymic
inguinal
androgens
cryptococcosis
Aggressive
Bronchiolitis
Evans
focused
pigmented
##aturity
infrequently
dipyridamole
dipivefrin
decompens
labeled
encephalomyelitis
cephalosporin
silver
connective
advantages
Corneal
PSL
Rhabdomyolysis
gondii
depleted
preoperatively
specificity
reflect
teratogenic
teratogenicity
ITP
keep
lorcainide
##grastim
##uropulmonary
mononuclear
aggravation
nitrite
Calciphylaxis
cyproheptadine
Insulin
chemoradiation
Anaphylaxis
Anaphylactoid
breathing
Combination
enhancing
anthracycline
Consider
Meas
balance
rank
semis
##acrimal
leakage
preventing
arginine
##ofibrinogen
endometrium
##oquinolones
bacillus
antituberculosis
Linezolid
Shortly
SCE
million
onychomycosis
stomach
monoamine
spectrometry
stimulus
transiently
worldwide
Methylphenidate
Histopathology
fragments
chorioretinopathy
BKVN
Clozapine
Contact
Secondary
facilitate
mercury
mercaptopurine
nearly
utilized
##lipidemia
Thirty
Thirteen
isoenzyme
transaminase
interference
blebitis
glucuronide
cholecystitis
rhinitis
jejunal
Corticosteroids
Small
UL54
cesarean
layer
paediatric
raloxifene
solely
tinnitus
##oglutethimide
diamorphine
transcranial
subtotal
environment
escalating
epidermidis
palpable
irregularities
gynaecomastia
mediastinum
Rifampicin
VWFMs
randomized
Approximately
Cultures
Etanercept
Nitrofurantoin
NSAID
ducts
harmful
titration
##where
deoxycholate
hyperuricemia
translocation
consultation
inherited
mesalamine
summarize
Between
Kluyver
MCD
pantoprazole
##iptase
##uishable
dehydration
##romyography
adipocytes
phenothiazine
tubulointerstitial
mucocutaneous
bronchiectasis
oxidation
Herpes
thalassemia
dialysate
parallel
Investigations
Detection
Gastrointestinal
HVF
Oxybutynin
Routine
Sustained
Surgery
TACE
larger
veloc
##amnionitis
leuprolide
diplopia
discontinue
discoloration
fluconazole
amniocentesis
underscores
dysrhythmia
progestin
Oncology
Children
quantit
intracoronary
INFVA
rechallenged
chorioamnionitis
AUC
Bisphosph
DESCRI
February
JHR
Merkel
Potential
RIF
bumper
dorsal
dilatation
lacosamide
laxative
nystagmus
own
piperacillin
##oumarol
thionamide
##cellular
##phthalein
progenitor
hypoalbumin
unmas
unremarkable
hemiplegia
mydriasis
outbreak
neuroblastoma
brachytherapy
cerebellum
photopatch
expansion
orthopedic
Hydroxyurea
Australia
Brugada
Fusarium
GnRH
NSTE
aprotinin
craving
gefitinib
hitherto
joints
lindane
mcg
popliteal
promethazine
sarcomas
sought
victim
vecuronium
zomepirac
##ifferenti
##atroban
anecd
anhydrase
##ecoxib
asbestos
##ortezomib
disorientation
acenocoumarol
indologenes
indistinguishable
##ptocormia
hypertriglycer
##ylhydantoin
##ipexole
planned
lymphoprolif
glibenclamide
cardiorespiratory
##alcitrant
dysarthria
radiofrequency
##ovaquone
cytokine
cytokines
nitroprusside
vinorelbine
lumbosacral
lepromatous
Kluyvera
DESCRIPTION
2nd
750
92
Ap
Avascular
AST
Asian
BW
Bacter
Cr
CE
CV
C5
Cre
Cel
Catheter
CPA
Control
CLB
Centre
DA
Dil
Dys
Dose
DMS
DCF
Eth
EGF
ELP
FS
Fig
Fanc
Finding
Font
FVII
GB
G6
GHD
HP
Hemat
Hair
ICG
Itraconazole
IBD
IMP
Jul
KW
Kay
Know
Kleb
Lp
LS
Lam
Lim
Lef
Local
Large
MT
MLL
NS
Normal
NAT
Os
Ox
OS
OF
Oct
OLT
Py
PL
PK
Pis
Pap
Port
PML
Prob
PLD
Pediatric
PHT
Rap
Rel
Russ
RTA
Sw
SW
SR
Side
Sten
Symptomatic
Squamous
SCs
Soon
Sah
Tc
TI
Tem
Test
Tub
Toxicity
TPO
TRA
VC
Very
Visc
VOD
Whe
Zol
auditory
afebrile
bag
biv
bout
bund
bortezomib
cil
cage
cerv
cocc
cocaine
citrate
cGVHD
dend
dimeth
dasatinib
ethm
ejection
eleven
fin
fit
fear
falc
fecal
finger
fixation
gap
gra
glycer
grand
hop
hard
henna
huge
ips
ji
kil
kary
lend
laryng
lansoprazole
muk
mosa
miliary
meperidine
mianserin
makes
menstrual
oment
pter
pum
pyl
p11
pector
q13
rat
rar
rot
run
rab
round
ramipril
sized
sensitiz
sulindac
taz
twenty
urolog
uraemic
viol
wa
ways
zinc
##oab
##oform
##ohydrate
##ta
##tage
##tually
##trometh
##bing
##bur
##bow
##bet
##body
##bits
##buric
##lum
##lod
##lusc
##lunomide
##lukast
##eed
##aven
##aft
##aving
##ci
##cyt
##iox
##iomy
##iologists
##ietal
##nic
##nell
##gor
##gic
##gement
##growth
##mark
##senic
##pus
##pran
##ring
##rum
##ries
##fol
##fere
##fib
##fall
##TR
##vice
##vaginal
##uous
##uximab
##uterol
##GB
##72
##78
##kes
##LICA
##CP
##CC
##15
##VO
##49
##4V
##KA
##59
##erent
##erating
##enar
##enem
##enate
##onucle
##onomical
##edrops
##inter
##inate
##inion
##inolone
thri
##aly
##alent
##alate
##alamic
##esophag
##esarean
##thoracic
##orage
##atase
##atose
##atally
##attered
##atrial
anat
##asa
##asburic
##isti
##arp
##arenal
##ica
##icone
theoretical
##anes
##antin
##anosine
##anoz
##anamivir
##anlukast
##ream
reins
reabsorption
revision
reperfusion
rearran
##ithm
##oste
##ostim
##omed
##omies
##omidine
##omoxetine
##omorphic
##ulase
##ulator
##ulpr
toward
##ectic
##ectin
##ecretion
##olep
##urates
##uronate
##ido
##idor
##idated
##idioid
##idazoline
##emm
##itect
##itations
##itable
##itri
##acycl
##activation
##acuation
##opap
##opress
##tionally
##ley
##oce
##ocine
##ocyst
##oche
##oclastic
##ocarditis
##ocapro
##trations
##trimazole
beam
Through
##ilarly
##amidine
##ucose
forced
deb
debr
detri
##siella
##umaz
##umenting
aseptic
##oward
##eles
##phar
##pharmac
##otence
##otroph
##ogyric
##ading
##uneal
##tinate
che
disapp
disability
disruption
##sewhere
comatose
##odes
##icalutamide
##ouse
##antenate
##pled
##imaging
##imotor
aftern
resorption
acted
acarbose
ongo
##agra
##agenic
##agger
algor
##abled
##abismus
exam
exophthalmos
exagger
seek
infective
imip
implementation
stain
stained
stavudine
storage
leiomy
neomycin
oryz
shif
indication
indium
trast
trich
trimoxazole
##othane
##oneous
prescriptions
lips
rectus
recalcitrant
cloxacillin
cluneal
##ellagra
drin
perib
perimetry
efflu
efficient
antithrombin
antileuk
antiandrogen
##oxalactam
##eted
##etuximab
##etomidine
##sts
##iforn
##ude
##udication
premed
prevents
##ouraging
atyp
atovaquone
manual
descending
##chaemic
##oryne
Inadver
unw
unman
unaff
unpredictable
##yme
##ympath
##ymopap
follows
##urred
##atinization
abl
abol
aberr
corpus
##looked
##atively
diverse
diuresis
diarrh
hyperbar
transdermal
durable
serve
serone
serocon
service
acutely
##ylamide
##ylurea
##ylcholine
intermed
interrupted
intercellular
interbody
interfere
reluct
relieving
##entially
spot
sputum
##azocine
##ipulated
##oreth
##ministered
phases
monthly
##ophen
##ophan
##opharmac
##rosing
##ystole
##ystectomy
discouraged
paroxetine
paradox
pranlukast
subset
chemoembol
chemistry
##ropyr
##fulminant
##fuloderma
evacuation
entr
enabled
##sibility
obesity
successive
consent
consist
constitute
consensus
immunoblastic
immunologically
hemophilia
hemostasis
hemothorax
myth
myocarditis
appeti
##rae
plastic
plays
plantar
medial
intraarticular
##akia
impressive
impotence
##ostomy
undiagn
undesir
surfac
toxoplasmosis
neuros
leukocytes
epend
epoetin
malformation
##ergoline
lymphoh
fluct
flush
florid
##icious
##iciencies
##illa
##ills
contains
failures
scenar
scattered
##ocytopenic
##ocytoclastic
amoxicillin
methazolamide
##aminal
eradic
##ference
overcome
overlooked
improper
improving
##ritin
##versely
regurg
##yclines
##obactam
compartment
compensatory
instruc
metapl
endodontic
##andibular
marketing
empt
##ressants
elements
elbow
elsewhere
multifactor
Animal
##alcemic
##alcitol
postdural
posttransplant
resolving
acids
outstanding
outlined
outflow
dysregulation
##axone
depressant
define
deficiencies
recurring
lesional
considerably
histi
striat
stridor
strabismus
visits
##assay
##aluation
pathways
##medetomidine
myelotoxicity
confidence
esmolol
neurode
##oplakia
absorb
abstinence
cytology
Acyclovir
pneumat
pneumatosis
virtually
fibrosing
feel
brid
brimonidine
alpha2
eyedrops
varied
variation
nephrectomy
##drawal
opium
opening
opinion
sheath
simulating
similarly
erythroid
calcineur
calcitri
polyp
psychopharmac
carbonic
carbohydrate
cou
##iatry
205
bleed
blephar
exposures
ide
Class
Clonidine
manifesting
avascular
##orphan
angiitis
maintaining
promise
contractions
femur
advice
advances
doct
documenting
modulating
modifying
##ofiltration
##exalate
chart
country
humoral
sulfonate
keratinization
musculoskeletal
rheumat
identifies
##arbazine
exclusion
##ronchial
Study
gray
selectively
hepatocytes
hepatomegaly
hematomas
supply
extrap
shortage
shortness
pharmacist
responds
##yrrol
Clinically
Adult
Adriamycin
fluoroqu
fluoroscopic
fluorescein
fluoroquinolones
accoun
mucous
mucormycosis
##opathogenesis
mildly
##ophosphate
provoking
##piride
chloro
chlorhex
abdomin
CDDP
Retin
apneic
fewer
overdosing
bronchitis
bronchopulmonary
numbers
crises
capillar
ischaemia
ischaemic
rashes
##kinsonian
swoll
##acheal
warning
prostacycl
alternate
alternatives
haemodialysis
created
##oglycosides
Unlike
2002
2006
2001
2005
salmon
salbut
##ynthetic
##tibuten
CSC
vasopress
retina
nitrous
precor
preceding
reductions
IVF
damaged
replace
dextrometh
indicative
Withdrawal
adenomyosis
photoc
terr
dermatologists
##itreous
girls
phosphokinase
availability
Imp
Imatinib
expanding
##azolin
irritation
exploration
illustrated
illustrative
etiological
petit
##omalate
##urbipro
2149
##oephedrine
ulcerations
publ
Hypoglyc
Exacerb
PDPH
halothane
Nevirapine
meningiomas
teeth
prompted
aminoglutethimide
ovaries
morphological
antagonism
PCNS
isolation
isolate
pseudoephedrine
##hydram
##hydropyr
implants
articles
polyuria
TNFalpha
vertical
verify
members
##chloride
##imethamine
Methemoglobinemia
consequently
##adenosine
Histologically
mesothel
mesodermal
coagulase
menopausal
green
handling
mortem
palatal
voluntary
exceeding
##ocarpine
screw
screen
Hepatitis
##ozo
antigens
reversing
raising
epithelioid
moderately
fields
mollusc
operations
operating
property
1988
Positive
urate
addressed
ADH
ADHD
ileal
nortriptyline
doxycycline
prematurity
##yloidiasis
ICP
MMI
ketamine
walls
trimethadione
protocols
confirms
benzarone
neuron
neurons
neuronal
Conventional
broken
prognostic
dyspnoea
angioimmunoblastic
ATG
ATL
##balance
supplemented
exclude
antimalarial
hydroxide
precipitation
milder
sulpiride
watery
##oacr
subcapsular
varices
HDR
coinfection
cefuroxime
ceftibuten
pyrimethamine
carrier
lactam
vaccine
oncologic
albuterol
minimum
represented
chromosomes
ratios
nevertheless
BCR
fungi
multiv
pustules
pustulosis
ventricle
paraspinal
progresses
Carboplatin
Efficacy
PVE
PVOD
SMN
copy
ectropion
##fetilide
DEM
pathophysiological
Reports
worker
workup
IUD
Indian
glycol
sources
relevance
regularly
confusional
schedules
PAS
TDF
mandibular
spreading
substantia
arteriosus
coincided
vigilance
subacromial
blastomycosis
hydatid
basement
materials
electrocardiographic
Escher
Hemodialysis
Minoxidil
normally
normotensive
reintro
##aptomycin
acceptable
marker
fibrinogen
fibrinolytic
CHOP
FDE
GIST
##osmolar
existence
##iparum
Evaluation
Propafenone
##linking
antineutrophil
actinomycin
inhaler
inhalers
##osclerotic
reasonable
CIPS
CITB
ferritin
silicone
##oatrial
##lebitis
hypoxia
hypophosphat
##oxygenase
##oxyadenosine
conservatively
photosensitive
ganglia
Auto
Dopamine
PSG
Risk
bulky
myalgias
retarded
reflecting
hypothesized
hypothesize
Californ
aetiological
fascia
pilot
wearing
##entamidine
##eculectomy
##emporal
challenging
stools
classification
diphenylhydantoin
erroneous
cryofibrinogen
aggravated
candidates
Increasing
contraceptives
cerivastatin
duoden
sweating
##arteritis
attenuated
positioning
esophagus
esophagitis
limitations
exceptional
Electro
anthracyclines
CFSE
Microscopic
OCS
balanced
buried
sibutramine
sickle
##acrylamide
adherence
actual
actually
clomiph
Infectious
particles
leukemogenic
heterozygous
phenolphthalein
##ofibrate
extrahepatic
Enterobacter
endometrioid
mimicked
PATIENT
Norway
SCC
millili
rubrum
##roversy
immobilization
steatosis
tryptophan
canalicular
Cholest
Cholesterol
CD30
catechol
transition
Neutropenia
tachyarrhythmia
Controversy
boost
efalizumab
radical
radial
##antrone
acromegalic
periventricular
transaminases
immunohistochemical
immunohistochemistry
ameliorated
multidisciplinary
psoralen
glucuronid
cholecystectomy
infarcts
precursors
Differential
Pancreatic
Eryth
Opioid
Pentasa
UL97
cesium
narcotic
rosiglitazone
##aserod
chronically
nebulised
designed
diameter
diaphoresis
diaphrag
dihydroxy
transcriptase
subtyp
environmental
remitting
remitted
Rifampin
Disulfiram
ODT
erections
glycop
glybur
pupil
pupillary
walk
##hibition
interpret
interpreted
subfoveal
scrofuloderma
comprise
elucidate
phenylbut
Trichophyt
ventilator
antihistamines
alleviated
Polymyositis
ensued
ensuing
scintigraphy
European
bilaterally
cramps
domain
education
penile
sacro
reticularis
##eltamivir
staphylococcal
shunting
pressures
claim
Infections
epigastric
computerized
instillation
bronchodilator
Ampicillin
intensified
MAOI
CYP2C19
gonadotropin
Repeat
siblings
participants
INTERVENTION
Azathioprine
DHP
Fluoxetine
Significant
TKI
buffer
dynamics
missed
nurses
withheld
##illoedema
exanthematous
leaflet
trabeculectomy
entropion
hyaluronate
hyphema
psychiatrist
coadministration
digitalis
SSRIs
Protamine
aortoiliac
ESRD
Baclofen
Fifteen
Sudden
Unexpected
audiometry
busulfan
fasting
fairly
granular
judged
libido
namely
pitfall
##oreceptor
##retory
##roveci
##vernous
aldosterone
implic
statistically
intranasal
hyperchloremic
sporadic
heightened
flares
ammonia
elicited
osteoarthritis
##tructural
crucial
epileptogenic
Extrapyramidal
Electron
crystalline
stereotactic
scraping
mismatched
UGT1
aflatoxicosis
mizoribin
Avastin
AMI
Bartter
Copaxone
DTPA
Donepezil
HLH
Pemphigus
horse
mecamylamine
pounds
rippling
stiff
sorbitol
tetany
tropical
##haar
##hrl
anorexia
disadvantages
antiparkinsonian
preeclampsia
untoward
hypersexuality
transcatheter
envenom
impingement
maladaptive
endoscopically
emotional
polystyrene
hepatosplenomegaly
catabolism
precautions
repetitive
prospectively
##esthesiologists
wheezing
Epidural
CYP3A4
cyclooxygenase
Arterial
semisynthetic
velocity
hypoalbuminemia
hypertriglyceridemia
Crypt
DMSO
Ethambutol
EGFR
FSGS
Fanconi
Fontan
G6PD
IMPLICA
July
Kayexalate
Klebsiella
Leflunomide
NAT2
Pisa
Whether
biventricular
bundle
cilastatin
falciparum
hopantenate
ipsilateral
jiroveci
kilogram
mukul
mosaic
pteryg
pumps
pectoris
rarity
tazobactam
##beta
##lodipine
##foliative
thrive
##asburicase
##anozolol
##olepsy
##ocaproic
detrimental
##umazenil
ongoing
algorithm
exaggerated
imipenem
trastuzumab
##oryneb
Inadvertent
unmanipulated
unaffected
##ymopapain
diarrhoea
hyperbaric
seroconversion
intermedia
paradoxically
chemoembolization
undiagnosed
surfaces
ependym
lymphohisti
regurgitation
metaplasia
multifactorial
striatum
calcineurin
calcitriol
fluoroquinolone
chlorhexidine
swollen
prostacyclin
salbutamol
dextromethorphan
##urbiprofen
PCNSL
##hydropyrimidine
mesothelioma
Escherichia
California
clomiphene
glyburide
Trichophyton
IMPLICATIONS
02
09
1H
2D6
3r
4th
550
6beta
89
8th
94
Ak
AO
Aug
Ach
Aortic
Atrial
AGE
Apart
BH
Ble
Buc
Brom
Bud
Ca
Cat
Cases
CRA
CLS
Cimetidine
CsA
Coryneb
DN
Dem
Div
Dox
Duk
Def
Dex
Dise
DSC
ET
Ed
EC
Ero
Ech
Eye
FE
FR
Focal
Familial
G1
Gly
Germ
Graft
Giant
Ganciclovir
Global
How
Hear
Hick
HRT
IA
IG
IM
Ile
IRI
IDD
Je
JRA
Jaris
Kalim
LH
Lact
Latin
Lup
Lichen
LPS
Lapar
Laser
LFT
MF
M4
Main
Mich
Mech
Myel
Moor
NH
NM
Nec
NSC
NPH
Nocardiosis
Om
Ovar
Ophthalm
OKT
PN
PW
Pen
Pur
Pure
Pros
PAR
PLE
PEG
Patch
Paec
PGE
Pamidronate
QD
RD
Rital
Ref
Rupt
RML
ROP
RBD
Sa
San
Sil
Scr
SCL
SSE
SCA
Saf
Sept
SBC
Somatostatin
Selective
Snell
Ta
Ti
TL
Tw
T1
Tac
Toler
Terbutaline
TGA
TRE
Up
Und
USA
Vi
VR
Vap
Ventricular
Verapamil
Vitamin
VGB
Wes
Well
Witness
XRT
aura
aque
auro
bw
bit
bcr
bub
bicalutamide
cin
cut
cel
cab
cast
cuff
crest
cutane
cortex
cutis
cetuximab
din
dib
dich
dub
dressing
dumping
eg
ej
fen
fus
fulf
fits
fosin
felt
frank
ga
gm
giving
hid
hast
hors
happ
haptic
hope
ie
ip
iv
jug
lear
lute
larynx
mu
mR
ment
mere
mobil
moxalactam
nig
nose
nocardiosis
naproxen
nimodipine
noreth
ole
omental
oesophag
pi
pg
pon
pin
pet
pair
puff
pyramidal
pFVII
pentamidine
rated
rod
rout
rational
son
sut
sple
tro
tast
tons
tard
tamp
ub
uremia
viable
vortex
xer
zucl
ziprasidone
zanamivir
##hov
##oting
##ovenous
##tan
##tyl
##tail
##tective
##tach
##tles
##bic
##bit
##bronchial
##lot
##litis
##lorm
##lact
##lable
##ev
##eor
##east
##eamine
##etigo
##aq
##aun
##ault
##aicin
##cy
##cyst
##ij
##ier
##ipp
##ned
##nol
##gm
##gu
##mo
##mis
##mph
##magnesemia
##mectin
##sic
##sia
##sant
##self
##yot
##yron
##yond
##ylob
##pass
##point
##rata
##raphic
##fate
##fazimine
##AM
##TE
##IES
##IFN
##IPA
##EE
##EM
##EP
##NTS
##dade
##dopa
##vad
##vised
##visc
##uate
##uished
##2A
##GD
##Geor
##BMT
##ket
##LENT
##xheimer
##x10
##67
##Med
##ze
##zi
##zia
##PP
##PR
##DA
##DI
##jected
##0s
##q11
##q23
##SES
##CES
##CIPA
##VT
##VP
##VES
##tirac
##eri
##erations
##ertal
##entic
##enesis
##enazine
##ona
##onas
##onism
##onych
##inosis
##inten
##inamide
thro
thiabendazole
##alf
##alytic
##alges
##alcet
##eses
##esides
##esartan
##escribed
##thy
##then
##thet
##thix
intim
inotropic
inner
inversion
inactive
integr
##orol
##orable
##ories
##ortions
##atiram
##atogenous
anion
anagen
##istribution
##isterone
##arch
##arct
##arges
##ariably
##icting
##icted
##icts
##icarditis
##iclofenac
##anib
##ander
##analysis
##anoprost
##rew
##reus
##regn
##reted
##reening
##reactive
##rose
##rotein
retr
reminis
##osider
##osition
##osorb
##ostenosis
##omant
##vetirac
##ustine
##ulph
##ulsion
toes
##ecum
##oles
##olent
##olam
##olaryng
##olithiasis
##urk
##urative
##urium
##urable
##eme
##emed
##itoid
##itans
##itour
##itron
##itance
##itates
##acute
##acyt
##aculation
##acalcet
##opros
##opsies
##opolamine
##opping
##apez
##iae
##oceles
##tras
##tran
beyond
##vermectin
wash
wasting
##ilim
##ilomyces
##amotomy
##amipexole
islets
israd
tree
fort
force
forward
dead
deform
dealing
##sification
##umet
##cetic
ask
astro
asystole
conval
concept
conception
##eline
##elithiasis
##elming
##ired
##iramine
##irudin
##phasic
##ady
##aded
##adinone
##igan
##iguric
disper
disodium
distention
disabling
##ugated
##odal
##yserg
##antom
##plished
##imposed
##imurium
prove
proarrhythmic
adver
adapt
adnex
##itig
##earate
resin
resour
resting
##ypert
aler
##ibility
##ibizumab
##abrata
##abenazine
##abitans
exer
exocrine
exhib
exempl
exfoliative
imbalance
stut
stone
stains
stump
stupor
stearate
##urethral
let
lepir
neg
syring
share
##athion
trump
trapez
##eparin
##epidermal
##ycotic
##oneur
presump
preservation
##quagenic
lives
assume
recr
clonal
closed
hypocellular
hypoplastic
driven
driving
draft
permit
perhex
suicide
suitable
##ives
##ivation
antithrombotic
##izine
##izide
##oxemia
##oxantrone
##ociety
incons
##etam
##ette
##etrosis
##stable
cared
carers
carries
##ifically
atazan
atomoxetine
posterol
positron
##acture
##vive
##chr
##ched
##chemotherapy
notable
Inh
Inhibition
unaw
university
unstable
##gnancy
##urrence
aband
abortion
core
arres
arise
arsenic
complaining
diethyl
diurnal
hyperandrogen
hyperinfection
hyperlipidemia
hyperlact
hypermagnesemia
hypervisc
occip
transm
transform
transmitted
transfor
transvaginal
transbronchial
interc
interact
interview
interlam
##plex
spar
ushaar
##aze
##azinamide
##ipment
##ipolar
##ipizide
##oreg
##pericarditis
##ophor
##ophlebitis
##rolithiasis
##tising
##tisation
administrations
param
paresis
pramipexole
subch
substances
##teg
##ondaparin
encom
obtain
oblig
sucral
constitutes
##ermis
hemis
##plantation
plac
plug
plant
intraatrial
impregn
##tivated
##hexy
##hegm
##ubic
thrombophlebitis
##aneoplastic
undifferenti
undescribed
suramin
survive
toxins
##ildenafil
leukaemic
leukostasis
leukotri
malfunction
malarial
malabsorption
malformations
concentric
lymphatic
lymphopenia
lymphocytosis
lymphomatoid
allogenic
flup
flumazenil
flurbiprofen
contents
##onstration
##adian
scot
scopolamine
Aluminum
Alopecia
##ocytoma
obsc
amen
amyot
methox
##renic
##renergic
##ospinal
##aminic
eruptive
glabrata
glipizide
overt
overs
overlying
overwh
improves
##rix
##angial
perioste
regen
regis
regime
regulating
invasion
invariably
##genic
##yclics
##ober
compressed
composition
insult
metall
endomy
paint
##ended
marg
marij
colic
element
multit
Antim
postg
postural
postpran
serumcholinesterase
genaven
104
dyscras
radiography
radiopa
depending
experiment
##ardiogenic
arteriol
##sequently
redness
redistribution
considerations
typing
stranded
visible
micdade
##asserian
##ctomy
pathologies
ups
nonn
nonket
conflu
minoxidil
esterase
analytic
steroidal
##ovol
neuroc
neurovascular
neurotrans
neurogenic
##oplantar
##phae
abstinent
mostly
##ercosis
##rophagia
##upping
angel
fibers
194
195
concentrates
hyphae
##ulfite
predomin
predicting
##titrexed
autograft
autopsies
retained
retreatment
arthroscopic
127
123
124
##ognition
nephrolithiasis
opacity
opiate
simulated
tubes
calciphylaxis
polycl
persists
##comitant
psychotrop
saved
##mitriptan
dermati
formalin
carbox
carbimazole
coated
coum
coved
coenzyme
coarct
Thereafter
frequencies
##ianzi
recomm
supra
suprap
##rologists
differing
plasmacyt
##icines
##oxicam
systematic
systemically
CASES
##avalent
##avorable
angiopathy
##tilization
promoted
contracture
microorg
bretyl
seriously
advanc
advise
propamidine
approval
hypersecretion
##ofuran
##ofecoxib
blocks
Chem
Chrom
Choroidal
Changes
pancreat
1500
fatality
vitritis
##apped
##apping
macula
suspended
sulfur
lowered
didanosine
osteoid
epidem
##arbox
exclusively
venules
##lobular
seldom
hepatobiliary
hematogenous
hematopo
suppurative
pouch
##ohypert
dissolved
##estingly
shorten
pharmacology
measurable
documents
##yrate
112
11q23
motion
Asia
##prostone
Adjuvant
granules
granulomas
accur
accord
tuberculomas
##opathology
165
##oralen
tolerate
doing
dofetilide
##pired
chloral
##tide
clotrimazole
beta1
electromyography
CDI
Retinal
Reactivation
bronchoscopy
bronchiol
##avian
solvent
solvents
soluble
organized
organophosphate
patent
patency
problematic
neuroleptica
heparinoid
hypothalamic
nodal
nodosa
intracameral
intracardiac
pedicle
thyroidectomy
Intrad
Desensitization
swallow
##TIGA
##TICIPA
cisapride
##URCES
sclerotic
haemoglobin
haemofiltration
culturing
##iodic
##ivalent
caesarean
lineage
lipase
lipoid
2008
salicylate
dependency
IFNalpha
Recognition
mask
masked
tachyc
preventable
array
colonies
IVB
papilloedema
dexmedetomidine
dextran
assessing
INVES
actively
exacerbating
classes
classically
observable
terreus
##NAGE
dermatology
dermatophyt
phosphatase
Immediate
##iabetes
expressed
technical
technologies
etiopathogenesis
##ullous
synov
syncy
CMO
lamp
benefited
biom
polymyx
CTLA
microgram
CSFE
Except
Exposure
sinuses
teen
team
worsen
superimposed
AIM
AILD
aminoglycosides
aminocaproic
##phenyl
##phenidyl
##pheniramine
substitute
contribut
contribution
contributes
##ochemotherapy
Ensure
Enoxaparin
HCM
##renaline
belong
enteral
enteric
enteropathic
vasculopathy
##otorula
strongyloidiasis
Trimeth
Herxheimer
meloxicam
pleocytosis
pleuro
pleuropulmonary
##ivers
heliox
##osteronism
alcoholics
articulating
polyar
polypharmac
polyarteritis
polyacrylamide
SUMMARIES
cysteamine
verruc
worse
working
donors
member
##ucleated
##ucleoside
removing
Methadone
derang
Histoplasma
PTE
PTCA
mesangial
##insic
##ysticercosis
encouraging
collateral
processing
faced
facility
latest
latanoprost
palms
palmar
voltage
discharges
glomerulopathy
ultrastructural
predisposes
22q11
ductopenia
##onecrotic
Median
Medicine
accomplished
##panic
##ATMENT
activating
activities
correlations
SIS
SILENT
##rophilic
1984
emphasizing
determination
determinations
converted
adds
Interaction
Interestingly
nonsurgical
deposit
perfor
##ords
##ordination
segments
intestin
SSc
SSTR
locus
locations
pelvis
occlusions
triggering
DiGeor
maxilla
##hibited
tricyclics
benzoin
solutions
terminating
aims
ecchym
ecthym
economical
unsatisfactory
BMTN
Conversion
Conversely
Consequently
Concomitant
Respon
Sevent
brother
fractured
matrix
hypercoagul
electrical
IgG1
melanonych
distressing
MANAGE
equipment
clarified
antimycotic
hydroxyl
hydroxylase
survivors
burning
doubled
pegvis
cefoxitin
cefazolin
osseous
pyrimidine
pyrazinamide
orders
cirrhotic
ANC
Protein
cyanoacr
##metin
aspergillus
albendazole
clinicopath
concerned
chromosomal
uneventfully
APML
rigorous
##oembolic
##atism
intestinalis
BCCs
Ifosfamide
PRK
Prevention
Preoperative
Pregnancy
multin
multis
ranges
ventriculitis
wounds
parasites
echocardiographic
Abs
About
CPK
PVT
coprophagia
Thrombolytic
hemoglobinemia
inserted
stressed
stresses
extractions
Arg
bisulfite
pallor
summ
intermittently
eliminate
influenced
pathophysiologic
Transfusion
PEEP
Periodic
TSHoma
UCVA
capsular
capsaicin
filter
filgrastim
glycosuria
nuclei
rhythmic
vague
##nios
minority
questions
haemorrhagic
Depression
HSOS
natri
vivax
degenerative
resembled
historical
arteriography
arteriovenous
erythropoiesis
Cardiovascular
Cardiopulmonary
Emb
prevalent
unresponsiveness
hydr
hydrate
SEPs
TPMT
axial
anaer
chemicals
acetylcholinesterase
acetylcyst
Africa
COMT
Esophageal
Minor
Minimal
PsA
reiniti
occupancy
occupying
cohort
details
uncontrollable
fifty
ingred
septum
separation
trioxide
trihexy
differentiate
dissections
antimicrobials
ABO
Decre
Flecainide
Magnesium
Metoclopramide
Metabolic
Propranolol
falls
entities
neuropathies
neuropathological
feedings
extracellular
BPRS
Nineteen
laparoscopic
silent
##ylephedrine
##agnesaemia
hypomanic
1978
asthmaticus
Coexistence
Coronary
Hgb
Topiramate
bulim
pyogenic
tolmetin
extending
reflects
microbiological
microbiologic
osteopetrosis
adjustments
Neutrophilic
Gluc
castration
danger
pilocarpine
Inflammatory
errors
decisions
##ofluorescent
Pharmaceutic
cryotherapy
aggravate
nitrate
nitritoid
Prolongation
Calcium
HBs
##regation
##osulfapyridine
exudate
precede
attend
attenuation
analysed
autoantibody
crystal
crystals
exceptionally
Seizure
misdiagnosis
anthracostenosis
Conservative
Micro
Prominent
Typically
burden
ranibizumab
somnol
##ikes
adhesion
drawn
argatroban
submandibular
leukemias
Accidental
vasoconstrict
fractions
craniotomy
DLI
GHB
PPAR
Pathological
baboon
fellow
timolol
tapering
readmitted
##trahydro
exercised
oculogyric
spectroscopy
discovery
paralytic
empiric
persistence
persistently
CD34
restlessness
fragment
Clofazimine
boys
facilitated
utilizing
##lipressin
anesthetics
physiological
physiology
symmetr
neuropsychiatric
flutamide
amelioration
retrogasserian
erythroderm
quadriparesis
sensorimotor
hypocalcemic
Pancrease
Ultras
VADs
gelatine
narcolepsy
paid
raltitrexed
rosace
chelation
chronotropic
statins
weaned
allergies
escalation
electroencephalography
cysticercosis
vacuum
multicentric
mediastinitis
pseudoaneurysms
hazards
vesicul
vesicles
Culture
Etoposide
NCSE
SOT
SOURCES
Specifically
coverage
ductal
homozygous
ovary
senile
walking
##uana
instance
##ucloxacillin
succinylcholine
Trichosporon
mesalazine
tenderness
linkage
ventilatory
typhimurium
antihistaminic
Aminoglycoside
PubMed
Torsade
Torsades
atherosclerosis
atherosclerotic
bilirubin
dominated
gouty
nondiabetic
penis
taxanes
zolmitriptan
##openthix
staphylococci
shape
shaped
shunts
claudication
flashes
genotypes
10172
radiois
phenotypes
bronchodilators
antidiabetics
AmpB
vasculature
thoracoscopic
CYP2C9
gynecological
gynecomastia
definitely
Repeated
INTERVENTIONS
narrowing
AED
AEDs
Cyclophosphamide
Campath
Campylob
LTG
South
Sequential
atresia
harv
justif
mistaken
telmis
##irmenol
##pheres
livedo
abusers
immunoallergic
myotonia
myotonic
eradication
eradicated
cardioverter
anticipated
Compared
palmoplantar
Leukemia
CPH82
ASCT
Black
Cerebrospinal
Elevated
Forty
Muscle
Reduction
kindred
msec
ratings
zygomyce
##ihabitans
thiazolidinedione
##omnographic
distinguished
alloBMT
netw
trisomy
incorporated
architect
subthalamotomy
hemophagocytic
contagiosum
Actinomyces
1966
arthralgia
tubercular
Association
degradation
tetrabenazine
subclavian
PEComa
Rhodotorula
##emporary
submucosal
crescentic
Cisplatin
Danaparoid
Dermat
MDR
SNHL
Taxus
barbiturates
camptocormia
larval
licensed
lumen
merits
##oerection
##propanolamine
##kerat
##alteparin
diskitis
incapacitating
hypernatraemia
spacers
prenatally
daunorubicin
epiphora
sciatic
defibrill
myelomonocytic
noncompl
hybridization
MEASURES
variations
Asthmatic
salazosulfapyridine
masquerading
magnitude
antacids
unconscious
Experience
tegaserod
teaching
Traditional
collapsing
noradrenaline
Measure
anecdotal
lymphoproliferations
Findings
FVIIa
ICGA
Knowledge
October
PKP
Portal
Probable
Russell
Stenotroph
Tests
Tubercul
Visceral
Zoledronic
bouts
coccidioid
dendritic
dimethyl
ethmoid
graf
pylori
rabbits
urological
wafers
##lumic
rearrangement
##ochezia
debate
afternoon
seeking
leiomyosarcoma
oryzihabitans
effluvium
premedication
aberrant
seronegative
consistently
appetite
undesirable
instructed
empty
histiocytes
pneumatoceles
bridging
doctor
##yrrolate
capillaritis
vasopressor
precordial
##hydramnios
multivitamin
hypophosphatemic
milliliter
glucuronidation
diaphragm
dihydroxyvitamin
interpretation
buffered
pitfalls
stiffness
ependymoma
lymphohistiocytosis
3rd
August
AGEP
Corynebacterium
Division
DSCG
Heart
Hickman
IGIV
IRIS
IDDM
Jehov
Jarisch
Kalimate
Mooren
Ovarian
Prosthetic
PARTICIPA
Paecilomyces
Ritalin
Reflex
SSEH
SCA2
Safety
September
SBCCs
Snellen
TLR
Twelve
Tolerance
TREATMENT
Under
VRC
aqueous
aurothi
cinacalcet
cabergoline
cutanea
dichlor
ejaculation
fosinopril
gait
horses
ipilim
jugular
mRNA
mentally
norethisterone
puffs
pFVIII
routes
spleen
troub
taste
tarda
tampon
ubiqu
zuclopenthix
##lormadinone
##aqianzi
throat
##thetase
##orolac
##atiramer
reminiscent
##osiderosis
##vetiracetam
##itourinary
isradipine
##umetone
astrocyt
##ysergide
exhibiting
lepirudin
trumpet
presumptive
perhexiline
atazanavir
posterolateral
abandon
hyperandrogenism
hyperlactatemia
hyperviscosity
transforaminal
interlamellar
##ondaparinux
encompass
sucralfate
impregnated
##hegmatogenous
undifferentiated
leukotriene
overwhelming
marijuana
genavense
dyscrasias
radiopaque
micdadei
nonketotic
confluent
psychotropics
coarctation
suprapubic
bretylium
##ohypertrophy
accordance
##TIGATIONS
INVESTIGATIONS
polymyxin
pleuropericarditis
polypharmacy
SSTR2A
DiGeorge
ecthyma
melanonychia
MANAGEMENT
pegvisomant
acetylcysteine
trihexyphenidyl
somnolence
Campylobacter
telmisartan
Stenotrophomonas
Jehovah
PARTICIPANTS
ipilimumab
zuclopenthixol
1A
1st
2C
6MP
Ay
AF
Air
APO
Acet
ANA
ARA
Aquagenic
Br
BS
BF
BR
Ber
Bre
Base
Bel
Bot
Best
Back
Brief
Blast
Benz
BID
Besides
Cd
Cle
Cyp
Cell
Cyst
Cough
Coin
Clear
Current
Cessation
CPD
Cross
Currently
Coagulation
Circ
Day
Dyst
DCL
Dental
DME
Daptomycin
Diclofenac
EP
EO
Est
East
Event
EMD
FA
FI
FH
Fal
Fib
Fact
First
Final
Fixed
FAD
FFP
Git
GST
Grade
GVO
Horm
Hence
HAR
Hicc
Ir
Id
IB
IS
IPA
Ibuprofen
IDA
JW
Jun
Jak
Jude
Ke
Ki
Kin
King
Lo
L2
LC
LAR
Lower
LRTI
Loss
Lyme
Mul
Mil
Mob
MCT
Mamm
Mex
Mental
Moh
Maj
Major
MHD
Motor
MOP
Much
Mucin
Morphine
Moll
Miac
M69
Ni
NA
Nur
Niss
Naproxen
NDI
NVP
Ot
ON
OK
OX
Out
OLP
Po
Pn
PG
PF
Pul
Pit
Pac
Ple
PES
PIV
Pick
Plus
Propion
Power
PLP
POS
Q5
RP
RR
Right
Rating
Role
Rech
RBC
Radiotherapy
SY
Serv
Septic
Sirolimus
SAS
Sorafenib
SKT
Super
Sympath
Society
Sildenafil
Tol
Tenc
Tric
Tathion
Temporary
Uk
UF
Ure
Urine
UVA
URTI
UFT
VA
VB
Vin
Vir
VDS
Video
Vitreous
WG
West
Will
Yous
York
avi
apart
aGVHD
aPT
acetic
ber
big
bib
bif
bival
bird
bold
brand
cc
cation
crom
cod
civ
casc
cock
cited
cust
categ
cushing
curette
cecum
dd
du
dut
dival
dalteparin
eat
eigh
ehrl
fos
fine
flo
fish
fash
find
famil
fenes
firm
foss
fondaparinux
ger
gal
gum
got
game
glob
garen
gives
gaze
hap
hCG
house
ivermectin
kD
kin
kill
ly
log
lys
laden
lacrimal
mM
mC
mature
mitig
maqianzi
nocardial
national
nmol
nitid
od
ool
opp
ome
otitis
ochr
oophor
pom
pod
pim
pity
pay
paus
pock
pale
pack
pyel
p12
portion
peptide
pemet
pellagra
q8
q3
q6
qual
q23
rH
rul
ring
rim
rasburicase
rofecoxib
sl
sn
sA
sting
sight
sound
sarg
solar
sella
slit
satis
sonography
tas
tid
tit
tular
tail
targe
tick
titre
tepa
veter
vermis
wr
wid
wet
wood
yeast
##hat
##hyp
##hemat
##hicle
##oA
##ou
##oti
##oate
##oyl
##oub
##ohy
##otitis
##oesophageal
##oaff
##tase
##tures
##tropine
##by
##bor
##bop
##biop
##burg
##bendazole
##lar
##lative
##lock
##lometh
##lionic
##ea
##een
##etr
##eplase
##auric
##avernous
##cap
##ctive
##coral
##cemet
##iensis
##nake
##gh
##ga
##gab
##get
##globulin
##gylated
##mB
##mod
##mortem
##matism
##sed
##stil
##yph
##yse
##po
##pop
##pros
##pression
##pyre
##rich
##raction
##rup
##rheum
##raden
##riminated
##fig
##fused
##fractive
##feld
##AP
##AGN
##IU
##IDs
##Es
##ESIS
##NV
##NTH
##da
##dR
##dole
##duod
##vae
##volution
##uM
##uating
##HC
##27
##24
##BG
##84
##LI
##win
##xamic
##xedema
##MC
##zed
##zol
##zfeld
##PK
##PMP
##DNA
##OSIS
##je
##jectively
##92
##CH
##C1
##RVA
##40
##51
##XA
##YL
##tir
##tiated
##tiary
##tigen
##tiella
##erol
##erated
##erally
##erge
##eriden
##eness
##enacin
##ony
##ontal
##onae
##onographic
##ontrac
##onodular
##edent
##edones
##edematous
##inum
##inarily
##intentional
thirst
thermal
throb
##ala
##alk
##alidomide
##alacti
##alicylate
##ester
##esical
##estive
##escher
##thip
##through
##thostatic
inges
inex
intentional
integ
##oril
##oride
##oradi
##orized
##orrow
##orrect
##orrected
##ortisol
##oriness
##orzol
##atia
##atite
anuric
anesthesiologists
##entless
##entamycin
##asp
##aster
##asol
##asized
##asilar
##asiform
##isy
##isen
##isome
##isulpr
##ischaemic
##ared
##arre
##arif
##aracter
##arlic
##ariosis
##icter
##icitis
##ictive
##anal
##aning
##anodal
##antigen
##rey
##reve
##rech
##reotide
##retinate
##rotizing
##rokes
reest
react
reex
replication
reticul
revis
reagent
reev
rejected
##osim
##osyl
##osigmoid
##omia
##veillance
##usor
##using
##ulators
##ulonodular
##terion
##terix
##terodine
##ingly
touch
##ectric
##olding
##olymph
##olyx
##olacrimal
##oliguric
##uri
##urm
##urved
##uridine
##idin
##idating
##idaemia
##idoxime
##emas
##emias
##emark
##emann
##lymph
##itting
##itript
##acet
##acch
##acill
##acities
##accept
##opted
##oprec
##opsia
##apol
##apment
##apatite
##leet
##ocom
##oction
##occh
##ocereb
##ocrin
##ocyan
##ocervical
##oceptor
##trin
##trimoxazole
##tracts
##trusor
##tice
##tictal
beer
Thor
That
Thym
Therapeutic
Thyroid
Thai
Thalidomide
##vers
##utzfeld
##mentation
##ilon
##iling
##ilation
##ilant
##ilosis
##iluz
##ilemm
##iloride
##amet
##amically
##uced
isosorb
formed
forty
fortified
deal
deemed
detrusor
##sim
##sirolimus
##sivity
##umn
##uming
##uminal
astig
asterix
cone
conce
##elastic
##elman
##elvic
##irtine
##phther
##phene
##physi
##phomycosis
##phrey
##pholyx
##otumor
##otoxemia
##ogu
##ogastric
##adal
##adium
##ademark
##igrav
##igilance
##unitr
why
##tinil
##tindole
chin
chance
chorionic
chills
chymopapain
chlormadinone
Theophylline
disastro
distrib
disrupted
disfig
##sef
##seobacterium
come
comment
commit
comedones
##oda
##odi
##oderm
##odilation
##oustic
##yses
##ysterol
##plenectomy
##imimetic
##imbine
##imonas
proof
adopted
afterwards
resur
acqu
across
##ago
##ager
alum
##ibe
##ibacterium
##iberi
##ablished
extern
expired
extir
##ectasia
stre
stated
storm
stents
states
streak
stanozolol
strokes
##ureo
##ureas
levetiracetam
neostigmine
neoform
orient
orbit
##aya
sharp
indeed
indolent
trin
tram
trim
traction
trane
trademark
##othenic
##othyron
##epr
##epatitis
##velopmental
##ycanth
presyn
##quil
live
assayed
assays
clim
##ellosis
hypod
hypoph
hypoperfusion
hypoad
hypovol
drained
peroxide
perception
##ional
##iones
effacement
##ivary
##ivocal
antis
antiarrhythm
antiangi
antiestrogen
antipyre
antirheum
areata
##izin
##izona
##itish
##oxidase
##ociated
incomp
incubation
incriminated
incorrect
##etate
##etasol
##stated
associations
##ifug
##iferous
##udent
pretreated
preload
##ourse
##ourable
##ourished
atrophic
##mined
monocytic
monomorphic
poses
postictal
##actolol
agar
agenesis
agalacti
destructive
folds
folinate
##chthy
notes
octan
Intensive
unpro
univer
unantic
unipolar
unreve
unaccept
weigh
diamin
diathesis
##ventil
presently
abst
abund
abortions
arachnoid
arisen
##ytosine
##neider
causation
dioxide
dihydropyrimidine
##ONJ
hyperre
hyperemia
hyperplastic
hypercor
hyperbil
hyperthyroid
hyperosmolar
hyperalges
occlud
transmit
transfused
dura
durations
serves
sertindole
##ulty
##ylene
##ylureas
intertrig
interposition
interlobular
##plets
##enclofenac
spi
spin
spong
spra
spikes
##azal
##azam
##ipal
##ipated
##iprol
##ipotr
##ptometr
##ichiosis
##orex
##oretinal
##orefractive
phae
pharyng
phantom
##enaline
##ophyl
##ophak
##ophob
##rolled
##rolides
##ongest
administrated
reportedly
##rosh
disciform
discrete
paraps
parietal
paraneoplastic
parotitis
prone
practolol
subend
subling
subtle
subfulminant
subpop
##ropamide
##ewhat
enable
enema
entry
enrolled
obvi
objectively
consumed
increment
immunotherapy
heme
hemic
hemodyn
myof
append
##usional
##ometric
##ometrial
##ometra
plans
plomb
item
medically
medicines
intraepidermal
##aku
##akote
impression
impetigo
##ubility
##ubertal
thrombopl
thrombectomy
##ostosis
##ostomia
undeter
neurop
neutral
leukoplakia
epoxide
##allistic
##allergy
##allescher
maln
malmo
conclusive
sugar
##kinesia
##kinesias
##kinje
lymphocyt
lymphocytopenia
flocc
flunitr
##eks
##illae
##ranulation
secretory
notion
##onsillar
remark
scotopic
scoring
occurrences
##ards
##arded
##ardic
##ardenafil
amlodipine
amitript
amiloride
methylephedrine
methysergide
secondarily
##000
histamine
lowest
##aminidase
intent
intubated
##anglionic
##omyxedema
underreported
underrecognized
regulation
invalu
##yclophosphamide
##obular
##obile
##obronch
##obulbar
##obullous
##obacill
compare
beclometh
insomn
metoprol
endovascular
endopros
endotoxemia
herni
##endan
##endyl
decoction
decongest
marinum
colectomy
colored
column
emp
emep
emulsion
##echan
CONTE
bloody
multil
blurred
fluency
##ointing
Antid
##alcic
##alcification
posture
postsyn
genes
genitourinary
observe
##ideroblastic
acidemia
outlines
longest
longterm
##weight
whenever
108
10th
reveals
dyspro
dysuria
dysmen
radiologically
radioactive
depot
depigmentation
experiments
inflicted
arteritis
defective
commonest
spectral
speculated
##lerian
demands
demonstration
visually
##timated
##timibe
##asses
thereby
##cture
##aluated
##meda
myelitis
myelofib
nonfunction
nonimmun
nonthromb
nonrespon
nonischaemic
nonoliguric
##rhizin
appearances
esomep
##udies
decrements
sustain
sustaining
cyclic
##oval
##ovigilance
neuroimaging
reductase
cytopen
pneumopathy
pneumocytes
periodically
##ythaemia
viraemia
virulent
fibre
bruc
brushing
hygi
##TS13
occured
autofluorescence
##SERVA
examines
varies
1200
##orrhagic
##tsburg
opthalm
opacities
erythroc
calcific
psychological
saw
saving
RESULT
##ramostim
performing
coen
coel
coex
cofactor
coexistence
cotrimoxazole
##ranulations
detecting
valid
valves
valvular
losing
##rologic
differed
##NDIN
plasmid
plasmocytosis
cerebri
##avimonas
##ACG
angiographically
##ontact
##arry
##aceum
metabolizer
contraction
##ophilized
microL
microU
microves
microembol
microanalysis
Onset
benflu
seriousness
hemorrhages
advent
recognise
hydrogen
hydrocarb
propof
propria
primitive
primidone
primigrav
modulator
##ofacial
Chry
Chloroquine
Chiar
Charcoal
edematous
##exin
fatalities
##entific
##entification
##olytica
macrolides
toxicosis
toxicological
counsel
sulfone
iris
osteoblastic
rheumatology
##oprenaline
epidemic
excreted
##onico
OBSERVA
Stent
Stroke
Stellate
Stupor
Studies
hepato
hematochezia
extubation
glucos
##ohimbine
extract
extranodal
dissecting
dissociation
insulins
##okase
##mendations
shortening
shortened
240
pharmacists
pharmacologically
measuring
Whipp
##yrrhizin
metastasized
Clinic
Clinoril
school
##teinemia
heads
smaller
118
110
move
motility
motile
Asteroides
Assess
##proex
Adding
fluorosis
fluoride
fluorescent
fluorescence
localizing
mucus
mucoides
##zymes
161
##ographs
##ographical
##olarization
##olarizing
refractoriness
provoke
thrombocyte
2500
beta2
CD7
Reins
Rebound
catast
cataple
##oviral
##leman
##osinophilia
##avix
investigational
investigators
##mediately
safegu
solubility
##erty
##itoneum
emergencies
Photo
remissions
bacteraemic
stimulated
stimulate
137
134
13th
antidote
heparins
heparinization
##amethylene
continuously
nodule
nodosum
intracortical
procedural
Amyloid
Amikacin
##TIs
begins
warts
aggregation
DIAN
DIAGN
rhabdomy
haemophilic
haemosiderosis
IgM
lesser
##iodol
##oglycate
Unique
lipop
lipohypertrophy
lipiodol
salsal
salivary
##tibile
##ecalis
protection
CSA
vasomotor
vasoactive
vasodilation
##ustular
Recurr
##aea
retinoid
retinoblastoma
standardi
sequences
sequencing
preventative
schizoaff
##iazines
##ilitic
generate
embolized
170
IVTA
IVPMP
indices
indicator
antidepressive
189
necessity
necessarily
necessitates
1990
adenopathy
adenomas
photography
photoreceptor
photorefractive
photophob
photographs
twitch
twelve
##indle
dermatoses
purpos
popular
reactivated
vehicle
veget
younger
youngest
##otracheal
expect
expressing
expanded
seemingly
levomep
mitoxantrone
illustrating
uncommonly
tacalcitol
antec
distant
distortion
synaptic
uncorrected
attachment
biochemistry
comparing
microgranulations
##oglobinuria
Hypoth
Hyperc
Hyponat
Excessive
PDGF
degranulation
sinusoidal
Neonates
meningeal
tetrac
tetrahydro
hemodial
representing
AIA
aminoglycoside
##nestic
##brain
##ericardial
##phenazine
##phenoidal
substrate
HCl
etretinate
hereto
##renalism
##igmented
##amprenavir
circulatory
circadian
ACC
criterion
##operation
immunodep
Fourteen
pseudoprotein
pseudoporphyria
pseudotumor
pseudophak
##hyde
bowl
held
##rography
alcoholism
##ensitizing
polyhex
Neuropath
vera
vertigo
endocrin
Hispanic
mycologic
thorax
##asionally
##ucleotide
Methanol
##esthesias
released
pointed
##insing
chromic
encouraged
analogous
231
##enediamine
conjugated
##otypic
##otyping
legis
FUra
latency
palate
anticoagulatory
ultrasonic
ultrasonographic
Mycotic
ophthalmological
##atories
Intrahepatic
purpuric
225
diluted
##ozide
tracts
##RAb
accommod
antigenemia
applications
loose
raw
##ATURES
attribute
Posttransplant
Postmortem
SIRT
molec
operated
individualized
amprenavir
1982
1981
limbus
quinolone
digit
##otropis
commens
hyponatremic
##uscum
ADV
ADAM
ADPK
nonsm
##oscleral
practices
##hydrochloride
institutions
institutional
##oprofen
suggestions
371
ICF
ICSI
ICDs
SSP
SSTIs
ketorolac
location
peliosis
walled
highlighted
supporting
sequela
260
Direct
Diphen
TMJ
TMZ
maxillary
maxillo
portable
adequacy
pericardi
benztropine
encounter
##onesian
neurilemm
neuraminidase
unsuper
STN
broaden
##vices
##tisolism
macrophagic
##oebic
ATT
Death
supplemental
excluding
hyperglycaemia
CBCL
MALA
equation
equally
equivalent
lacks
migrain
##prising
##aparesis
orthostatic
orthoker
##othelial
survivor
sulprostone
pegapt
originally
002
008
005
HDL
Leishman
cefmen
ostial
oseltamivir
adrenoceptor
restrictive
##ophagocytic
Proct
cavitary
crosslinking
cyanotic
warrant
##pidem
oncogenic
oncologists
exhibits
clinico
minimized
432
gammopathy
rigors
tends
mechanistic
earliest
BCVA
brompheniramine
denervation
fungus
mullerian
pumping
ventricles
thiomalate
procera
parasit
##ogeneous
Immunohist
CPB
CPM
CPR
Effective
Effectiveness
HAI
SMON
curtail
ectasia
ectodermal
ectopy
midbrain
nutritional
##naire
Thrombosis
chorioretinal
alkaloid
stabilizer
prophylactically
polymorphous
Arizona
palliation
##argeted
Reported
Transthoracic
membranoproliferative
Endogenous
Endophthalmitis
Endoscopy
Indonesian
IIIA
Perfor
TSHRAb
bottle
filtering
glycemia
glycyrrhizin
nucleotide
virologic
thalamic
##rofacial
##april
endothelium
endotheliitis
PTLDs
Depakote
SDA
TDM
##dehyde
insigh
offered
resemble
mandible
arteriospasm
arteriograms
temporarily
Myocardial
Myasth
Myoglobinuria
Marrow
Platinum
Plavix
Screening
ototoxic
otolaryng
vigilant
leucocytoclastic
estrogens
vertebrae
Isch
SER
Useful
basophilia
nasolacrimal
##ployed
delirious
sulfonamides
sulfonylurea
acetylator
acetylcholine
Hypertension
Hyperkal
Hyperammonemia
sulphon
sulphureo
COCs
Essential
Pneumonitis
Pseudallescher
erosive
lobes
lobular
normocellular
normeperidine
splenomegaly
reinfection
reintub
reinstated
acceptance
traditionally
intramural
speed
speaking
remainder
marketed
opportunity
contractility
questioned
AVT
AVM
AVP
BOS
CHC
Delusional
hallmark
##salicylic
thymidine
retroviral
##okalemic
Again
ABPA
Bronchial
Bronchoscopy
Bronchoalveolar
Flavimonas
Metformin
Proposed
Propecia
falling
pigmentary
##liniensis
##aecomastia
tools
allele
alleged
myelodysplasia
temperatures
reasonably
CIDP
Colonic
Eighty
HbA1
fertility
ferrous
fertilization
##bladder
##yletiella
distinctive
hypomagnesaemia
##oxyuridine
##oxyphene
scales
scaling
Antiretroviral
demyelination
1975
Coomb
Ocul
bulbar
junctional
pyoderma
pyomyositis
pyometra
offender
reaching
tolterodine
percentage
oligo
oligod
proliferating
personnel
##ethylene
erosions
intramuscularly
Calotropis
Gliad
Generally
Objective
fistul
hrs
pilsic
piloerection
urothel
##igmenting
acceleration
accelerate
clots
hypokalaemia
carcinoid
delusions
chlorpropamide
establishing
ventriculoatrial
Increlex
Accordingly
MPGN
Poly
Pancytopenia
niflumic
nails
##osulfan
forehead
tracheal
tracheobronch
positioned
abruptly
complaint
Anaphylactic
detector
Reviewing
irritative
irritants
amputated
Electrophysi
Mean
Metronidazole
Salicylate
UVB
droplets
diminution
fundoscopy
ranitid
somewhat
semi
semin
##facial
##ypsoralen
lethargic
##eptidase
draws
haze
follicles
argues
submassive
leukemogenesis
dysphoria
contraindication
endometriotic
##ozygotic
polymorphisms
unexpectedly
craniocervical
AAA
Humphrey
PPI
Pathology
RSD
RSDS
Rett
aids
diving
sterile
stercoral
##aplectic
immature
steady
oculography
Angiotensin
noncardiogenic
feasibility
accidentally
stimulants
Recommendations
Methylene
Histopathological
Histopathologic
operatively
electroretinogram
fragility
copperhead
focuses
manufacturers
Carmeda
ERCP
RFP
gastroscopy
ligation
reserved
syphilitic
interfering
physiologic
engaged
breakthrough
emphasise
herpesviruses
Differences
##transplantation
Pancreatitis
jejunitis
Biopsies
Erwin
LEMS
Open
Optim
Ulc
Ultimately
bedtime
layers
putative
tincture
turned
turnover
##oresistibile
chelonae
antiemetics
dihydrotach
obviously
allergen
branching
formerly
epidermoid
##fluoric
electroencephalogram
electroencephalographic
mycobacteria
collagenous
palpitations
eczematous
vacuolar
multicentre
gynaecological
hazardous
Lymphoma
NCV
NCPH
NSAIDs
REM
lispro
mixtures
ovulation
sense
senna
##yxovirus
##uanide
instability
ascending
preserving
prazosin
subfascial
subepidermal
scrotum
inheritance
elucidated
phenylpropanolamine
myelinolysis
collections
Postoperatively
alleviation
Organ
Polymerase
scintigram
Beh
Fluorouracil
Fluorescein
Kluver
Published
Surveillance
Synerge
Venous
Venlafaxine
filled
fillers
flexible
mastectomy
pantothenic
sessions
dehydrated
##odeox
inclusions
scars
Alternating
Alternaria
instrumented
instrumentation
genotyping
##ammaglobulinemia
phenothiazines
##oagulant
mucociliary
ethylenediamine
Herpetic
MAOIs
thalassaemia
Psychiatry
Generalized
Investigation
Cefoxitin
NIS
NIC
Nonsteroidal
Schneider
T315
TKIs
atrium
bucillamine
buccal
dentition
dentist
downgrowth
gallbladder
nurse
porcine
passed
##LBW
withholding
trabecular
lifoA
recordings
relaxation
relaxants
##tegrating
entails
immunoassay
hexoprenaline
##oblastomycosis
cardioversion
hyaloid
anticipatory
coadministered
suppresses
suppressor
##okeratosis
Adenosine
Adenomyosis
intracellulare
roots
adrenocortical
adrenocorticotropic
anaesthetics
Obstruction
ESRF
mTORC1
ASPP
Canada
DSP
Elevation
Eosinophilic
Eosinophilia
Fortunately
LDH
Musculoskeletal
Pegylated
Remission
Removal
Sulfasalazine
Tetracycline
centrifug
catalyst
vanadium
zygomycosis
thiazolidinediones
annual
remind
reminds
##urgeons
bezoars
distinguish
shallowing
trisalicylate
antimony
prepubertal
unfavorable
unfraction
subthalamic
hemophagocytosis
contagiosa
microspheres
nonpigmenting
arthralgias
tuberculin
gastroenteritis
Intracranial
roentgenogram
##otrienes
biologics
Previously
ureteral
PEComas
Occurrence
Occasionally
Rhodococcus
submucosa
Angioedema
Angioimmunoblastic
tunneling
crescents
BUN
Benign
Benef
Gynec
Gynaecomastia
Lucite
Liposomal
Mitomycin
Merck
PaO2
PBMC
Quinine
Rarely
Treosulfan
binds
dentures
dacry
dacarbazine
faecalis
hysterectomy
jerk
jerks
laminectomy
locked
nabumetone
tarsal
thermoresistibile
reappearance
##ogammaglobulinemia
##ogammaglobulinaemia
check
checked
chorea
expert
experts
seeing
clobetasol
clobazam
hyperex
hypereosinophilia
perioral
periorbital
permeable
permeability
desquamating
paraesthesia
overlap
Anticoagulant
postsurgical
postsplenectomy
nonmalignant
microcalcification
Chlorambucil
excitability
cholangiocarcinoma
embryopathy
vasodilatation
tachypnea
preclude
photoallergy
pleuritic
pleurisy
Concurrent
hydroxycortisol
hydroxycyclophosphamide
Levofloxacin
vulnerable
vulnerability
Immunosuppression
rendered
Psoriasis
decompensated
keeping
Considering
SCEC
Bisphosphonate
Bisphosphonates
unmasked
unmasking
Apomorphine
Creutzfeld
Dilantin
GBP
HPCT
Limited
Localized
Oxcarbazepine
PLMS
Rapamycin
Sahn
TIA
Temozolomide
VCR
cervic
eleventh
finaster
glycerine
karyotype
omentum
rattles
rotator
##78H
##onucleolysis
reinstituted
##ocele
Throughout
debris
disappointing
shift
drinking
antileukotrienes
atypia
unwanted
reluctant
entrapment
myths
scenario
eradicate
elbows
neurodevelopmental
absorbed
opinions
psychopharmacologic
coupled
blepharitis
ideas
extrapulmonary
abdominus
Retinoic
photocontact
publication
Exacerbation
mollusca
reintroduc
Autoimmune
cryofibrinogenemia
duodenum
CFSElow
Cholestyramine
catecholamines
Erythema
subtypes
glycopyrrolate
phenylbutyrate
claimed
Unexpectedly
UGT1A1
envenomation
Cryptococcus
pterygium
Akathisia
Achilles
Bucy
Budd
DNR
Defin
Dexamethasone
Disease
ECM
Echocardi
FEATURES
FRYL
German
Lactobacill
Latino
Mechanisms
Myelodys
NMO
Necrotizing
PNH
Purkinje
PGE1
Rupture
Taenia
TiACG
Tacrolimus
Viokase
Western
bitemporal
dinitrate
dubliniensis
fenoprofen
fusarial
hidraden
hasten
merely
oesophagus
pontine
sutures
xerostomia
##aunism
##GDF
##zetimibe
integrity
fortuit
convalescent
adaptation
adnexal
resources
alerted
trapezii
##oneuritis
Inhaled
unaware
diethylstil
occipital
interviewed
paramyxovirus
subchorionic
hemisph
flupirtine
scotoma
obscure
amyotrophy
methoxypsoralen
overstimulation
registered
metallic
elemental
multitargeted
postganglionic
postprandial
nonnucleoside
analytical
neurocysticercosis
neurotransmit
polyclonal
dermatitid
systematically
##arboxylase
hematopoiesis
accurately
Intradermal
dermatophyte
syncytial
contributor
Trimethoprim
verrucous
ecchymosis
Response
Seventeen
hypercoagulable
hydroxylapatite
cyanoacrylate
multisyst
summary
natriuretic
Embol
anaerobic
reinitiated
ingredient
Decreased
Glucocorticoid
Pharmaceuticals
Microangiopathic
symmetrically
rosacea
justify
zygomycetes
##keratotic
sciatica
noncompliance
Tuberculosis
coccidioidomycosis
grafting
diaphragmatic
tamponade
astrocytoma
abandonment
encompassing
2C8
APOLT
BFM
BRONJ
Breast
Baseline
Belg
Botulinum
CdA
Coinc
Eventually
FINDIN
False
Gitelman
GSTM
Hormone
Identification
IPAA
June
Jakob
Kingdom
Multic
Mobitz
MCTV
Mohs
Majocch
Molluscum
Miacalcic
M694V
Niemann
Nurses
OXC
Poison
PnM
PFGE
Pittsburg
PIVKA
Propionibacterium
Q578H
RRMS
Rechallenge
SYNTH
SASP
Superior
Tolazoline
Tenck
Ukrain
UFH
VBDS
Youssef
aPTT
biguanide
bivalirudin
boldo
cromoglycate
civil
cascade
custom
categorized
duty
divalproex
fosamprenavir
fashion
families
fenestration
fossa
galact
garenoxacin
lyophilized
mCNV
nitidus
oolong
omega
ochraceum
oophorectomy
pompholyx
pimozide
pauses
pocket
pemetrexed
q8h
q6h
qualitative
rHuM
ruling
sAML
sargramostim
targeting
##hypogammaglobulinaemia
##ohyphomycosis
##bopamine
##auricular
##cape
##gabalin
##prostinil
##rupting
throbbing
##thipendyl
ingesting
##orzolamide
##isulpride
##arifenacin
##aracteristic
##rechaunism
reestablished
revisited
reevaluated
##osimendan
##acchar
##oprecip
Thymic
##iluzole
isosorbide
astigmatism
asterixis
disastrous
distributed
disfiguring
commitment
##imimetics
neoformans
tranexamic
##othyronine
##ycanthone
presynaptic
hypoadrenalism
antiarrhythmics
antiangiogenic
antiestrogens
antipyretic
antirheumatic
preloaded
agalactiae
universal
unanticipated
unrevealing
##ventilation
hypercortisolism
hyperbilirubin
hyperalgesia
sprays
##iprolol
##ipotriol
phaeohyphomycosis
parapsilosis
sublingual
subpopulation
hemodynamically
myofascial
appendicitis
plombage
thromboplastin
undetermined
malmoense
flunitrazepam
remarkably
amitriptyline
invaluable
beclomethasone
insomnia
metoprolol
herniation
CONTEXT
Antidep
postsynaptic
dysproteinemia
dysmenorrhea
myelofibrosis
nonthrombocytopenic
esomeprazole
cytopenias
hygiene
microvesicular
benfluorex
hydrocarbon
propofol
primigravida
Chryseobacterium
Chiari
OBSERVATIONS
Whippet
Assessment
Reinstitution
cataplexy
safeguards
DIAGNOSIS
salsalate
schizoaffective
photophobia
levomepromazine
heretofore
pseudoproteinuria
pseudophakic
polyhexamethylene
ADAMTS13
ADPKD
maxillofacial
neurilemmoma
unsupervised
orthokeratology
pegaptanib
Leishmania
cefmenoxime
Perforated
Pseudallescheria
hallmarks
Gliadel
pilsicainide
tracheobronchitis
ranitidine
stercoralis
Erwinia
dihydrotachysterol
Synergeyes
Schneiderian
T315I
lifoAmB
ASPPC
unfractionated
microcalcifications
Creutzfeldt
finasteride
rattlesnake
Lactobacillus
hidradenitis
FINDINGS
Majocchi
Pittsburgh
SYNTHESIS
rHuMGDF
08
1c
2A
5G
5th
6th
700
97
900
AW
AK
Aver
Aff
Aten
ACA
AMT
Augment
Aromatic
AFP
A59
AHC
B6
Bj
Bro
But
Bang
Britis
Bull
BPD
BSA
Baker
BMD
Barbit
Bruc
BFP
Burk
Ce
CG
Cin
Cam
Cast
Cong
Che
Cri
Cock
Carm
Coch
Cull
Cyan
CIN
Cervical
Cicat
Coagul
C67
Da
DO
DF
D1
Did
Doc
Dim
Dural
Disod
Doh
Diam
DCA
DLS
Dosing
Daw
Duch
Down
DKA
DPR
Diabetes
Ec
E2
EF
Eat
Eigh
Eps
Eyel
Erection
EST
ETP
EXT
Ehrl
ELBW
Ezetimibe
Fr
Fen
Fam
Fore
Fall
Fons
Fren
Frequ
Fract
Fund
Full
Flex
Fludarabine
Foscarnet
Future
FIG
Fetal
Furosemide
FOR
FGS
FCC
Fleet
Gr
G2
Gre
Ging
Gle
Good
Gauc
G20
Groc
Gemtuzumab
Gilles
Gault
GEE
G51
Gentamycin
HE
HN
Hu
H2
Hz
Hen
Har
Hom
Hol
Hur
Hel
HFN
HMS
Horn
Haem
Henna
Half
Ic
IE
Idi
IUS
Ide
IHA
IAN
Jaundice
Joub
KI
KP
Ker
Ket
Kore
KCT
Karn
LP
LO
Lar
Lid
Lew
Light
Lack
Lamb
LNG
Lenalidomide
Like
Lansoprazole
Mx
MK
Men
Mal
Mes
Mas
Mol
Mod
Mild
MTH
Morph
Marc
MCA
MRA
Mann
Mianserin
Nat
Nas
Nar
Not
Nif
Nail
NCT
NUR
Nocardial
NPD
Numerous
Norp
NBD
NRH
Niacin
NRE
Nimesulide
Nimodipine
Od
OP
Off
Owing
ONS
Ovad
Pf
PO
Ped
Pal
Pan
Pil
Pant
Pag
Press
Poin
PCT
PTS
Prem
Pram
Penic
PII
Prel
Prec
Ples
PHD
Pigment
PRA
PPE
POL
Prospective
Poor
Pellagra
Pirmenol
Pelvic
Pustular
QPR
RT
Rest
Rome
Rob
Range
Rheum
Roch
RMS
RMT
Rush
RION
Ramipril
Rasburicase
Sv
Su
Sx
Son
Sun
Sep
Slow
Sup
Sens
Supp
Stric
Sced
Single
Spr
SPE
Specific
Ts
Td
TG
TS
TZ
Tor
Tom
Tun
Tiss
TGF
TOS
Tigecycline
TEE
Turk
Typh
Ur
Uveitis
VT
Van
Vol
Vit
Vital
Vick
WH
WD
Wenc
Wors
Wall
Widespread
Xy
XII
Xanth
Zen
Zyg
Ziprasidone
aq
ath
ale
ail
autis
auran
arose
akinesia
bp
bing
biz
bore
byst
bov
barr
bites
bump
broke
bones
banding
cal
cig
city
cement
cob
cach
cache
cili
ceti
culpr
ds
dy
df
ded
dic
dest
dement
dens
dict
dying
daptomycin
dorzolamide
darifenacin
ever
ease
euc
era
eating
etiz
ephedrine
fig
fab
fri
fram
fire
father
fenclofenac
ge
gro
gem
gun
ganc
glo
gov
grief
grams
gigan
givers
garlic
hone
heral
hind
holid
homin
hycanthone
il
iat
iop
ice
iod
ichthy
ibopamine
kH
kan
kinetic
killing
kIU
lb
la
lg
lom
ling
lil
lot
lug
laz
lub
lytic
lamb
lump
mf
mO
mug
mov
miotic
morb
mold
mosm
miosis
mio
mobilization
mouse
murm
mobile
nc
ned
nom
nam
native
nong
natal
naph
null
named
nourished
ou
oval
omission
oestrogen
optometr
orofacial
pow
pig
piv
pose
pill
pach
pause
pict
pills
pirmenol
q11
rE
ration
rac
rox
raz
rich
rob
racial
rIFN
roles
rhegmatogenous
rinsing
riluzole
sq
sph
say
soci
slo
sore
slud
stit
saph
somat
sampl
sorrow
soda
sideroblastic
sphenoidal
t1
tor
tic
ting
tur
tine
tym
tight
troph
tale
tex
tension
trophic
troc
tired
tadal
uve
urogen
vib
vast
verb
viability
verbal
vardenafil
wb
wed
wron
wild
ward
wider
wish
wake
wind
wool
witness
wander
yol
your
yield
yohimbine
##hl
##her
##hed
##ham
##hot
##haus
##hang
##hospital
##hih
##oR
##ois
##oem
##oia
##ooth
##oamide
##oav
##oesc
##ohex
##oassay
##ooting
##oordination
##oelastic
##tur
##toid
##tatic
##tamine
##tock
##tund
##tempt
##bi
##ban
##bra
##bach
##bral
##back
##bling
##bolic
##besartan
##lat
##liqu
##lique
##lotoxin
##lucose
##eic
##eing
##ethal
##eoch
##aver
##avel
##aight
##aard
##aments
##ca
##cro
##cus
##cox
##cans
##core
##cill
##cycl
##control
##clusive
##convulsive
##crew
##ios
##iotomy
##iostatic
##iomonas
##ioblastoma
##nL
##nati
##nith
##nia
##nant
##net
##nection
##night
##gly
##gam
##gary
##gmon
##gations
##gers
##gale
##graft
##glu
##givers
##miss
##meth
##mixed
##mette
##maya
##sm
##sw
##sensitivity
##sky
##sacrine
##sentially
##shot
##yly
##ylo
##yema
##pic
##pet
##pection
##pting
##pressin
##pnea
##pigmentation
##poped
##rates
##raph
##rust
##rorel
##rivation
##rizine
##ratia
##fu
##fin
##fly
##fil
##fect
##faction
##fold
##fectious
##folate
##filling
##frank
##A9
##ALE
##ICE
##ED
##EW
##E5
##ECE
##NCE
##dly
##dun
##dose
##diss
##dosing
##down
##dosteronism
##dinarily
##va
##vate
##vists
##vises
##vinc
##ued
##uing
##uther
##urosis
##uited
##uveitis
##uvate
##HE
##22
##28
##21
##G2
##G1
##GEN
##B6
##BP
##BS
##BR
##7T
##kle
##kir
##kill
##kok
##kles
##kinetic
##LES
##west
##wire
##warding
##words
##xin
##xychloroquine
##3F
##6A
##6T
##MA
##PI
##PCT
##PRE
##DL
##OG
##jel
##ject
##jury
##john
##9a
##96
##SD
##SF
##SCT
##Con
##FR
##FV
##1A
##169
##RB
##RK
##RTS
##57
##56
##tium
##tidi
##tiform
##tiocytic
##tificial
##eria
##erate
##ersion
##ertained
##erfusion
##enn
##enop
##enous
##enne
##enoic
##enland
##enzymes
##on5
##onit
##onost
##onatal
##onias
##onuria
##onality
##onuclear
##onna
##onorg
##ediatr
##iny
##inous
##inatal
##intensive
##inization
##inatus
##inizing
therap
thir
thior
thumb
thread
thyre
thrust
##alip
##alamin
##alamine
##altre
##alanine
##alanin
##alateral
##alatine
##algam
##essible
##estimated
##them
##thous
##thenia
##thood
inoc
inoper
inorg
##orth
##orum
##orial
##ortive
##orative
##orail
##orice
##oradiation
##orks
##oratories
##atiel
##ativity
##atell
##atable
##ataemia
##atoh
##ataplectic
anc
anam
anemic
anthel
ances
anamn
ankle
##ented
##enteral
##entesis
##entolamine
##ason
##asonal
##asties
##isal
##isoc
##isite
##isition
##iskir
##ara
##ars
##arting
##ariform
##arette
##icus
##icep
##icemia
##icobacter
##icidin
##icago
theories
##ank
##ania
##anies
##anella
##anoate
##rep
##reational
##rexia
##roy
##rosive
##rotal
##roges
##roacin
##roleuk
##rotective
##rotide
rely
reop
retic
reple
reentr
reposition
revolution
rewarding
##itherapy
##osper
##osome
##osub
##ossible
##osens
##osiform
##osocial
##osseous
##osensitizing
##omet
##omening
##omian
##omata
##omonic
##omplete
##usate
##ustained
##ustrial
##usoidal
##uspected
##ulus
##ulous
##ulism
##ulates
##ulitic
##ulanic
##ulatum
##ulsification
##ulthood
##tera
##terin
##teration
##teritis
##terenol
toe
tod
toph
toll
##ecaea
##ola
##olith
##olve
##oling
##olation
##olys
##olym
##olates
##olli
##oliosis
##olimine
##urated
##urious
##urient
##urazan
##idoc
##idym
##idents
##idazole
##idazine
##idelines
##emal
##eminate
##ito
##itt
##itro
##itous
##itors
##itae
##itope
##aces
##acam
##actin
##acud
##acytic
##acental
##acoscopic
##acromial
##acoplakia
##acthen
##optic
##opause
##oprin
##opias
##optosis
##opalatine
##apula
##aproz
##aplasty
##apericardial
##apnia
##lein
##leate
##lequ
##legmon
##ocutaneous
##ocecal
##oculated
##oconus
##oconid
##ocicep
##trim
##train
##trif
##traction
##trazine
##trypt
##traum
##tryps
##trimide
##ticle
beat
bear
bell
beers
bearing
Thi
Then
Those
Thiazide
Thiazolidined
Thiabendazole
##vert
##verbal
##verta
wasp
##uts
##utary
##utory
##utyric
##mentum
##iled
##iles
##ilate
##ilib
##ilding
##ilution
##ilization
##ilesional
##ilaterally
##ilobular
##asell
##amy
##amel
##amate
##amily
##amidol
##uccin
##ucaine
##ucination
##ucnL
##uconost
islet
iseth
isopro
isonico
isoprin
trepon
treprostinil
devi
deaf
deanol
debul
deoxyadenosine
deployed
##sied
##sium
##sign
##sives
##umer
##umes
##umine
##umour
##ceeding
asym
asked
ascribed
asacchar
asthenia
assign
##orted
##owitz
##romic
##romatosis
##romocytoma
continence
confers
##elb
##elast
##electasis
##electric
##irium
##iritre
##irubicin
##phasis
##phric
##pheresis
##phrenic
##ott
##otent
##ottic
##otally
##otov
##otonia
##otonic
##otesting
##otope
##otton
##otomies
##otopias
##oga
##oglitazone
##oglein
##ader
##adin
##adol
##adron
##adri
##adrenergic
##adonna
##ressible
##ressives
##igo
##igell
##unate
whitish
chyl
chair
chocol
chimer
Theore
disl
disqu
dispar
disreg
disposition
dismiss
##septic
##sepsis
comb
##odic
##odeficiency
##odiafiltration
##odophyl
##ysema
##ysectomy
##antly
##antle
##iminal
##imens
##imembranous
##imacing
##imidyl
##imepr
proving
prothrombotic
prohibited
prothipendyl
proceeding
adef
adynamic
adaptive
adulthood
afterload
##earing
resort
resurg
resume
resorting
acron
acts
acanth
acanthamoeba
acrod
oncop
##ague
##ypeptidase
##yproges
alge
alters
alike
##ibly
##ibine
##ibbe
##ibonucle
##ibomian
##abo
##abain
##ablish
##abiliary
##ablock
exert
existed
explantation
exhaus
##ectomies
##ecteplase
seb
seated
sets
sevent
seasonal
infund
immin
image
implication
imidazoline
imidazole
staging
stability
staphylococcus
staff
leaving
ornith
##ainers
shed
shad
shaking
sharing
shopping
shared
shooting
shigell
induration
indocyan
industrial
indurated
##atherapeutic
trace
track
triaz
tragic
traged
triad
travel
tritherapy
##otherapies
##othiazep
##eps
##ycle
##ycomb
##ycoform
##dipine
##dipsia
##essant
##essels
##oneu
##onex
##aryocyte
presenil
##quinone
lies
rectum
rectif
recourse
recreational
clus
clav
clonus
cladr
clofibrate
##ellation
Weber
hypop
hypour
hypopharyngeal
hypogammaglobulinemia
draining
perif
peripro
pertaining
perineur
peritoneum
perpet
perilesional
##ionucl
##isten
##istone
##ighting
##iva
##ivate
antist
antiven
antiall
antimit
antipro
antiman
antigl
antithym
antisyn
antiglobulin
antitryps
##izations
inducers
##oxs
##oxane
##oxins
inch
incur
incidental
incurred
incoordination
incomplete
incessant
##etogenic
##etabolic
##etamines
##stent
##stroke
##stones
##stream
##estations
##estrel
##estyle
cartil
cards
carpoped
carotov
##iflo
##ifosfamide
##ifestations
##pping
##udescence
preleuk
preemp
##ouration
attrac
atelectasis
##utee
##minal
##mintic
##minans
monos
monoar
monoxide
monozygotic
monorail
maneu
posed
posthem
##actyly
agrees
agencies
desir
desensitiz
descriptions
desired
##ching
##chromat
notably
Intern
Intestinal
Inhibit
Inappropriate
Instead
Injury
Inverta
unlic
uniform
unilaterally
##ymia
##ymeth
##ymethyl
##ymenop
followup
##veni
##therland
##astatic
##astob
##astectomy
effectuated
intral
intrinsic
intrabiliary
abilities
aborted
corner
corrosive
##loon
aryl
arises
artificial
##yte
##ytes
compliant
dien
direction
diode
diphasic
diphther
hyperech
hyperden
hyperins
hyperali
hyperperfusion
hyperinten
hyperphenyl
hyperostosis
hyperkeratotic
hyperventilation
transposition
transthoracic
transurethral
transgraft
sero
sera
serine
serositis
serotype
serologies
services
intersti
interrel
interrupt
interacts
interrupting
##plegia
relies
relating
relatives
relentless
##entiation
##mune
##tens
##tenatal
spell
spike
spindle
spurious
uses
receipt
##ipodophyl
##ptomycin
##geons
##oules
pharyngeal
phrenic
pheoch
phentolamine
phlegmon
##ronium
##pers
symbolic
##opharyng
##opharynx
##opherol
meal
megal
mephen
megl
meleate
##rolactin
##tiscans
hepatis
administer
##rosoi
##rosternal
discrep
parts
paresthesia
paraker
paresthesias
paraparesis
prav
prudent
subnormal
subhepatic
subgale
##teine
chemo
chemically
chemonucleolysis
##roporph
##ework
##ewanella
enucleated
enrich
enfu
enamel
##sibly
obste
obidoxime
obtund
oblique
sucrose
constituted
construction
##ailed
##ermatitis
##ughter
increments
mgm
immunoblast
immunorec
immunoreg
immunobullous
hemian
hemophilic
myosin
mycet
myopathic
daughter
apply
appra
appoint
##ukub
##ukodystrophy
plain
plates
plants
placing
plastob
medic
mediat
medrox
mediate
medullary
##iescent
button
buttock
##aks
##akaryocyte
impossible
##tivities
##heal
##luding
thrombembol
thrombopo
thrombelast
thrombectomies
##ostal
surround
surprising
toxoplasmic
leukocyt
leukopenic
leukaem
leukocytoclastic
epitope
epirubicin
epimembranous
epipodophyl
transplantations
malin
malacoplakia
concise
conclusively
##ergenic
##ergaard
lymphography
lymphoplasm
lymphedema
lymphosarcoma
lymphomatous
flat
flag
flick
flucloxacillin
##oleukodystrophy
signed
##illectomy
##rania
##ranting
##random
##SING
secre
secure
##virtide
contain
contempl
remyel
remember
injured
injecting
scaph
scolic
scoliosis
scapula
Alle
Alcohol
Alprazolam
Albendazole
Alteration
##ocytosine
betablock
##ogens
obsession
rises
reviewing
amoebic
amisulpride
amsacrine
amalgam
methotr
literatures
##rendipine
##ospastic
histolytica
##aminophen
glut
glial
glias
glicl
glutamine
gliosis
glatiramer
glioblastoma
##ferential
overantic
overgrowth
overhang
overfilling
overkill
potentiated
potentiate
daytime
periarticular
peripher
undertreated
underdiagn
underlines
underdosing
underestimated
regulated
regulatory
##ychemotherapy
facts
normalised
normalize
normalisation
##genesis
##geneic
##yclitis
dosed
##obup
##obutyric
company
compiled
##ached
##achol
inside
insensitivity
inspiratory
inspiration
inspection
meta
corticotherapy
corticospinal
endodermal
##ivectomy
##CLC
cardiology
cardioembolic
##inalysis
herb
herbic
herself
##endron
##endocrin
decont
decided
decarboxylase
decanoate
##positae
combining
##italis
##cinonide
##cinnati
##osteroids
colle
colick
emesis
emolli
##aterol
##echam
##echolamine
##echiae
##ressors
##acteric
bloodstream
elected
##soas
multim
multipar
blot
blinding
blunt
blamed
initiate
initiative
fluphenazine
##eficient
Ant
Ann
Any
Anal
Antit
Anesthesia
Anxiety
##alcohol
posturing
postnec
postchemotherapy
postauricular
gender
genesis
##enses
acidification
##ensitisation
responsibility
longus
longstanding
##ascicular
109
##kebach
dysm
dysesthesia
dyslip
dysthym
dyslipidemia
dysreactive
dyschromat
##axial
##esions
radiating
radiosensitizing
depicts
deprivation
##ardias
##ardiolip
defences
defenses
##CTICE
proband
specular
speculative
spectra
##ralethal
##lerosis
##ulinaemia
##ammation
demarc
demise
demographic
string
stratum
straight
struts
Italy
Toky
visited
microsp
mictur
progest
programs
pathologically
upset
upward
upbe
##ersen
myelosclerosis
myeloab
myelomening
noncr
nonpro
nontoxic
nonrespond
nonallergic
nonlymph
nonverbal
nonrandom
nonalcohol
confron
conflic
confusing
##thmia
ester
escape
essentially
##quired
analeptic
cyclazocine
##ovesical
neurophysi
##oplication
absorp
abstracted
abstracts
cytological
cytologic
cytopenia
cytolytic
cytotoxicity
cytometric
Acid
Active
Acne
Acceler
Acarbose
Acquired
##ercular
##rophage
##ropharyngeal
##rophoresis
##ocked
pneumocystis
pneumothor
##uralgic
periodontal
##ieves
angry
virilization
fibrogen
fibrob
fibroscopy
fibrates
##copal
190
1924
bring
boney
hyaline
##ulfone
predated
##ereby
##eutical
retrosternal
retropharyngeal
MEP
MEFV
arthropathy
arthritic
involution
Heat
Heavy
repolarization
##lorcycl
caregivers
varice
##isseria
122
128
##orrhoea
##ognomonic
demonstrable
tumoral
termed
##phalitis
starch
nephrosis
nephropath
nephrologists
simulate
tubal
tubules
tubule
erythroleuk
##levant
##levudine
recovering
calculation
calculating
calcimimetics
calcipotriol
calculus
polar
polychemotherapy
deline
delays
delta
deltoid
perspiration
anticataplectic
anticardiolip
##abolol
psychotherapy
psychomotor
psychiatry
psychosocial
##mittent
dermoid
dermolysis
formic
forming
formulated
formulations
carbapen
carboxy
carbachol
##itories
coal
coeff
coexist
coordination
cooperation
evaluable
immunosuppressants
immunosuppressors
refill
refused
##ranulosis
204
detoxif
exposes
needles
Shepher
fevers
Classi
Clonazepam
Cluster
orgaran
CAR
CARTI
CABG
##ACHE
angiogenic
angiomatous
angiolip
manifests
smoked
smooth
promoting
prompting
##arrheal
limitation
contralateral
##ophiliac
microvascular
microhemat
microdiss
breach
catheterisation
therapeutically
hydroc
hydrofluoric
hydroquinone
propionic
propensity
propanolamine
hypersensitive
modif
##ofi
##ofin
##ofus
##ofsky
##ofurazan
blocked
blockage
Chickenpox
Chymopapain
Characteristic
Chicago
edged
##existent
charlat
152
153
hepatically
Allopurinol
macro
macroscopic
##cedural
toxicologic
toxicology
humor
sulfadox
sulfoxide
sulfamet
reverted
reversibility
irres
irresp
irbesartan
iridoc
##rogenically
osteopenia
osteolytic
##oprival
##occus
neurology
neurologists
##osporine
##osporium
characterize
sinoatrial
##rectol
epididym
##aires
##airment
excitation
excimer
excrete
Statis
Sturge
Stavudine
Stanozolol
Stopping
Starting
grimacing
selecting
hepatolithiasis
lability
extempor
supposed
suppressing
glucosuria
glucocereb
##ohepatic
##ohidrosis
quoted
quiescent
##pecified
choline
cholinesterase
cholelithiasis
extracted
extramed
extracts
extrarenal
extrinsic
dissolve
disseminate
##ochoroidal
##ochlorcycl
importantly
infiltrative
pharmaceutical
responder
away
##yribonucle
corneoscleral
recommends
recommendation
scheme
threaten
113
119
114
moist
knowledgeable
Aspir
Asperg
##production
breasts
Add
Adalimumab
granulocytic
granulocytes
gastroesophageal
gastroduod
##acinus
fluorine
fluorodeox
fluorocytosine
accessible
tuberculostatic
fulminans
mucinosis
##oscopies
168
16S
1600
##oralac
##aphylococcal
evening
tolerating
chloroac
chlorophen
psoriasiform
dysfunctions
nephrostomy
##ARD
electrosh
electrophoresis
CD56
Repl
Reaction
Relevant
apnoea
apoptosis
autoantigen
bronchogenic
bronchoconstr
bronchomotor
solumed
##immunoassay
organising
141
144
1400
Phase
Phenol
##enetrating
bacteriological
bacteremias
bacteriostatic
##odiesterase
tranquil
133
136
131
sixty
##aucomatous
##amethonium
infarctions
Attempt
crust
crying
criminal
capture
soil
nodulosis
##orbed
intracavernous
pedunc
pedrosoi
##citability
Intraperitoneal
Intractable
Intralesional
Intralip
methylation
methylene
methyldopa
Descemet
clearer
sword
intravitreous
Ampho
Amoxapine
Amifostine
Amoxicillin
Amlodipine
priority
abscessus
acetohex
acetaminophen
estrogenic
temsirolimus
warranting
##UREM
scleromyxedema
alternariosis
haemostatic
haemangioma
IgD
create
creating
##iodine
##iodothyronine
prescribe
Unintentional
Uncontrol
cavern
cavernous
grown
lipophilic
lipoprotein
sales
salping
protect
protected
depends
specifics
Parents
Partial
Parathyroid
Paralysis
Paroxysm
Partus
Parenteral
masking
nervosa
retinol
retinoids
profuse
nitrob
sequels
impairing
impairments
magnes
##iliitis
infantum
precon
arrived
colonization
generations
mustard
pediatrics
175
17th
papulosis
papillae
papaver
replacing
##imustine
indicators
INS
thoughts
stemming
necessitate
1992
Comorbid
Compositae
Without
adenine
exacerbates
phototoxicity
phototoxic
photochemotherapy
physically
terlipressin
tertiary
dermatome
dermatomes
dermatologist
electrode
electrochemotherapy
standards
purine
purity
purulent
tomogram
##oxifylline
relationships
##tributory
phosphodiesterase
obstructed
Implications
Imidazoline
Immediately
express
expiratory
expensive
expands
levonorg
levobup
cisplatinum
technology
bodyweight
mitotic
exploratory
explains
hypotonic
avoids
avoidance
##onvulsant
synthetase
syngeneic
synechiae
syncopal
uncover
CMF
CMAP
anteriorly
218
213
Drugs
biphosph
bioav
methodologies
polymicrobial
polymethyl
ulcerating
CTPA
puberty
micrographic
arrhythmogenic
Exp
Examin
Extra
PDE5
halt
vinyl
vinca
aspirated
aspirations
Neonatal
Netherland
Neuralgic
Neisseria
optics
supervision
supersensitivity
hemodilution
massively
AIT
AIH
AIMS
AIHA
amines
aminophylline
aminobutyric
##escens
triggers
approaching
ethnic
urination
##ericarditis
substrates
plateletpheresis
##ochemically
disturbed
Energy
Enalapr
Enzyme
Environ
posteriorly
enteroviral
enterohepatic
antagonistic
PCS
PCCs
##obacterial
keratoac
keratoneuritis
keratoconus
circuit
ACV
ACNU
SUB
##ocompromised
deteriorate
emphysema
LAD
Serologic
Sertraline
Serratia
Trig
True
oxacillin
oxaproz
##operamide
##operoxidase
##tryrene
immunodeficient
Fourni
Hereditary
pleura
pleomorphic
pseudocyst
pseudolymph
pseudobulbar
preparative
helps
##ithelioid
polygr
polyarticular
polyhydramnios
polyethylene
polydipsia
polyendocrin
vitamins
IIR
cystoscopy
worth
words
##phthalmos
##iprazine
Histiocytic
donepezil
mycological
mycoses
##ornuate
graded
Methicillin
Methamphetamine
mutated
mutant
thyroxin
##robacterium
##itching
Parkinsonism
Parkinsonian
History
Histoplasmosis
airflow
aircrew
mesencephal
pointing
pointe
##anthomas
##omycotic
##oglobulinemic
chromoblastomycosis
acuities
enciprazine
230
3500
menarch
menopause
morbidities
packed
sensing
sensations
##iscal
refers
references
restore
acquiring
partum
parturient
FUdR
facing
handed
volumes
seventh
glomerulus
glomeruloesc
bacitr
ophthalmia
ophthalmology
ophthalmoscopic
##abilistic
tumoural
anticonvulsive
Intraoperative
22nd
dilation
dilemm
intended
##arkers
peritonsillar
Medication
##RACTION
rechec
antigenaemia
introducing
36th
RATION
eighty
lotion
##corneal
adrenalectomy
epithelioma
modern
epileptiform
283
Postural
SINS
pulsed
##oencephalitis
amputee
1986
1980
limbic
quinapril
Subc
Subf
Subfulminant
Subacute
Subacromial
digestive
pemphigoides
##reptococcal
##lexia
##plementemia
##iprocal
determinants
Follic
Folinic
urged
urban
addict
addiction
addicts
Intergroup
Interference
Intermittent
parameter
ADC
AD169
Sinusoidal
backward
fetopathy
ileo
ileocecal
nonselective
##OPARD
##ominate
choose
choosing
shocking
perforated
##hydroxy
cautionary
##ordant
##oprotective
premolar
premorbid
premenstrual
hypergammaglobulinemia
hypergranulosis
ICI
ketosteroid
ketonuria
loco
pelvises
##etitive
themsel
268
Dihydropyrimidine
Epoprostenol
Epithelioid
portopulmonary
slowed
pericellular
structured
benzofuran
century
centroacin
econazole
economic
eclampsia
echography
##VANCE
distraction
neuraxial
##onephrotic
unsatur
unsuspected
unspecified
oxygenation
Conf
Confocal
Research
broth
cetrimide
matched
ruptures
sleepiness
tenth
4500
Deep
lights
##INP
anephric
hypercalcemic
hypercapnia
lymphadenitis
lymphadenomegaly
melanin
irreversibly
537
553
CBC
CBF
Praz
Practic
Prader
biperiden
equina
equivocal
orthodontic
antimusc
agonistic
##angiectasia
REPORTS
favored
favourable
lichenoides
military
sulcus
##oacoustic
##oacetate
##yglucose
##olinas
diets
doubt
doubling
swellings
peginter
pegIFN
pegfil
guideline
originate
originating
chemotherapeutics
Leiden
Leuconost
ossification
oscill
pyruvate
##LEVANCE
adrenochrome
adrenoleukodystrophy
restrictions
leprae
leprechaunism
spasmodic
genetically
ANP
Manifestations
Prost
Prote
Project
lining
lactogenesis
##metry
oncological
clinicoradi
planitis
planning
minimise
minimizing
lipids
430
APV
APECE
APACHE
Wilcox
coughing
penetrate
penetrated
antidiarrheal
##ophysiological
prurigo
Pregabalin
bicytopenia
bromode
vulval
thiogu
thioamide
conductive
procoll
procarbazine
procaterol
parasympath
##ogeneity
hydroxyzine
hydroxyvitamin
hydroxytrypt
hydroxyifosfamide
patches
Immunoblastic
Immunoglobulin
Immunofluorescent
Immunodeficiency
echocardiographically
560
640
HAS
Laboratories
curable
curves
curariform
copies
copolym
midazolam
panophthalmitis
panencephal
panhypogammaglobulinaemia
ureters
urealytic
##ezoar
Thrombocytosis
Thrombocytopenia
choriocarcinoma
alkalosis
alkalinization
infertile
stabilizing
stabilizers
lethality
##ansferases
hemoglobinopathies
stressors
polymorphonuclear
Neuroimaging
4000
610
Arden
Aripiprazole
DEXA
Overdose
##enzofurazan
tremors
tremens
tremulous
permanently
candesartan
histopathologically
erythropoietic
Transplant
Transarterial
workers
prematurely
favorably
Endovascular
Endometrial
Individual
Induction
Indirect
Indeed
IIIa
III3F
PEI
Perit
botulism
capsulatum
filg
files
filaments
glycine
glycoside
glycosides
greatest
homeostasis
nucleated
searches
vaginally
vaginosis
thalamus
##atibility
##icylates
endothelin
INRs
vertex
HSV
SDCs
cleaning
juxt
naturally
##deoxyadenosine
##STOR
resembles
closer
mandates
hyperpyre
spreads
substantiated
arteriogram
coincide
coincidence
582
Discussion
Emphasis
Myotonia
Platelet
PlA1
Sci
avert
aortoar
cognition
otological
otoacoustic
leucocyte
##ropionate
blastoconid
optimum
optimizing
CYP2B6
Isotretinoin
Ischaemic
Ishih
axonal
basophilic
nasogastric
nasopharynx
renovascular
renoprival
targets
desmoid
desmethyl
desmoglein
sulfonylureas
acetylsalicylic
Hyperthyroidism
Hyperosmolar
Hyperpigmentation
sulphonate
460
CO2
Especially
Hemodiafiltration
Minocycline
Pseudomembranous
Pseudoporphyria
System
augmented
gingiva
gingivectomy
knees
normokalemic
splanch
testicle
##rodantin
reinfor
armament
intraoperatively
market
postmastectomy
fibrinolysis
coherent
explanatory
questioning
questionnaire
CHB
Delay
Delivery
Delirium
FDG
GIO
GIRK
Toxicology
foveolar
foetal
foamy
hallucination
torso
##yzer
##uodenal
thymocyte
septo
tripled
defining
hydrocephalic
accumulates
cryptogenic
peaked
aminotransferases
viewpoint
Agrobacterium
ABMT
ABPCT
Bronchospasm
Decadron
Fluc
Flucloxacillin
HT4
Metastatic
Propoxyphene
sunlight
##orescein
##omicroscopy
resuscitated
resuscitative
actinic
actinomycotic
allegations
arabinofuran
dipropr
dipropionate
specialist
specialized
specialists
labeling
extracranial
extracervical
extracapsular
unsuccessfully
cephalexin
BPH
Coll
Color
Columb
Ninety
Simultaneous
Simvastatin
laparoscopy
laparotomies
mirr
sedi
sedative
silastic
##molite
##uzolimine
antinocicep
##osyncratic
distinction
Antipsychotic
Antiepileptic
myelosuppressive
1977
1979
1970
photosensitiz
photosensitisation
expressions
maximizing
anticholinergics
Correction
Correctol
Johns
PSVT
Risks
atrio
bulking
pyrexia
##ERG
told
convulsant
extensiveness
trimesters
##othoracic
oligohidrosis
##encephalography
diazoxide
paracentesis
prolifer
reflected
microbiology
maculae
##ethylation
professional
repeatable
teratoma
teratogen
Calgary
Calmette
Calvert
DR5
Glaucoma
Glatiramer
Genetic
Orbital
Orthostatic
casual
castrated
gramicidin
urosepsis
wearers
##iarticular
##incter
##rococcus
rehabilitative
challenged
accelerating
hypokalemic
antitubercular
carcinomatosis
Influ
Inflammation
paroxysms
immunomodulating
immunomodulator
immunomodulators
perioperatively
accordingly
Pharmacologic
Pharmacokinetic
Pharmacovigilance
cryoab
cryoprecip
linearity
substitutions
establishment
Hepatocellular
Hepatobiliary
Hepatolithiasis
ventriculoencephalitis
contraception
3000
HISTOR
MPB
Progression
Program
TBW
ceroid
sweats
##ligible
accessory
tracheotomy
Institutes
amniotic
revealing
esophago
analyser
electrophysiologic
electrophysiologically
irritable
fetuses
sympathetically
Electroc
Electromy
hallucinogenic
obliteration
Consistent
LMCA
Meibomian
MIF
Mono
Miconazole
Micrococcus
Reperfusion
balloon
burst
bursts
callosum
diminishing
falx
fundoplication
##facing
##facept
##thralgia
##acrylate
##oplegia
adher
adherent
##eptides
drawback
Infil
Infants
spiral
spondylo
enalaprilat
leukemoid
heterogenous
heterotopic
heterogeneous
heterotopias
signaling
dysphoric
polycythaemia
contraindications
venovenous
extraord
catatonic
vasoconstrictive
herpeticum
idiosyncras
vaccinated
craniospinal
craniofacial
Cytogenetic
DLB
PPG
PPP
Pathologic
Sharp
Shewanella
division
dialyzed
notice
rube
rubra
rubbing
##TATION
anomalous
readministration
readings
rebounds
##oparietal
##opyridine
##aplatin
immersion
steatoh
assistance
perfusions
##etaldehyde
oculomotor
spectroscopic
Angiosarcoma
Healon5
Cholelithiasis
CD33
stimuli
transitional
irrigated
irrigations
circumferential
oxaliplatinum
Methyldopa
chromatographic
electroretinographic
Hydrocortisone
Hydroxychloroquine
eyelids
A1c
CRVO
Carotid
Caribbe
Carolinas
Goldman
Goldfrank
booster
danaparoid
grossly
radionucl
rosea
##glottic
##rozil
tocopherol
isoenzymes
isoelectric
inconclusive
unresolved
intradural
constrictive
immunohistochemically
myoglobinuria
remedy
scintiscans
amplification
amplified
ameliorate
reproduction
angiograms
breaks
breakdown
counterpart
azotaemia
emphasised
exceeds
Different
Differentiation
Plasmodium
jejuni
ketoacidotic
Eruptive
LEOPARD
Osteomyelitis
PID
Pentavalent
Pentacam
Smith
front
narcosis
putamen
rostral
scratch
tiny
##ocenteses
constellation
##ogluc
##oglucose
chelating
nebulized
nebulizers
manipulations
paranoia
neuromyel
neurometabolic
allergological
injurious
amounting
amounted
blister
estramus
estimation
branches
##fluorescein
##iliarity
uncertainty
thoroughly
Diffusion
vacuoles
multicyclic
multicycle
INTERPRE
falsely
vesicle
015
Appar
Appropriate
Lymphocytes
Lymphomatoid
Mecamylamine
MACOP
Nitrendipine
RELEVANCE
SOMA
Special
Spectral
Specimens
Valvular
aphthous
covers
covered
cicatr
dimers
dimerc
dimension
dimorphic
euthyroidism
homochlorcycl
himself
mammaplasty
ova
pentostatin
pentazocine
pentenoic
pentoxifylline
peculiarities
tuna
tibia
titrated
##VIEW
install
deoxycoform
ascertained
hyperuricemic
hyperuricaemia
transluminal
subfamily
succinate
succinimidyl
consulted
scrotal
amphetamines
comprised
comprising
elucidating
phenylalanine
Commonly
Nephrogenic
hypoglycaemics
volunteer
summarized
typhoid
typhlitis
Myoclonic
alleviating
connections
scintigraphic
anastomotic
Beau
Beecham
CCB
Surv
Surgeons
Syncope
Synacthen
Veno
cresol
cramp
cramping
educate
filler
flexure
nadolol
sacc
sigmoidoscopy
sigmoidovesical
taxol
taxane
zoledronic
zolpidem
thighs
innate
innov
##openem
forearms
steps
hyperphosphataemia
parenchymal
epiglot
radioimmunoassay
radioiodine
strictly
strengthens
phenotypic
phenotyping
tubulo
polysomnographic
polysulfone
polystryrene
Improved
ethylene
vasculitic
vasculonecrotic
thoraco
intensivists
commercially
Psycho
Psychosis
Psychiatric
Generalised
participate
paralleling
GABAergic
MATERIAL
Azithromycin
Cyclosporin
Cyclosporine
Ceftriaxone
Cefuroxime
DHCC
Detailed
GCV
GCSF
HVOD
MBL
Nonsurgical
Nonspecific
OxyCon
SPB
Suspected
Signs
Sequard
Sequencing
Terbinafine
Terlipressin
UIP
building
downward
harlequ
justified
justice
largest
mistake
mistakes
missing
porokeratosis
powerful
teleme
telangiectasia
##bestrol
##arthropathy
##osactrin
##olipid
##irculatory
disinhibited
disintegrating
exanthem
leuprorel
lifestyle
abuser
abusing
diploid
relaxant
discolouration
hexacet
flucytosine
amniocenteses
underscore
emissions
dysrhythmias
progesterone
hyphemas
predictor
125I
psychiatrists
suprarenal
suprasp
supratherapeutic
modeling
Adenocarcinoma
Regression
Registry
Regional
intracorneal
Comparing
ethanolamine
guidewire
Protocol
Markedly
Observ
Obstructive
keywords
Bladder
Biochemical
Biomicroscopy
Cerebrovascular
DSM
Fifty
LDEs
Macrophage
Macrodantin
Reduced
Radiologic
Radiographic
Sudan
Teg
Unexplained
busulph
centrally
centrilobular
catalytic
ionization
judicious
vanished
vanishing
##691A
##oridiosis
announced
aldosteronism
implies
antimonial
antimoniate
incorpor
possesses
intranuclear
megapol
megakaryocyte
appreciated
appreciation
flared
ammonium
microsomal
nonpenetrating
Actinomycosis
1964
osteoarticular
Associated
gastroenterological
Photodynamic
Phototesting
cruciate
Intracameral
roentgenographic
roentgenograms
degradable
subclasses
ureterosigmoid
Electrical
HT2A
HT2C
crystalluria
scrapings
mizoribine
Cisapride
Does
Double
Danazol
Dermatitis
Guerin
Guidelines
Granulocyte
Granulocytopenia
Lucio
Lipoatrophy
MDC
Mitral
Mucor
Mercury
PBSC
Presentation
Treating
TSC2
TSC1
barbiturate
camera
denture
faulty
larvae
licorice
luminal
meropenem
sensitisation
sensitivities
tartrazine
inpatients
##accid
##acytidine
incapacitation
desquamative
prenatal
principle
principal
daunomycin
epiphyse
heatstroke
scientific
##omycete
Anticonvulsant
defibrotide
myelomonoblastic
noncompar
fiberoptic
MEASUREM
variants
##osporonosis
excitatory
cholangiography
Asthma
AmBisome
cauda
caudal
salazos
vasodilator
tachypneic
precludes
unconsciousness
Experimental
tegmentum
Traditionally
collapsed
noradrenergic
Concentr
Levosimendan
bradykin
Immunosuppressive
Abnormalities
Sclerosis
Psoriatic
decompensation
quantitated
quantitative
victims
##ifferentiation
lymphoproliferation
Bacterial
CEO
CVC
CVVHD
Celiac
Celecoxib
Controlled
Dyskinesias
Dyspnea
GBA
HPTH
Hairy
Lamotrigine
Lamivudine
NSF
NSCLC
Oseltamivir
Osmolite
Pyogenic
Pyomyositis
PLM
Relapse
Switching
SWOG
SRL
Saharan
TRAb
VCV
cervico
feared
karyotypic
laryngectomy
laryngoscopy
sensitized
violaceous
##nicectomy
##fibrozil
anatomic
reinstitution
debrided
cheeks
trichosporonosis
peribiliary
peribulbar
antileukemic
##ymetry
abolish
abolished
reluctance
spots
entrapped
neurosurgeons
fluctuation
scenarios
eradicating
posttransplantation
neurodevelopment
alpha2a
polypoid
ideation
rheumatological
rheumatologists
accounting
accounted
chloroethyl
salmonellosis
photocoagulation
territories
Impairment
publications
Hypoglycemia
Hypoglycaemic
##ozoites
##ozoosper
molluscum
SMNs
reintroduction
duodenitis
Electroly
Electroencephalography
Cholestatic
transitioning
subtype
glycoprotein
pupils
phenylbutazone
sacroiliac
sacroiliitis
implicate
implicating
UGT1A9
tropicalis
envenomations
pterygopalatine
Bleeding
Bleomycin
CaED
Catecholamine
Dementia
Doxorubicin
Doxycycline
Duke
Dukes
Edema
Edwards
Erosion
Erosive
G1691A
Glycop
Glypressin
Ileal
Lupus
Lupron
Laparoscopic
LFTs
Maintenance
Michigan
Ommaya
Ophthalmologists
OKT8
PWO
PWS
PLEDs
Saudi
SaO2
Sanofi
Silvad
SCLE
SCLC
Upjohn
Vapreotide
VapoR
Witnesses
bublar
celiac
celiprolol
dibenz
dibucaine
dressings
fulfilling
happen
happened
learn
luteus
luteinizing
muL
mutism
mobilisation
nigra
oleic
oleate
pioglitazone
pinch
paired
rodent
sonographically
tonsil
tonsillectomy
##intended
##thenozoosper
intima
washout
deformity
dispersive
advertising
exertion
exerts
exemplified
stutter
stuttering
syringeal
syringosub
recruited
recrudescence
inconsistent
arrested
arrests
transmural
transformed
transforming
intercostal
##plexes
sparse
sparteine
obligations
placoid
plugs
malfunctioning
amenorrhea
periosteal
periosteally
regeneration
endomyocardial
endomysium
margin
Antimicrobial
experimentally
arterioles
arteriolopathy
1955
predominate
predominance
carboxypeptidase
coumarinic
coumadin
recommending
supravenous
plasmacytoid
plasmacytoma
microorganism
microorganisms
advancing
advancement
Chemoradiation
epidemiological
hematogenously
CDIC
bronchioloalveolar
swallowing
tachycardic
tachycardias
synovial
synovitis
biomarkers
teenage
teenager
Ensureliqu
HCMV
belonging
enteropathica
polyarthritis
polyarthralgia
derangement
derangements
perforations
intestines
intestinails
brothers
Proteinuria
clinicopathological
clinicopathologic
rigorously
multinodular
multinucleated
PVTT
Argatroban
hydrazide
hydronephrotic
TPMTL
bulimia
attendant
vasoconstrictor
erythrodermas
erythrodermic
radioisotopic
radioisotope
harvest
harvesting
network
networks
architecture
defibrillator
defibrillators
Measurement
Measurements
TLR7
aurothiomalate
aurothioglucose
dichloroacetate
troubling
ubiquitin
ubiquitous
1A2
Ayurved
Airway
Acetazolamide
Blastomyces
Clearly
Cyproheptadine
Cystoid
Clearance
Dystonia
Establish
Fibrin
Factor
Hiccupping
Keyes
Kinky
Mammary
Mexase
Nissen
Ototoxicity
ONJ
Pulses
Paclitaxel
Pleuropulmonary
RPLES
Services
Sympathomimetic
Tricyclic
Urethral
Vincristine
Willi
aviators
beriberi
bibli
cockatiel
cushingoid
ddI
eighth
ehrlichiosis
geriatric
globe
kinases
killed
logical
mitigated
odors
pityriasis
package
pyeloplasty
rims
slides
satisfaction
task
titres
tularemia
tickbor
veterinary
##otiazine
##biopterin
##LISA
##ontractile
##alkonium
integral
##icteric
Thoracoscopic
conceived
commentary
##odiphenyl
##odermat
resurfacing
acquisition
externally
extirpation
streaks
orientation
sharply
trinucleotide
tramadol
trimipramine
climacteric
hypophysectomy
incompatible
octanoin
unacceptably
weighed
diaminodiphenyl
abstainers
abundant
hyperreactivity
occluded
transmitter
intertriginous
spirography
spongy
##azalil
pharyngitis
subendothelial
hemicrania
neuroprotective
malnutrition
lymphocytotoxic
flocculonodular
endoprosthesis
decongestants
empyema
emepronium
##echanical
multiloculated
nonfunctional
nonimmunocompromised
nonresponsive
brucella
savings
microembolization
counseling
glucosidase
CD79a
catastrophic
rhabdomyosarcoma
lipopeptide
Recurrences
standardized
twitches
purposes
vegetative
expectations
antecedent
Hypothyroid
Hypercalcemia
tetracosactrin
tetrahydrobiopterin
hemodialyses
immunodepression
endocrinologist
legislation
accommodative
loosely
molecule
commensal
Diphenhydramine
pericardium
migrainosus
Proctoscopic
parasitosis
curtailed
insight
Myasthenia
Ischemic
SERM
Usefulness
Hyperkalaemia
reintubation
HbA1c
Coombs
Oculomotor
oligodend
urothelial
Electrophysiologic
seminomatous
Optimizing
NCVC
Behavi
centrifugal
Beneficial
Gynecomastia
dacryolith
hyperexcitability
paraesthesiae
cervicothoracic
debrisoquine
reintroduced
Definitive
Echocardiogram
Myelodysplastic
fortuitum
diethylstilbestrol
hemisphere
neurotransmitters
dermatitidis
multisystemic
Glucocorticoids
Belgian
Coincident
Multiceps
Tenckoff
galactorrhea
universalis
hyperbilirubinemia
Antidepressants
5Gy
AWS
AKBR
Average
Affected
Atenolol
ACAD
Augmentation
A594V
Bjergaard
Bangkok
British
Brucella
Burkitt
Cephal
CGI
Cincinnati
Camptocormia
Castleman
Cheyletiella
Criteria
Cockcro
Carmustine
Cochrane
Cullen
Coagulase
C677T
DFO
Docetaxel
Disodium
Dohme
Diamox
DLST
Dawley
Duchenne
Eaton
Eighteen
Epsilon
Eyelid
EXTRACTION
Fenofibrate
Familiarity
Foreign
Fonsecaea
French
Fracture
Flexiflo
FIGO
Greenland
Gingival
Gaucher
G206A
Grocott
G516T
HNCP
HuEPO
Holter
Hurler
Helicobacter
HMSN
Horner
Idiosyncratic
Ideally
Joubert
KI67
KPro
Korea
Karnofsky
LORA
Lidocaine
Lewy
Lambert
MxA
Menkes
Mesalamine
Mastisol
Molecular
MTHFR
Marcescens
Mannitol
Nasopharyngeal
Naratriptan
NCT00
NURSING
Norpace
NREM
ONSF
Ovadendron
Pedersen
Paget
Pressure
Pointes
PTSD
Pramipexole
PIIINP
Preliminary
Plesiomonas
Pigmentary
PRACTICE
POLG1
Restless
Rheumatoid
Rochester
SvO2
Sunitinib
Supportive
Scedosporium
Sprague
Tsukub
TdP
TZDs
Tunisia
Tissue
Turkish
Typhlitis
Vanishing
Vicks
WHO
Wenckebach
Worsening
Xyrem
XIII
Xanthomonas
Zygomycosis
athle
alefacept
ailments
autistic
auranofin
bingeing
bizarre
bystander
barracud
cigarette
cachectic
cachexia
ciliochoroidal
cetirizine
dsDNA
dedifferentiation
destroy
demented
densa
dictated
eucalcemic
etizolam
figures
fabric
friend
framework
groin
gemfibrozil
gunshot
gancyclovir
glove
gigantism
honeycomb
holiday
hominis
iatrogenically
iopamidol
kHz
lomustine
lilacinus
lugdun
lazy
lambda
mfERG
mOsm
moving
murmur
nedaplatin
natalizumab
nullipar
ouabain
powder
pivotal
pachymetry
pictures
rEpo
rationale
roxithromycin
razoxane
sphincter
slough
sludge
saphenous
somatosens
torsion
tingling
trophozoites
tadalafil
urogenitalis
wbc
wedge
wrong
window
wandering
yolk
##hedonic
##oemulsification
##methacrylate
##picuous
##onitum
thioridazine
thumbs
thyreoiditis
##altrexone
##alaninemia
inoculation
inoperable
inorganic
##atellite
anamnestic
anthelmintic
anamnesis
##isocoria
##iskiren
repletion
reentrant
repositioning
revolutionized
##ometacin
belladonna
Thiazolidinedione
##asellar
##ucnLc
isethionate
isoproterenol
isoprinosine
deviation
deafness
debulking
assigned
##iritrexim
##adriplegia
chylothorax
chocolate
Theoretically
disqual
##imeprazine
adefovir
resurgence
acronym
acrodermatitis
##yprogesterone
algebra
seventy
infundib
imminent
ornithine
shigelloides
indocyanine
##othiazepine
presenilin
clavulanic
cladribine
hypouricemia
perifoveal
periprocedural
antiallergenic
antiprotamine
antimanic
antithymocyte
antisynthetase
antitrypsin
cartilage
carpopedal
carotovora
preleukemic
preemptive
attractive
maneuvers
posthemorrhagic
desensitized
International
unlicensed
##ymenoptera
cornerstone
arylamine
hyperdense
hyperinsulinaemia
hyperalimentation
hyperintense
hyperphenylalaninemia
interstitium
pheochromocytoma
megaloblastic
mephenytoin
meglumine
parakeratosis
pravastatin
subgaleal
##roporphyrin
enfuvirtide
obstetric
obtundation
immunoreconstitution
mycetoma
appraisal
appointment
plastobezoar
medroxyprogesterone
thrombembolism
thrombopoietin
surrounded
leukocyturia
lymphoplasmacytic
flicker
contemplated
scaphoid
betablocker
obsessional
methotrimeprazine
gliclazide
overanticoagulation
peripherally
underdiagnosed
herbicides
decontamination
colicky
postnecrotic
dyslipidaemia
dysthymia
dyschromatopsia
demarcated
Tokyo
microsporidiosis
micturition
upbeating
myeloablative
myelomeningocele
nonlymphocytic
nonalcoholic
conflicting
pneumothoraces
fibrogenesis
fibroblast
variceal
nephropathies
erythroleukemia
anticardiolipin
carbapenem
carboxyfluorescein
coefficient
detoxification
Shepherd
Classification
microhematuria
microdissection
charlatans
sulfadoxine
sulfametoxazole
irrespective
iridocyclitis
epididymitis
Statistical
extemporaneous
glucocerebros
extramedullary
##yribonucleic
Aspirin
Asperger
fluorodeoxyglucose
chloroacetaldehyde
chlorophenyl
electroshock
autoantigens
bronchoconstriction
solumedrol
crusty
Intralipid
Amphojel
acetohexamide
Uncontrolled
salpingo
Paroxysmal
Partusisten
nitrobenzofurazan
magnesemia
papaverine
levonorgestrel
bioavail
polymethylmethacrylate
Netherlands
Environmental
keratoacanthomas
oxaprozin
Fournier
pseudolymphoma
polygraphic
polyendocrinopathy
mesencephalic
menarche
glomeruloesclerosis
bacitracin
dilemma
RATIONALE
Follicular
themselves
centroacinar
unsaturated
peginterferon
pegIFNalpha
pegfilgrastim
Leuconostoc
oscillatory
clinicoradiologic
APECED
Wilcoxon
bromodeoxyuridine
procollagen
parasympathetic
hydroxytryptamine
copolymer
panencephalitis
urealyticum
hyperpyrexia
aortoarteritis
blastoconidia
Ishihara
splanchnicectomy
armamentarium
arabinofuranosyl
diproprionate
antinociceptive
cryoablation
cryoprecipitate
HISTORY
drawbacks
spondyloarthropathy
idiosyncrasy
steatohepatitis
Caribbean
radionuclide
INTERPRETATION
homochlorcyclizine
deoxycoformycin
OxyContin
harlequin
telemetry
leuprorelin
hexacetonide
supraspinatus
busulphan
megapolyps
ureterosigmoidostomy
epiphyseal
MEASUREMENTS
CaEDTA
Silvadene
VapoRub
##thenozoospermia
syringosubarachnoid
Ensureliquid
tickborne
Cockcroft
Greenlandic
Tsukuba
barracuda
lugdunensis
somatosensory
07
06
1m
1B
1D
1C
1mg
1x10
2h
2g
2m
2E
2D
2x10
3a
3H
3D
3C
350
4x10
5h
5D
5q
5HT
5x10
6B
650
7q
8M
850
8mg
9th
923
Ax
Are
Asi
Aort
Ast
Age
Act
ATI
Abr
ABV
Around
Atri
Aplastic
Aesthetic
Airc
Aphth
Auditory
Acetic
Ahl
Aseptic
Agenesis
Bh
BA
BE
Bu
B7
BL
B1
Bon
Bar
Bic
Bow
Bay
Bell
Bcr
Bip
Bail
Bism
Bost
Ball
Bup
Bill
Band
Body
Burn
Ballen
Basal
Beth
Brec
Boe
Bland
Brolene
Brad
B11
BMP
BDCA
Bosentan
Bulbar
Budesonide
Boer
Basic
Bortezomib
Bicalutamide
Bipolar
Bullous
B27
Basilar
Barre
Burm
Ballistic
C7
CL
Cw
C6
Cer
Ces
Cas
Cur
Cun
Cod
City
Cure
Cath
Cial
Come
Card
Constr
Crem
Cogn
Coag
Cerb
CMS
Cranial
CHD
Ciliary
Cry
Cope
Cosmetic
Camus
Ciclosporin
Cesarean
Cetuximab
CGD
Cysticercosis
Course
Crotal
Cotton
Clevudine
Dh
DQ
D4
Der
Den
Das
Dur
Dia
Dut
Dum
Dog
Dig
Dist
Dym
Denti
Dip
Dub
Dual
DDS
Die
Dilat
Dram
Darm
DPO
Dermal
Dart
Doses
Diazep
Doct
Dobutamine
DMD
Diabetic
DXT
Dasatinib
Dumping
Daun
DDA
DVT
Dalteparin
Dorzolamide
Darifenacin
DBS
Duodenal
Ef
EI
EN
EL
E3
Eas
Ear
Eur
ESI
Educ
Ect
EAC
EKG
Every
Either
ENA
ESH
EGE
Equine
Ego
Eyes
ECF
EG2
EBP
ELISA
Fc
Fu
FC
F1
FV
Fer
Fed
Fat
Fos
Fem
Fac
Fel
Fog
Foci
Form
Flow
Free
Fole
Function
Fair
FNA
Faden
Field
FRA
Fuch
Farn
F13
Fresh
Facial
Fomepizole
Frequency
Frag
Fault
Favorable
Fondaparinux
Fenclofenac
FBS
FucnLc
GT
G8
GP
GO
Ger
Gan
Gro
Gom
Gel
Gig
Gim
Gest
Gast
Gaz
Gree
Gall
Gran
Gri
Gamm
Gamb
GAD
Glic
GAS
Grand
Grad
Goiter
Gentamicin
Gadolinium
Guan
GDP
Goni
GTB
Grove
GPT
GPP
Garlic
Grosh
Gaku
GSD
H3
HO
Hal
Hop
Hut
Hun
Hug
Hod
Hys
Haz
Hong
Hall
Hill
Hand
Hung
Hamm
Hct
HPA
Hamil
Hitch
HAT
HER
Haptic
Hyster
Hoff
Huge
Haze
Hycanthone
Hereby
Hymenoptera
Ib
Ia
IQ
Ix
IF
Iron
Iso
IAS
IPH
Iodine
Ivermectin
IHC
Ichthy
Ibopamine
JC
JK
Jar
Jus
Jud
Jew
Jens
Just
Jaw
Joint
Jeff
JALS
Kh
Kl
K1
Ken
Kas
Kle
Kog
Kab
Kong
Kinal
Kline
Koy
Kidne
Kamp
Ketamine
K12
Ly
LG
L3
L1
Lin
Lor
Lac
Log
Lys
Lib
Lep
Less
Lox
Lond
Luk
LSI
Lang
Liss
Lately
Lipi
Lactic
Lund
Laf
Lamp
Laryngeal
Law
Lik
LPH
Lactam
Lopinavir
Lovastatin
Lai
Lived
Lenn
Lesions
Loperamide
Ma
Mc
Mi
Mr
M2
MO
MU
M5
Mis
Mid
Mel
Mun
Mure
Mons
Mater
Mef
Mening
Max
MPO
Marg
MMS
Munt
Morbid
Mixed
Mellitus
Meti
MIN
Microb
M13
Membranous
Malign
Maple
Meperidine
Morel
Molip
MTB
Moxalactam
Maqianzi
Mantle
Muzolimine
N4
NY
NJ
NZ
Nut
Num
Now
Nig
Near
Nab
Norm
Native
Nyst
Nond
Nak
Name
Nerv
NAC
Narc
Numb
Nasal
NTX
Nerve
NPA
NAD
Nausea
Nutr
Nept
Nitr
Nutrition
NMD
NLP
Nonol
Naloxone
NRTI
Nesiritide
Nicotinic
Nodular
Nucleoside
Nucleotide
NPI
Naltrexone
Ov
OV
Ori
ODS
Option
OPD
Ofloxacin
Oesophageal
Olig
ORS
Oligo
Operative
Oestrogen
Optometr
Orofacial
Oaks
PQ
PM
Por
Pas
Pity
Pet
Pip
Pare
Perm
Pugh
Pren
Pric
Porph
Pex
Pred
Plastic
Prav
PPD
Papan
Pept
Point
PHS
Purs
Punct
PBC
PLT
P12
Pituitary
Ptosis
Peculiar
PO2
Purine
PWI
Pulse
Pyrid
Porphyria
Pentamidine
Portions
Pericardial
Pgly
Psoas
Pericarditis
Piritrexim
Ques
QOL
Quan
Q10
Ra
RU
Ren
Rati
Rat
Ros
Ram
Row
Rig
Rous
Rate
Rip
Rich
Rand
Rock
Resting
Rational
Resc
RMD
Rectal
Ringer
Rickets
Rosen
Roche
Rofecoxib
Rhegmatogenous
Rinsing
Riluzole
SQ
SH
S2
Sk
S3
S6
Sj
SF
S1
Sed
Sis
Sul
Sem
Sod
Spl
Sib
Squ
Sand
Sural
Sex
Spir
Sert
Sarcoma
Slight
Still
Strate
Stri
Span
Solid
Samples
Sarcoidosis
Sotal
Self
Satisfactory
Sagittal
Sux
Struct
Sulindac
SVT
Soda
Sideroblastic
Succin
TT
TH
T7
T8
Tz
TV
Tes
Tap
Toc
Tow
Tod
Tim
Tular
Tet
Tail
Tra
Tak
Tri
Time
TIV
Terc
TTS
Tonic
Testing
Tyr
Trough
Typical
TMS
Tics
Target
Tript
Taking
T12
Temp
