[PAD]
[UNK]
[CLS]
[SEP]
[MASK]
!
"
#
$
%
&
'
(
)
*
+
,
-
.
/
0
1
2
3
4
5
6
7
8
9
:
;
=
?
@
A
B
C
D
E
F
G
H
I
J
K
L
M
N
O
P
Q
R
S
T
U
V
W
X
Y
Z
[
\
]
_
`
a
b
c
d
e
f
g
h
i
j
k
l
m
n
o
p
q
r
s
t
u
v
w
x
y
z
}
£
§
«
®
°
·
»
½
à
ã
è
é
í
ñ
ó
ö
ü
ē
;
а
࿽
‐
‑
–
—
‘
’
“
”
†
•
…
⁄
€
™
⅔
−
●
总
数
股
##o
##y
##c
##e
##1
##6
##8
##2
##A
##R
##I
##T
##M
##E
##f
##t
##r
##d
##n
##i
##g
##s
##p
##N
##D
##L
##O
##X
##w
##v
##a
##u
##m
##l
##3
##7
##S
##C
##h
##x
##F
##k
##P
##G
##U
##B
##V
##0
##5
##b
##Y
##j
##9
##z
##4
##Q
##W
##H
##K
##J
##q
##ó
##Z
##ü
##é
##í
##࿽
##ē
##™
##ñ
##°
##½
##ã
##®
##⅔
##ö
##è
##he
##er
the
##ti
##on
##en
an
##re
of
##es
##ed
##an
##ent
##in
or
##al
##or
and
in
##tion
##it
to
##ec
##at
##is
##ment
##ar
##ch
any
##ro
##ing
th
be
##ce
su
re
##ation
##mp
##all
##ll
##ur
##ement
##gre
sh
##li
##ts
con
##ve
##her
##le
shall
##ith
##ther
##as
##der
##greement
by
with
as
Co
ex
such
pro
##ab
##id
no
other
Agreement
##ate
##ut
this
##ay
co
##ect
##ver
for
##ter
##mpan
##ere
##ig
##mpany
##ly
##ic
Company
de
##un
here
##tive
##im
##st
un
##able
##ty
##ding
is
that
##erm
ac
##ff
on
##ul
##ties
##qu
##se
par
res
not
##lo
##oc
##ran
##res
prov
##red
all
##hi
##ess
##tin
##ance
##ection
##il
##ac
##ach
##pp
##ity
its
##for
Par
##ion
under
##tr
##ting
##su
##ers
##lic
##ain
##ations
The
##ri
inc
##ated
##ol
app
##aw
term
whi
which
##ant
Ex
##de
en
##ments
may
resp
##ir
##ge
##mm
##ecu
##ted
##igh
##et
there
ha
##ary
requ
Section
##ign
##eri
##tions
##lu
##te
##ub
##di
##ci
at
##ase
each
st
cons
##ill
In
##ision
##rans
sub
have
ma
##loy
##mploy
##row
##lig
law
righ
will
##ow
provision
pay
##end
##orrow
ad
##ru
##pt
##ct
Borrow
##gent
##ender
##min
##th
##la
ob
##liver
##ocu
##ies
exp
are
am
##of
Sub
provid
##form
##us
inclu
pur
acc
##oun
deliver
##est
##oan
##ise
##ER
applic
##ecutive
##ffect
Lender
TH
##to
##fic
##ective
tim
Loan
##ord
##ee
party
Borrower
##per
##ire
Executive
##ason
dis
##iv
time
##rom
trans
##idi
##sidi
Agent
mat
reason
St
Ad
##ally
applicable
##ens
##istr
from
respect
##cept
agreement
oblig
rec
rep
##cip
##os
including
provided
No
noti
Subsidi
##ard
##out
##med
##od
##pon
##tain
Re
has
##ject
##ired
ass
AN
##erial
##ocuments
##ef
##tit
##ock
##me
##erson
##ure
reg
##ult
##eral
ta
Th
Party
##ative
##led
rights
##ore
without
comp
parties
##under
terms
This
##ors
agre
##fer
##ten
##TI
per
ii
##ON
it
set
##ute
pri
##anding
##tent
##vi
##ministr
##redit
if
##resent
##wise
otherwise
##by
##stru
date
##ress
##ecur
upon
termin
ag
subject
##force
##lated
inter
required
employ
##um
##eg
##ceed
##ue
##EN
obligations
Comm
##iz
##iness
##lan
##usiness
hereunder
ar
THE
provisions
forth
whe
accord
##alid
##par
accordance
been
##uth
Date
so
##ably
exec
notice
made
##fter
##urch
##ili
sa
li
##ministrative
##uthor
##fi
##ag
##ticip
##cc
##aries
go
than
prior
##vent
##los
herein
##uld
##ility
effect
##ees
Purch
pre
except
hereby
##ates
inv
transac
hereto
##vern
assign
pursu
Employ
Credit
##ount
##du
##ail
Documents
hereof
##rit
##ares
##fied
conn
pursuant
def
coun
Administrative
##ell
proceed
##dic
extent
connection
lim
##IS
OF
##ence
rece
##ces
##ffective
ca
material
cour
represent
disc
##irect
perform
##temp
##ull
##ED
##ual
##por
stat
issu
writ
cla
business
##uted
wa
comm
laws
their
##its
Purchas
OR
Pro
##and
thereof
##ven
dee
##ive
##ES
written
##older
contemp
##ities
Subsidiaries
##now
action
right
conf
##dem
author
Con
##ements
##ited
constit
fin
##ib
##losing
##age
##aid
##ber
##dition
##ENT
Parties
full
##itted
##endment
contemplated
##ke
Plan
perm
##perty
##ra
reasonably
jur
deemed
IN
##ew
##el
enforce
executed
consent
##ability
##eriod
##ecurities
##tw
##demn
ben
##isdic
day
after
jurisdic
##egal
direct
##ould
##enses
claim
##formation
##IN
transactions
##ever
delivered
##arran
Am
Stock
again
against
vi
payment
Particip
tax
##OR
##TH
ANY
ins
##less
agrees
##tial
pr
Purchaser
##TION
Closing
do
jurisdiction
proceeding
delivery
##standing
Sell
##EC
would
giv
##nowled
##pos
sign
##ffili
Person
##orpor
termination
##tained
##eci
case
sp
equ
event
##uar
counter
benef
valid
person
##sion
one
AND
Participant
##erc
agreements
Term
##ward
ser
##tric
An
##ended
##ange
respective
fac
add
ch
Each
govern
du
Subsidiary
appro
##ither
Sh
fil
##ecess
ow
instru
##iver
Un
##bit
##ear
Seller
counterpar
##AT
but
##verse
man
constitute
##riting
necess
##ank
fur
##tic
address
fore
reasonable
As
writing
##cial
##use
##fy
regul
speci
wh
fees
expenses
same
bre
interest
matter
Commit
##termin
Trans
necessary
permitted
amount
information
des
determin
paid
##AL
##ocument
constru
##tor
exerc
rela
result
##ault
##mental
Employee
##oll
##om
##are
##ator
##ud
state
##ced
warran
TO
All
##rou
rem
execu
##00
po
part
performance
finan
period
offic
relating
##ized
##AR
##che
refer
stock
legal
##ort
##ected
nor
limit
remed
##etter
viol
breach
mo
Guar
##uring
me
sim
contr
fa
effective
##action
##MENT
own
employment
##ome
shares
##ption
court
##ust
##ilar
##ederal
##ork
Amendment
##gh
##RE
##demni
similar
require
yo
whether
enti
Mat
20
sal
rele
order
##cy
##erti
##ING
##een
contin
##AN
##ateral
ab
betw
between
##llateral
statements
State
##urance
##uts
##cri
##ner
##incip
##ile
non
##ived
##urred
waiver
bin
occ
indi
##iden
Any
imp
remain
##ose
bec
##bitr
##ission
Li
Affili
##ditions
mail
execution
express
##tee
##ction
Lenders
##THER
year
##urr
##go
##igin
##ges
##oss
outs
Material
Bu
If
only
##vice
Shares
##ital
##nowledge
Collateral
##ased
##ounts
AG
princip
##tanding
##clu
payable
given
binding
##ants
invalid
conditions
financial
##sets
##going
securities
##am
construed
##ving
conflic
##ising
modi
addition
Bank
Award
Letter
##CH
cap
##ollow
##tis
entit
agree
##hol
##ested
el
foregoing
Buy
insurance
due
further
outstanding
##ense
##ERE
Res
iii
Law
form
days
federal
affect
fail
property
##oard
make
201
##UR
follow
documents
contained
Except
out
Guarant
##ccess
Buyer
##ecurity
when
##les
##rough
##idential
##ization
##umber
counterparts
entitled
##iginal
New
unen
##poses
##sed
##ature
av
##fication
unenforce
Adverse
exercise
certi
success
into
purposes
arbitr
10
Act
gen
##vid
##hip
thereto
good
##holder
##ually
unless
##ible
use
##sure
##ease
transfer
Property
limitation
benefit
##ules
withhol
Effective
satis
coven
exis
defin
Sche
sole
##ves
Effect
##ilities
##RO
##bur
expected
Is
Ob
##gate
then
sur
##tro
instrument
duly
Transaction
##gether
following
number
Oblig
together
##ong
##stan
Issu
arising
amounts
##sts
tak
during
indemni
Loans
within
original
Board
##alf
##ey
pow
oper
##hed
incurred
Def
Common
##ition
##rect
beh
SEC
##sim
behalf
cause
either
##CE
##dule
De
##ithstanding
pub
received
THIS
Ar
##mber
being
OTHER
gran
##simile
claims
he
main
CON
disclo
##orporation
costs
assets
issued
##IT
polic
##crib
##gregate
obligation
amended
##ects
agent
##ages
##gan
##tig
representations
approv
Gran
ack
##ax
understanding
##pri
##tricted
liability
RE
York
##ron
PAR
compli
dec
##ight
000
facsimile
his
failure
##irst
become
Securities
Note
AGRE
##vic
mon
violation
defined
recei
loc
##edi
Holder
##unic
##ree
issuance
public
HERE
##ings
unenforceable
force
request
Schedule
filed
##IC
##ark
##edu
Document
ann
taxes
##vive
employees
CO
survive
BY
##ately
##tered
taken
capital
##reat
##ests
##change
specific
##so
receipt
Tax
##AI
manner
##fore
ne
aggregate
act
##ons
elect
consu
##owever
expressly
communic
##ership
payments
service
avail
consumm
purch
Restricted
more
directors
authority
SU
officers
sale
dam
limited
determined
Ten
##ash
condu
por
entire
governed
##tly
##LY
##act
ext
Committee
you
##sel
prep
sent
conflict
particip
mean
knowledge
therein
proper
amendment
however
imm
##ronic
##ast
##cess
bo
##utes
##ffic
equity
##ating
Inter
authorized
notices
##after
available
used
default
##udg
could
##ded
##lement
Tenant
Go
char
related
exclu
who
Affiliates
ir
##EMENT
##tigation
remedies
Obligations
##cum
##ap
withholding
##low
Guarantor
le
before
##imbur
immedi
se
Default
benefits
cop
adv
##mission
AC
warranties
judg
electronic
##ous
successors
continue
covenants
##sive
##ider
Ass
irre
actions
assigns
cover
##cing
thir
power
##pre
##olving
##abilities
Su
##oli
Sal
individ
##ney
reimbur
##twithstanding
pen
neg
release
portion
AGREEMENT
regard
Notwithstanding
##torney
signed
appropri
plan
Ser
##cribed
aff
##ond
App
##voc
compliance
confidential
signature
sup
##isc
interpre
For
transaction
##RIS
account
##ound
##rust
##trol
attorney
al
##und
##ersed
##ensation
execute
Ch
supersed
##tives
immediately
##lord
dem
Reg
approval
Parent
appropriate
##ad
provide
##ient
document
condition
respects
##ganization
Option
regulations
##lace
##oin
Lease
through
demand
##eld
##UT
record
PRO
##urn
duties
remedy
##ency
assignment
respons
##hib
BE
enforceable
##til
coll
##ved
acknowled
Part
##urrent
security
first
design
Govern
terminate
##ph
##rang
consider
##vices
counsel
bas
proceeds
Inv
principles
promp
terminated
##old
En
basis
##VE
##ecting
Land
Business
##AW
purchase
##ination
requirements
##ecured
Day
giving
take
reli
Rele
WI
credit
rules
Artic
faith
##cted
Invest
##TY
until
Inc
Landlord
inj
##ures
continu
Base
loss
disp
they
United
##ution
held
suit
##ension
governmental
LAW
general
##ms
statement
States
liabilities
damages
restric
threat
described
Issuing
Sections
Period
directly
validity
Lien
irrevoc
those
discre
agents
way
ret
fully
##mb
were
12
maintain
affili
acqu
discretion
tra
Governmental
cash
##OC
comply
##ATION
requested
11
cir
##ember
judgment
satisf
policies
return
##ayment
circum
##alue
oral
certific
filing
##ened
##orporate
indirect
reference
month
##king
does
##ished
##orts
Author
proceedings
int
threatened
##olid
Noti
enforcement
##oid
process
ear
additional
your
WITH
properties
promptly
##ove
Event
Assign
##ine
below
adj
##thing
Rev
where
THAT
##TS
adverse
##atory
Employment
fact
##ctions
acce
##ACH
acknowledges
##ass
principal
##istration
Employer
tw
arrang
##emp
##IG
##esting
##raph
understandings
##ged
Secured
modified
based
cre
30
counterpart
##losed
##dings
##holders
##ises
contain
##nership
granted
ref
ill
##LL
##VER
inves
##enew
third
##iration
Revolving
WAI
poss
##ks
personal
accru
##lied
EACH
Laws
substan
##ule
subsidi
regis
irrevocably
##PL
specified
##tell
cor
consolid
reco
above
present
##atives
##tellect
##tellectual
##oti
subs
exclusive
Article
##ases
individually
include
##op
Borrowers
illegal
constitutes
##air
equal
lic
compensation
Code
injun
JUR
disclosure
bound
existing
##ECT
##with
comple
##ffer
occur
arbitration
TR
award
negoti
SUCH
corporate
conver
disclosed
attorneys
##trib
obtain
##ortg
##uali
employee
referred
##TR
both
##AB
##stances
communications
contract
##TO
resul
Del
att
enforceability
whole
EX
furn
consummation
##aware
eff
##arket
courts
##ives
pending
indemnify
transmission
local
enfor
Exchange
Cons
##ice
Salary
Authority
##ning
Liens
Affiliate
manag
Taxes
instruments
##agraph
thereby
Warran
PARTY
long
current
##sp
##pose
##itle
supp
was
Delaware
##ld
##cer
end
Direct
prac
Offic
regulation
officer
##our
##ger
entity
give
##TIES
dedu
Indemn
commit
Security
##AS
gener
expiration
solely
Ne
adjust
19
##ry
purpose
expense
##sequ
less
them
application
services
enter
##ustom
##fici
Man
pos
Termination
copy
To
renew
##one
change
car
quali
representation
actual
interests
##ful
##ou
thereunder
circumstances
share
intended
Change
##TER
ST
##ptions
Acc
receive
Information
na
##inan
Subject
##ectively
among
##itial
sever
affecting
representatives
Pre
est
registered
Indemnit
REL
amend
Investor
matters
14
di
Release
##ATE
validly
Officer
Exp
##rought
brought
##ker
rule
final
interpret
consents
There
what
##tially
##istent
collectively
##ached
advis
Equ
value
rel
generally
COUR
Conf
##con
##fe
certified
##DER
Repor
issue
##ights
Applic
NO
Units
income
bank
separ
impos
conducted
##enture
Notice
redu
post
##ier
##held
##laim
Control
enforced
withheld
##roup
SH
##dequ
##oci
compet
hold
arbitrator
##xt
##AC
apply
ACTION
##hibit
Corporation
subsidiaries
15
earli
sell
##soever
##BY
eng
iv
##ind
cal
##SU
##ot
affiliates
prot
incre
whatsoever
##arm
inure
Requ
specifically
indirectly
extension
##oper
prom
custom
##ALL
##itable
Trust
competent
##efici
lat
##arding
had
MA
##ents
warrants
represents
Commitment
##duct
Rate
Intellectual
investigation
Per
Commitments
Dis
##ite
subm
agreed
Confidential
2016
know
Purchasers
addressed
Pri
##hief
Applicable
##arge
waives
invest
Sec
##ATI
exchange
PARTIES
supersedes
SHALL
affected
Grantee
##imum
regarding
Coun
del
nature
##formance
assess
Or
Upon
organization
With
accept
conduct
rate
relief
owned
occurr
records
agency
13
contrary
conflicts
FOR
##erger
concer
neither
##ory
##dequate
substantially
##isting
Fac
Indemni
plans
Deb
##rupt
making
Manag
harm
ERIS
Performance
ERISA
fee
kind
##vor
NE
##tention
##atement
##ish
now
##ia
thereafter
correct
work
asser
policy
assu
Purchase
dispute
remaining
consolidated
Share
reser
Such
confir
obtained
mut
sett
complete
Mortg
##CEED
Rep
having
indemnification
PROCEED
name
LI
arrangements
tru
regulatory
later
mis
cooper
also
PROCEEDING
##sequent
Partnership
fair
HEREBY
UN
violate
##anty
aud
title
waive
salary
disclose
At
##stance
Interest
##ily
Tra
##roker
underst
concerning
true
##AA
##NG
##paration
Finan
##ring
Chief
meaning
responsib
least
Neither
carry
Member
modification
furnished
prepaid
Group
over
consistent
HERETO
attached
40
##ident
cance
##IGH
interpretation
##ruptcy
litigation
press
assigned
director
##view
two
##IAL
STATE
holder
charges
prohib
periods
ord
##ness
##UN
earlier
Issuer
##ler
operations
fund
equitable
disch
sing
permit
satisfaction
RIGH
##ences
##UMENT
##uture
coverage
Ac
courier
ARIS
subsequent
authoriz
aut
future
file
distrib
##LE
##set
defense
separate
registration
preced
sche
##uses
warranty
##dules
Warrant
00
void
##vernight
Guaranty
##actor
occurred
delay
##ior
##ferred
years
course
Rights
her
waived
Indemnitee
abs
restrictions
acti
##ounting
Perm
##elf
overnight
Comp
consideration
performed
##denture
adequate
practi
##oma
##ist
paragraph
##tes
##erially
covenant
##RES
responsible
deb
exercis
DOC
Se
reports
pres
##mpanies
DOCUMENT
construction
materially
inde
##hibits
##ath
NEW
place
2017
acceler
WH
included
certificate
ARISING
##sement
entered
intent
page
##EM
##lass
##ORK
AP
annual
determination
##omatic
foreign
##vant
YORK
##ular
MAY
harmless
Ben
accrued
hand
##ATED
##ium
possible
ordin
During
LO
last
##ali
automatic
##ording
join
Notes
designated
EN
##ections
must
##ex
Service
##ix
reimburse
Commission
confidentiality
Directors
withhold
copies
vesting
##gn
trust
##IR
##orporated
participation
Gen
##iting
communication
##den
##mbers
JURY
standing
##fficient
lease
Indemnified
grant
position
satisfy
cont
Contr
three
option
boo
adversely
Lic
depos
maintained
free
up
administrative
##gra
conven
Facility
31
render
##FOR
##vile
privile
clause
death
see
company
##tib
anything
##ances
01
PER
hereafter
##tence
##apital
LOAN
Cour
##ultant
benefici
##PRES
applied
existence
##eal
imposed
San
control
##ta
##ared
exceed
timely
##eep
authorization
Reports
providing
##enior
##ars
##acts
##aged
##ession
Claim
review
Grantor
recogn
incorporated
relevant
TRIAL
five
Exhibit
Adv
accounting
##lacement
considered
favor
16
##if
Hol
COURT
acknowledge
automatically
powers
postage
Second
occurrence
General
##vidence
norm
Enti
##ata
##LAI
##LAIM
##ide
##alance
Agreements
letter
therewith
##ligible
businesses
Disc
GAA
GAAP
Other
corporation
##ires
Represent
##ival
On
##roll
supplement
Certi
##actions
preceding
##II
forfe
##see
##vities
commitments
decree
##abl
sufficient
becom
keep
qu
sec
Nothing
via
##DIC
##ously
IR
##MIT
##SE
vested
##als
results
bankruptcy
she
##ss
operation
Form
##withstanding
cost
notwithstanding
proced
em
om
First
OUT
ownership
evidence
activities
Initial
statute
IND
normal
Pled
##ack
continuing
Existing
Transactions
losses
trade
Market
commence
fullest
Certific
RES
administr
books
broker
##nal
injunction
Acqu
##gin
cle
##ial
serve
funds
Dec
##ip
commen
iden
##enue
##olved
Federal
unre
lap
offer
Financial
cancell
base
decision
off
investment
##bted
DE
dele
dates
Permitted
##adings
contro
payroll
Unless
Equity
establ
##ading
located
demands
ordinary
months
practices
vac
successor
By
Holdings
capac
##endar
THERE
prepared
certificates
report
previ
clear
##btedness
venue
##losure
times
avoid
Capital
unp
assignee
real
Consultant
conveni
email
##sements
##used
Related
reimbursement
##olven
##olvency
Assets
CONS
##ical
supersede
##ently
suits
differ
lapse
LL
Administr
##ivers
Trading
next
interpreted
accep
personally
approved
##erve
##posed
member
Certificate
December
sentence
known
efforts
##ood
Letters
returns
underta
disbur
##iving
satisfactor
##tible
limiting
means
##udic
employed
satisfactory
##etary
##ligence
##organization
##REV
Grant
##VES
prevent
regardless
HA
Rec
##oice
calendar
mailed
NOT
##ulting
Subs
notify
audit
Sw
WAIVER
options
invalidity
Distr
prohibited
unpaid
##other
AM
##SUs
##ATING
pat
another
##vail
RIGHT
Deliver
##nia
##very
refl
vacation
perf
Persons
market
Cali
##OCAB
RELATING
IRREV
IRREVOCAB
leg
##fornia
chan
covered
discharge
California
##iscal
409
procedures
extended
penal
creditors
word
others
uncon
filings
stated
Proceed
identi
balance
Servic
capacity
409A
##TED
settlement
##cent
reorganization
publicly
cooperate
IRREVOCABLY
Mar
single
uncondition
none
licenses
Delivery
##cul
##arily
##ators
bear
contains
ten
##fere
Regul
AS
##sc
responsibilities
##ote
##pend
##demark
operate
indemn
Registration
Trustee
Administrator
##ctive
##EG
##law
Amer
##leading
Po
##ending
dire
CLAIM
headings
modify
Payment
div
insolvency
Supp
##ISDIC
Amount
JURISDIC
Americ
JURISDICTION
##ATIONS
##ners
##atures
beli
persons
WAIVES
Court
##ID
misleading
becomes
financing
RESP
convenience
##ority
deal
ev
offi
Ins
Cash
office
Mortgage
can
##ste
currently
Assignment
whom
implied
IT
created
gro
stockholders
##scrow
Interests
LAWS
belie
##PLIC
disbursements
##isite
##ANCE
qualified
Swing
damage
Me
Pr
##ody
sit
indic
guar
##UD
Ow
You
##ational
annivers
prof
determine
conversion
exhibits
doub
Sp
percent
individual
negotiations
heir
closing
HAVE
contracts
max
City
light
una
##fying
recognized
Doll
AGENT
##itions
appoin
Borrowing
meanings
Without
herewith
companies
renewal
##mises
organ
excess
commission
heirs
##quid
preemp
maximum
##cription
increase
te
Arbitr
amendments
Pres
proposed
##vey
acceleration
##ane
##utable
price
unenforceability
engaged
mutually
##ABLE
avoidance
##velo
commer
most
IS
min
##rd
##andard
ALL
com
fun
money
acting
different
consummate
##ause
County
asserted
anniversary
Merger
Conver
doubt
##ural
partic
liable
particular
18
##BL
##cribe
section
##CL
Partner
ph
pled
vest
organizational
##ocket
##ISE
cancellation
requests
Thi
##ST
conclu
APPLIC
ended
##cially
##UL
CONT
reserves
President
Awards
pocket
sc
like
ability
Manager
prosp
associ
Compensation
Disclosure
tri
inf
thirty
unconditionally
advance
members
customary
participate
##utions
##velop
02
fiscal
Inde
acquire
Benef
##ORD
##OVER
contrib
requirement
negotiation
lis
##OW
released
license
ques
Oper
##cts
##ETHER
##gated
executive
unreason
Cor
##essee
injunctive
DIS
##olute
Services
class
protect
##ury
understood
insu
##ict
##WISE
extend
Required
Pay
omission
##raw
##ulti
consult
##elec
Third
Non
##TENT
##idend
acceptable
preparation
OTHERWISE
conting
##ANS
satisfied
absolute
exercisable
bond
ris
##rov
##bran
Days
WHETHER
prevail
need
##cumbran
Statement
advisors
##entive
initial
acts
excluding
Le
##try
owing
GOVER
##udited
confirm
words
GOVERN
TRANS
ENFOR
penalties
rev
merger
##PRESENT
REPRESENT
17
AD
involving
Arbitration
him
telec
##ime
requisite
signatures
op
##stall
creation
Premises
best
untr
eviden
show
Contract
schedules
complied
therefor
193
100
port
approvals
privilege
six
resulting
untrue
sold
District
##tim
convertible
indu
incur
internal
pages
##ACTION
##iron
impair
##viron
Stockholder
acquired
ON
infring
Require
TRANSACTION
preclu
indenture
repayment
##US
defend
Sellers
EXTENT
ACC
telecop
RSUs
##kes
contested
##gram
##df
said
dated
##hen
Price
ITS
##tary
##des
##FF
##ertain
jointly
##IRECT
##vel
itself
##ned
relations
##pendent
##vironmental
##ensed
Ann
SE
partnership
arrangement
##uarter
sales
##ITY
It
loan
##ANT
##ope
##isition
##ducts
SUB
subsection
estate
pdf
##vers
RESPECT
Debt
Off
gross
Escrow
orders
##emption
##not
calcul
assessments
Account
unaudited
previously
seek
indemnity
36
thereon
##eries
Separation
##hing
##olun
understand
organized
scope
Sanctions
GOVERNED
Guarantors
subscribe
APPLICABLE
Tex
Expo
submit
Dollars
##asing
LLC
insured
##tire
##olution
COM
stric
unreasonably
forum
accur
releases
SECTION
##laws
60
##line
##ENDER
disputes
working
liquid
Associ
##onduct
convey
nothing
Fee
##tru
dispar
##isconduct
Texas
ACCORD
choice
Entity
misconduct
references
preclude
ite
##lor
##tern
##land
managers
LENDER
certain
##NOW
negligence
established
##tirement
##TRU
pl
red
##orator
insur
judgments
##yp
discus
addresses
Indebtedness
contingent
Senior
##ECTION
distribution
preemptive
flow
##ruption
ACCORDANCE
caused
2015
might
##co
rest
##umul
clauses
AGREES
Insurance
guarant
sum
occurs
supplemented
Servicer
##END
03
PROV
##ranch
mailing
shareholders
indicated
relationship
materials
limitations
CONSTRU
adjustments
Value
##ys
instit
sets
secre
requires
##ough
transm
soon
representative
remainder
offices
UNDER
Pledg
obligated
Assignee
willful
##ALLY
Debtor
Jun
morator
moratorium
##TIG
sel
adjustment
Owner
us
##ince
Rest
Sale
Conversion
opp
##OL
susp
owns
conclusive
manually
controvers
04
Lessee
##irm
CONTR
restriction
incorporation
Incre
Exposure
great
##yste
obj
indemnified
LITIG
asset
accrue
practic
holders
##MIN
##tal
##raf
##orting
Schedules
preserve
resign
Preferred
promises
None
judic
eligible
##foli
lien
debts
Options
Indenture
decla
commencing
##tail
##OUT
install
tele
listed
##OF
minimum
##AIN
##folio
##DI
partial
finder
dividend
25
Des
##eti
##mium
Transfer
reduction
liens
##urrency
forms
reimbursed
##inion
allow
##prietary
beneficiary
LITIGATION
attemp
common
WITHOUT
reduce
Disability
PERMIT
##IRECTLY
CONSTRUED
Proceeding
includes
BOR
alleg
jurisdictions
prevailing
##ordin
CONTEM
HAS
Knowledge
Rece
06
body
##part
Director
according
fairly
##truct
##ORT
CONN
trial
##oting
involved
##eth
exist
##ROW
Vesting
##EST
Defa
21
Claims
permits
Holders
consummated
management
200
substance
transferred
nam
standard
##omic
trademark
deposit
PERMITTED
charge
consolidation
furnish
Pledgor
mortg
null
replacement
Product
COUN
Optionee
investig
legally
hour
##uro
Stat
announ
exercising
possession
Pat
opinion
Offer
rise
quarter
##up
##fications
call
##iss
Paragraph
severance
##aneous
##unity
Addition
legality
##ATIVE
Office
Action
PR
Notices
patent
LC
##ured
collateral
##conomic
recip
##venue
determines
##iti
##acter
##ERAL
US
Registr
DOCUMENTS
associated
Jan
##ationally
##iring
arise
judicial
Fair
events
##undred
designate
severally
License
pledge
well
makes
character
board
new
##enting
incons
portfolio
##ROWER
Ag
economic
##CC
dispos
independent
circumstance
BORROWER
borrow
deductions
debt
Association
##uary
##ech
revo
Design
##eed
irrepar
Report
forfeited
Euro
##IP
premium
affiliate
##ang
January
##uting
##alu
undertak
##ectus
contra
Representative
executing
TRANSACTIONS
##CON
##mption
recipient
intellectual
##uty
##ecti
##vered
contempor
partners
rendered
CONTEMPL
Perc
##CED
##onus
CONTEMPLATED
duty
##ida
Anti
When
hereinafter
##veness
create
engage
CONTRAC
Ma
Time
election
Incorporation
##ectiveness
Percent
deduction
risks
##hes
increased
nationally
rely
##IL
responsibility
things
served
prepayment
accepted
franch
assert
practicable
draf
develop
##lose
Expenses
submits
##ealth
Registrable
should
Defaulting
flows
about
authorizations
Operating
##urity
annum
##ugh
##lar
##ULL
begin
suffer
detail
profession
hours
##odi
reputable
participations
forfeit
##ught
notes
attention
copyr
properly
obtaining
##aging
administration
Polic
##cumbrances
regular
funding
shown
understands
fid
##uci
sought
Obligor
sitting
FULL
##01
applications
accountants
Released
effectiveness
exercised
March
CLAIMS
senior
##TIONALLY
##ICT
##ASED
Series
multi
##FI
##GES
##ARD
perfect
##ERTI
disability
Wa
ending
Swingline
self
##man
##ister
names
Statements
Placement
four
Equival
ENFORCE
every
tr
typ
conform
causes
executives
##claim
subsidiary
qualification
##umulative
data
##ESS
changes
mortgage
##raud
AMEND
confer
Ext
Assignor
CERTI
Eligible
Title
##dated
##ully
location
cumulative
##rim
decre
COURTS
Al
##QU
net
##limin
Environmental
prospective
##etition
intention
Participants
taking
June
Reci
##pient
##utory
acceptance
##ethod
Recipient
pertain
disclosing
documentation
expire
lie
continued
Supplement
method
inqu
Order
contraven
fiduci
Shareholder
LEG
Sever
##ie
##LED
counterclaim
exclusively
Priority
close
##ION
##EO
Proper
##elve
Warrants
##og
commitment
Benefici
favorable
commercially
irreparable
AR
facts
Unit
waivers
EV
volun
appeal
CONTRACT
From
##sures
transmitted
contemporaneous
FULLEST
Purchased
exists
alter
reporting
twelve
controversy
Join
voting
assist
jury
wire
##gy
##onven
##eng
Articles
LEGAL
American
##fully
##eeting
Princip
greater
er
Companies
inconven
Confidentiality
evidencing
CONNECTION
##chan
appear
compar
since
treat
disposition
lieu
AT
##utors
##sions
##ortunity
Entities
Commer
items
resignation
AMENDMENT
##fies
incident
purpor
##urchase
Asset
former
confirmation
undertakings
MAT
##lus
##TING
Capitalized
rat
##vation
administrators
Additional
retain
actually
portions
omitted
Speci
Waiver
inconvenient
VII
##ral
cooperation
mar
##ciation
Incentive
imposition
Secre
1934
##cement
##ables
commenced
Properties
##olvent
statutory
fails
##ystem
##from
##ror
Exhibits
attach
Fund
TORT
##ivil
fax
fiduciary
Severance
##RED
dom
stockholder
##respon
format
assume
##feree
objection
comparable
Agents
correspon
dischar
alleged
tre
provides
Prosp
Guaranteed
longer
Flor
##estic
total
privileges
Regulation
cannot
##KNOW
second
##UDG
Receiv
JUDG
500
violations
relate
LIB
##grams
Class
##FIC
##PER
periodic
Arrang
Florida
past
equival
poten
Set
##train
##airs
submitted
reflected
accurate
OBL
done
##ied
governing
##ada
EXPRES
##arget
Advis
Prospectus
OBLIG
EXPRESS
executors
government
capitalized
directed
proprietary
admin
acco
access
##changed
Year
fraud
##pte
assum
Septe
September
GU
exa
prohibit
installments
GUAR
fif
comb
intend
Subscription
Cause
Vice
plus
alloc
Retirement
RIGHTS
Members
Work
##aired
conte
owed
substit
changed
telecopy
##reciation
##inal
exce
entirety
insurers
05
50
##acy
Corruption
deems
awards
exchangeable
controll
opportunity
Principal
context
den
operating
UNCON
joint
liquidation
##DITIONALLY
Rules
consequ
whose
COMP
Extension
LIBOR
UNCONDITIONALLY
expressed
America
##jority
##ENCE
receiving
Investors
reduced
JUDGMENT
programs
deem
Percentage
Fore
Contrib
bind
ACKNOW
Counsel
audited
ACKNOWLED
CEO
##ental
Fur
mer
##app
delivering
artic
Assu
According
Attention
##ordinated
Further
these
mutual
Annual
Accordingly
Covered
##aches
status
##AND
##arks
strict
Ret
##IVE
##llary
##cillary
Amended
collection
deduct
posting
Advances
selected
lawful
disclosures
potential
##DF
bylaws
owner
##ROM
advisable
##echn
professional
PDF
therefrom
defa
earned
contractual
trustee
BASED
CA
wee
##lease
impaired
##vocation
singular
pertaining
restrain
CONF
assessable
treated
Line
##jections
signing
breaches
authorizes
90
Current
##fill
##reas
##ana
##TIVE
carri
RELATED
Original
##enty
resolved
##licit
##iry
Payments
El
##tarily
promul
question
never
pros
##pons
##ize
AGAIN
patents
Beneficiary
Secretary
EXPRESSLY
AGAINST
##OING
accounts
terminates
reviewed
declared
promulgated
Broker
meeting
##vested
vii
questions
WO
cease
Obligation
register
FOREG
attempted
FOREGOING
##AM
##avor
withholdings
Approv
STAT
THEREOF
##ULD
bring
monetary
reserved
Foreign
recently
Prior
dev
recover
##CLUD
plural
exemp
Liabilities
refus
Management
confirmed
confirms
authorize
Benefits
Offering
percentage
though
special
covering
FROM
Treas
##current
##zard
##idence
Stre
documented
relied
travel
II
Sign
ful
##AY
##vider
Provider
furtherance
occurring
discussions
Rule
##irable
because
monthly
schedule
##CLUDING
22
##writ
##chie
suc
injury
desirable
Guarantee
WOULD
medi
deed
ensure
taxable
##ISION
entities
relie
Disp
fulfill
##eb
##ecution
Products
relates
refusal
##istered
interfere
chall
OBLIGATIONS
CONFL
succeed
##pr
revocation
indebtedness
Equivalents
SO
sections
initi
concurrent
##cies
Good
Subscri
Requirements
premiums
##TEN
##abor
##agor
else
Mortgagor
Financing
##CLUS
sheet
FIN
bro
ela
INTER
twenty
presently
multip
elap
Lim
lender
##oen
anticip
Incremental
##partment
Subscriber
Flo
ine
secur
modifications
endors
deposited
Sanction
trademarks
##CLUSIVE
ABL
list
##ults
arbitrators
continuation
omit
Whenever
type
##ength
elapsed
achie
##ranche
participant
beginning
equivalent
while
receives
entering
likely
Requirement
##MINIS
ACKNOWLEDGES
Legal
##draw
INTO
inquiry
Nev
ADMINIS
Commercial
Ancillary
establish
##REDIT
Nevada
##eh
##vision
replace
SUIT
customarily
indust
valu
##IV
Exerc
REG
consultants
##FFECT
copyrights
CREDIT
IV
##hec
origin
##alth
Program
specify
acquisition
articles
##mptions
##ousand
##enewal
commercial
Sett
Street
ADMINISTR
length
##tenant
performing
settled
Sanctioned
##encies
##aster
Coven
subp
effectu
effecting
dilig
calculated
##NI
##here
##atural
##ices
priority
country
negotiate
adjusted
redemption
sound
##ICH
delayed
INDU
appoint
instituted
secrets
forfeiture
Sales
Consent
PROVISION
subpoen
INCLUDING
health
##ronting
absence
ENTER
Acquisition
Regulations
phys
inconsistent
COMPAN
##wealth
##edical
Trademark
WHICH
reflect
Benefit
National
##lit
restricted
issuable
previous
SER
hol
##off
##mor
##CI
projections
##teg
Real
##jected
Bankruptcy
Commonwealth
affairs
assumptions
situ
investigations
nonass
prompt
hundred
natural
generality
promise
calls
subpoena
24
##TOR
registr
assignments
BEEN
##ipment
##ised
##formed
Maturity
delegate
sixty
Right
##dul
unvested
expired
setting
publ
secu
tort
##INGS
named
securing
nonassess
products
resolution
Revenue
##TIC
PROPER
Aggregate
franchises
Exercise
nonassessable
##ICE
##enced
instructions
##ehic
Less
struct
product
##tical
annually
seeking
delegated
DISTR
##ternative
holding
Bonus
##ton
##bal
##lient
care
ineffective
Project
forec
remains
Restric
licensed
LLP
error
##tinu
containing
Restatement
succeeding
Settlement
COMPANY
##EE
##SON
##resenting
charter
Licensee
PERSON
restated
DISTRICT
##uration
##tenance
outside
##ific
##PUT
Subtenant
formation
commencement
believes
Lessor
Target
##oy
##BR
requiring
grants
severable
accepts
secure
##GH
instance
authorities
recordation
INDEM
Mortgagee
Designated
relieve
Master
found
Indi
identified
##lin
##UGH
representing
electronically
voluntarily
Receivables
Fronting
Nor
anti
examin
doll
definition
Expiration
##IDED
industry
Renewal
duration
##UM
##ONG
priv
effected
tes
##enn
##employ
integ
projected
##olve
obs
description
financially
##crip
possess
renewed
Advance
infringement
cure
draw
secured
sums
##ublic
affects
##ixed
attachment
rata
retained
continuance
SP
Tranche
##endi
##ters
conditioned
substantive
AMONG
DISPUT
treatment
combination
ADMINISTRATIVE
##lac
##encement
disco
processing
substantial
believe
commissions
discharged
devote
##endix
recent
Commencement
Terms
prohibition
FED
##TC
##hold
illegality
earliest
Licensed
FEDERAL
Fif
##ouse
content
assessment
Patent
MATTER
registrations
emb
diss
insp
effectively
irrevocable
decisions
DIRECTLY
incap
impro
adjudic
offering
##UAL
incentive
replac
prim
Internal
Appendix
Representatives
INDIRECTLY
##rovements
Plans
indemnifying
APP
##ilding
Limited
diligently
Min
UCC
aw
system
##ked
requesting
surv
Acquired
IP
##minated
maintenance
##empor
Treasury
07
##tof
##USE
##back
##erted
arises
perman
##ave
Register
loans
Restated
defaults
effectuate
##tofore
##ANTOR
teleph
MUT
##lements
##dian
Under
similarly
practice
EVENT
tempor
Depos
declar
PRIN
improper
##yn
##lain
attrib
split
Loss
Rent
##ari
proof
occup
##soli
converted
Cop
encumbrances
deliveries
repay
invoice
partner
managed
conveyance
##morand
ce
firm
employer
WAIVE
contribution
corresponding
##ehicle
42
Mon
##olo
produ
respectively
truth
Advisor
##ponsor
III
deri
##yond
beyond
area
referenced
invalidate
Eng
incidental
##CIPL
PRINCIPL
##national
pror
participating
qualify
disparage
situated
##solidated
28
##ECTIVE
Origin
dealing
assuming
Elect
REGARD
##ets
##EY
##vity
##ues
##utation
##agement
manif
warrant
Appreciation
Accru
protection
##UNDER
purported
##BIT
Sublease
notified
forever
injunctions
protest
PROVIDED
Deposit
ra
##EK
THEIR
offset
SEEK
announcement
unchanged
Reason
computed
invo
remit
2014
##duled
SAR
##doll
withdraw
constituting
Bylaws
##dollar
group
nine
##NEY
##ROUGH
completed
support
360
revoke
ATTOR
ATTORNEY
Currency
##inqu
Instru
carrying
omits
PRINCIPLES
Outs
fo
##irt
arm
level
reliance
Organization
CERTIFI
Dispute
Accrued
ina
program
##ilit
##ASE
several
omissions
29
MAN
##olly
Partners
advisor
##ocial
appointed
08
Ite
##teen
inserted
Short
lev
restrict
1933
disparaging
challen
aware
Corporate
##50
summ
ascribed
##portion
statutes
enforcing
Servicing
Assumption
Ju
elimin
##ling
##thern
aside
##ulent
Reserve
##comp
fraudulent
es
setoff
##ady
diligence
undertaking
domestic
temporary
Bo
facility
meas
surr
##FICATIONS
foot
BROUGH
Fil
##MPL
##uter
Thousand
represented
Investment
shareholder
Accounts
Eurodollar
Policies
weeks
surrender
BROUGHT
After
dil
scrip
##sign
##ention
##mple
confidence
Fees
virt
collect
Managing
Solvent
pred
##yr
resc
enc
consistently
CAUSE
May
Sponsor
specifying
ASS
believed
evidenced
##appro
##oyal
Electronic
July
Apr
Sur
Consolidated
able
Department
purchases
activity
beneficiaries
exempt
April
##ich
##payment
sue
2018
Representations
ENFORCED
##issible
Policy
restraining
Four
Mass
##DA
adop
##izations
direction
REPRESENTED
dividends
23
Cana
Ter
##NER
Standard
trading
awarded
positions
brokerage
WAIVERS
ISSU
guarantee
COUNTER
structure
attributable
gender
##fact
##liance
##lying
therefore
compens
##andatory
extensions
##stead
##notes
Specified
footnotes
Ha
vote
##atis
##uid
##udi
##ufact
##CA
##kers
##ential
##ready
##inance
Buyers
DEL
administered
virtue
##uage
##ony
unk
note
Subland
reputation
sour
##nown
implement
already
superseded
Pledge
##anguage
Return
integr
Copyr
Canadian
advice
Creditor
RELE
UNIT
suffered
prosecution
anticipated
##ificant
##morandum
Originator
manifest
unknown
Sublandlord
throughout
WILL
##cumbrance
Leases
SUBMIT
quarterly
conformity
WAY
et
language
##tts
entry
##ibility
Licens
Distrib
##aneously
exemption
assignable
##usetts
recovery
sheets
Joinder
##signed
chec
rating
Subordinated
recording
Suite
carried
multiple
physical
CH
##ores
##PT
orally
##achusetts
Banks
seven
Repurchase
##UNT
Grantors
Lead
Massachusetts
Multi
fe
ste
##GE
retirement
breached
Indemnitor
REPRESENTATIVE
STATES
originally
SERV
UNITED
##fers
##att
unable
deliverable
##ritory
completion
Contracts
borrowing
VI
##ino
respon
facilit
Building
Chair
Shareholders
##rimination
ratably
DISPUTE
PUR
##ug
majority
relative
SECUR
precedent
##tructuring
contravention
##echnolo
vehicle
##RIT
##ric
##ne
##FTER
appell
solicit
preferred
county
immediate
##mbership
affiliated
dollars
dissolution
inadequate
appellate
Fun
crim
##75
transferee
##ARI
manager
comments
Car
af
listing
remo
designed
subsequently
deno
permanent
AAA
Custom
Penn
my
marks
##ps
approve
import
resulted
CERTIFIES
##RITTEN
ARE
She
undersigned
Continu
HEREUNDER
availability
acknowledg
contest
appoints
risk
Annex
MUTUAL
Imm
civil
##gation
##DE
##aily
THINGS
##udge
acknowledged
Encumbrances
Consulting
cancel
Courts
One
estim
bu
Costs
##lobal
##cluded
deducted
Contractor
using
contravene
Floor
INDUCED
Fifth
Client
Net
##the
##isitions
whereby
197
KNOW
##CLAIM
202
Issuers
restrictive
sooner
Increase
##appropri
adopted
##oresaid
aforesaid
Mr
##nel
##lv
unf
heard
purchased
International
designee
separation
scheduled
contributions
##liminary
Chairman
Hundred
Your
pass
##tili
##andon
Transition
Mortgaged
shor
defici
heretofore
##ORY
necessity
abandon
controlling
##SO
incurr
distributions
announced
Licensor
social
##igu
transfers
prej
##inancing
development
criminal
HE
##ob
knowing
absent
##timony
drafting
marke
Arranger
intends
private
testimony
check
Civil
rul
##quali
submission
repurchase
waiving
finally
facilities
##vidual
AGREEMENTS
EXEC
accelerate
redee
CERTIFICATIONS
assistance
##zardous
Individual
EFFECT
cas
vari
yet
##ump
##isten
##ays
##igger
environmental
issuing
noncomp
Develop
CONSENT
45
Feb
Imp
did
##CP
##bigu
proportion
##utor
##ruary
simult
fam
prepare
deduc
letters
Maker
Penns
February
26
VOL
venture
purchas
inconsisten
incapable
Funding
Ill
##OY
##ancy
unused
lawsu
gives
determining
presentment
1401
Losses
VOLUNT
EMPL
UP
##raction
##Co
interim
##ventory
Prot
THEREBY
Alternative
##employer
EMPLOY
##dent
##na
##ines
THAN
##ANTY
Withhol
Margin
FINAL
SUBMITS
##attan
Global
bonus
##ober
##hattan
granting
locations
committee
Manhattan
investments
Covenants
Aug
WAR
bill
permissible
official
Deed
##ources
Indemnitees
customers
VIII
August
guid
lay
##ists
read
Coll
finance
##IGN
##TERMIN
DETERMIN
PROPERTY
obser
ninety
dilution
casual
CF
Follow
mas
medical
##SS
##lies
deferred
##statement
enable
invalidating
follows
managing
ordinance
perfection
item
appointment
Following
fre
encumbrance
ambigu
becoming
telecopier
However
Ph
lump
##son
Counter
distribute
merged
inconsistency
Pension
fraction
##itive
##UE
##UC
formed
life
Conditions
serving
##CEPT
charged
levi
leave
Char
LIMIT
misappropri
profits
published
contents
Based
GEN
fixed
lack
rent
##ylv
anyone
##acc
Inven
insist
recorded
Assigned
prorated
Outstanding
##ARILY
levied
##ylvan
lo
##iform
informed
limits
Att
perfected
penalty
Multiemployer
##inois
Pennsylvan
Illinois
Pennsylvania
Quali
SIT
str
##val
manage
Transferee
updated
Proceeds
Memorandum
365
Patents
bon
##pts
##where
##SA
forward
##unded
Excluded
complain
##ENS
198
marketable
text
infringe
drafted
COUNTERCLAIM
rates
utili
pursue
instrumental
operated
Defer
REIT
leasehold
##FORM
phr
##angible
margin
Approvals
predecess
VOLUNTARILY
Withholding
##rain
##PRE
##02
##sual
defenses
acquires
earn
MADE
investors
plac
##ILI
steps
shorter
knowingly
WARR
Div
eigh
hear
vers
asp
notification
FORUM
preser
Corp
secret
ARTIC
appealable
GUARANTOR
controlled
##yndic
Fourth
Oct
Sou
cases
##ace
Color
Stockholders
##ORS
Materials
contractors
relying
##ograph
laying
SITTING
ARTICLE
Southern
09
Balance
##amp
##aper
parent
consulting
Review
personnel
added
wholly
advances
maintains
franchise
Avenue
Use
##orough
##mptly
##asion
##loc
Promptly
impose
leases
reservation
methods
October
OP
Obligors
capitalization
holds
beneficial
Post
COUNTY
Approval
PROVISIONS
Customer
Dom
REC
RSU
##more
##ington
enj
payee
##ado
insurer
##echnology
escrow
##ok
##RING
consists
adver
afford
delinqu
distributed
declare
closely
adjudication
Colorado
Lending
determinations
relation
Pledged
CONFLIC
North
Hazardous
denominated
##theless
41
even
ge
##urances
provider
failed
prepay
calculation
developed
primary
declaration
truthful
DETERMINED
27
Gro
WRITTEN
sti
##aterial
ende
##ords
maturity
assurances
claiming
captions
followed
originals
assessed
ground
exception
SERVICE
redeem
utiliz
Ear
##WE
##entions
assigning
violates
Accounting
ENFORCEMENT
allocation
INDEMNI
49
##lish
instead
##antom
compr
returned
convert
trustees
indemnities
ARBIT
CONFLICT
casualty
advertis
ARBITR
Tw
national
occasion
COLL
Funds
administer
levies
instrumentality
CONFLICTS
He
inventions
purchasing
recoup
customer
presu
Acquir
##culine
INTERPRE
Items
Copyright
UPON
masculine
Avail
##VEN
##art
##ick
##illion
##endit
##ferences
##demnation
Liability
misstatement
absolutely
revoked
consequences
foreclosure
Development
Domestic
series
##iqu
##vement
##aff
##urate
exc
2013
individuals
allowed
embodi
Underwrit
MANNER
Surv
bar
holid
##sey
ado
##THING
equally
breaching
Disbur
Support
Contractual
portable
SET
GUARANTY
telephone
abandoned
##qualified
noncompliance
Jer
##credit
##JECT
##vember
##minine
November
materiality
Income
continues
144
auditors
feminine
##creditor
NON
##upon
##URE
stay
repaid
##INGLY
lists
nevertheless
inspection
marketing
La
Ohi
daily
how
##ield
##zation
proc
defer
unlaw
seq
##ystems
Joint
##oyalty
geograph
endeavor
Ohio
chief
num
##orrect
incorrect
refrain
identity
180
##udice
prejudice
recoupment
Acquiror
Borough
##ole
##MS
##ging
matured
elects
Releasees
paragraphs
accordingly
Arrangers
Furthermore
Standards
Jersey
Labor
Rata
ess
pru
##RA
##aring
Ref
discon
certification
designation
interpretations
rendering
showing
incurs
media
Restrictive
surviving
unfavor
##EX
##gies
##itness
##cements
##uman
preliminary
Employees
PERFORM
Dollar
Convertible
SUBJECT
guarantor
source
deficiency
frequ
##AFTER
##ltim
##orne
##abled
arre
Proprietary
##ICA
altered
BET
accelerated
exceeds
transmit
attempt
furnishing
Majority
##FIED
elsewhere
ceases
Returns
simultaneously
33
Bro
rental
ultim
##FER
prove
depart
subdi
obligate
equipment
meet
HEREAFTER
##self
Authorities
cancelled
DEF
association
strictly
broad
discovery
ruling
##WEEN
unlawful
unfavorable
BETWEEN
Either
Fiscal
GIV
im
##acted
##ordination
INC
EXCLUSIVE
NOW
discussed
standards
challenges
integrated
prudent
LE
anal
lawfully
manufact
HEREOF
##certain
suspension
decrees
family
Dividend
subdivision
Back
Final
##EL
##ower
defending
issues
view
spouse
improvements
successive
Noteholder
credited
Indemnification
offers
Pool
fifteen
Organizational
JAM
Mary
consultant
computing
competition
##ference
NOTHING
FORTH
Facilities
identification
trigger
deriv
KNOWINGLY
HEARD
BRING
experi
doing
##itals
supplements
NEG
copyright
Reviewer
arrears
JAMS
Maryland
OTC
Public
subordinated
Selling
Uniform
##troll
Indemnifying
comment
accuracy
correspond
response
PSUs
##mer
##charge
expires
some
##earch
convenient
accepting
inducement
ple
##currency
##CESS
##ater
consecutive
ORAL
taxing
Intercreditor
##ota
Debenture
assumed
assumption
functions
pledged
controversies
##issory
##naire
enjoin
Sa
sm
veri
##ME
Inventory
files
dispose
increases
Permits
##tibles
investigative
brokers
withdrawal
##ris
##rong
##vance
Controll
REQU
##ECTED
Records
comes
open
called
consequence
deductibles
##enditures
Cent
System
lending
sk
##EES
##fin
##bun
##lier
##iche
##acti
comprom
involun
addres
Resources
HEREIN
##apers
Country
domain
departure
Well
flo
ver
##SP
inacc
##ather
##itholder
paying
##ANK
199
contribute
oppos
opinions
MATER
substitute
concurrently
APPE
Minn
AB
##DUC
connected
Should
Unitholder
leased
##UTED
RESPECTIVE
decrease
aspect
MATERIAL
BANK
ke
##ak
accumul
recapital
assignees
PROCESS
162
reflecting
liquidated
Junior
Signatures
GENERAL
##bunal
kept
Modi
##IED
##WI
##onic
##reg
##rep
##enth
##ina
##orld
inoper
super
extr
##verage
reset
subro
##orporations
EXCEPT
Total
placement
Eurocurrency
assumes
Inventions
DAM
borne
mach
ter
##bear
insure
THEORY
lead
lesser
sells
401
rati
inoperative
DAMA
DEM
adequ
witness
##pted
##irc
applicability
##ensurate
##tending
involve
commensurate
Transferred
##ustodi
Matters
2019
alone
creditor
120
ACTIONS
Discharge
recognition
Practi
drawn
invoices
predecessors
procure
DEMAND
Di
Health
NY
Pur
wrong
##onor
##ined
##ale
units
##quar
resolve
##resp
underwrit
appra
applies
stop
Participating
##umbered
CONCLUSIVE
refund
Within
prescribed
Proceedings
Spin
needs
EVID
voluntary
Counterpar
GIVING
small
Bas
VEN
##rid
##gen
##plic
##itor
Proced
writings
invalidated
2010
accruing
preempted
Transferor
##ILITY
Wh
##argo
come
active
appreciation
##ligibility
exper
##oftw
duplic
##THERN
entitle
negative
##inances
advised
Equipment
ordinances
decreased
alteration
examination
Territory
removal
derivative
addressee
Wells
##WITH
##oftware
Five
dim
labor
##mpanied
underlying
##medi
##IND
significant
expression
Chan
CONTRO
restatement
appearing
accompanied
accumulated
ever
##cting
##just
##esota
conferred
forty
##venth
fines
whiche
forma
AGREE
receipts
maintaining
banker
DEAL
organizations
allocated
rescin
frequently
Minnesota
VENUE
whichever
AFF
ABR
Data
Fran
PB
Ques
##tionnaire
delivers
entirely
unconditional
Prime
profit
viii
occupancy
Refinancing
dimin
rescinded
Questionnaire
Ge
Hed
IX
mark
tender
##ism
##active
receiver
charitable
excluded
seeks
beneficially
offered
suspend
250
valuation
wages
##atever
##eria
agencies
save
consented
whatever
describ
elected
Regulatory
regularly
week
##ricted
lawsuit
observance
machine
##ustodian
Key
Port
back
##IVER
##itles
##state
##stricted
Add
forthwith
##riteria
definitions
Investments
subsections
JURISDICTIONS
tribunal
Debtors
Covenant
replaces
incurring
purchaser
correspondence
apprais
##lation
##SY
##let
REFER
neuter
immaterial
Events
COURSE
promote
mutatis
indefin
##SEL
summary
ASSIGN
fractional
delinquent
##respective
EVIDENCE
indefinite
AFFECT
Fargo
Medical
##onoun
##organ
short
##astern
Exce
Install
##titution
pronoun
head
196
division
prospects
##ternate
INDEMN
CHO
EXECUTED
Improvements
earnings
Disbursement
Body
si
##urer
assure
nomin
##tries
timing
##tainment
##venues
violated
##AIL
along
Releas
##UND
Accept
book
COMM
COUNSEL
Equivalent
accomp
lenders
replaced
##ique
EQU
Finance
Ho
Judg
Max
Vir
paper
sending
##vis
once
issuer
##andis
prin
instructed
engagement
mutandis
THERETO
dealings
SOU
achieve
DELIVER
strate
Virgin
Human
Quarter
Vested
##over
##IOR
##itially
##GC
instances
rein
retro
conce
mature
Participation
owners
nonp
irrespective
leasing
##LLER
presented
Consenting
reserve
canceled
identifying
guaranty
SELLER
select
greatest
Special
endorsements
SECURITY
##bearance
Installment
32
Six
currency
restructuring
##osen
defam
Amounts
##ARE
takes
communicated
acquiring
##contr
latest
settle
Payee
consultation
passage
guidance
hearing
ARBITRATION
SOUTHERN
mandatory
##lack
uns
unique
expenditures
vice
interpreting
traded
##LLATE
##ABILITY
advisory
banking
Distribution
Protection
APPELLATE
Basic
35
Mo
##mmod
disposed
counterparty
useful
##cery
Facsimile
deposits
publish
solicitation
Attn
##VENI
recapitalization
Chancery
Eastern
GR
der
##ken
prox
##ided
##license
stamp
protected
undertake
evalu
achievement
providers
excise
##quarters
indefinitely
papers
##RI
##bers
##HIP
initially
##lief
##stain
parts
Relief
##tentions
##ARY
communicate
institution
discharges
fifth
AFFILI
Virginia
nonpublic
Out
Ro
Ste
eligibility
##ics
##olina
##del
Adjust
prepar
discrimination
spin
membership
discretionary
corre
Receivable
fulfillment
eliminate
Filing
##yndication
Modification
software
web
##mn
disse
Affiliated
arbitral
complies
COBR
separately
Agency
Carolina
analys
skill
subrogation
COBRA
FUR
##EA
##EVER
##OS
Int
protective
##FORE
conveniens
NOTE
Operative
Instrument
facilitating
inaccur
headquarters
CL
Gather
Mandatory
Since
VAL
West
gain
pun
##org
reformed
revenues
condemnation
exhibit
noted
##irms
##outh
##resentation
Employers
##elines
##ediately
faithfully
ITSEL
relationships
appears
invoic
Immediately
complaint
flood
Judgment
ITSELF
Black
LTI
MO
bad
techn
titles
##ha
##jun
exchanged
propos
##own
claimed
signs
poli
Prepayment
workers
misrep
legis
tenant
uses
suspending
CONNECTED
fifty
##entioned
CONTROVER
retroactive
DIP
Red
corporations
petition
##ii
##VING
##ries
computer
executes
quot
phantom
##irmation
ratable
Contribution
measures
Filings
CONSENTS
numbers
Practices
simple
derog
Fail
Mich
Technology
Where
cured
lend
sustain
retention
OFAC
prices
releasing
##ott
investor
Acquisitions
identical
APPLICATION
accommod
Contributions
deeds
initiated
produce
Two
triggered
DAMAGES
wrongful
CHOICE
Aut
Bri
CASE
Ener
Gre
hig
systems
##POR
inform
##lim
##ders
respecting
compell
INV
alternative
collected
##SEQU
dealt
##ULES
substitution
INDUCE
APPLY
advertising
presumption
INTERPRETED
##DUCT
PBGC
Maximum
FURTHER
political
CONTROVERSY
Failure
South
fire
nd
sw
##11
##IES
##OG
##orage
motion
Litigation
advise
##feas
##ULT
LENDERS
USA
SARs
Continuation
afforded
quotation
75
BUT
home
##otion
##zon
remove
participants
##ideration
refinance
RELATIONS
Marke
buy
INDEMNIT
misrepresentation
IM
##ame
##orted
##urse
##ley
residence
proving
subcontr
recitals
repair
employs
Conn
##ATES
remarks
Deal
complying
##ferees
##STAND
366
##itization
PROPERTIES
LIMITATION
versa
embodies
essential
EQUITY
invoiced
400
sick
target
##UDIC
##jects
##ero
##utations
##endum
advan
Enter
presentation
PRIOR
telephonic
holidays
So
dental
pension
size
##cor
##will
##CO
##ble
sure
hazard
##uston
Leaseback
recourse
Holding
Membership
Additionally
Alternate
endorsement
##lined
surrendered
compensate
acknowledgment
ambiguity
Qualified
describing
Houston
Bond
Estate
KIND
OB
##15
##din
##pul
sharing
These
Execution
disreg
terminations
Prof
##ATERAL
##vided
PART
Noteholders
accountant
acquisitions
independ
unrelated
Independent
guarantees
types
substituted
fulfilled
facilitate
RELATIONSHIP
RULES
air
criteria
emp
million
tif
##AG
respond
defects
EXIS
supplemental
administrator
prospectus
detailed
valuable
Trademarks
Sheet
bonuses
COLLATERAL
derogatory
Can
UK
Ver
hire
lod
##30
##PM
thereupon
disabled
affirm
##AWARE
Indemnity
qualifications
suspended
Depositor
DELAWARE
Georg
Energy
independently
Georgia
300
Ari
Wash
bi
bur
##lay
##inder
##ayer
##stone
##antage
##tel
dish
References
interruption
entitlement
CONSU
REM
##apter
disputed
Ordin
completely
indefeas
stricken
##ypot
excepted
possesses
various
EMPLOYEE
412
INDUCEMENT
Ordinary
FCP
gra
hypot
##da
##au
##arb
writs
INS
abatement
Liquid
Restructuring
Tenn
Consents
Consideration
annualized
controls
installment
example
1986
phrase
grounds
INDEMNIFIED
geographic
Green
FCPA
hypothec
PL
Rating
##amental
##mat
##ERS
##port
Appro
Authorized
1402
funded
##enging
Extensions
challenging
preservation
preparing
compelled
Tennessee
Bi
CB
ED
SN
our
usual
world
##LT
##lf
##JECTION
##entures
conjun
##igan
Park
states
transition
##orship
consummating
saleable
406
Licenses
sufficiently
Fundamental
Significant
INTERN
stipul
plead
##ridge
Washington
Age
DO
DES
PO
TER
doc
late
##edic
##ans
##suant
premises
Produ
Resolution
refunded
Disabilities
discuss
Orders
RELEASED
##udget
Pursuant
Hedge
accomplish
webs
Hold
LP
client
hinder
##ins
prob
##icing
depend
safe
attend
severed
upd
legate
minim
unreasonable
usage
Americans
rather
mediation
physic
elimination
Availability
adopt
extra
conjunction
Voting
cri
##zz
##orti
##ishes
novation
goodwill
Issuance
processes
corruption
delegation
##IDITY
bonds
himself
##ordinary
boards
##ESSORS
Supplemental
prosec
Flood
observe
MATTERS
SECURED
Postal
4975
Addendum
Michigan
Dealer
EXISTING
37
Dri
Fam
clar
##LIG
##mark
##HI
sublease
renewals
Discrimination
Corrupt
counterclaims
SPEC
Instruments
Underwritten
NEGLIG
INTERNAL
Family
OW
##net
##ross
inclusive
##arded
Creditors
issuances
##ATOR
desires
describe
contractor
succession
Governors
generated
Express
increasing
MAK
##ealable
scan
Designation
Month
derived
ISSUER
Charges
utilized
opening
LTIP
OBJECTION
Be
Cal
Custodian
age
met
tear
##oted
reaff
department
##acks
##ago
signatory
##lessee
transferor
##EMENTS
advantage
001
##elfare
Comply
debtor
Institution
inducements
Associate
##etitive
##idav
bringing
##employment
summons
Deferred
WARRAN
Redemption
advanced
surety
doctr
Full
LOC
Secur
Te
average
mess
san
wear
##10
##ITHER
##xim
##VED
##ectives
##icago
consisting
##ffected
##iree
##ENE
##ENSE
INTEN
insolvent
approxim
supporting
procedure
Acquiree
fourth
##rorism
Advisory
territory
Acceptance
punitive
swap
FICA
Up
ix
##13
##LESS
exha
##tri
computations
define
Goals
exclude
contact
deleted
Supply
Supplier
guaranteed
Percentages
FINRA
dishonor
Approved
extraordinary
FL
JV
Omn
aid
##IB
##ification
##40
##anel
intentions
##acting
##dily
##using
notifies
assurance
Provided
became
accrual
effort
IRS
capacities
ADEA
telex
testi
phrases
##zona
Arizona
Qu
##eer
##tieth
acted
explicit
servic
##ANC
nonapp
##ffici
Chapter
Managers
Operator
1000
212
professionals
combined
exceptions
Retention
encumber
ASSER
misappropriation
comprising
Headings
Survival
experience
Sixth
AFFILIATES
VALIDITY
legislation
INTENTIONALLY
nonappealable
48
77
Ell
FIL
GP
HOL
Wil
##oking
##cumbered
##IE
##SR
##SC
##essation
stating
##ofar
##uality
##ibus
participated
Chicago
continuously
EXP
selling
Commissioners
identifies
advancement
suspected
bills
ambiguities
looking
discontinu
image
verbal
adequately
Counterparty
DELIVERED
GRANTOR
INVOL
disregarded
Versu
##fficiency
Foun
IF
Jo
Mer
Rock
dies
vend
##iries
##OT
##ky
##99
##gree
##iggy
##olver
entries
##paragraph
preven
Condition
abide
audits
THEREIN
Owned
impairment
SUBSEQU
institute
##raft
telegram
inquiries
merge
primarily
NEGLIGENCE
SUBSEQUENT
GSO
JPM
Main
Top
auth
mental
##ones
thousand
reti
##aining
##anta
##ounded
reasons
##TIT
cho
certifying
successful
101
Defin
##unicip
publicity
SUCC
affidav
enterpr
reducing
postpon
asserting
PROCEEDINGS
Seventh
ADD
telecopied
Commerce
initiate
1974
Controlled
Frank
##VENIENT
doctrine
Omnibus
##unicipal
62
Ta
municipal
solvent
##ixt
##pe
##urisdic
##lients
ascertain
unit
Provision
##bery
insofar
Unre
nonpayment
2012
COP
conducting
ACT
reimbursements
Forbearance
diffic
Expense
allowance
##echan
Contributor
valued
discovered
embody
OPP
experts
Securitization
sanctions
FI
PF
Put
##rodu
##alloc
##ulted
##acity
##olutions
transferees
reprodu
##izes
causing
commences
instruct
##atories
End
Releasing
licens
ends
Therefore
##SUANT
promissory
DEAC
bearing
purporting
survival
Item
##atisfied
PURCH
PURSUANT
Deferral
places
Ground
compromise
Road
MODI
probable
##iggyback
##urisdiction
difficult
Bloc
Eigh
MAIL
Rod
Royalty
mere
mechan
##way
##incial
##atch
##idents
sublet
Stand
reported
invol
defect
INCON
chosen
Enforce
certifications
refused
subscription
effects
Manufact
banks
Request
Trade
##RESS
##seeable
tenants
telef
undertaken
intentional
Money
levy
incurrence
