[PAD]
[UNK]
[CLS]
[SEP]
[MASK]
!
#
$
%
&
(
)
*
+
,
-
.
/
0
1
2
3
4
5
6
7
8
9
:
;
=
?
@
[
\
]
_
`
a
b
c
d
e
f
g
h
i
j
k
l
m
n
o
p
q
r
s
t
u
v
w
x
y
z
{
|
}
~
§
®
°
±
·
¼
½
¾
×
à
á
å
ç
è
é
í
ï
ø
ü
˜
̂
α
β
γ
δ
ε
η
θ
κ
λ
μ
ν
ξ
π
ρ
σ
τ
φ
ψ
ω
–
—
‘
’
“
”
•
′
″
™
⅓
⅛
→
∂
∇
∑
−
∩
≠
≡
≤
≦
≧
⊕
⊖
└
┘
═
□
##d
##r
##c
##y
##l
##a
##t
##b
##e
##i
##v
##u
##p
##s
##o
##n
##z
##m
##w
##f
##k
##h
##g
##7
##0
##x
##2
##9
##q
##j
##3
##1
##8
##5
##β
##4
##6
##è
##é
##μ
##λ
##ρ
##α
##π
##σ
##−
##φ
##≦
##≧
##δ
##í
##ü
##×
##ï
##θ
##ω
##±
##ç
##γ
##he
the
##in
##on
##er
##at
##ing
##ed
##or
##en
##es
an
in
##al
##ti
of
##ro
##ec
and
##ic
##it
to
##an
##re
##ar
##st
##et
##ent
##le
##ac
##tion
##ion
co
for
##el
con
##id
is
##ur
##is
##mp
##ation
##ly
##as
##em
##ir
##ect
pro
##ut
##ig
th
##od
##uc
##os
on
##ul
##ith
st
##ve
##ol
with
##ag
##ab
##ter
or
##us
##ess
##pp
comp
##lu
be
re
##ot
##ay
##il
##ow
##am
de
##un
cont
as
su
##hic
##ate
##ment
by
inc
at
en
are
##rom
##tic
pr
##ain
##ce
##ad
ac
tr
##ond
##ver
dis
from
whic
which
us
##lud
##ure
al
##oc
met
##able
##ated
includ
##ap
sec
##ans
ex
##vid
that
##ity
pl
##im
##ally
op
##ving
##age
##ri
sy
##vic
##her
##ign
##ating
##qu
provid
fir
##ition
res
ch
first
devic
##ber
le
meth
##if
whe
##ting
##stem
ad
one
system
method
sp
el
app
##um
rec
##ens
mo
##igh
trans
##ace
##ast
##ist
second
sign
device
##iz
##ach
ha
##om
##fer
##for
un
##ch
int
##ven
par
##cess
##ide
signal
##duc
##rol
form
##ine
##ts
##ted
##ater
includes
elect
control
sub
##ding
##etw
##pl
out
##erm
se
mem
compr
dat
##ous
inter
##ric
##ers
##ection
##osition
##form
having
##low
##ected
sh
can
sur
data
##vel
ar
##ial
det
##rou
so
por
com
##tive
##ang
##vention
##all
##irc
##ase
##ip
compris
##osed
##ther
conn
##ack
there
ass
##ati
least
surf
each
process
circ
##ates
invention
supp
##put
##ight
##ard
##een
##etween
suc
rece
##and
##uit
rel
##ication
he
between
##lement
pre
me
oper
str
sa
##der
may
##ator
po
##ermin
cl
into
position
##ower
##ock
##ural
##ener
such
##esent
##uct
##gh
provided
circuit
##yl
##atus
mod
surface
has
##cl
portion
##act
##str
recei
##ell
member
##ib
##ance
per
##th
where
appar
apparatus
##ore
val
im
##ff
lay
gener
##ular
end
##rough
##und
element
##ant
plural
imp
fi
##op
##ass
ph
##se
##og
##aterial
material
##ement
##ved
plurality
sel
produc
through
##ram
comm
ab
car
unit
contain
fil
##ub
##ary
em
des
acc
##de
##uring
##out
ext
##ence
present
##ong
rot
when
di
resp
##arg
layer
##ak
tw
##eed
##ust
reg
##ron
##tical
two
##ical
other
##end
tim
te
cor
suppor
##par
##enti
##ork
sc
##ech
##emb
dir
##formation
rem
discl
ins
transm
use
sens
up
man
cap
light
assemb
vol
##ue
##ecting
power
flu
ob
##ry
##enc
##ured
##so
##ient
dri
information
press
bl
##ves
output
stor
this
also
ser
arr
##mpl
dif
used
##ody
##ector
conf
said
appl
adj
including
li
##ile
struct
electric
##ft
##ied
it
##ased
controll
displ
comprises
##ative
moun
body
wherein
cur
being
loc
##tain
means
##hed
fl
##ations
disclosed
within
over
##ari
eng
##dition
sw
##ized
more
electro
mul
pat
sol
partic
red
fre
##tern
##vely
config
time
##agn
image
assembly
high
commun
sl
##ents
disp
compon
##ra
comprising
open
differ
eff
##les
att
##ep
connected
side
flow
##ies
multi
col
##ual
air
##ill
using
ind
cou
user
##ors
am
pi
##edi
fluid
hy
##ann
##ory
##res
poly
formed
display
def
no
##ably
reduc
coupl
substr
##iss
lo
input
pressure
volt
##echan
rad
set
sour
ret
hous
##ature
##ective
ag
vari
ca
dist
cell
##ound
##unc
allow
fram
emb
gas
##ner
rep
##rib
##ency
mechan
##est
bot
##per
swit
hol
##ically
ne
##eld
provides
br
##ite
curr
##amp
prot
voltage
housing
##ward
base
##one
wh
##ange
##unction
##ible
##ject
we
substrate
structure
fur
##ures
##ments
tub
remo
##ermined
##ording
##ane
water
line
current
arrang
communication
##iti
meas
she
comb
section
ve
##let
##hes
based
##ism
##eng
optical
main
##odi
temp
source
ax
conduc
comput
support
##amber
mov
pass
signals
##yp
##etwork
##roup
hyd
##gr
group
transmit
network
lin
memory
its
chamber
frame
vehic
##ud
exp
##int
wa
requ
##anti
##ail
##ind
id
not
##til
pred
bo
region
##ive
aut
tre
magn
##vent
##annel
##by
than
radi
during
##ages
further
##ire
embodi
impro
spec
typ
adjust
channel
##ior
switch
##ely
part
##ord
perform
##ge
##ility
operation
direction
##ros
wall
##ia
separ
liqu
num
##etic
##ose
dep
##ix
subst
##ution
temper
provide
vehicle
frequ
##lex
##ame
cons
##vity
liquid
##old
##of
##pper
valve
##ending
##oci
##air
gr
##ength
function
level
##ension
configured
associ
del
##ie
##ecti
then
##ph
pack
##ture
number
elements
mechanism
plate
mounted
relates
dr
lower
##ade
##ys
receiving
##pond
step
ref
##action
contact
metal
respon
##own
processing
act
dec
different
mon
##ump
hand
shap
sem
opening
cent
##ress
##ined
##otor
##ission
methods
adap
corres
sensor
particular
correspond
access
termin
resul
filter
inte
##anc
temperature
mic
##arge
providing
frequency
composition
value
medi
electron
##ired
non
devices
selected
carri
ver
##erg
identi
##por
##itor
##acter
##oun
all
heat
disposed
head
coupled
fo
application
39
cover
pul
object
##ling
substanti
low
containing
while
area
predet
do
##ule
dig
associated
storage
component
condition
load
##eter
predetermined
motor
forming
computer
##tim
without
seal
ho
lock
prefer
conver
##round
##onduct
electrical
path
have
##val
sha
##izing
equ
hydro
semic
compound
##ets
incre
##que
##ick
##onductor
qu
include
bi
##ectively
##aced
##ination
char
multip
integr
outer
##aces
identif
block
##ization
thereby
mix
##ream
add
specif
semiconductor
##ring
feed
compar
ther
digit
back
gu
##ox
rol
##ying
##up
##uf
determin
electrode
##ulation
type
pair
ed
ox
##ize
substantially
##ene
##inal
##struc
thereof
coll
mat
character
about
supply
fix
##ode
terminal
corresponding
pan
cat
##ke
##aging
along
according
anal
perm
read
inser
film
##lum
addition
autom
##gram
connection
drive
##fter
work
##ross
##ier
##mer
thre
actu
##other
##bon
cyl
micro
ke
##xim
energ
mach
##ference
sm
##urn
##iver
##atic
program
transmission
under
shaft
digital
##ise
##ank
beam
state
relative
util
same
embodiment
transfer
arranged
movement
##are
caus
design
##ects
##ration
##ulating
##its
##gen
acti
cal
field
roll
panel
##ount
conc
electronic
pattern
top
tube
components
extend
##ake
upper
acid
long
desc
response
##ral
indic
upon
wire
any
##tit
another
##ached
well
container
axis
both
phase
pump
obtain
bar
inner
sim
order
after
speed
arm
cut
members
che
##mal
resist
intern
enc
down
##pt
alk
##ability
compress
##resent
magnetic
energy
represent
opp
prin
##to
min
##ten
##asing
prevent
sing
##ential
##icient
module
if
rele
rotation
fu
##osure
flex
##oss
bott
off
engine
link
adapted
es
inf
single
port
fuel
attached
inst
need
ampl
force
ang
##osite
disc
improved
ring
fac
cle
extending
##te
product
tool
##acent
##astic
capac
multiple
systems
interf
##ulated
##tr
##ously
adjacent
monitor
jo
##atter
##ues
##gan
##led
treat
fe
##mple
phot
##hing
##ove
##arm
fiber
mode
amount
via
operating
describ
servic
machine
##aring
##cc
lens
##way
cre
mess
##uration
bel
syn
sequ
##vo
##ides
##less
subs
length
generating
located
##sor
wheel
received
deliver
##ining
##iod
point
##ird
but
period
controller
ma
refl
these
##pend
##rop
##red
cool
##aking
##pping
log
##des
##ront
allows
made
##itting
##itive
polymer
maintain
bottom
applied
thus
medium
targ
##vot
array
pivot
ro
positioned
scre
##ness
space
cy
gate
ste
##ome
##ines
capable
pres
sheet
preferably
##atively
location
##iting
gro
lim
contin
connector
##olog
desired
steps
front
again
test
third
##ufact
##ium
gl
manufact
measure
##ether
##elect
vide
##uted
##istic
color
prepar
treatment
controlled
their
pol
proper
tra
ge
##alle
interface
##ood
conve
video
mounting
reference
portions
determining
param
##agement
target
pip
stream
er
##rip
fixed
shaped
conductive
##struction
##hen
parti
detection
##medi
stored
transist
carbon
occ
fol
cam
##inder
##ult
paralle
##ror
##roduc
station
pur
##oy
inde
surfaces
corr
calc
rate
edge
dim
key
##ece
##ither
##ilic
controlling
parallel
##echn
initi
described
##ug
##ark
##ful
##ins
distrib
cells
flexible
##ases
mob
range
band
##jection
extr
pati
disch
small
amplif
techn
enab
various
processor
arrangement
spring
##ently
attach
continu
against
##ces
##br
internal
##aining
##isting
##ware
##ching
free
either
prob
##ited
##osing
##ially
guide
recording
align
receiver
##con
##ok
mol
organ
respective
carrier
coun
like
activ
##electric
##rap
artic
detecting
##abric
exh
cer
only
gre
direct
cross
##ty
tog
minim
extern
receive
values
##itud
active
##tal
three
card
##ivid
transpor
##ision
generated
fabric
together
address
detector
cr
solution
altern
will
wind
##ately
switching
fast
anti
service
##velop
integrated
individ
##ice
coating
configuration
##ger
bearing
##ules
##ument
chang
mobile
##vir
bit
seg
sle
central
##io
longitud
##ulator
clean
sample
las
producing
server
patient
##ily
##lying
content
modif
call
wave
code
eas
bus
lead
prim
##acting
outlet
characteristic
batter
vis
ach
change
board
compounds
##amic
supporting
achie
##ities
plu
##hy
##vol
est
been
soft
pist
##ere
##na
connecting
solid
##ask
core
##ula
play
coupling
dimension
manner
cry
new
radiation
result
cavity
##ety
particularly
##tor
##inding
less
rod
slot
size
prior
driving
laser
conditions
track
volum
weight
der
##aps
rear
##fore
heating
piston
hor
external
movable
dy
electrically
##ges
coil
mold
##over
##vi
chip
##ering
seat
cond
suit
tank
stand
selectively
follow
reduced
enh
slid
##ape
##omer
clock
useful
##actor
##viron
environ
cylinder
##xel
materials
cable
##xt
agent
##ort
determined
web
absor
##fficient
combination
embodiments
lif
vertical
##ograp
pixel
measuring
prec
##atically
sk
##atures
##eve
##resh
deri
##zz
flo
##sc
onto
lines
oil
defined
##ale
##tically
empl
##av
poss
toward
above
message
bond
inlet
10
locking
produce
battery
prop
adv
generally
phys
##aw
alkyl
##ties
ion
plan
layers
install
##idth
generator
specific
kn
remot
med
##amin
implement
clamp
##iew
lat
star
##ush
##izes
individual
opposite
##our
spaced
repl
##raw
handle
##pped
occur
wr
##ample
shel
actuator
ball
example
around
cylind
##rel
exec
hal
center
angle
fr
##itu
##ensity
##urb
pot
closed
respect
therein
bu
regist
concent
silic
moving
suitable
##usion
parts
common
reducing
variable
volume
passage
transistor
facil
##ique
stack
elong
formula
dispens
units
face
wireless
transmitting
##ually
diam
performance
compositions
induc
##eters
nozz
shape
si
et
cutting
nor
##cle
inside
item
primary
tiss
convey
sleeve
storing
mark
##ning
##aly
develop
##ipher
##ute
particles
mixture
logic
turn
motion
##izon
ends
horizon
communic
rotor
shif
##rical
generate
disk
environment
##ink
bas
chem
intermedi
##wardly
pad
##active
aud
pers
##eth
plat
series
interior
optim
##sequ
aper
anten
##ob
orient
##imin
peripher
loop
sal
ann
##vers
holding
media
monitoring
hard
tes
encl
receives
allowing
longitudinal
##oses
##omm
cryst
facilit
##acement
##ulate
exch
automatically
plug
doc
##ption
adhes
therm
##lumin
pipe
discharge
reaction
pulse
##ced
tele
distance
way
transmitted
case
rati
images
pin
##bo
##chron
node
vir
##acing
##aged
depos
il
asp
applying
blade
novel
independ
rout
electrodes
effective
placed
produced
cooling
tissue
thick
##aper
gear
hum
view
##ield
stage
##ermine
##apor
##conn
hole
maxim
hig
move
rotat
effect
combus
removed
delay
equip
some
was
introduc
determine
plane
interconn
roller
sus
##acts
sampl
door
additional
##iring
##entially
cataly
ground
later
post
hydrogen
sequence
screen
amplifier
sho
resin
carry
request
##ches
bre
##side
uses
radio
four
##pi
poin
##ole
record
separate
##ath
suppl
obtained
enhanc
convention
equipment
##acu
tor
dyn
remote
detected
sensing
wafer
making
##row
incor
manufacturing
turb
rotating
analy
related
combustion
directed
substit
measurement
whether
##essel
sealing
vessel
fin
ful
proxim
respectively
impl
ratio
thresh
encod
complet
accord
##idge
sections
inh
orig
charg
threshold
qual
person
here
positions
osc
##ler
oscill
saf
thread
delivery
accordance
across
plastic
option
equal
exha
gi
##ck
##cop
##lis
##verse
antenna
conventional
reduce
parameters
leg
box
oxide
designed
nec
buil
incorpor
exhaust
resistance
subsequ
products
channels
counter
software
cust
imaging
audio
thin
dielectric
real
divid
transport
##uld
##abil
extends
bec
##vents
simult
synchron
simultane
##gre
prof
strip
resulting
applications
programm
##sion
##stream
membr
model
cylindrical
table
pharm
atom
rest
circuitry
##romagn
glass
error
secured
organic
av
them
appro
removing
##phone
drain
presence
##ici
release
intermediate
large
outside
production
recept
return
tubular
nozzle
possible
required
ul
##ants
whereby
contains
hydra
adjustable
respons
thermal
exc
nit
run
##back
greater
cleaning
##ched
##ma
hold
rig
colum
driven
communications
spect
command
holder
isol
charge
client
rail
const
properties
super
characteristics
fa
##ablis
compens
window
##co
flat
setting
horizontal
elimin
column
walls
belt
continuous
accur
scann
linear
draw
cost
supported
camer
higher
circuits
chemical
zone
datab
groups
preferred
##cept
##aceu
increase
mechanical
hydraul
self
quanti
attachment
avail
fluor
sides
remov
polar
distribution
##ters
##rix
subject
defining
cop
mass
##ash
matrix
wavel
establis
inhib
##aste
##eler
##use
recess
efficient
inserted
printing
resour
quality
reser
##ibr
vacu
retain
##oid
##ening
##raft
easily
vacuum
##alk
regions
##acted
engagement
pharmaceu
structures
noise
##uffer
standard
##uck
##ogen
ink
secondary
prote
packet
herein
##romagnetic
instr
composite
near
##odes
before
##oth
drill
piece
buffer
width
instruction
initial
shell
diameter
aff
##tif
##itted
analog
rotary
insulating
sensors
thickness
rigid
pe
measured
cycl
sufficient
secure
physical
tip
distal
platform
adm
##void
plates
emitting
performed
camera
refr
##ific
diff
adhesive
mir
consisting
features
performing
synt
silicon
due
they
processes
##oxy
check
mask
##cent
treating
sat
##00
##ulf
controls
event
##piece
membrane
##riction
management
##ax
##ists
dem
capacitor
virt
given
wavelength
34
##oly
##uble
oxy
sever
results
database
ir
injection
##ibration
file
local
overl
puls
##osph
##ugh
spr
difference
retr
package
##acket
relatively
segment
avoid
##ographic
document
hydraulic
following
##jected
forward
crystal
##set
##ysis
directly
hollow
enables
constant
pos
estim
foc
##vision
activity
catalyst
removal
partially
rf
##hip
bag
certain
formation
analyz
bro
nan
available
selection
adjustment
##ances
increased
invol
action
reson
transform
accomm
preventing
absorb
maximum
accommod
hing
forms
##orm
##art
thereon
##ification
lamp
##ble
working
##rup
short
positioning
blood
levels
deriv
oxygen
##erc
carried
automatic
##tures
enable
tun
imm
potential
##board
simultaneously
lum
##ost
##oad
ray
##ilar
##ocket
decre
travel
points
operations
functional
anch
driver
torque
place
interp
class
##ave
##jecting
##etric
parameter
molec
elongated
##car
##hem
recover
brake
adjusting
functions
below
conduit
dynamic
operable
magnet
cause
limit
normal
##iciency
winding
converter
##hyd
panels
##az
##ings
enter
extension
defl
axial
dimensional
away
separated
even
blocks
pow
##ires
acceler
conductor
##ological
article
aperture
require
portable
conveyor
##iqu
engage
screw
##oyed
turbine
paper
##ded
construc
areas
food
identification
alignment
mirror
transduc
canc
contacts
##ified
reduction
##lock
cycle
insertion
medical
carrying
casing
sin
similar
changes
aspect
human
those
purp
stop
differential
objects
edges
operator
combined
barri
density
row
print
repe
advant
original
spray
hel
##ocol
grap
utilizing
joint
dise
protection
vapor
##lation
until
comprise
peripheral
construction
degre
##akes
anchor
grow
implant
upd
ear
users
##iform
analysis
ligh
moved
##ences
feedback
probe
does
retri
needle
admin
metall
signific
electromagnetic
relations
testing
substituted
administ
dc
##mos
stabil
chain
strength
neg
lab
waste
register
supplied
vary
##urity
contained
engaging
reques
word
##onic
##anding
transpar
terminals
mel
tension
proced
##ylene
generates
efficiency
compression
uniform
depend
telephone
responsive
fer
solvent
instrument
##lor
enti
lever
transmitter
protocol
bore
##ne
complex
acqu
sym
extended
##voir
##ropri
achieved
reservoir
significant
cab
held
##omp
included
expand
mixing
cathe
capacit
preparation
modified
##ton
##wise
##ging
thereto
exposed
##itude
barrier
fold
operated
printed
rotatable
virtual
tape
spe
decod
##ared
resil
##part
items
friction
##ucle
rein
##ceed
dispers
agents
##ression
appropri
phosph
##ology
##ished
select
oxid
annular
bal
success
##oper
correction
gap
plas
dry
selecting
diss
modules
passing
segments
floor
relationship
tab
disclosure
host
compart
fibers
positive
##table
##pro
##inc
connect
recip
receptac
spl
detect
dam
##unding
site
##eces
compared
optionally
preparing
emplo
##gn
trig
alumin
##uting
##uch
necess
reinfor
damp
rap
groove
profile
lid
##rete
elastic
fire
rapid
##izer
sear
previ
focus
projection
assign
variety
identifying
##oxide
articles
transparent
maintaining
resid
accum
reproduc
permit
enabling
game
sulf
vector
characterized
activated
susp
several
led
##pec
##ention
slide
guid
latch
resilient
vo
supplying
##ms
##ish
height
openings
permits
arms
timing
sources
catheter
interval
adjusted
separation
very
##ender
among
##queous
lateral
rib
bracket
airc
hot
##terior
ent
caused
index
concentration
safety
##read
##ishing
make
sn
##ones
locations
quick
causes
rotational
basis
reli
times
holes
cartr
wear
espec
existing
alloc
especially
gain
workpiece
accept
security
protr
create
skin
entire
bed
##load
transaction
unique
close
##ogn
retaining
aircraft
##ym
processed
aqueous
separating
conversion
independently
arc
protective
foot
hook
broad
powder
bur
##gor
predic
##aster
blad
compressed
ris
##arn
recogn
format
##ators
added
technique
pharmaceutical
bits
##head
store
receptacle
tel
total
sound
reduces
known
apart
##ern
ra
situ
wide
##zo
forces
circum
offset
feature
planar
##tivity
depl
diagn
remain
increasing
ev
infl
visual
condens
sliding
subsequent
constructed
nucle
##ret
structural
sheets
##valu
limited
proble
customer
scanning
hub
anim
exhib
exchang
lamin
engaged
amin
displayed
generation
authen
simple
exchange
surro
general
discharg
enclosure
negative
##lev
##ili
radially
drum
hydrox
clamping
authentic
bene
inver
##elding
photo
good
larg
cooper
utilized
retrie
evalu
feeding
utilizes
facilitate
appropriate
trigger
dom
phen
salt
plasma
vent
##go
interrup
effects
define
determines
steering
dispensing
shift
building
##iques
transducer
surrounding
blow
covering
represents
messages
techniques
##yr
tray
carb
ep
##hor
##gu
ens
##carbon
loss
indicating
smaller
##line
##verage
prevents
slots
enhanced
elev
interference
##andom
write
##ycl
##ser
outputs
protein
cartridge
dop
beh
frames
removable
ey
stim
shut
applic
displaying
tag
most
pulses
pick
heated
cath
ur
##epti
expans
specifically
synthes
pic
transistors
converting
causing
necessary
fing
random
wiring
contr
supports
axially
types
drug
sealed
break
charging
clut
sensitive
embed
##utes
sto
sets
tempor
jaw
acous
##atives
constit
equi
beams
##iv
##asc
next
whose
operational
installed
bound
##itation
exterior
improve
stress
additionally
facing
aligned
wo
##ear
##acy
intensity
die
radial
perman
insert
independent
au
##enu
stable
creating
plant
moves
smo
continuously
voice
fit
status
spac
comprised
atoms
##iliary
##ession
presented
loading
varying
suspension
nut
##mers
coord
amb
exposure
specified
ceramic
employed
advantage
bul
computing
installation
resol
closure
improving
vertically
changing
oscillator
##ulates
animal
fem
##jector
##itter
coated
heater
comparing
patterns
drop
##icular
contacting
therefore
correl
pivotally
bonding
aux
bone
clu
list
pay
##ison
shield
text
paths
molded
compartment
expansion
##encies
ultr
##anes
coe
stator
illumin
approxim
label
auxiliary
##lies
##from
##ites
##aph
operate
perpend
sched
consum
reading
downstream
perpendicular
deform
securing
exceed
therefrom
tubes
obtaining
manufacture
achieve
hardware
nodes
pen
circular
##ications
orientation
diagnos
domain
gri
nat
##ompl
##ather
##roc
prom
##ament
trail
##ffic
dest
##arily
ess
steam
##apeu
oriented
arch
able
flange
multipl
traffic
mus
relation
packets
##onal
displacement
substrates
wheels
easy
deposited
nitro
##ef
conj
proximal
metallic
factor
##ery
emission
scan
player
thermo
larger
ultras
vel
##sh
##iter
reactor
multiplex
threaded
derivatives
aluminum
clip
double
##tis
compact
##ended
pressur
conducting
molding
growth
##process
amino
lub
socket
til
remaining
pieces
yield
##sp
##gical
##oming
imped
remove
recon
electroly
defines
pairs
representing
subsc
aid
produces
therapeu
pixels
implemented
degree
cathode
##ively
##hol
##aches
alarm
grid
tracking
lubric
##ough
##here
detach
highly
depth
depending
partial
12
rack
##ilu
algor
modulation
switches
distributed
full
irr
algorith
failu
purpose
failure
20
bor
tow
rotated
mount
derived
hinge
manip
solder
treated
printer
coordin
veloc
leak
transition
rotate
##wall
##ised
thereb
accompl
assemblies
flowing
consists
partition
lighting
##dle
##bol
##hetic
transverse
suction
gases
conduct
substance
handling
maintained
resources
tight
##angular
special
compressor
procedure
found
##ps
##inary
##arrow
##odies
half
resource
acoustic
##ause
##organ
##arding
##atile
filled
chambers
##oxyl
capacity
graphic
clutch
vibration
once
adding
string
containers
particle
actual
calculating
minimum
sized
##uments
##ened
communicating
cup
##flow
##vement
modular
selective
identified
infr
quantity
embedded
fitting
send
##elf
##asting
hydrocarbon
instructions
acceptable
##uth
excess
detects
services
prepared
life
therebetween
aer
page
discloses
reflected
groo
stationary
recorded
eye
coefficient
bol
vers
vibr
##nel
##inally
chlor
closing
##ibility
amplitude
ambient
##mon
solar
start
dual
lip
##width
stem
spread
seed
integral
microprocess
divided
##mosp
picture
##ered
stri
##romatic
operates
abs
ability
otherwise
pie
grad
identifier
internet
towards
periphery
samples
eth
train
assist
deposition
rollers
opposing
complete
personal
gol
jet
##ert
impact
locked
releas
elongate
sampling
##olymer
fan
junction
pain
composed
surgical
##through
adapter
keep
would
how
##rors
contamin
##cep
cann
filling
velocity
fed
##lic
incl
atmosp
stra
furn
connections
created
lift
rotatably
##ising
uns
ports
cancer
sti
yarn
##ich
##osens
##umption
collection
because
programmable
##alkyl
involves
blades
mut
ow
orth
moist
relay
itself
loaded
bias
comparison
resistant
reciproc
essentially
heter
##itch
##atory
##portion
starting
fully
custom
impedance
piezo
ign
lea
effectively
temperatures
##lumination
illumination
symbol
narrow
session
term
##ming
stability
interest
angular
occup
bandwidth
fourth
##ero
##ild
##rif
valves
teeth
indication
matching
subsequently
gra
push
rub
##ged
##enz
stores
since
grooves
art
particulate
configur
foam
measurements
drilling
bet
sand
##cing
##tle
contents
##omes
##plastic
tubing
indicative
encry
steel
concentr
straight
##etry
reset
operatively
##oph
liner
improvement
typically
clear
calculated
encoding
##pass
##zing
##riber
clos
filtering
indicator
entry
subscriber
##band
##ench
proportion
##iger
alter
correct
search
mid
operative
refriger
pc
##adi
scale
capt
permanent
##jor
sum
therethrough
abut
insp
major
natural
##more
##icy
##ocy
diode
powered
curved
tree
increases
reflector
restric
pins
copper
##isf
author
furthermore
actuated
resistor
joined
introduced
running
affix
pressurized
therapeutic
task
##iers
coax
modes
directions
alkal
conveying
take
account
##aken
attrib
packaging
damage
rect
##ident
optic
interfer
##aker
bridge
consumption
basic
inhibit
requirements
fus
final
##pr
##king
insulation
##grad
requiring
converted
transferred
discon
reflective
polymeric
previously
broadc
resolution
cri
har
##atable
##ache
##ometer
dioxide
capability
assembled
identify
fixing
bonded
occurs
faces
mes
##ester
##ette
surround
porous
overall
##till
capacitance
phosphor
wound
zero
##rum
conductivity
calibration
destination
microprocessor
##amination
left
interaction
inputs
cellular
vehicles
frequencies
alloy
transferring
replacement
recovery
evapor
##acti
chrom
##ifying
engages
##anced
represented
wavegu
dispenser
apertures
master
##ex
stations
immedi
biological
property
longitudinally
etching
stud
transl
modulated
upstream
sidewall
actuating
opposed
geom
removably
##tes
constr
expl
concern
alternatively
leading
legs
cass
tire
##with
methyl
transce
schem
passes
floating
authentication
pus
##ride
##anted
placing
##ights
sense
##valent
determination
perme
delivering
priority
##cohol
ton
##ons
conven
str1
variations
##roscop
antib
makes
pepti
aryl
##gress
writing
simpl
norm
pads
disease
speech
exchanger
spacer
average
la
##iance
##lyc
reception
heart
photosens
button
quickly
female
##ders
##iness
cold
connectors
ester
ult
approximately
nitrogen
gun
interlock
many
barrel
released
##ography
dependent
fine
alcohol
spo
##ensive
valid
fastening
requests
circumfer
##atch
intended
pole
fluids
consist
concrete
representation
execution
archit
accomplished
normally
vi
##ever
##orph
##anch
##static
##ots
##ope
blank
braking
collecting
linked
rob
##ription
attaching
immun
dro
right
taken
##rag
##aling
revers
fill
regulator
neut
mixed
salts
routing
dial
que
##empl
stro
passed
coolant
molecular
conductors
golf
fail
weld
##inyl
offer
##ider
templ
count
leads
interconnected
piezoelectric
rectangular
sending
envelop
exit
intake
perfor
diaph
outputting
filters
##ways
compensation
fluores
##hydro
finger
moisture
rubber
transceiver
15
##zed
inters
respond
acids
introducing
peak
assigned
thermoplastic
architect
diaphrag
fat
sent
elast
outwardly
shock
suppress
transmits
instant
sequentially
technology
fastener
fraction
suspend
squ
##ster
apply
algorithm
events
iron
##atial
##ager
heav
attenu
permitting
automated
monitored
encoded
ultra
##icial
cook
##ulsion
therewith
emitted
pull
encaps
##brid
lifting
employing
binding
##ee
##anges
recognition
fib
tum
##arp
##luor
bypass
flows
ions
halogen
crystall
neck
earth
fact
projecting
strain
linkage
roof
etc
##ethyl
accuracy
diseases
##zym
codes
adver
cord
opened
ammon
blocking
fixture
activation
plun
incorporated
satisf
doped
cache
hybrid
keys
rails
accurate
absorbing
diaphragm
ped
welding
##tile
states
spin
obser
displays
mechanically
integer
##ounts
enhance
propell
depositing
bow
ic
map
pil
stret
tri
capture
flux
drives
performs
biom
room
fabricating
transformer
successive
benef
irradi
mac
##yn
##bal
##ulations
compati
training
cho
spatial
files
combin
tools
programming
isolation
establish
significantly
diagnostic
still
##after
##po
reverse
##amine
##ung
exerc
subjected
saw
manually
folded
render
touch
trad
connects
alternating
acceleration
mam
enzym
swing
switched
extraction
toner
refer
##rial
mouth
shi
pressing
voltages
identity
transporting
accommodate
wires
##als
tooth
manual
combining
readily
needed
logical
propag
employs
equipped
affixed
gel
gam
##hole
##onduc
adsor
appear
emitter
overla
cabin
electrolyte
bacter
ii
sensiti
shoe
##ascular
suspended
cush
mand
male
reacting
incoming
diseng
corros
slur
matter
absorption
infrared
plunger
cushion
duct
grip
taper
wet
anode
##rem
##imeter
flash
iden
covers
coils
completely
isolated
discharging
fash
##ude
##rot
child
spacing
extrem
variation
inserting
folding
addresses
visc
penet
fashion
gar
##ense
signature
insulator
slip
accordingly
actuation
links
rings
minimize
visible
communicate
facilitates
efficiently
repeated
wra
##water
##orting
##asive
prost
adher
phone
retention
repair
networks
alternate
thermally
spectrum
elastomer
mammal
30
lang
sink
##draw
iss
strap
brush
predef
substantial
analyzing
phenyl
50
aromatic
binary
cred
mill
##tally
##escop
withdraw
##herical
thereafter
relie
caps
collar
fields
indicates
indicia
join
medic
deflection
cassette
convenient
mating
stent
stages
static
orif
##ellent
manif
serial
biasing
errors
alternative
100
induced
dynam
safe
guiding
bulk
ultrasonic
releasably
orifice
hang
##amm
relating
pumping
sequences
dimensions
laterally
pharmaceutically
damper
synthesis
better
scheme
fall
ip
##ld
##link
chass
numer
grating
carriage
purch
frag
##neum
protrusion
telescop
promot
mandrel
predefined
chassis
mail
##ryl
##yond
##ental
beyond
##imen
preform
percent
hyper
distor
axle
covered
fabrication
documents
established
problem
problems
bodies
pneum
##osis
truck
emerg
corner
rolling
delivered
presc
washing
molecules
conjunction
identical
placement
serves
multic
branch
discrete
polarization
capacitors
balance
dissol
ensure
furnace
advertis
ice
##vation
##order
##anium
##oscop
modulator
##assemb
volatile
mechanisms
excellent
lumin
melt
smooth
gripping
##oxylic
template
18
taking
##aim
##eline
complement
polys
bars
waveform
stacked
etch
slurry
her
tit
##rate
coding
##ational
thr
##ulus
shared
pool
obj
polymers
great
supplies
synchronization
approach
eliminating
telec
waveguide
neutral
bump
reactive
show
soil
collaps
solids
incorporating
accurately
derivative
bolt
architecture
ga
gene
tail
##asp
##uture
exper
resis
notif
magnets
semi
risk
exceeds
own
broadcast
photosensitive
langu
pub
pitch
rates
##lay
##aff
##ats
##ables
regulating
directing
soluble
separator
corresponds
comparator
executing
television
viewing
drawing
synthetic
##bing
##eti
##edient
devi
##apy
scatter
collector
representative
##train
limiting
crank
commands
fault
diffusion
leakage
configurations
fitted
gen
rock
sil
fore
##ull
spind
dispos
##orders
gran
deck
##ancing
reader
slidably
shifting
charged
cables
rapidly
deploy
atmosphere
ignition
##exp
concerns
burn
duration
ether
##emp
##work
reag
##ands
photor
abr
bright
expression
boot
decision
collected
films
mapping
streams
business
cylinders
drawn
spool
lith
ter
toler
exempl
protecting
improves
query
keyboard
changed
becomes
refractive
lumen
rules
##bit
##uff
##wave
##herent
hair
particip
coup
reflecting
##greg
dispersion
version
disconn
critical
dynamically
distortion
rim
##arning
##urable
stat
reach
##iles
shown
flame
##ribed
criter
proximity
rows
drying
heavy
combinations
ingr
##iling
##aceable
shor
regard
regener
appliance
aggreg
care
sheath
extracting
copolymer
resonator
decoding
raised
trailer
ingredient
round
##ze
conform
##urated
provision
##osity
supplement
sensed
managing
electrostatic
amounts
decomp
##ressed
slider
sufficiently
schedul
inspection
immediately
envelope
thrust
dust
emp
wed
##icity
##actic
##irable
project
disorders
protect
individually
followed
moveable
retainer
proteins
bending
pocket
ram
##bin
##letion
react
provider
intr
subm
waves
numbers
machines
enabled
environmental
##ommun
administration
reliability
kit
wor
##ulder
trim
##omers
diver
controllable
mainten
bio
chips
nozzles
interconnection
should
shoulder
spectral
entering
hydroxy
manifold
maintenance
11
cd
hom
tet
ster
meter
outward
loads
integrally
match
fabricated
modifying
implementation
developing
eliminate
symm
previous
sulfur
behav
mer
mos
venti
yet
##bor
##sm
##fin
inv
##olar
acting
recycl
indust
##aneous
decor
accessible
shelf
development
retained
decoder
reliable
however
stiff
stroke
sensitivity
language
exemplary
cul
polyp
distinc
releasing
occurr
proximate
securely
decrease
degrees
telecommun
benz
glyc
sector
ta
##fts
##isition
stock
##ventive
claim
insulated
upwardly
##ancy
hydroph
influ
calculation
ballo
interconnect
dividing
purposes
administering
dissip
spindle
##ta
deformation
incident
entit
optically
translation
processors
heal
extract
precur
behind
applicable
bub
buck
go
last
py
##ley
##used
cand
specimen
utility
photoc
reflection
initially
resultant
developer
horizontally
polarity
retracted
accommodating
beneath
corrosion
tapered
##ground
##inity
##ano
##anol
restor
upward
cav
measures
book
grain
origin
immers
interposed
procedures
remains
sends
constrain
queue
25
dna
##rous
interactive
upr
electroc
indicate
job
##ethylene
resonance
hinged
oxidation
nucleic
evaluation
temporarily
bank
econ
latter
##bar
##upl
##ken
injected
##etary
cour
compl
intra
servo
protected
passageway
optimized
words
inverter
orthog
entity
econom
ap
hem
net
wood
inventive
acts
##rist
##ibly
radical
therapy
utilization
prevented
describes
proposed
remotely
developed
strips
interpol
updated
residual
health
oc
##ience
##uent
applies
weigh
exposing
biased
readable
microwave
molten
green
become
##oidal
shutter
dropl
##point
pig
tap
##ystem
ones
##ateg
##ries
rectif
filtered
carries
header
activating
minimal
dye
fract
optimal
holds
demod
retract
pneumatic
balloon
fund
gates
##igation
syring
signaling
assess
commerc
black
attr
sectional
cards
registration
concentric
programmed
paint
objective
nm
upl
##iac
##oti
degrad
spherical
perimeter
throughout
rotates
grinding
convert
cooled
polishing
rods
route
##abilities
acquisition
expanded
absence
robot
behavior
gase
mal
vit
var
##oalkyl
##nor
##ories
##reg
strong
##eller
division
amine
coupler
separately
longer
##ilicon
occurring
##versely
incorporates
split
damping
alkali
mesh
overlapping
gaseous
fet
##ext
progress
bead
exer
##fort
prep
mean
multimedi
##rest
party
additive
latching
executed
melting
guided
correlation
##ocyan
coaxial
multimedia
slow
tone
##aft
##enoid
beg
##elling
##ryst
magnitude
##ivers
cutter
bottle
##teb
joining
maintains
arrays
road
minimizing
playing
absorber
facilitating
inhibiting
estimated
reinforced
allocated
gravity
upright
cast
nick
ramp
##den
##tration
##fo
##gl
##urr
trench
tex
neu
whole
patterned
downward
periodically
turning
ribs
contrast
circumferential
aug
cp
dental
hose
raw
rather
were
##stit
reel
suited
undes
flight
directional
accessory
alkoxy
angles
communicates
establishing
focusing
ribbon
applicator
exercise
occurrence
candid
zones
spaces
##izable
intell
strut
##illary
discr
periods
fasten
##volution
columns
recipient
exhibit
takes
usage
interm
serving
calibr
correcting
##ugated
aligning
encoder
superc
compensating
eliminates
reinforcing
##organic
fluorescent
prescribed
binder
fuse
harm
lt
##be
##ks
spir
unlock
##ucture
serve
curv
gluc
humid
help
graph
deployed
advantageously
syringe
nickel
past
##cence
##ead
##esist
sharp
##iph
abnor
presentation
requires
princ
float
deposit
advantages
middle
industrial
abnormal
lic
pet
sizes
##uding
##idges
##urities
firing
phases
scr
branc
who
passive
grasp
accessing
conditioning
seals
designated
extracted
built
intervals
situated
boundary
gradient
polysilicon
bund
ol
uv
injecting
inorganic
##tible
##itten
##ises
##tered
context
pop
extent
overc
##isms
centrif
mixtures
crack
decreasing
deformable
curing
home
ole
##vant
##unch
##ify
##thal
selects
corn
flag
##hesis
lenses
springs
modification
marker
build
simultaneous
copy
##azine
connectable
accumulator
reproducing
burner
consumer
detachably
coordinate
cooking
precursor
ever
much
nam
sites
##word
reaches
debr
detail
##ipt
hex
##ogram
regarding
curve
subsystem
##avor
market
turned
aspects
##ogenic
speaker
compatible
credit
complementary
debris
bath
##mark
##we
priv
##ifier
emulsion
locating
hyp
allowed
passages
shapes
programs
movements
infection
precision
excitation
nitride
recesses
requested
expandable
discharged
square
couple
criteria
fif
hist
od
vic
##otive
##eral
##irection
lik
##ectivity
carriers
quad
lengths
physi
replaced
enclosed
records
enhancing
receptor
satell
avoiding
functionality
##shaft
tilt
graphical
##icycle
dil
wing
##aled
##itors
##entric
coded
enough
acet
univers
seating
cargo
##encing
microb
downwardly
finally
resonant
allocation
proportional
captured
factors
brightness
orthogonal
ded
stic
##fet
##ury
##osen
unc
sampled
costs
cannot
encryp
garment
cavities
40
jacket
##luent
prevention
colors
look
species
instance
pipes
alternately
catalytic
update
bill
ecc
pall
##get
##olet
contrib
interle
selector
diodes
attemp
boom
association
monitors
foil
pulling
mixer
description
patients
fastened
tracks
demand
elevated
elastomeric
distinct
jack
mot
must
put
##erior
toil
spot
moment
artif
saving
axes
electronically
periodic
pivoting
preset
manufactured
slidable
induction
tunnel
laminated
sandw
cabinet
emergency
##layer
bicycle
cement
dos
hier
mag
##uate
##etrical
sug
##och
unload
sole
receipt
layout
##rought
flip
solenoid
redund
radius
mono
adaptive
specification
facility
called
boards
introduction
completed
transactions
coefficients
viscosity
resistive
deployment
course
##stituted
hierar
bend
bra
lad
ps
##cement
##ampl
##esis
inwardly
##rob
beverage
contour
moreover
integration
smart
bands
calls
optimum
##going
stimulation
club
cluster
##activ
relief
photoresist
##rystall
every
bent
ble
den
sac
##icated
formulation
bring
##odium
depression
needs
sequential
presel
pipeline
externally
cardiac
transported
nanop
inflamm
schedule
inclined
titanium
deviation
wedge
toilet
brought
dose
nh
##bles
##wing
see
##ogene
filament
##ronic
passeng
boost
verification
implementing
profiles
scanner
checking
wavelengths
estimate
analyzed
tablet
jaws
symbols
encryption
closely
appearance
greatly
nav
##ipp
##orts
##tions
##othing
exist
interch
capabilities
metals
caller
environments
advanced
virus
returned
payment
explos
varied
universal
eccentric
ham
kind
pyr
##bag
##zone
##hest
##inning
##amide
transformation
##roll
##ipolar
throughput
expected
packages
converts
##ologically
detectors
##rown
exhibits
crystalline
60
ce
vinyl
##cd
##che
##ars
conical
##ided
##osit
firm
chuck
prem
perf
apparatuses
manager
capillary
movably
utilize
few
wash
stabilizing
retrieval
contaminants
geometry
interlocking
joints
public
fasteners
13
mis
yo
##light
##sis
injector
##standing
##iding
##ays
contamination
chair
##ife
unitary
dies
flanges
integrity
precise
tested
nano
##hemical
projections
##entioned
wearer
terms
capturing
pedal
preselected
fresh
tang
tend
##ian
##view
##tively
seam
circulation
impar
airflow
monomer
instead
root
properly
synchronous
anchoring
reciprocating
attribute
tumor
shielding
centrifug
zinc
##tin
##nas
could
##idirection
accep
restrain
unw
arri
modulating
emit
displaced
electroph
increment
guard
linking
preser
mobility
possess
loops
interconnecting
diffus
pickup
aeros
peptide
spiral
satellite
motors
fly
lig
mm
six
tong
##off
##xy
##els
##agon
entr
subtr
##ermost
meet
electricity
liquids
compares
microorgan
interfaces
creates
pivoted
convex
turns
screening
uniformly
snow
condenser
ultrasound
leaving
disposable
princip
bis
ozone
rich
##itic
##vis
tox
trace
cantile
##anging
impurities
##ubstituted
regular
slight
framework
characters
armature
knife
anne
posts
oscillation
recessed
cycles
overlap
fingers
animals
tasks
harves
dic
dut
##vable
prol
online
##ushing
##otrop
##itives
automotive
machining
flexibility
##inescent
employ
advance
execute
conveyed
optional
cyclic
focal
blower
mutually
ammonia
penetr
3d
ejection
gaps
mil
name
##bore
inexp
##ices
##artic
consequ
trap
chosen
##iper
regulation
##enced
flap
microscop
biop
microphone
glob
policy
ski
plants
diffr
dispersed
stopping
reagent
nanopartic
ease
pages
tens
##enyl
inert
##mpt
##ockets
##clus
polyester
heads
shafts
matches
electronics
wellbore
esc
pivotal
probability
servers
webs
written
protruding
arcuate
epit
sidewalls
adsorb
cage
sodium
inj
toy
asc
pressed
defects
magneti
pulley
hopper
guides
underlying
solutions
transportation
isolating
compensate
absorbent
circumference
##yclic
diagnosis
fatty
commercial
90
cig
cured
give
tv
##med
##fig
##arb
##isely
engines
attack
##iaz
substances
speeds
internally
subset
corrected
extrud
attachable
precip
shifted
##obic
highest
superior
helical
residue
reproduction
retrieved
temporary
illuminated
trailing
lubricant
detachable
decorative
cantilever
casting
soc
##iety
##uge
##ker
inves
thi
stap
stere
alph
metric
recom
und
consider
lowered
accessed
verteb
backing
concurr
physically
synchronizing
riser
vicinity
14
menu
##ious
ans
##aryl
enl
##heric
operably
curtain
share
bioc
fixedly
bearings
precisely
responses
eliminated
updating
##ymm
cannula
pilot
propagation
candidate
magazine
##idirectional
jud
##vascular
##zation
##enum
##icate
##olic
price
acryl
transversely
parking
clin
abstr
##dehy
overhead
airbag
lowering
##violet
actuators
fruit
registers
enclosing
charges
firearm
interrupt
equivalent
illuminating
ultraviolet
enzyme
curvature
quadr
interchange
dock
pure
rat
void
##cin
##imp
##oline
disab
plenum
arter
straps
filtration
assembling
##ept
currently
concave
divider
decreases
##etrically
acquired
compartments
inflatable
cooperating
ethyl
harness
consistent
##onductive
capsule
ventilation
amp
bask
his
lit
my
marg
##cher
##ives
throt
##veness
circulating
filler
timer
structured
polyc
defect
retard
weak
conduction
additives
backup
automob
pivotable
##ologies
amplified
coatings
sleep
reinforcement
goods
merch
retractable
centrifugal
best
don
mig
##ds
##uents
##zer
##ket
##gate
invent
cosm
##idine
##olith
##mentation
##rometer
shr
layered
defin
disturb
white
background
transfers
polymerization
calcium
arrangements
receivers
optimization
oscillating
##olymers
overlay
avoided
rfid
rays
lights
coaxially
attributes
##assembly
dosage
far
pse
sor
##bility
##kn
##irect
projected
##tering
##owled
asymm
metering
##cho
surve
##ackets
scene
##aries
brackets
conducted
boat
hydroly
feeder
colored
counting
ballast
antennas
##pieces
windows
instruments
peer
pulsed
tensioning
carboxylic
epoxy
occupant
tetra
telecommunications
encrypted
blu
crown
find
ju
tin
##down
##jecti
##ingu
##eding
##itt
##urf
##ason
projecti
##aments
attain
alert
impul
containment
confir
amorph
defective
couples
hands
limits
geographic
purity
planes
medication
dispensed
router
ferromagnetic
acquiring
selectable
elevator
unsubstituted
refrigerant
inhibitors
simplified
perforated
tolerance
##foil
olig
##weight
yoke
pseud
paw
tie
warm
##oor
##ertain
##ored
forced
##urs
unders
desirable
variables
neigh
currents
auto
##ancial
mini
gateway
##gery
esters
commonly
financial
printhead
evacu
promo
musical
stir
lithium
intellig
af
miss
nose
vac
##aque
ant
##ions
##urally
standing
deep
opens
import
scal
swe
differenti
varies
adapt
energized
simulation
calculates
minimized
players
inducing
cancell
retrieving
reconfig
surrounded
evaporator
issu
multicast
uplink
dedicated
ratche
bind
cases
future
oh
##ipping
##my
##fl
##onom
##anth
##ulative
trip
distingu
adjusts
doors
##aret
travers
simp
etched
marking
enhancement
transformed
classification
deflector
stabilized
vectors
laminate
unsat
alkaline
dissolved
interpolation
droplets
discrimin
physiological
cigaret
##dehyde
basket
brow
fro
gather
ner
tors
##tress
##fram
enters
recirc
formulations
##thane
##asses
pressures
blend
fluct
drag
termination
microc
indicated
resistors
poles
amplification
crosslink
halide
intermediates
bladder
cooperate
stopper
hydrocarbons
leaf
peptides
welded
abrasive
claimed
passenger
tensile
answ
cosmetic
22
##warding
##function
forth
##uss
sust
##adium
distil
alread
plating
transient
##plate
sharing
arbit
impeller
veget
computed
computation
computers
ques
download
induct
restriction
scanned
inverted
evaluating
manipulation
excessive
advertisement
bundle
aerosol
inexpensive
already
16
200
aim
cation
pa
sque
vascular
##net
##ata
coin
##tice
##imide
##astr
##oprop
twist
freely
##echanical
packing
reflect
trajector
calculate
extrusion
minimizes
replaceable
diffic
lamps
multiplicity
lubricating
tower
chloride
permeable
bowl
rendering
tradition
luminance
culture
influence
##iphatic
global
amorphous
simply
fig
fam
hence
nature
pd
paste
rope
wt
##bs
coinc
##eling
oral
exclus
##ifer
##ometric
clad
presenting
score
typical
pathway
##uplex
matched
mattress
rolls
angled
purification
cleaner
played
follower
clamped
adhesion
threads
saturation
tuning
windings
implantation
foldable
burst
buried
coordinates
absol
##onducting
purchase
##oscope
cpu
humidity
stick
torsion
fluctu
bat
duc
ef
fish
hull
ranges
vane
##box
##whe
coal
##utable
deactiv
tractor
surgery
imping
transmiss
solub
combines
expanding
ready
encomp
mineral
breast
recovered
retrieve
dependence
successful
resiliently
hydroxyl
photovol
ethylene
hetero
altered
authorization
ammonium
##ynchron
ingredients
worn
sandwic
hammer
enlarg
dum
merc
rank
tick
##ball
often
forwarding
##idin
##idal
styl
completion
practic
usable
##omy
paras
modem
pertain
endless
cores
effecting
airfoil
radar
idle
partly
shaping
terminating
pulled
rolled
wells
relevant
##tex
##cont
tanks
chemically
plugs
implanted
membranes
inhibitor
analyzer
spraying
vibrations
collapsible
shorter
polypepti
branched
private
redundant
##rystalline
unwanted
squee
000
bin
bipolar
##top
##bling
##elet
##idence
though
rech
memories
relate
flush
visually
achieving
pistons
gears
washer
estimation
stops
repeti
snap
restricted
prosthesis
experi
##taic
##ogeneous
entrance
photovoltaic
az
day
let
oven
rule
##ustr
##ga
coherent
cone
proof
##odet
##imination
resins
electrom
##actory
carton
controllers
polyethylene
report
boil
refresh
locks
journ
photograp
initiate
amplifiers
tester
enhances
finish
rigidly
constituent
smoke
infrastr
spreading
abutment
antibodies
hydrophilic
intermitt
interlea
sacrif
neighbor
ratchet
dummy
batch
race
ranging
wrap
warning
##rated
##mic
##hood
reus
##ript
learning
##ister
strateg
email
scroll
live
indirect
decry
workpieces
compressive
distributing
certif
individuals
induce
synchronized
immob
traveling
molecule
engageable
administered
oxidizing
raising
exhibiting
refrigeration
extremely
scheduling
glucose
navigation
tongue
automobile
pawl
cate
crop
duplex
mar
rise
sight
##dm
##cut
##ivel
##ns
concept
##ifies
diab
swivel
##eph
housed
identifies
simulated
photodet
creation
rough
coiled
potentially
platen
models
chemicals
involving
enterpr
##iquely
prediction
hanger
gauge
regardless
ladder
traditional
absolute
categor
casc
fence
nom
suture
##ault
##iable
##vd
##otic
##inated
tom
##ppers
contacted
acyl
aliphatic
mould
detent
heel
flue
serially
industr
shear
radiating
deceler
compressing
targeted
activate
batteries
dimensioned
planetary
installing
disks
reactions
decreased
conduits
ferr
decoded
tabs
nutri
muscle
multiplexed
atmospheric
concentrations
abutting
surrounds
exerted
shrink
industry
baff
kept
land
trough
iner
inward
##icing
stain
spark
unl
unf
asset
closes
dried
differing
effected
polyure
waiting
pulp
catch
targets
corrugated
modify
outlets
rearward
balls
buoy
personnel
polarized
actions
frictional
condensation
breaker
payload
keeping
pushed
permeability
trading
notification
degradation
##ocyanate
diesel
duty
little
unsaturated
done
ket
pell
sun
tether
win
##lip
##kes
##hz
##roelectric
token
conce
##agonal
orific
##ilized
alone
recorder
moiety
surfact
clo
##ube
adjo
mountable
flop
##itized
electrons
##time
collision
photographic
slee
cleaned
advancing
aspir
delayed
successively
multiplexer
algorithms
releasable
clearance
pushing
antibody
intersection
encapsulated
spinning
electrochemical
diffuser
impulse
photodetector
orifices
35
45
80
cmos
dip
pit
ply
slud
sorting
##aut
##bed
##enes
##ionic
stamp
##ols
review
exists
locate
what
removes
inserts
capacitive
##henyl
initiated
activities
ionic
diamond
wafers
returns
settings
affect
balancing
hooks
nuclear
graphics
improvements
optics
offers
gaming
bacteria
iii
protrusions
advertising
projects
invasive
license
olefin
corners
inflammatory
nanoparticles
alpha
throttle
infrastructure
cn
echo
lap
sender
ze
##bic
##bac
##wire
##gers
##enzo
antim
##tigu
projector
reached
##unk
sup
enric
transpond
##chlor
assum
scrap
grill
associating
##phal
feet
pivotably
easier
playback
executes
pointer
quantit
recovering
tables
accumulation
accumulated
remainder
elevation
stopped
permanently
drops
circumferentially
telescoping
promote
rectifier
unloading
##tinu
##frame
enterprise
24
dump
fusion
jam
kin
landing
rights
wid
##cs
contigu
throm
##uls
subjecting
positional
presents
blind
differences
multilayer
retail
baseband
combine
notch
adjustments
delet
handles
collim
purified
silica
communicated
annulus
buffers
cycloalkyl
involved
stabilizer
labor
situation
hydroxide
manipulated
benefits
wrapping
fragments
rocker
slightly
ascertain
abstract
definition
##wheel
inerti
fal
iter
ide
lug
lung
pacing
punch
##ycle
##ested
##acryl
fork
##istical
##uter
##lution
reform
disorder
##ift
parent
##roller
relax
five
##odyn
##illed
##itively
expose
discover
probes
bushing
replace
stacking
sales
viewed
vessels
boxes
linearly
availability
growing
registered
leds
ensures
repeatedly
empty
bucket
constraints
auger
antagon
difficult
sludge
dram
get
nr
ure
coag
##idaz
proceed
compan
retic
chute
shrou
arrow
lightweight
expressed
bob
##oxid
##upon
oxides
##titude
infusion
crypt
finished
estimating
repeating
phosphate
predicted
configurable
fusel
crankshaft
statistical
dissipation
assessment
##ipple
##otropic
important
trajectory
family
date
stit
##then
##oupl
##gst
##ital
##lustr
asynchron
##adata
metadata
##omen
seism
interact
shad
coron
configuring
slides
polyg
combust
coverage
hood
encoun
magnetically
messaging
amplifying
articulated
marks
illustr
quantities
retains
affected
rigidity
masking
requirement
screws
transducers
balanced
tags
deformed
authorized
chromat
falling
scattered
pallet
sandwiched
parasitic
false
afor
nip
pile
ske
vul
##equ
##sy
##atom
deb
exact
spi
spati
recl
##aching
##struct
##antum
regulated
directs
##enches
mounts
slit
indent
inputting
retro
house
brace
passiv
separates
consid
micron
quantum
##structed
designs
chest
downlink
discs
delivers
##electronic
inductor
tests
saturated
tungst
accelerator
constructing
borehole
complexity
searching
blowing
bulb
##amental
fused
fibrous
adhering
silver
##binant
bubbles
compli
extruded
recombinant
clinical
cloud
contiguous
dur
fits
lcd
pel
pockets
ue
##eu
##zard
##role
##ecu
##ulph
##olec
##oting
##ception
trif
spro
sput
##ensities
hazard
shun
ship
str2
living
displaceable
effluent
attaches
inputted
agit
watermark
consecu
drink
hydrochlor
belong
marked
##ician
spectrometer
requesting
##proof
yields
foundation
discontinu
wrapped
withdrawn
conveniently
fifth
browser
sacrificial
reusable
seismic
tungsten
500
dot
nas
vanes
zo
##chic
##vinyl
##si
##oys
##ont
##esium
##rost
comfort
pref
destr
outputted
cellul
emboss
reposition
housings
##ectiveness
##ressing
microm
pumps
simulate
alkenyl
needles
technical
modifications
diameters
conveyance
optimizing
routine
realized
holders
superimp
copolymers
demon
avoids
sinus
chains
focused
reproduced
urging
drugs
bores
chlorine
##print
immediate
adhered
180
recycling
stiffness
weighted
pigment
artificial
consequently
epitax
sustain
distillation
sleeves
01
70
fins
just
now
pw
rs
##rally
##ihood
##arse
cot
##ulant
##ocyclic
secures
hearing
clay
clothing
emits
director
curable
flavor
freed
##anning
monolith
actually
acidic
carbonate
calling
##botic
maximize
clients
checks
nanot
transforming
updates
ferroelectric
evaluated
interruption
losses
spacers
emissions
concentrated
vivo
scattering
burning
history
hierarchic
microorganisms
annealing
concurrently
shroud
ec
herm
law
mate
miti
ten
wrist
inherent
##rog
##elihood
##urance
##ilox
asphal
always
exam
uniquely
##inear
##plane
shank
strand
others
conflic
overlying
effectiveness
digitally
initiating
cere
achieves
clamps
stacks
annot
viewer
##olefin
finishing
implantable
##ompati
assignment
inverting
##yrene
altering
responding
instantaneous
irradiation
immersion
undesirable
cracking
likelihood
prolifer
social
cigarette
arbitr
polyurethane
spatially
demonstr
cf
late
tile
##ned
proxy
providers
sports
unaut
intervention
canister
therefor
strings
scram
senses
obstruction
slope
quer
volumes
possibility
##amino
replacing
posterior
mirrors
tunable
protocols
relationships
indexing
stripping
crimp
stretch
shorten
grasping
ceiling
toxic
vertebral
fuselage
destruc
unauthor
cum
categ
dog
graft
hos
hitch
mr
wick
wiper
##dr
##rant
##yle
##ov
##most
##athing
antic
cobal
##asis
##iled
dead
prac
alle
examination
spout
spinal
transc
cart
slab
slave
protects
weap
gray
packaged
integrating
downhole
compressible
rotationally
cyano
distribut
organization
activates
##volatile
##scre
executable
drainage
returning
wastewater
appropriately
stresses
domains
gripper
tightly
contaminated
broadcasting
immune
suppressing
granular
reaching
regeneration
beginning
mercury
baffle
asynchronous
hierarchical
unauthorized
category
cobalt
00
aber
aft
might
nail
san
tamp
walk
##af
##uk
##wr
##ffer
##held
##onium
##agen
disrup
exampl
ellip
assay
valu
##aked
tear
manage
distances
gasket
##engthen
magnesium
adjustably
nonvolatile
blocked
specifying
feeds
characterizing
microcont
implements
buy
routes
suscep
safely
options
fluorine
involve
deflecting
cooperates
interrupting
multiplication
music
vibrating
beneficial
compatibility
experience
foreign
population
namely
explosive
biopsy
interchangeable
transmissive
enlarged
bobbin
skew
examples
aver
dome
dark
gast
ms
mg
mother
mentioned
os
pent
pill
raster
ti
##ony
##atin
##oring
##allow
##regn
##stock
##ids
##isp
stow
##ote
ash
##adle
##addle
trenches
metab
methodology
subassembly
pouch
hash
impregn
extra
dihydro
respir
drift
solvents
reporting
wax
specially
##erged
backward
reads
readout
undergo
teleph
humans
hydraulically
crystals
tuned
similarly
metallization
damaged
assigning
entries
constituted
advantageous
correlated
seeds
fluorescence
attenuation
irradiated
trimming
undesired
calibrating
graphite
microscope
precipit
pseudo
recharge
nominal
microcontroller
boss
bird
dys
fun
fishing
gold
ly
naph
vend
##cus
##pective
##tiv
##tip
##tig
##iture
thor
ord
resting
outd
seated
interrog
coming
commut
maneu
weft
weights
##etically
handheld
adaptable
identifiers
topology
robotic
continues
manufactur
##virus
rearwardly
halves
ratios
excited
cyclo
segmented
bags
uniformity
contract
clust
yarns
gamma
hanging
##oscopic
reagents
recycled
glycol
texture
textile
polycrystalline
intelligent
vacc
solubility
neighboring
adjoining
transponder
trifluor
consecutive
bay
cu
gt
sr
warp
##rane
##pm
##gs
##inant
##inery
##etes
coarse
##ithm
##tics
exits
##lows
shower
sco
##encil
flushing
microf
pumped
releases
belts
##hene
freezing
slotted
markers
enclose
turbul
substituent
receptors
fluoride
copying
standards
##ught
alumina
entirely
exceeding
clips
tightening
customized
interfering
construct
biometric
viscous
issues
collapsed
statistic
mosfet
sectors
superconducting
scrub
likely
diffraction
injury
##arboxylic
##owledge
projectile
affor
cancellation
cladding
zeol
reticle
19
cuff
favor
iod
sale
##rect
##zen
inform
##tigh
coat
reed
prong
disl
usually
electromagn
assets
##elled
##ople
divers
insol
obl
polyimide
loud
variant
brain
##grade
conser
centrally
editing
collect
insertable
inflation
stepped
crossing
skill
audible
flatten
people
irreg
stabilize
reliably
recognized
randomly
multiplexing
pcb
##roscopic
observation
biomass
macro
mammalian
numerous
promoting
disposal
ethernet
decomposition
world
hydrophobic
demodulation
##otide
prepare
harmonic
unlocked
infections
sugar
disabled
underside
fluctuations
surfactant
freedom
irregular
300
ba
mast
punc
ridge
μm
##ren
##iances
##met
##hel
anterior
##ishes
compare
##unching
suffer
traction
usb
unused
former
outc
deterior
##assium
whenever
##akers
drivers
appliances
flaps
arranging
expensive
terminated
micros
biode
cutout
trapped
guidewire
molds
lifted
propulsion
generators
knob
potassium
silicone
tissues
pinion
delays
##comp
##hydride
stabilization
allocating
inflated
triggered
conjugated
irrigation
robust
pillow
shipping
disengaged
extreme
symmetrical
ventil
telecommunication
pyro
restoring
originating
overcome
bringing
escape
enriched
##odynamic
bidirectional
da
ht
iv
lying
wider
##mun
##wear
##hous
##oral
tobac
coins
forwardly
##eless
##uling
##agg
revolution
plus
places
spine
##oms
unm
shot
arg
scaling
displace
polyvinyl
loos
neural
bragg
boiling
lowest
sealant
extendable
opposit
infant
pivots
faster
primarily
horn
preceding
knowledge
starter
facilities
wirelessly
inductive
gives
pharmac
runs
compensated
drawer
refractory
masks
retractor
accommodated
entertain
sintered
helps
splitter
predict
predicting
situations
ensuring
doping
labels
multiplier
heterocyclic
fibre
bacterial
medicament
granules
aggregate
unlocking
milk
inventory
frozen
diabetes
pwm
cotton
distributor
tobacco
oppositely
75
cc
durable
fair
glu
jump
mang
morph
ple
rup
sip
wake
##dy
##ipper
##pc
##inate
##onyl
##ste
incision
entrain
prism
exiting
spent
arithm
meat
cloth
ended
endoscope
##oped
accident
overflow
effic
polyolefin
packed
computerized
collagen
actuate
glove
suitably
knee
latent
lattice
starch
fourier
inhal
##ibrill
extensions
early
entities
condensed
trays
contraction
##shield
manipulating
strike
restricting
intersecting
mouthpiece
supplemental
droplet
restraint
adsorbent
donor
marine
zoom
funnel
##tight
dupl
eg
fung
ni
pn
pal
sulph
vor
zirc
##rain
##iber
##ml
##kyl
##60
##orted
anatom
##icrob
conference
##abor
##othed
##ady
##quin
adequ
unkn
##chy
subc
subter
sew
surge
prehe
pouring
##ylon
##ellular
##illing
default
weather
lining
magnification
monoxide
biologically
obtains
simulating
minor
flexure
poll
extracts
organized
cardio
persist
optimize
ways
deposits
breaking
analyte
approaches
spectra
virtually
broken
luminescent
entered
splitting
triggering
conjug
tiles
bolts
assisted
resetting
closer
geometric
propellant
stretching
benefit
rendered
penetration
prosthetic
steril
immersed
compliance
licens
detailed
fifo
penetrating
blue
boiler
deceleration
antimicrob
asphalt
##ranean
biodegrad
entertainment
antimicrobial
bic
bab
cure
educ
gps
libr
rare
##dd
##bound
##inum
inject
inverse
##asion
style
bear
except
recomm
unn
outboard
sewing
arth
strands
peroxide
impart
electrolum
patch
polym
lost
##oney
note
functioning
##phyl
monomers
motorc
collects
fixation
permitted
bellows
cooler
steer
purge
##brush
antigen
shelter
silicide
pointing
incorporation
fluoro
localized
estimates
accommodates
##carb
anchored
accumulating
protrud
stimulating
naturally
tilting
lubrication
specialized
assistance
keeps
customers
pcm
reversible
observed
referred
herbic
bumps
participant
scheduled
odor
hierarchy
imparting
question
ticket
polypeptide
maneuver
subterranean
21
gift
jets
mim
saddle
tur
talk
van
##rin
##land
##tc
inn
##arbon
forcing
##emia
##ementioned
prophyl
##ushes
dehyd
inches
methanol
adop
##omb
##omal
mems
##though
##opolymer
carp
filaments
##illance
bridges
waterproof
radiator
delim
decoupl
alloys
dough
energizing
patterning
purifying
dimethyl
initiates
initiator
windshield
deriving
paddle
routed
finite
modeling
nearly
depends
carbide
carboxyl
##linear
temporal
constituting
labeled
boron
partitions
leaves
beta
fails
pedest
enzymes
withdrawal
shows
bubble
funds
bleed
perfluor
fewer
asymmetric
surveillance
inductance
outdoor
ejecting
gall
hap
ut
##uzz
##sim
##mation
##enic
##esting
##align
confer
conges
##irt
##odied
##ulin
conto
traces
trunk
##vert
##rium
spots
##oma
suppression
accomp
framing
brid
##lets
networking
refining
digitized
hoop
equil
microcomp
encirc
facsim
treatments
coloring
crude
newly
seats
occurred
persons
databases
quantif
affecting
catalysts
interpret
limiter
formats
raise
phenomen
##spe
cups
gradually
inclusion
irradiating
medicine
percentage
homogeneous
fundamental
neuro
struts
kinds
firmly
invest
stirring
photograph
tomography
quantitative
durability
sprock
##ompatible
arbitrary
practical
insoluble
loudspe
accompan
facsimile
bri
brist
dp
fri
germ
##oresis
anis
##itable
coff
##idden
thro
##mented
although
opaque
span
une
positionable
whereupon
imidaz
##endant
insulative
powering
controllably
curves
##raz
effector
pier
##estinal
computational
depressed
correspondence
digits
correspondingly
concer
cryogenic
bonds
halo
adhesives
substituents
implants
incorporate
divides
superp
analyzes
hinges
travels
deflected
powers
elastically
photoelectric
aids
border
ethanol
waveguides
perforations
satisfy
toothbrush
rounded
economical
oct
weighting
calibrated
microbial
billing
misalign
magnetization
docking
migration
ducts
stainless
considered
hydrochloride
belonging
queries
baby
microcomputer
coffee
aw
brom
gram
rain
ven
##ptic
##sel
##ked
##hal
##ics
##acet
##acem
##tional
prompt
orders
contempl
aler
restr
##izers
unexp
##char
shallow
pores
prel
saved
modulus
##clusion
eman
lie
lies
locally
disposing
fluidly
gasoline
centering
motorized
specifies
backrest
indicators
representations
minute
engineering
instances
angi
distribute
counts
addressed
wavef
started
##book
introducer
atomic
nitric
platforms
positively
analyze
accelerometer
cancel
guidance
interrupted
dopant
synthesized
boundaries
reconstruction
therapeutically
vibrator
inclination
##ichlor
subscribers
evaporation
attenuated
satisfied
propeller
triangular
establishment
radicals
fracture
attractive
begins
lookup
electrophot
exclusive
effort
azim
electromechanical
compliant
nasal
cereb
allevi
rechargeable
zeolite
arithmetic
unknown
throat
2d
bases
cad
cros
cult
eject
gant
lact
mc
mp
null
plum
rating
tires
##rates
##tre
##ew
##ners
##iner
##inic
##itary
too
orn
compos
deal
true
triaz
##omach
##ometry
##atern
interacting
intercep
deton
whereas
##ubes
emuls
regulate
##ends
scope
caption
sling
amide
embodied
hologram
autonom
differently
accesses
nonlinear
##ounding
works
##inescence
continue
erase
calculations
follows
replic
centered
dispense
conveyors
thermos
breathing
fauc
nearest
peel
absorbed
operators
ventur
url
constituents
woven
perpendicularly
coordinated
transitions
golfer
furniture
owner
majority
blanket
fingerprint
responds
choice
milling
genes
disconnected
intrins
fracturing
upload
harmful
##ository
ligand
principal
encompass
categories
ferrule
pellets
aforementioned
retrof
concerning
gantry
17
27
dense
evid
rh
wand
##chem
##eable
##oter
##gb
##jet
anhydride
inactive
##ecess
ischem
##ultip
stone
##olin
##olid
revol
reason
##rome
dish
meta
##ansm
exting
opto
leave
adder
seconds
##ermeable
seen
come
clot
imag
ablation
rotors
timed
obvi
hyg
polyamide
nox
brakes
mainly
grade
draining
decim
handover
converters
keyp
underne
topical
##ropylene
carbonyl
camshaft
calculator
fabrics
buses
dyes
skid
replaces
platinum
exclud
establishes
virtue
grown
acquire
damaging
synthesizing
embedding
deforming
phosphorus
laid
launch
failed
stretched
macrob
##balance
disengage
numerical
sterile
cultiv
benzyl
photoconductive
branches
hypot
premises
arrival
##urface
adaptation
recirculation
cationic
pertains
journal
intermittently
passivation
cellulose
mitig
weapon
susceptible
efficacy
unnecess
motorcycle
uneven
restraining
wavefront
azimuth
extingu
underneath
dt
ejected
fec
gum
hip
mn
men
mism
rom
riv
sided
vap
vending
vision
wired
##ivity
##ses
##fill
##hex
##inter
##ataly
##alc
##rote
##anting
things
##ults
stay
bevel
##aming
disable
##apse
spill
##izations
claw
modulate
regulates
instit
upstanding
##arium
defibrill
setup
password
notes
verifying
adds
##structing
mathem
designating
cuts
chel
screens
initiation
alkylene
ionization
shifts
orientations
encloses
thermost
demultip
evenly
powders
repeat
lighter
fermentation
oxidant
exchanging
fittings
angularly
correctly
reversing
suppressed
showing
resistivity
emph
discrimination
sugges
possesses
staple
sweep
kinase
cryptographic
combustor
encountered
monolithic
pyroly
adequate
##uzzle
brief
venturi
demultiplex
32
cm
cit
cem
eight
fum
finding
gover
kits
mist
native
om
pane
ren
##ptive
##oint
##gener
##hema
##ato
##eto
coher
onset
##olester
reacted
##otes
##ocular
secret
learn
##anged
connectivity
healing
sail
##cles
desp
slice
##eptor
flowable
aggl
repository
depletion
dress
adaptor
heats
quar
##oxic
machinery
underwater
keyword
attachments
oils
latches
registering
baseline
##version
breath
toroidal
analytical
thresholds
equalization
giving
cameras
drilled
checked
fertil
expands
plasm
recognizing
condensing
ventric
interrupter
consumed
muscles
partitioning
spreader
buttons
dialkyl
attenuator
falls
numeric
genetic
claims
harvesting
stereo
acrylic
merchand
crosslinked
practice
immobilized
superimposed
epitaxial
impregnated
##house
macroblock
benzo
dosing
icon
jew
lack
maps
ridges
sch
##but
##eg
##fluor
##hib
##ints
##eric
##ettes
##acer
##lyl
byte
##ocation
##ime
fired
rests
adverse
sphere
moly
##omethyl
outflow
##ermal
sea
canal
pore
impermeable
##opyr
extens
diluent
twice
scent
assemble
agon
holographic
neur
brushes
delta
feedstock
ordering
esd
synd
##henol
##oking
minimally
antioxid
centralized
lasers
##hyth
horm
latency
viral
shoes
substitution
equalizer
counters
isolate
retransm
##carri
foods
sulfate
wideband
constitute
towing
junctions
occupied
studs
pusher
propelled
beads
meaning
intellect
petrole
microorganism
sweet
winch
coronary
chromatography
shunt
latex
valuable
vendor
anatomical
conjugate
library
protrudes
contoured
bridging
prelimin
electrophotographic
thermoset
petroleum
aest
bim
bell
mower
mhz
rins
ripple
tones
voc
##ych
##tling
##uder
##well
##atching
##ests
convolution
##isation
##ashing
##oser
reve
##otyp
atm
enfor
##romic
acute
exert
methacryl
##rolling
formulated
##inetic
deterg
strengthen
##structure
desk
diox
confined
collet
setpoint
age
protector
##itizing
sheave
walled
##ounting
equation
catal
ordered
technologies
organisms
##itudes
cryogen
standby
##avail
starts
frust
hardness
torch
themsel
copies
inhibition
reserve
retraction
magneto
limitation
negoti
acquires
frictionally
dispersing
eyes
urge
breakdown
electrolytic
reciprocal
##ophosph
interferometer
consistency
failures
tumors
##ynyl
adsorption
luminous
tailored
participants
disconnect
reactant
constrained
concentrically
vitro
acetate
contribution
attempt
inflammation
tangential
accepting
principle
precipitation
metrics
voids
twisted
proliferation
manufacturer
entrained
cardiovascular
sprocket
intrinsic
unnecessary
vapors
molyb
intellectual
themselves
05
had
les
lan
old
tand
tib
wings
yaw
##tension
##bone
##sing
##man
##inance
inqu
invo
toothed
##leys
##igu
##odic
stre
atop
attitude
##ading
tract
plated
methane
##umb
##umin
##fortable
unidirectional
seq
soap
selectivity
schema
polyn
agric
currency
##olded
adapting
conditioned
##valid
equally
increments
quatern
comparable
edible
workflow
machined
mapped
limb
colorant
polished
volumetric
restore
fluorinated
subjects
inkjet
widths
classes
helic
receptacles
necessity
formatted
authenticating
buildings
stimulus
pictures
##anese
essential
##ocytes
chromium
chrominance
explo
concerned
cassettes
convenience
alcohols
refers
##assembled
flywheel
disabling
retardant
discriminating
successfully
decryption
certificate
company
sputtering
sinusoidal
directory
##iloxane
annotation
gastro
clusters
zirconium
biodegradable
electroluminescent
investment
loudspeaker
crosst
keypad
jewel
tandem
33
c2
dang
dma
gal
listing
rhe
vice
watch
wager
##vil
##vised
##gap
theft
##ino
toe
##anate
conv
isomer
##urized
##urization
##isocyanate
##agram
compaction
##iltration
ackn
##rile
sympt
resum
elaps
recre
signalling
formations
##rices
circle
succeed
hep
preload
##cler
impurity
##enders
dirt
##sole
displacing
swim
particulates
indications
fluidized
agre
waterc
compute
liquef
depress
##phosph
refill
decay
handled
centers
terminate
lockable
quin
workst
understanding
office
photon
glaz
pipel
erg
cradle
wrench
washed
supplier
substitute
implanting
plastics
becoming
nitr
polarizing
##oids
tips
nanof
classified
sintering
footwear
predictive
rising
sounds
striking
mutual
occupancy
summing
translated
peaks
swinging
disengagement
wetting
flashlight
withdrawing
intrac
submitted
interconnections
bookmark
commercially
attempts
accepts
prolong
cantilevered
juice
geographical
nerve
indirectly
inertia
ideal
microns
prefix
hermetically
scrambling
turbulence
flattened
manganese
institution
despite
agricult
crosstalk
65
lot
oste
pf
son
wise
##ae
##bi
##eur
anion
anvil
##aldehyde
##tiary
prohib
##agger
competi
rejection
##amines
##heres
##ighting
park
intercept
interlayer
soi
endot
endpoint
imper
serum
slat
polyether
reports
contactor
monoc
hour
hoist
preferences
specifications
permission
simulator
photodi
sequencing
reflects
steady
##ologic
##xtap
proposes
replen
passageways
##obut
##coat
resonators
absorbs
##ney
complexes
sulfide
suspending
broadband
blown
##carbonate
destro
versa
##monary
inspecting
permeate
validation
##balanced
preformed
symmetrically
palladium
artifacts
psych
consideration
biocompatible
margin
merchant
juxtap
attained
miniature
issued
encompasses
lawn
respiratory
dislod
diversity
deterioration
vortex
congestion
faucet
28
baking
dots
lag
mine
oval
pon
puck
ty
ts
vene
##cal
##la
##aves
##tp
##tage
##tured
##bler
##ike
##uber
##pace
inoper
invalid
##room
##arr
##stand
##acle
##idic
##igue
stagger
##oles
##ppet
reuse
##verteb
exception
##imer
##ritis
chronic
levers
elimination
appe
transit
subse
interverteb
##allic
save
##ibrium
impression
##opt
carbo
accounts
diagonal
script
managed
obt
obst
configure
polyol
houses
tread
switchable
##rosis
depic
verified
bios
matrices
microelectronic
##genase
actively
lengthwise
butt
cams
extractor
continuity
grease
antif
##iotic
codeword
inlets
physician
orienting
shopping
radioactive
polarizer
standardized
thicknesses
admix
functionalized
interpre
deflect
cartridges
phenol
urged
smoothing
shielded
racks
accomplish
lifetime
aerial
contaminant
vias
crystallization
appears
fragment
terrain
conforming
intrusion
bioactive
glycer
##anoic
hingedly
hemisp
vitamin
seamless
imparted
quadrature
missing
exclusively
torsional
buoyancy
collimator
debug
embossing
destruction
##screen
pillar
vaccine
persistent
pedestal
rinsing
subsea
intervertebral
400
95
ccd
dith
hidden
kern
lc
misf
nested
sine
sram
sort
seller
sockets
yi
##ived
##sk
##sets
##oying
##wh
##fins
##onate
##ores
##oric
##eness
##enching
aneur
inac
intim
##ares
cock
##mph
##osures
##ulas
stencil
##usive
prech
trust
aldehyde
opener
spong
mouse
signed
intensities
comfortable
heights
poult
click
impair
##rone
sca
captures
blast
slats
camp
distr
packer
handler
accessories
multiplying
collabor
actuates
cleans
describing
targeting
dimin
cruc
crane
dimensionally
intermediary
completing
draws
wavelet
reservation
selections
catheters
folds
speakers
laminating
discharges
authenticated
cooperation
correlating
concentrate
interfere
launc
fatigue
encapsulation
overlapped
children
wrapper
bumper
tertiary
aggregation
homogen
polypropylene
benzene
intraocular
interpolated
progressive
progressively
contribute
booster
firmware
tendency
preserving
distinguish
vegetable
questions
ranking
interleaved
thromb
discovery
vulner
hosp
aberration
outcome
turret
vanadium
decoupling
germanium
cerebral
ischemia
ventricular
syndrome
acknowled
symptoms
watercraft
agricultural
yielding
aneurys
poultry
aqu
bil
bif
cin
ds
dol
egress
kil
kinetic
pmos
##crum
##aer
##benz
##vitation
##ufficient
##gement
##inf
##enari
anest
inversion
##ality
##eceptor
##anedi
##ete
isd
throw
styrene
orbit
##otri
bytes
almost
##chair
subd
canop
detached
assists
poor
imaged
##opoly
scenari
insufficient
blending
swir
noble
brine
wearing
expressing
booth
radiant
consolid
handpiece
designing
mining
fuels
interfacing
feat
wheeled
gloss
trapping
eras
parties
extruder
freeze
softening
lesser
##ortun
preclud
potenti
hardened
maximizing
introduce
analytes
fulcrum
oscillations
synchronism
analogs
overload
retracting
forwarded
nanoc
accommodation
interposer
normalized
accelerated
accelerating
vaporized
tensioner
##nea
oxidized
succession
detectable
rises
exchangers
picking
consumers
eyegl
refrigerator
phosphoric
transluc
translating
dropping
intersect
rooms
slips
repairing
telescopically
approaching
tailgate
decisions
versions
criterion
submerged
symmetric
stiffening
pigments
##thalate
marketing
sandwich
existence
viruses
incremental
vertebra
projectiles
oligomer
evacuated
nerv
repetitive
intermittent
strategy
##cutaneous
roughness
antagonist
nanotube
naphth
rupture
friend
superposed
emanating
autonomous
hygi
rivet
agglomer
extensible
detergent
quaternary
succeeding
##clerosis
ergonom
staggered
23
bail
lys
puzzle
sedi
wl
##tious
##rocess
iso
compacting
complic
beac
incon
ath
disinf
##aping
##ritical
##vice
chromatic
leuk
aden
spare
mover
##channel
parity
##plan
outermost
assure
meets
##arger
upgrad
manages
presses
confid
overvol
solve
redir
timepiece
differs
attention
computes
notches
predom
trees
adjuster
frequently
grate
monoch
verify
lowermost
convers
backbone
eddy
automation
descript
encode
alkynyl
opportun
polymerizable
grounding
piper
bandgap
counted
possibly
implementations
turntable
platelet
facilitated
charger
synchronously
ultim
compensates
##cool
buffering
securement
refraction
constantly
limitations
##hydrate
administr
melted
residues
reproduce
powdered
shuttle
urges
wirings
acoustical
consuming
reconstructed
aerodynamic
chloro
narrower
##ophilic
reflectors
restrict
fusing
interactions
geometrical
schemes
queu
satisfies
choke
propagating
games
corrosive
mammals
credential
medicaments
bulkhead
prescription
foregoing
photoreceptor
lithographic
diverter
tetr
translational
vital
odd
tablets
survey
tetrahydro
promoter
issuing
traversing
deactivated
decryp
antagonists
sustained
anticip
transcription
tamper
dysfunction
recommend
equilibrium
phenomenon
unexpected
workstation
nervous
26
bon
bist
cake
cash
ejector
mun
mated
rif
rounding
sic
tc
tall
um
##da
##can
##card
##app
##bent
##bow
##oethylene
##onit
##ontic
##atical
inad
ofdm
##icit
##irably
thio
stub
##ppler
##advant
disadvant
resc
lean
methoxy
##umen
reco
##omet
##angle
operand
clog
##ogens
carc
insurance
overs
##agnetic
slices
openable
colour
pierc
defrost
transmitters
vehicular
autoc
partner
grass
adaptively
##port
pulmonary
doppler
sealable
hours
quart
quenching
integrates
specify
collapse
smoking
resisting
minutes
discuss
cleav
servicing
wheelchair
continued
activator
crushing
bitstream
tracked
stands
skate
faceplate
shifter
environmentally
routers
equalized
exhausted
runner
spectroscop
cyclically
##axis
nanos
tuner
travelling
sprayed
visualization
laminar
synthesizer
constitutes
illuminate
grippers
soldering
lipid
microprocessors
owing
sessions
offered
referenced
promotes
dissolving
lithography
participating
disconnecting
restoration
##bars
economic
ocular
malfunction
strongly
##denum
harvester
scalable
reconfigurable
inductors
heteroaryl
stylus
widely
laboratory
##olecules
conflict
cumulative
electromagnet
inhalation
carpet
anisotropic
composites
mathematical
merchandise
danger
scaven
isdn
inadvert
quartz
600
bones
derm
densities
dichlor
eros
gly
gest
lists
muc
pv
pm
ppm
tack
wast
##dyn
##rating
##cap
##ng
##kin
##12
##onet
##onical
inboard
##roph
##arc
isocyanate
##urizing
thy
##osil
stair
sump
athe
trade
##occ
##ocard
resides
signatures
##ometers
unco
##ateral
arising
assisting
##undry
imposed
scaff
electropl
disposition
multit
aging
reported
protuber
separable
seman
microl
mediated
pulleys
doub
conditioner
converg
multipath
undergoing
##genic
obtainable
infeed
max
logs
pollution
corrug
primer
skim
1000
know
medial
chemist
pinch
interconnects
brewing
stripe
excav
inhibits
affinity
diffused
irres
nanow
anchors
dynamics
##azole
dissoci
firewall
protrude
nucleotide
venting
coordination
textured
exceeded
towed
partitioned
versatile
personalized
concentrator
summ
evaporative
simplify
laundry
reversed
perforation
##points
issue
medicinal
preforms
publis
##borne
taut
jobs
apex
abnormality
grasped
olefins
named
names
diluted
uncor
redundancy
##visor
website
confirmation
gathered
crosslinking
immobil
relaxation
urea
drinking
examined
elliptical
ordinary
trifluoromethyl
bearer
bristles
##rotein
pyrolysis
quarter
elapsed
crucible
complicated
##planar
predominant
85
draft
evolution
gated
ld
lamination
mild
nic
pond
pap
td
wip
##cr
##sulf
##meter
##was
##gf
##esters
##escent
anionic
##tial
touc
totally
##strip
##acid
##urring
##aser
thumb
##oder
##odontic
stably
##tery
##ushed
comprom
inch
atrial
enanti
prices
altitude
plow
plies
syner
chir
mole
signs
##rolog
interacts
comes
assures
assays
str3
pour
moder
##opes
##ements
rotator
tee
insure
useable
electros
sold
attendant
reply
bran
expon
functionally
associate
##ystic
hydrostatic
biof
chart
backplane
guar
transmissions
underground
offsets
roaming
cyt
organizing
articulating
bitumen
modifies
prime
combinational
motions
basin
views
thinner
profession
drains
compensator
shells
severing
sprink
documentation
helically
transparency
residing
snaps
timesl
archer
epid
stimulate
bounded
femoral
textual
tilted
closest
pcr
simplifies
neutron
dialysis
strobe
encapsulant
choose
bacterium
capsules
silane
abrasion
regenerator
cdma
buckle
goal
economically
overcomes
details
hexagonal
privacy
uncover
putting
navig
subtracting
thiol
recomb
gathering
answer
impinging
polypeptides
inertial
metabol
scoop
statistics
glue
accidental
polymorph
##oresistive
##atalyst
antioxidant
catalog
molybdenum
inquir
jewelry
swimming
obtur
hospital
piercing
cleavage
37
award
bism
bale
db
dvd
hv
oce
pb
ride
rice
shed
sie
sna
tft
tier
vial
yl
yel
year
##rec
##bled
##position
##ovirus
##mia
##gage
##junction
##orp
infer
##anum
##stuff
##elets
##elastic
##idyl
org
##lux
##amate
deletion
##mental
incidence
truss
meters
recrystall
recurs
unst
memor
datas
shim
shake
shred
circulated
clar
imager
phon
presently
structurally
overh
swelling
community
airstream
indoor
loose
hydration
grouping
grouped
express
##intestinal
liquor
packs
microstructure
barc
tooling
reflectivity
stepper
traum
streaming
molar
cru
crash
busy
solidified
skelet
advances
shelves
centerline
registry
markings
adhesively
thermoc
combustible
incorrect
realizing
commanded
masses
##ogenesis
##olytic
foodstuff
ferrous
residential
voip
inflator
cooperative
urine
nuts
heaters
thermoelectric
##space
cancerous
interferon
studies
translates
reversibly
150
heavily
attenuating
encapsulating
observing
macrom
hypertension
reactants
taught
restored
occlusion
##urrent
superconductor
pyrrol
meeting
concurrent
artery
arteries
marginal
warming
pertaining
experienced
letters
ketone
coagulation
proceeds
vulcan
nanotubes
averaged
lymph
suffering
plumbing
mismatch
desktop
gastrointestinal
canopy
translucent
friendly
confidential
overvoltage
##dynamic
irrespective
yellow
bench
baked
ct
eu
na
nipple
raz
ss
trou
vl
vox
##bl
##ipl
##uer
##press
##oyl
##map
##10
##heet
##onucle
##athy
anomal
##icle
##activity
##idone
island
##urgical
stern
##olding
comply
compacted
compiled
reb
reject
deh
prest
trunc
disaster
disables
plot
plain
chall
cholester
methylene
adc
unb
unint
unless
unbalanced
formulas
shade
soy
modulates
imprin
commod
abd
divalent
dietary
diagram
teaches
insulin
confidence
flare
colon
airtight
amines
ammun
hyster
##anned
polycarbonate
##itis
##iax
carriages
integrator
backlight
paired
permut
linkages
facial
subsurface
stepping
preparations
pipet
purging
bandpass
continually
addressing
##vious
skirt
propylene
replication
silicate
stackable
develops
##ethane
thickening
pointers
turbines
glasses
approval
faults
quantization
##alkylene
analogue
severe
estimator
##rupt
tune
luminescence
classifying
magnetoresistive
barriers
graphene
triggers
searches
exchanged
stimulator
stoich
ambigu
multiplied
multiplexers
120
orthodontic
heterogeneous
##ophage
launching
blanking
fills
queues
country
envelopes
halogenated
cords
modulators
expressions
tereph
banks
apopt
demodulated
demodulator
attraction
neurop
candidates
investig
myocard
disturbance
triple
downloading
##opropyl
unfolded
stitching
exactly
spike
commutation
favorable
##helial
prophylaxis
tibial
inoperative
dithi
sponge
hygiene
scaffold
multitude
chemistry
synerg
ocean
organs
challeng
ammunition
stoichi
apoptosis
64
ace
bins
barium
dv
dm
fans
farm
gy
jig
mri
mud
merg
mort
pending
pylon
rider
sell
tb
taste
vp
##dp
##dden
##rig
##cale
##egr
##iet
##where
##hinc
##gment
##aten
##atches
##estic
anod
##ectic
##styrene
##acqu
##elt
##ulants
stanch
orb
bever
bears
##ayer
##ilities
##amer
dehydro
sudden
##tices
dispar
plaque
chim
chance
spok
sphinc
##umid
transf
##aceous
unre
intens
##atitis
apparent
phased
productivity
abrupt
extender
supporter
scaled
volat
flashing
solving
solves
airway
airplane
notice
caro
allowable
decode
terminates
##acterial
lowers
##onductors
charco
backside
analys
actuatable
photom
photons
logically
conveys
erected
errone
continuing
organo
likewise
pistol
derive
clocks
##ograph
communicator
optimally
apertured
turboch
##iciencies
responsible
exciting
nearby
eventually
severed
overlies
avoidance
reservoirs
##gnt
assigns
slideably
arcs
slidingly
carbure
carboxy
randomized
breaks
manipulate
striker
trains
proportions
reversal
fillers
templates
perforating
squel
ultraf
pulls
exercising
references
extremity
purchases
telescopic
smoothly
gaug
deviations
faulty
regenerative
going
intravascular
healthy
assessing
exerting
exerts
acetyl
unloaded
contours
dicarboxylic
disturbing
miniat
distinguished
repetition
letter
raceway
nutrients
assume
corona
demonstrated
buyer
scrubbing
iodine
oblique
ventilator
arthritis
haptic
accompanied
##charide
optoelectronic
cementi
retransmission
preliminary
ponto
veneer
obstacle
hemispherical
carcass
discussed
erosion
atheros
electroplating
nanowire
##washer
guarant
razor
dehumid
truncated
beverages
sphincter
charcoal
360
bes
cream
dens
dsp
ery
gim
gating
icing
mt
mission
money
rna
renders
sd
sanding
tro
turf
wob
wild
##dri
##rance
##rations
##chen
##pack
##pyr
##sed
##ounc
##zel
##mium
##ho
##hand
ing
inges
ingress
##itating
console
##urc
##isy
onboard
##uli
##olor
##olip
orally
##usc
##luidic
reass
##iler
dex
prun
trape
disint
secre
unob
uninter
subun
subcarri
outgoing
season
septic
datum
intereng
surpr
succin
pream
stray
##ella
perce
##thio
imbalance
impacting
##opter
abl
accounting
scin
scans
sensory
flaw
engra
solved
slits
airborne
settling
variants
proton
##aneously
transmitt
exposes
wait
ware
##ails
radii
handed
handset
centre
integers
headl
headers
headset
preference
pathways
hydrog
hydrodynamic
biases
backl
gui
##oxides
fixtures
resists
encased
infra
bottoms
glut
occlud
corrects
##inson
freezer
transports
crt
alternator
antifo
bitmap
induces
cuttings
looped
plugging
shooting
pointed
originally
qualities
equalizing
drained
fax
quantizer
copoly
initializing
initialization
affects
peeling
irre
magnetron
repeater
helmet
electromagnetically
lids
accumulate
indexed
recognize
inverters
largely
surroundings
consumable
gripped
electrolysis
vibratory
keeper
pushbut
foaming
student
simplifying
##lycer
viol
satisfying
hybridization
propelling
tolerances
coupon
distortions
kitchen
laden
passengers
accepted
possessing
diction
adsorbed
considerably
quadrant
arterial
hydrolysis
evacuation
figure
shrinkage
buoyant
conceal
lugs
discovered
shadow
illustrative
hazardous
repositioning
prongs
jumper
pleasing
surgeon
misalignment
replica
encompassing
retrofit
dishwasher
dressing
##otype
recreational
destroy
kernel
bifurc
beacon
bonus
umb
spectroscopy
sprinkler
synergistic
squelch
trapez
disintegr
pushbutton
aware
ber
bip
cs
cis
dl
glow
hz
hop
honey
lance
lactic
lanth
mcs
merged
nod
nylon
pt
pacem
r2
rin
rgb
sig
slu
winning
##aving
##away
##ees
##iasis
##me
##fs
##fol
##kle
##hold
##hthal
##gy
##ina
##enedi
##esity
anaer
##alty
##rode
##icates
concep
##iser
##ematic
promp
##osable
ongoing
sta
staff
bezel
rew
##ils
incub
##immun
ophthal
resh
resemb
resear
methodologies
spanning
elbow
moie
intention
sept
interven
thereint
assuring
clim
##ellul
impacts
##opent
##ogl
dilution
twin
drip
serv
confron
overr
settable
radiated
improper
##ectives
reflux
fouling
semiconducting
oxo
colloidal
workload
undercut
encour
flexibly
discard
feel
feas
arrayed
traverse
extrac
amplify
modifier
plays
rearr
potent
diametrically
hardening
enclosures
pinching
gearbox
maximal
conventionally
completes
divide
profiled
spectrom
columnar
reserved
protease
buffered
peg
cyclone
admission
accelerate
sprayer
expander
dispersant
oxidative
searcher
formatting
deploying
condensate
largest
cooperatively
##carbonyl
payments
shields
schedules
##holder
leaks
lipos
stripper
mutant
customization
narrowing
graf
summed
restricts
##activation
translate
antibacterial
validating
dropped
offering
fractional
cushioning
penetrate
waveforms
scheduler
wedges
shoulders
photoconductor
nmr
roadway
supercritical
attempting
brazing
depressions
emitters
subtracted
toxicity
nanoparticle
margins
sorbent
asymmetrical
blueto
finds
missile
cigarettes
blends
answers
reflectance
impingement
tickets
squeezing
cascode
unlike
olefinic
polygon
polygonal
spikes
##structures
pelvic
##written
stowed
bayonet
loosely
fairing
palm
conferencing
ornament
evidence
revolving
clothes
##generative
fertilizer
parkinson
precharge
trusted
wlan
rifle
##onitrile
branching
recursive
carburetor
cementitious
surprising
transmittance
rinse
concepts
moieties
thereinto
bluetooth
aust
ahead
bric
caster
dib
fm
ghz
hinder
hiv
kick
lign
nb
night
osm
paging
rhyth
war
worm
zig
zipper
##dim
##aid
##tet
##vari
##uper
##path
##sine
##zhe
##wo
##xiety
##hetically
##ese
ine
##anine
##rehen
##eted
##ione
coplanar
forks
##idene
##ectin
##osic
##olo
comprehen
reused
##ilinear
##ams
##menting
inciner
enum
trial
disassembly
disassembled
alters
alzhe
##ocarbon
cham
adhere
spont
mop
##rolled
formaldehyde
interl
shack
##ells
membered
valving
generic
elemental
phones
commer
##arging
##partic
obesity
locates
fluidic
variance
embody
conducts
hydrated
##gression
lined
idt
##ensional
median
allerg
doing
conditional
loader
multipoint
integrate
mixes
comparators
##structs
collectively
cutoff
bottles
infected
portal
instability
clearing
photolith
photopolymer
sync
role
keyed
keyway
extruding
##abricated
clocking
advanc
latched
elongation
perspective
plugged
postage
torso
turbo
finely
oscillate
legal
runners
isolates
isolator
linearity
##ogenous
cycling
overlaps
pulsating
broker
dryer
vented
equival
ceramics
coex
approximate
penis
soldered
stripped
rubbing
alteration
##adiene
authority
inhibitory
mesa
pushes
photosensor
validity
satisfactory
stretcher
biomolecules
enzymatic
disengaging
gratings
telescope
etchant
aggregated
aggregating
symmetry
grains
prepolymer
ramps
curvilinear
hexa
microbi
contributes
tunneling
braided
explosion
tends
ligands
promotional
differentiation
differentiating
discriminator
stylet
diabetic
assumes
scraping
deleted
iteratively
reforming
urethane
illustrated
checksum
crimping
##drug
walking
motherboard
metabolic
argon
awning
gramm
venous
coherence
thermosetting
convection
photodiode
juxtaposed
aneurysm
##anediol
ultimately
semantic
inquiry
soybe
commodity
hysteresis
acetic
erroneous
gimbal
uninterrup
preamble
02
99
auc
cub
cvd
cube
gem
hs
hf
him
muff
nac
pits
qos
rated
rake
rocket
sut
sag
upp
zr
zn
##lier
##bium
##vit
##sb
##son
##fe
##field
##oning
##atment
##atched
antit
anodes
anhydro
anxiety
##roid
isot
isomers
##urate
##iscus
progression
prodrug
##igible
##oderm
##osilic
##osulf
##abit
##using
beat
##aded
acm
##ondition
dism
ali
##ocal
metered
securities
pll
planning
spider
rectil
intense
##venous
parab
submers
##plas
##plast
##rict
##formed
ars
arise
aralkyl
##ircuit
circulate
straw
endpoints
##ophor
desor
desirably
twisting
obsc
locator
floss
flood
flanged
##arities
swash
patches
slag
slipping
##iescent
polystyrene
lobe
axles
waist
separations
separators
##phones
semiconductors
quiescent
biot
biosens
characterize
catching
readings
amplitudes
discre
ringing
joins
fee
crew
piping
erased
parallelogram
##ughen
segreg
leadframe
floats
propri
handlebar
diamine
##ethoxy
announc
maximizes
hydrogenation
oscillators
reality
atomized
restar
spectroscopic
##othiaz
classifier
##hemically
constructs
transduction
similarity
helix
earphone
dependency
dissim
##program
spline
elasticity
allocates
beds
transactional
##arnish
exchanges
evaluate
##yclo
shutdown
picked
reconstructing
subscription
alarms
absent
inclusive
ignited
occupy
##ophonic
abuts
affixing
fusible
interlocked
regulators
suppresses
fractions
strains
choosing
grips
neutralizing
keyboards
supplementary
rams
bioavail
fractures
##otides
degrading
slowly
augmented
principl
##thalic
buildup
histor
seams
tongues
dict
diffracted
injur
attacks
judging
overlaying
vegetation
advertisements
coincident
coincidence
coales
nutrient
collisions
intersections
sanitary
telephony
##rectable
unmod
egg
steerable
encircling
##razole
rainwater
contemplated
contemplates
alerts
uploading
decimal
defibrillation
emphas
lesion
monocl
replenish
tyros
admixture
debugging
aquatic
##rocessor
uncorrectable
snapsh
bismuth
chimney
turbocharger
antifouling
pacemaker
anaerobic
confronting
austen
##woven
alzheimer
commerce
uppermost
rectilinear
800
cas
cations
foun
gir
gus
hung
mates
nio
ot
pencil
punching
ptc
rer
rpm
sock
tied
vault
##rs
##cel
##case
##apping
##tz
##ey
##ek
##iop
##iveness
##nt
##nut
##mate
##gas
##30
##onally
##erals
##rogen
##icidal
##letic
##acic
cosine
##uristic
##osp
##osides
dewater
degrade
pricing
acted
firstly
##ifting
append
##ensively
transgenic
intensive
##place
intersp
porosity
thereupon
perception
laying
##oprotein
timest
teaching
scoring
remark
insect
liver
curb
cursor
flank
override
electrost
electrosp
##rapped
couplers
retarding
agitation
neither
hydrant
reflow
decont
vertex
pulver
backed
colloid
micropartic
designation
concaten
wellhead
membership
minerals
butter
butyl
polymerized
cyan
##ologous
polic
pipette
folder
smallest
articulation
visibility
knitting
dispensers
conveyer
markup
communicatively
audience
platelets
##obacter
##obenz
viewable
grounded
turbomach
fulfill
constants
##aceutical
inhibited
forwards
transformers
paperboard
cancers
ears
earlier
flooring
sulfonyl
ledge
wearable
football
diagnosing
stimulated
shutoff
##psk
trained
reciprocally
##actile
##actively
study
regulatory
##hydroxy
strained
adverti
diagnostics
exercises
shipped
propagate
gels
adsorbing
relieving
purchased
objectives
gaas
notifying
terrest
diverg
photoch
250
weighing
greenhouse
tapering
malt
begin
recipients
gradients
bundles
bathroom
uncured
##ampling
bleeding
perfect
arrive
arriving
preserved
magnetizing
staples
sorted
confirmed
differentiated
reconfiguration
##flective
traverses
microcaps
answering
squeeze
strategies
tethered
concealed
aspiration
supers
indentation
indentations
##olecular
discontinuous
examining
shortening
001
telephones
thorough
interrogator
cyclohex
vaccines
microfluidic
electromagnets
bait
duplicate
preheated
##treatment
imaginary
extinguishing
meniscus
chelating
bimorph
helicopter
nanofiber
intracellular
prolonged
impervious
subdivid
swirl
vertebrae
incontin
athletic
monochromatic
recoil
gesture
thyrist
skimmer
predominantly
sieve
cholesterol
eryth
dictionary
##immune
chamfer
advancement
uninterrupted
principles
injuries
monoclonal
timestamp
terrestrial
36
55
avi
dent
evol
fd
fid
gut
hund
hdm
io
jar
lane
ore
our
pant
rc
rug
sizing
sio
tent
tactile
vm
##cibly
##comb
##lined
##bul
##iving
##iency
##ipped
##van
##vations
##pad
##phenol
##fly
##inations
##oned
##erge
##att
##atric
##orrel
##enable
##eners
##ecraft
##icc
##icin
##arth
##stone
##leg
cohes
cogn
forcibly
##urine
##igen
##odor
##ulding
stall
stomach
##abular
beating
reorder
incompl
prize
ald
##imidaz
##vical
cha
##ifiers
adversely
else
motive
moulding
##istrib
##roless
electroless
outbound
outrig
shorting
soon
asser
assured
assurance
hepar
heuristic
clipping
##ellation
##oretic
phant
emf
desicc
diverse
diaz
##arged
regimen
insects
lightly
flocc
patent
reduct
redistrib
multim
multilay
multidim
reducer
variably
##establis
nebul
brand
liners
idler
##tility
treadle
grab
##phase
refined
month
##times
preferentially
converging
##valently
quench
collective
cattle
inserter
threat
##othermal
armrest
compresses
opposition
offsh
engineered
inflow
describe
roughen
cyto
carbons
dimming
recordings
cardboard
transporter
##viral
##ilyl
changeable
achievable
##scale
wrink
writes
shiftable
optimizes
thermometer
pinned
maximized
delaying
resinous
encodes
approved
constric
inks
##oxygenase
retrore
normalization
##hydric
repeatable
jointly
constructions
metallized
strengths
dependencies
instrumentation
resiliency
bales
splice
splicing
accumulates
sulfon
allocate
acceptance
burden
clutter
temporally
stressed
spacecraft
suspensions
resolved
labeling
detachment
boring
towel
gradation
trainer
contaminating
occupying
gravel
gravitation
restrictor
peptid
simpler
immunity
bypassing
propagated
numerically
fragrance
notified
owners
burned
homogene
influencing
dissipating
reflections
constraint
intravenous
orthogonally
attract
slower
flags
hypoderm
odors
victim
momentum
solely
bends
braze
psi
bleaching
eccentrically
premature
misc
imparts
subtraction
military
magnetized
stereoscopic
acrylate
abstraction
disturbances
autoimmune
ohmic
paving
deactivate
interleaver
interleaving
sunlight
scraper
thrombin
retailer
deleting
stitch
shading
agitating
grayscale
undergoes
thoracic
scrubber
loosening
inhaler
##quinone
pollut
sterilizing
educational
innov
bromine
beveled
briefly
agonists
neuronal
aesthetic
enforcement
polynucle
intimate
featuring
erasure
ergonomic
disadvantages
rescue
autocorrel
obturator
hvac
unstable
stoichiometric
gauges
septum
osmotic
shackle
anhydrous
submersible
biosensor
dissimilar
tyrosine
fountain
policies
photochromic
incontinence
hundred
heparin
multidimensional
offshore
hypodermic
1h
ben
bare
craw
ceph
doses
days
fp
fog
fra
gh
hm
hit
jos
ker
lace
lands
lengthen
ml
mason
mtc
nest
none
rd
rn
r1
sab
ties
tax
tern
vas
vents
vise
wel
xml
##dles
##last
##lication
##liness
##aign
##toc
##tub
##take
##ii
##ios
##pa
##pit
##pip
##oplastic
##gens
##rod
##itone
##anyl
##arate
##stro
covalently
##elting
##emic
##osine
##agable
reven
reestablis
##amid
debit
trun
usual
##ococ
metast
plans
pliable
##ritic
spun
sport
recent
##ighter
##ferves
formable
subnet
##pls
sex
seven
interesting
##forming
cane
arched
preemp
poppet
##energ
receivable
percutaneous
extensive
timely
teach
cornea
insens
volts
fluent
confine
flute
solv
slipp
dispatch
flowpath
polyamine
polyamines
noisy
capping
brings
shearing
##heses
trem
associations
##ectious
contactless
monetary
nonwoven
characterised
analges
descending
cutters
cheese
minus
infectious
frontal
erasing
crossbar
crush
crushed
changeover
newsp
installations
knot
medications
halft
stacker
ett
telem
sampler
sealingly
fulf
realize
##icious
exciter
nitrate
railway
constellation
massage
masked
##olyl
potentials
##oster
classify
melamine
tensioned
decoders
disperse
footprint
pharmaceuticals
depleted
hubs
laminations
retrieves
phenoxy
stimuli
tagging
cathodes
urinary
breakaway
clutches
resolve
correlator
illuminates
approximation
reconstruct
depths
velocities
strikes
mutation
mutations
heterocy
pci
##ocyte
explor
antibiotic
guns
spoke
validated
dialog
transceivers
fibrosis
strainer
observer
mailbox
pneumatically
emerging
multich
multicasting
titanate
collectors
deployable
provisions
decomposed
reactors
influenced
dissipated
##anoyl
cavitation
electrochemically
fetal
##ocyanidin
neurolog
##thalene
subsystems
encrypting
seek
seeking
electrophoretic
aerospace
##agonally
annealed
##imped
##ketone
invented
scales
distinguishing
traversed
aims
efferves
##ephson
tomographic
photodetectors
pitches
dumping
jamming
iterative
dramatically
reclaim
shipment
micromir
ecg
conflicts
slabs
precipitates
harmonics
irregularities
daily
revolutions
pharmacological
fungal
preheating
education
adopted
waterproofing
utens
triazine
intercepting
thermostat
icons
hormone
aesthetically
methacrylate
hepatitis
glazing
lottery
misfet
cockpit
campaign
launcher
vulnerability
dolly
##benzene
sedimentation
decrypting
electrosurgical
archery
dataset
cruise
atherosclerosis
trocar
wobble
perceived
irrevers
trapezoidal
honeycomb
research
intervening
servom
spontaneous
embodying
soybean
##plasty
historical
unmodified
gusset
microcapsules
hdmi
phantom
multilayered
josephson
masonry
ternary
effervescent
42
bs
bron
bomb
cue
dice
flying
fibr
grom
guit
hay
hun
hall
killing
lam
nap
nets
nmos
pp
p2
pend
rental
racem
sod
som
sitting
tar
vat
vag
xer
##ray
##com
##cers
##bell
##benzo
##uitive
##ped
##ky
##gp
##38
##80
##inine
##inement
##esaid
anth
inversely
##tid
##rose
##econd
##stage
##elle
##emis
##ectant
proanth
##oding
##osal
##oside
ont
withstand
##othe
##otox
##iltr
##mentary
incand
##adiaz
trend
##ocarb
##imens
##imited
##hertz
leach
spur
recall
recently
recycle
transester
##omic
##omial
##omfort
union
unus
unenc
unipolar
subp
subframe
survi
sog
sucked
relies
prefet
modal
peritone
phy
phasing
carcin
rotations
dipping
diagonally
timings
cortical
##entif
scar
blended
arrest
##odyne
slack
##epine
sideways
flowed
polyesters
aggress
##ribing
bracing
weir
waters
##hesia
computations
networked
expense
operationally
deleter
decodes
##ancer
##porous
pathogen
equations
multiply
backs
backpack
##uple
catcher
permiss
sms
caliper
armor
alkanoyl
compressors
flexing
flexed
discomfort
facet
##text
photography
##ropyr
logging
glenoid
##electrode
gearing
distributes
aligns
organism
fabricate
crc
antigens
bush
sliders
##zzy
planting
dispenses
shifters
introduces
shovel
torqu
encoders
threading
legacy
exhausting
counteract
audiovis
drawings
distributions
copied
##alkoxy
instruct
cyclopent
diffuse
nanometer
diseased
##mosis
stabilizes
phospholip
baler
corrections
focuses
sulfonic
amongst
snug
gains
predictor
predictable
raid
drums
elevating
cathodic
bullet
oscillatory
femur
multiplic
aiding
aided
grids
detaching
startup
foamed
phosphorous
phosphoryl
evaporated
barrels
viability
violet
architectures
suppressor
cooked
fibres
factory
spinner
combiner
sawing
referring
wetted
prostate
collars
ipv
mandrels
neutralized
burners
bootstr
participate
disconnection
decomposing
merely
distinctive
tapping
upwards
immersing
rectification
rectifying
attracting
reels
sharpened
##iphon
popular
centrifuge
cracks
hexam
uncertain
monovalent
perfusion
restrained
principally
injured
considerable
intelligence
frost
transients
aiming
aimed
paid
fluctuation
solubil
mercap
airfoils
photographing
raceways
certificates
unlimited
pellet
surfactants
dipole
lapa
quantitatively
jamb
delete
ideally
lungs
relaxed
aforesaid
sputter
agitator
prefabricated
embossed
hermetic
mitigate
scrambled
stretchable
shortened
destructive
wicking
005
aberrations
disruption
bosses
scooter
skills
html
morphology
licenses
delimited
carboxylate
perfluoroalkyl
culturing
ornamental
holograms
mitigating
emphasis
citrate
heatsink
stereois
##ophosphate
contributions
galvan
pipelines
competitive
codewords
throwing
scenarios
eyeglasses
conversation
clogging
nanoscale
wastes
uncoupl
corrugation
uncovered
snapping
barcode
foodstuffs
##pressure
##ophageal
terephthalate
hydrogel
##oglob
liposomes
grafted
grammar
muffler
proprietary
bioavailability
turbomachine
advertiser
gravitational
fraud
sabot
slippage
neurological
proanthocyanidin
incandescent
deleterious
audiovisual
44
ast
bire
craft
din
finder
gasses
hat
hock
hog
kill
lv
lasting
mor
pup
pav
pendant
sir
sits
siding
siphon
tell
vest
zener
##lers
##lines
##turb
##upp
##uous
##pu
##produc
##sors
##oic
##zers
##mf
##wed
##fets
##fring
##kens
##heating
##inating
##onia
##erated
inb
inbound
instructs
##requ
coke
cones
isl
##ursion
##urgy
##ectomy
##osomal
stalk
##olum
##agers
composing
bean
reacts
rejected
##ille
##amides
##amoyl
ending
trib
trends
##ondens
##apers
securable
##imidine
reside
chron
chord
systematic
spig
##istor
##ominal
##force
uni
unified
unaff
unavail
intestinal
##cessible
subt
shares
arbor
detents
reload
poison
clasp
##uctures
perturb
endcap
##opr
commin
desulf
##outs
diol
scrip
insectic
confines
lives
##hedral
flick
flamm
swept
slic
slanted
##eping
airline
polyisocyanate
lob
loan
loom
variability
distant
embr
repelling
##wards
watertight
hydrate
expir
expired
notably
magnitudes
radiop
granted
leveling
numbered
refres
monol
monot
adapts
nonc
verifies
headrest
diges
preferential
convertible
pathogenic
shaving
##icking
quiet
multiprocessor
panor
readers
microchannel
descent
international
alkoxide
alkoxyl
fuzzy
infiltr
instanti
capacitively
photos
polymerizing
bottomhole
roots
##henium
grey
crossed
togg
##iotics
horse
clocked
knead
frit
frang
optimizer
routines
somewh
screened
bread
proximally
realistic
profiling
hydraz
excursion
##alkenyl
pulsation
##osting
interposing
damages
reinforce
entrapped
recognizes
raises
circumst
nucleus
laminates
generalized
##ycles
applicability
picker
breakage
fitness
resolving
circularly
destinations
relational
pressurization
borne
aerobic
lips
stems
relaying
reciprocation
customizable
igniter
termed
clearly
midpoint
restrictive
interferometric
chroma
viable
dialing
intersti
elastomers
garage
garments
milled
purchaser
hereto
pools
notifies
publication
regenerated
conforms
conformal
supplements
decompression
diverting
diverted
110
sulfuric
invari
precursors
goals
economy
intermix
graphs
overcoming
dilute
sticking
descriptions
savings
##ochlor
denotes
pyridyl
electrophys
electrophoresis
regularly
anneal
alphanum
weakness
oligomers
evacuating
recirculating
sustaining
vegetables
computationally
squeezed
nutritional
stamping
reviews
getting
household
complimentary
hazards
discontinuity
mrna
##afe
averaging
precipitated
turbulent
afford
affords
informed
outcomes
microsp
http
sewage
sterilization
##carboxylic
utter
interpretation
dpd
angiogenesis
cultured
dealer
imagery
cultivar
demultiplexer
renal
agonist
hormones
polynomial
liquefied
dislodged
appearing
carbohydrate
inaccessible
acknowledgement
kiln
anesthesia
descriptor
opportunity
bistable
glycop
professional
years
##orphic
phonem
skeletal
troubles
permutation
caroten
ultrafiltration
feasible
equivalents
cubic
arsenic
discrep
incomplete
desiccant
retroreflective
benign
welder
insensitive
telemetry
grommet
guitar
peritoneal
birefring
somewhat
alphanumeric
2n
29
72
arom
bid
bud
cra
dac
fist
garnish
hitting
jav
mgo
oled
pod
pestic
rid
rut
riding
sap
sash
tu
tm
tine
tuf
tines
ui
uw
voting
warn
##di
##ru
##ycin
##list
##bum
##uv
##pted
##sive
##ship
##oh
##fr
##fusion
##enically
anil
inactiv
##alanine
##tier
##tibility
##road
##anone
##arine
##etal
##accharide
##elines
isocyan
##urant
##isk
stake
##absor
ores
##uses
compet
rebar
revised
reamer
depar
deenerg
asper
aspart
inco
ack
trick
allyl
##ocated
##oconical
metat
leaking
systemic
spins
recuper
moments
transp
unp
intact
parsing
##ermaking
##alloy
##ipient
##acking
circulator
##atest
preprocess
preampl
strat
safer
valence
valley
endoscopic
imposing
##oglyc
emiss
diaper
diaryl
regime
##endar
sciss
scrolling
insole
uptake
blog
engagable
sloped
multifunction
airport
##iller
polyaryl
distally
repell
holster
baseball
##itimate
expend
expelled
radiol
grinder
actinic
mats
maturity
worked
workspace
microstrip
designates
calendar
conca
topography
resistances
infin
treats
glide
corrective
extraneous
amplifies
continuation
minimization
softened
rodent
webbing
lifts
precast
precondition
knitted
potable
saline
saliv
hydrogenated
fuller
counterweight
atomization
atomizer
copier
##olysis
localization
##ughter
transforms
lumens
screwed
metallurgy
cabling
damasc
triglycer
searched
resident
reproducible
sno
##yme
inflate
animation
dominant
ensured
tagged
contracting
breakpoint
illuminator
archive
reconn
##bolt
tightened
grooved
vibrate
painting
mutants
orthoped
relays
foams
concentrating
searchable
summation
inspected
fuser
translator
esterification
architectural
therewithin
roofing
bowel
tripping
triangle
touchscreen
gelatin
disengages
spacings
adheres
repaired
sinks
purchasing
hypervisor
trucks
multicolor
dissolution
##oscopy
notify
tolerant
provisioning
thrusters
raman
trimmed
diverging
merit
occurrences
glycine
buckling
restorations
books
electroconductive
tapes
dyeing
fundus
degraded
fetch
prepreg
##glass
sharpening
histogram
sticks
premix
diffusing
sixth
harvested
employment
penetrates
inexpensively
consequence
microscopy
microscopic
stapler
undoped
judgment
ethylenically
weakened
hydrolyzing
confirm
oligonucle
binders
##anthin
cosmetics
arbitration
figurine
pdp
hulls
washers
cartons
strategically
collimated
luggage
reformate
difficulty
proceeding
##structured
peltier
##rosthesis
tenant
proliferative
weapons
gastric
osmosis
flattening
pharmacologically
sulphur
notebook
herbicide
herbicidal
innermost
neurode
alleviating
mpeg
rhiz
dtmf
spills
claws
defibrillator
suggested
##fluoroethylene
vocabular
frustoconical
rheum
bookmarks
sonar
glycerol
collaborative
consolidated
queuing
queued
credentials
anticipated
inadvertently
protuberances
summary
papermaking
enantiomer
trauma
abdominal
disparate
analyses
photomask
headlamp
ophthalmic
parabolic
emphasized
microparticles
butterfly
thyristor
outrigger
roughened
miscible
innovative
autocorrelation
cephal
##ococcus
bronch
aggressive
inbred
spigot
unaffected
unavailable
frangible
utterance
uwb
orthopedic
bodi
bids
dither
dash
eep
eigen
fring
fading
gop
gaining
gsm
hc
hoses
habit
ib
junc
kid
luer
mu
mit
nk
national
nesting
pests
rene
tx
taps
vig
##rine
##around
##td
##turing
##belt
##vet
##vasive
##uity
##oot
##ouple
##zable
##methyl
##wood
##witch
##fc
##fire
##hill
##habil
##glyc
##xyl
theore
##initi
##atility
##atoid
##enec
##entive
anc
inher
instructing
##alum
##tium
##itin
##iters
##itant
##itory
tokens
##anil
##aric
##leti
coenz
isobut
##isible
##asic
progn
##odec
onc
staging
staged
stuff
##abin
##ilst
deinter
deactivation
deodor
enj
trist
tryp
traps
##imides
##imidin
rese
chatter
wheat
transd
##acetic
signage
##forward
intuitive
parison
subchannel
seaw
interd
interactively
shore
shots
shirt
candle
sought
comon
##ardi
##ards
rely
preview
str4
pluralities
##opor
##opathy
selen
##aryotic
emi
presentations
tearing
inset
upgrade
lightning
serrated
arrange
structuring
flam
flared
overm
swell
electroch
freight
configures
efficiencies
sideband
flowmeter
##illus
indium
amid
amyl
polyhydric
deficiency
retin
campt
##estr
braces
braked
baseplate
whilst
##unctional
expelling
noted
adjustability
##gear
directionally
grape
deline
deciding
digiti
##etery
backsc
electrodeposition
pairing
##structive
panic
worker
microphones
keying
energies
smelting
underg
prints
portfol
cleats
capacities
photonic
fiberglass
subsets
login
roasting
##etherketone
polling
camming
cardi
addressable
changer
cleanliness
achievement
standoff
clockwise
absorptive
ionized
planet
knives
lathe
replicate
ballot
haloalkyl
potato
registrant
formulae
developers
chemother
thicker
equipments
sometimes
catalyzed
postal
posture
equals
equalize
antennae
legitimate
necrosis
synchronize
synchronizer
costly
##ceptor
affili
demands
sprite
##ographical
##hydropyr
##azol
##azepine
accelerates
screwing
mirrored
differentials
vaporization
lighted
melan
dispersible
phosphors
oxidizable
reproducibility
##ishman
entang
entails
bladders
diagnose
inflating
nucleation
photoelect
photoiniti
dopants
expansible
contracts
plantar
correlations
consume
reconstit
accomplishing
graphically
vibrational
spreads
grafts
refrigerated
evaporating
welds
instantly
squares
tumbler
pedals
propellers
##ynt
brushless
relieve
mailing
##assembling
expert
risks
owned
foreground
businesses
participation
aggregates
divert
tetram
outwards
recyclable
tapped
tappet
bubbler
goes
wooden
occlus
rectified
prepay
absorbers
neurot
scratch
overcurrent
flagged
bathtub
physiologically
satellites
microbes
contributing
foils
tunnels
layouts
smartcard
boosted
explosives
incrementing
mmol
stereophonic
cannulae
judges
amphip
myc
automobiles
migrate
confirming
cancellous
binds
basketball
trajectories
deactivating
heterojunction
styles
cascade
keto
flops
echoes
laptop
antimony
widget
ascertained
definitions
iterations
durations
pelleti
micromechanical
stranded
##ovsk
stowage
dihydroxy
interrogation
puncture
daughter
displaceably
eggs
subcircuit
sewn
herbicides
prophylactic
gallium
quantify
phenomena
bristle
pierce
misaligned
evident
cemetery
learned
methacrylic
strept
agreements
interpreted
distraction
orbital
scenario
precludes
eyeglass
upgraded
descriptors
recommendations
inadvertent
##kinin
convergent
convergence
touching
timeslot
epidermal
recombination
overhanging
voxels
anomalies
##iaxial
merging
mortar
dehydrogenase
miniaturized
pontoons
besides
pruned
umbrel
sigma
spectrometry
brick
rhythm
coexist
##osilicate
rerout
supersonic
subdivided
revenue
teachings
tremolo
fibrin
##emisinic
##othecin
permissible
scripts
flammable
circumstances
heretofore
invariant
departure
polyaryletherketone
damascene
neurodegenerative
bodily
coenzyme
camptothecin
backscatter
38
98
api
big
buc
bts
cystic
du
dow
dns
epi
elution
fry
gan
gang
gib
hatch
jitter
kv
lure
nond
nand
oily
panc
rms
sit
song
sclerosis
silyl
trol
tuck
veter
wi
wants
wish
youn
##rh
##cm
##cer
##yalty
##lam
##ao
##aire
##tky
##biter
##vas
##uated
##pent
##s3
##siloxane
##oin
##ovable
##mill
##finder
##hma
##20
##94
##11
##heft
anoxic
ankle
##tie
##tivation
##icip
##arin
##stop
##stood
##etallic
coc
##idium
isopropyl
##isher
##asi
##ashes
##ema
provis
##odal
##odial
##ucine
##osa
##ospor
onu
stated
stance
statically
strict
##oll
##olone
##usage
compiler
rejecting
##ilament
##amins
deg
depart
byproduc
tris
trash
tracer
disapp
alia
##ocating
placent
opio
chond
##bers
leishman
adduc
adult
spans
##izoph
uncon
uncont
##cholester
subband
canonical
arbiter
thereab
circles
sausage
modality
perovsk
##oreal
##ophenyl
abuse
emulation
desires
team
cortex
scsi
obstructive
drivable
served
swath
swung
slicing
##eps
multistage
americ
polyl
substructure
brass
brady
weaving
vein
movie
passband
exped
expel
idling
notched
radiographic
radiators
depot
frequent
grant
associates
stepwise
refuse
decl
shaper
nona
hoisting
converge
pathogens
hydrofluor
quoti
quasi
identifiable
adders
comparatively
##oxane
characterization
fixes
additions
microporous
energization
undert
undercarri
understood
designer
designate
calor
encasing
relev
infarc
portability
fueling
discern
joystic
feeling
photometric
butadiene
cools
logo
logar
coloration
polish
streamlined
technician
cerium
antihy
busbar
prioriti
dyed
seatbelt
skis
skip
##avon
propel
installer
salic
viewers
catalytically
shoel
turbid
finfet
plastically
dividers
synchronizes
atomizing
runway
fluoropolymer
reservations
checker
##axial
dementi
posit
lumbar
##ostatic
reductions
negatively
dispersive
hosts
splits
necessarily
suspected
slideable
entirety
hooking
powdery
exhibited
interrupts
##service
synthesize
bounds
listening
deforms
pressurizing
##holes
versus
versatility
gradual
contaminates
ortho
heterodyne
customize
straightening
summer
abutted
translatable
immunological
immunogenic
failing
responder
sentence
piling
biomaterial
adherence
relieved
fragile
luminaire
herp
languages
crankcase
booting
spools
invisible
industries
stiffener
benzotri
deformations
pyraz
originated
##rousel
electrocardi
courses
netting
fractured
attracted
vitamins
meanings
meanwh
##web
attempted
solenoids
smartphone
denom
tendon
incrementally
preserves
snowboard
consequent
epithelial
extrudate
thiop
stapling
judged
judgement
fruits
throttling
merchants
hydrolys
attaining
undersurface
deeper
importance
scalp
##frames
downloaded
2000
figures
batches
transmissivity
modems
neighborhood
wraps
cascaded
ferrite
payloads
transponders
getter
companion
companies
monolithically
crimped
dogs
##screw
sanitizing
susceptibility
affording
iodide
obliquely
conserving
conservation
##renia
robustness
prismatic
subcode
injects
mimo
dehydration
encircles
accompanying
alerting
##charides
cadmium
intercepted
detonator
reasonable
obviates
excluding
govern
rename
benzoyl
schot
schizoph
preliminarily
reveal
frusto
lesions
yawing
street
c2gnt
hepat
permissions
cleansing
diminished
anesthetic
potentiometer
disinfectant
leukemia
upgrading
opportunities
munition
municip
dangerous
dermat
##osilane
published
nicot
compromising
biofil
timeslots
sternum
unintended
ambiguity
myocardial
stanchions
orbiting
intensifier
reassign
subcarriers
warehouse
concealment
lanthan
reshaping
intentionally
##ellulose
comprehensive
auction
nacelle
antitheft
coalescing
snapshot
dewatering
maltose
rugged
pollutants
fpga
analgesic
multichannel
torques
uncertainty
mercapto
islands
interstitial
java
ruthenium
tufts
incoherent
preamplifier
saliva
vocabulary
rheumatoid
eeprom
juncture
theoretical
tristate
transdermal
seawater
electrochromic
proviso
##cholesterole
undercarriage
antihyper
meanwhile
schizophrenia
c2gnt3
municipal
ah
azo
aze
bac
bite
brown
cmp
crest
dbac
dwell
fc
fres
fasc
fpc
gc
gard
gross
hue
hsp
jamm
kite
kios
lm
len
lac
lut
lav
litter
lanes
liter
lacti
ldd
ny
pest
psor
ras
sill
sighting
tl
tach
tending
tipping
tdd
trolling
vasc
vsb
wishes
xanth
ye
zer
##dl
##ran
##yd
##aic
##block
##eties
##iation
##iab
##oves
##ouf
##nac
##zes
##wis
##hn
##high
##hist
##inone
##infl
##orot
##oresist
anat
anom
inoc
##tiles
##rout
##itely
tourn
tough
##etries
cod
coater
coco
forest
##idents
##isc
##isite
propp
prosp
thall
thaw
##oded
##uce
##uccess
##uches
##osyl
##ulo
stump
stuck
stays
##olu
##agland
##usher
rever
rewr
reactivity
rehabil
##otation
##otted
##amb
##amically
deoxy
prone
alg
alga
chilled
levitation
lewis
spa
sperm
transpl
secondly
unde
parental
paraff
subassemb
subcutaneous
subrout
##rically
##formable
canvas
assumption
circulates
inventions
relying
pregn
struck
saves
poured
poker
clath
##yll
##ffing
endop
endogenous
imposition
##oping
phr
cars
cartil
united
diac
corne
scul
scored
insuring
insulate
capill
##rypted
presser
blasting
arrhyth
confining
adjunc
curc
locom
##hedron
flotation
oversp
overwr
swage
redirect
slant
flowers
##anner
polyoxy
polyacryl
polytet
polyhydroxy
nostr
loyalty
varieties
embry
gasifier
##grid
ids
specimens
channeling
##gee
wallet
gras
associative
drm
drape
##ysate
decide
monop
handg
nonin
nonionic
digester
converged
hydroc
semiconductive
quote
mixers
feedthrough
therap
backw
backstop
guest
determinations
oxal
automating
microd
microw
microgrid
keel
energizes
utilities
transferase
caustic
designator
indices
barb
simulates
alkane
alkoxides
singular
linker
infiltration
needing
creep
butanediol
stepl
sheeting
camouf
purs
##fully
probing
organizer
cervical
crosses
antistatic
antihist
visco
drivingly
tracker
knock
replay
