[PAD]
[UNK]
[CLS]
[SEP]
[MASK]
!
#
$
%
&
(
)
*
+
,
-
.
/
0
1
2
3
4
5
6
7
8
9
:
;
=
?
@
[
\
]
_
`
a
b
c
d
e
f
g
h
i
j
k
l
m
n
o
p
q
r
s
t
u
v
w
x
y
z
{
|
}
~
§
®
°
±
·
¼
½
¾
×
à
á
å
ç
è
é
í
ï
ø
ü
˜
̂
α
β
γ
δ
ε
η
θ
κ
λ
μ
ν
ξ
π
ρ
σ
τ
φ
ψ
ω
–
—
‘
’
“
”
•
′
″
™
⅓
⅛
→
∂
∇
∑
−
∩
≠
≡
≤
≦
≧
⊕
⊖
└
┘
═
□
##e
##n
##z
##o
##a
##l
##g
##d
##r
##c
##s
##p
##i
##t
##v
##2
##b
##m
##u
##f
##w
##y
##h
##j
##α
##x
##q
##k
##0
##3
##4
##6
##9
##1
##β
##5
##7
##8
##φ
##−
##λ
##μ
##γ
##π
##σ
##ω
##è
##ρ
##é
##í
##δ
##×
##≦
##ü
##ï
##ç
##≧
##±
##θ
##he
the
##in
##on
##er
##at
##ing
##ed
##or
##en
##es
an
in
##al
##ti
of
##ro
##ec
and
##ic
##it
to
##an
##re
##ar
##st
##et
##ent
##le
##ac
##tion
##ion
co
for
##el
con
##id
is
##ur
##is
##mp
##ation
##ly
##as
##em
##ir
##ect
pro
##ut
##ig
th
##od
##uc
##os
on
##ul
##ith
st
##ve
##ol
with
##ag
##ab
##ter
or
##us
##ess
##pp
comp
##lu
be
re
##ot
##ay
##il
##ow
##am
de
##un
cont
as
su
##hic
##ate
##ment
by
inc
at
en
are
##rom
##tic
pr
##ain
##ce
##ad
ac
tr
##ond
##ver
dis
from
whic
which
us
##lud
##ure
al
##oc
met
##able
##ated
includ
##ap
sec
##ans
ex
##vid
that
##ity
pl
##im
##ally
op
##ving
##age
##ri
sy
##vic
##her
##ign
##ating
##qu
provid
fir
##ition
res
ch
first
devic
##ber
le
meth
##if
whe
##ting
##stem
ad
one
system
method
sp
el
app
##um
rec
##ens
mo
##igh
trans
##ace
##ast
##ist
second
sign
device
##iz
##ach
ha
##om
##fer
##for
un
##ch
int
##ven
par
##cess
##ide
signal
##duc
##rol
form
##ine
##ts
##ted
##ater
includes
elect
control
sub
##ding
##etw
##pl
out
##erm
se
mem
compr
dat
##ous
inter
##ric
##ers
##ection
##osition
##form
having
##low
##ected
sh
can
sur
data
##vel
ar
##ial
det
##rou
so
por
com
##tive
##ang
##vention
##all
##irc
##ase
##ip
compris
##osed
##ther
conn
##ack
there
ass
##ati
least
surf
each
process
circ
##ates
invention
supp
##put
##ight
##ard
##een
##etween
suc
rece
##and
##uit
rel
##ication
he
between
##lement
pre
me
oper
str
sa
##der
may
##ator
po
##ermin
cl
into
position
##ower
##ock
##ural
##ener
such
##esent
##uct
##gh
provided
circuit
##yl
##atus
mod
surface
has
##cl
portion
##act
##str
recei
##ell
member
##ib
##ance
per
##th
where
appar
apparatus
##ore
val
im
##ff
lay
gener
##ular
end
##rough
##und
element
##ant
plural
imp
fi
##op
##ass
ph
##se
##og
##aterial
material
##ement
##ved
plurality
sel
produc
through
##ram
comm
ab
car
unit
contain
fil
##ub
##ary
em
des
acc
##de
##uring
##out
ext
##ence
present
##ong
rot
when
di
resp
##arg
layer
##ak
tw
##eed
##ust
reg
##ron
##tical
two
##ical
other
##end
tim
te
cor
suppor
##par
##enti
##ork
sc
##ech
##emb
dir
##formation
rem
discl
ins
transm
use
sens
up
man
cap
light
assemb
vol
##ue
##ecting
power
flu
ob
##ry
##enc
##ured
##so
##ient
dri
information
press
bl
##ves
output
stor
this
also
ser
arr
##mpl
dif
used
##ody
##ector
conf
said
appl
adj
including
li
##ile
struct
electric
##ft
##ied
it
##ased
controll
displ
comprises
##ative
moun
body
wherein
cur
being
loc
##tain
means
##hed
fl
##ations
disclosed
within
over
##ari
eng
##dition
sw
##ized
more
electro
mul
pat
sol
partic
red
fre
##tern
##vely
config
time
##agn
image
assembly
high
commun
sl
##ents
disp
compon
##ra
comprising
open
differ
eff
##les
att
##ep
connected
side
flow
##ies
multi
col
##ual
air
##ill
using
ind
cou
user
##ors
am
pi
##edi
fluid
hy
##ann
##ory
##res
poly
formed
display
def
no
##ably
reduc
coupl
substr
##iss
lo
input
pressure
volt
##echan
rad
set
sour
ret
hous
##ature
##ective
ag
vari
ca
dist
cell
##ound
##unc
allow
fram
emb
gas
##ner
rep
##rib
##ency
mechan
##est
bot
##per
swit
hol
##ically
ne
##eld
provides
br
##ite
curr
##amp
prot
voltage
housing
##ward
base
##one
wh
##ange
##unction
##ible
##ject
we
substrate
structure
fur
##ures
##ments
tub
remo
##ermined
##ording
##ane
water
line
current
arrang
communication
##iti
meas
she
comb
section
ve
##let
##hes
based
##ism
##eng
optical
main
##odi
temp
source
ax
conduc
comput
support
##amber
mov
pass
signals
##yp
##etwork
##roup
hyd
##gr
group
transmit
network
lin
memory
its
chamber
frame
vehic
##ud
exp
##int
wa
requ
##anti
##ail
##ind
id
not
##til
pred
bo
region
##ive
aut
tre
magn
##vent
##annel
##by
than
radi
during
##ages
further
##ire
embodi
impro
spec
typ
adjust
channel
##ior
switch
##ely
part
##ord
perform
##ge
##ility
operation
direction
##ros
wall
##ia
separ
liqu
num
##etic
##ose
dep
##ix
subst
##ution
temper
provide
vehicle
frequ
##lex
##ame
cons
##vity
liquid
##old
##of
##pper
valve
##ending
##oci
##air
gr
##ength
function
level
##ension
configured
associ
del
##ie
##ecti
then
##ph
pack
##ture
number
elements
mechanism
plate
mounted
relates
dr
lower
##ade
##ys
receiving
##pond
step
ref
##action
contact
metal
respon
##own
processing
act
dec
different
mon
##ump
hand
shap
sem
opening
cent
##ress
##ined
##otor
##ission
methods
adap
corres
sensor
particular
correspond
access
termin
resul
filter
inte
##anc
temperature
mic
##arge
providing
frequency
composition
value
medi
electron
##ired
non
devices
selected
carri
ver
##erg
identi
##por
##itor
##acter
##oun
all
heat
disposed
head
coupled
fo
application
39
cover
pul
object
##ling
substanti
low
containing
while
area
predet
do
##ule
dig
associated
storage
component
condition
load
##eter
predetermined
motor
forming
computer
##tim
without
seal
ho
lock
prefer
conver
##round
##onduct
electrical
path
have
##val
sha
##izing
equ
hydro
semic
compound
##ets
incre
##que
##ick
##onductor
qu
include
bi
##ectively
##aced
##ination
char
multip
integr
outer
##aces
identif
block
##ization
thereby
mix
##ream
add
specif
semiconductor
##ring
feed
compar
ther
digit
back
gu
##ox
rol
##ying
##up
##uf
determin
electrode
##ulation
type
pair
ed
ox
##ize
substantially
##ene
##inal
##struc
thereof
coll
mat
character
about
supply
fix
##ode
terminal
corresponding
pan
cat
##ke
##aging
along
according
anal
perm
read
inser
film
##lum
addition
autom
##gram
connection
drive
##fter
work
##ross
##ier
##mer
thre
actu
##other
##bon
cyl
micro
ke
##xim
energ
mach
##ference
sm
##urn
##iver
##atic
program
transmission
under
shaft
digital
##ise
##ank
beam
state
relative
util
same
embodiment
transfer
arranged
movement
##are
caus
design
##ects
##ration
##ulating
##its
##gen
acti
cal
field
roll
panel
##ount
conc
electronic
pattern
top
tube
components
extend
##ake
upper
acid
long
desc
response
##ral
indic
upon
wire
any
##tit
another
##ached
well
container
axis
both
phase
pump
obtain
bar
inner
sim
order
after
speed
arm
cut
members
che
##mal
resist
intern
enc
down
##pt
alk
##ability
compress
##resent
magnetic
energy
represent
opp
prin
##to
min
##ten
##asing
prevent
sing
##ential
##icient
module
if
rele
rotation
fu
##osure
flex
##oss
bott
off
engine
link
adapted
es
inf
single
port
fuel
attached
inst
need
ampl
force
ang
##osite
disc
improved
ring
fac
cle
extending
##te
product
tool
##acent
##astic
capac
multiple
systems
interf
##ulated
##tr
##ously
adjacent
monitor
jo
##atter
##gan
##ues
##led
treat
fe
##mple
phot
##hing
##ove
##arm
fiber
mode
amount
via
operating
describ
servic
machine
##aring
##cc
lens
##way
cre
mess
##uration
bel
syn
sequ
##vo
##ides
##less
subs
length
generating
located
##sor
wheel
received
deliver
##ining
##iod
point
##ird
but
period
controller
ma
refl
these
##pend
##rop
##red
cool
##aking
##pping
log
##des
##ront
allows
made
##itting
##itive
polymer
maintain
bottom
applied
thus
medium
targ
##vot
array
pivot
ro
positioned
scre
##ness
space
cy
gate
ste
##ome
##ines
capable
pres
sheet
preferably
##atively
location
##iting
gro
lim
contin
connector
##olog
desired
steps
front
again
test
third
##ufact
##ium
gl
manufact
measure
##ether
##elect
vide
##uted
##istic
color
prepar
treatment
controlled
their
pol
proper
tra
ge
##alle
interface
##ood
conve
video
mounting
reference
portions
determining
param
##agement
target
pip
stream
er
##rip
fixed
shaped
conductive
##struction
##hen
parti
detection
##medi
stored
transist
carbon
occ
fol
cam
##inder
##ult
paralle
##ror
##roduc
station
pur
##oy
inde
surfaces
corr
calc
rate
edge
dim
key
##ece
##ither
##ilic
controlling
parallel
##echn
initi
described
##ug
##ark
##ful
##ins
distrib
cells
flexible
##ases
mob
range
band
##jection
extr
pati
disch
small
amplif
techn
enab
various
processor
arrangement
spring
##ently
attach
continu
against
##ces
##br
internal
##aining
##isting
##ware
##ching
free
either
prob
##ited
##osing
##ially
guide
recording
align
receiver
##con
##ok
mol
organ
respective
carrier
coun
like
activ
##electric
##rap
artic
detecting
##abric
exh
cer
only
gre
direct
cross
##ty
tog
minim
extern
receive
values
##itud
active
##tal
three
card
##ivid
transpor
##ision
generated
fabric
together
address
detector
cr
solution
altern
will
wind
##ately
switching
fast
anti
service
##velop
integrated
individ
##ice
coating
configuration
##ger
bearing
##ules
##ument
chang
mobile
##vir
bit
seg
sle
central
##io
longitud
##ulator
clean
sample
las
producing
server
patient
##ily
##lying
content
modif
call
wave
code
eas
bus
lead
prim
##acting
outlet
characteristic
batter
vis
ach
change
board
compounds
##amic
supporting
achie
##ities
plu
##hy
##vol
est
been
soft
pist
##ere
##na
connecting
solid
##ask
core
##ula
play
coupling
dimension
manner
cry
new
radiation
result
cavity
##ety
particularly
##tor
##inding
less
rod
slot
size
prior
driving
laser
conditions
track
volum
weight
der
##aps
rear
##fore
heating
piston
hor
external
movable
dy
electrically
##ges
coil
mold
##over
##vi
chip
##ering
seat
cond
suit
tank
stand
selectively
follow
reduced
enh
slid
##ape
##omer
clock
useful
##actor
##viron
environ
cylinder
##xel
materials
cable
##xt
agent
##ort
determined
web
absor
##fficient
combination
embodiments
lif
vertical
##ograp
pixel
measuring
prec
##atically
sk
##atures
##eve
##resh
deri
##zz
flo
##sc
onto
lines
oil
defined
##ale
##tically
empl
##av
poss
toward
above
message
bond
inlet
10
locking
produce
battery
prop
adv
generally
phys
##aw
alkyl
##ties
ion
plan
layers
install
##idth
generator
specific
kn
remot
med
##amin
implement
clamp
##iew
lat
star
##ush
##izes
individual
opposite
##our
spaced
repl
##raw
handle
##pped
occur
wr
##ample
shel
actuator
ball
example
around
cylind
##rel
exec
hal
center
angle
fr
##itu
##ensity
##urb
pot
closed
respect
therein
bu
regist
concent
silic
moving
suitable
##usion
parts
common
reducing
variable
volume
passage
transistor
facil
##ique
stack
elong
formula
dispens
units
face
wireless
transmitting
##ually
diam
performance
compositions
induc
##eters
nozz
shape
si
et
cutting
nor
##cle
inside
item
primary
tiss
convey
sleeve
storing
mark
##ning
##aly
develop
##ipher
##ute
particles
mixture
logic
turn
motion
##izon
ends
horizon
communic
rotor
shif
##rical
generate
disk
environment
##ink
bas
chem
intermedi
##wardly
pad
##active
aud
pers
##eth
plat
series
interior
optim
##sequ
aper
anten
##ob
orient
##imin
peripher
loop
sal
ann
##vers
holding
media
monitoring
hard
tes
encl
receives
allowing
longitudinal
##oses
##omm
cryst
facilit
##acement
##ulate
exch
automatically
plug
doc
##ption
adhes
therm
##lumin
pipe
discharge
reaction
pulse
##ced
tele
distance
way
transmitted
case
rati
images
pin
##bo
##chron
node
vir
##acing
##aged
depos
il
asp
applying
blade
novel
independ
rout
electrodes
effective
placed
produced
cooling
tissue
thick
##aper
gear
hum
view
##ield
stage
##ermine
##apor
##conn
hole
maxim
hig
move
rotat
effect
combus
removed
delay
equip
some
was
introduc
determine
plane
interconn
roller
sus
##acts
sampl
door
additional
##iring
##entially
cataly
ground
later
post
hydrogen
sequence
screen
amplifier
sho
resin
carry
request
##ches
bre
##side
uses
radio
four
##pi
poin
##ole
record
separate
##ath
suppl
obtained
enhanc
convention
equipment
##acu
tor
dyn
remote
detected
sensing
wafer
making
##row
incor
manufacturing
turb
rotating
analy
related
combustion
directed
substit
measurement
whether
##essel
sealing
vessel
fin
ful
proxim
respectively
impl
ratio
thresh
encod
complet
accord
##idge
sections
inh
orig
charg
threshold
qual
person
here
positions
osc
##ler
oscill
saf
thread
delivery
accordance
across
plastic
option
equal
exha
gi
##lis
##ck
##cop
##verse
antenna
conventional
reduce
parameters
leg
box
oxide
designed
nec
buil
incorpor
exhaust
resistance
subsequ
products
channels
counter
software
cust
imaging
audio
thin
dielectric
real
divid
transport
##uld
##abil
extends
bec
##vents
simult
synchron
simultane
##gre
prof
strip
resulting
applications
programm
##sion
##stream
membr
model
cylindrical
table
pharm
atom
rest
circuitry
##romagn
glass
error
secured
organic
av
them
appro
removing
##phone
drain
presence
##ici
release
intermediate
large
outside
production
recept
return
tubular
nozzle
possible
required
ul
##ants
whereby
contains
hydra
adjustable
respons
thermal
exc
nit
run
##back
greater
cleaning
##ched
##ma
hold
rig
colum
driven
communications
spect
command
holder
isol
charge
client
rail
const
properties
super
characteristics
fa
##ablis
compens
window
##co
flat
setting
horizontal
elimin
column
walls
belt
continuous
accur
scann
linear
draw
cost
supported
camer
higher
circuits
chemical
zone
datab
groups
preferred
##cept
##aceu
increase
mechanical
hydraul
self
quanti
attachment
avail
fluor
sides
remov
polar
distribution
##ters
##rix
subject
defining
cop
mass
##ash
matrix
wavel
establis
inhib
##aste
##eler
##use
recess
efficient
inserted
printing
resour
quality
reser
##ibr
vacu
retain
##oid
##ening
##raft
easily
vacuum
##alk
regions
##acted
engagement
pharmaceu
structures
noise
##uffer
standard
##uck
##ogen
ink
secondary
prote
packet
herein
##romagnetic
instr
composite
near
##odes
before
##oth
drill
piece
buffer
width
instruction
initial
shell
diameter
aff
##tif
##itted
analog
rotary
insulating
sensors
thickness
rigid
pe
measured
cycl
sufficient
secure
physical
tip
distal
platform
adm
##void
plates
emitting
performed
camera
refr
##ific
diff
adhesive
mir
consisting
features
performing
synt
silicon
due
they
processes
##oxy
check
mask
##cent
treating
sat
##00
##ulf
controls
event
##piece
membrane
##riction
management
##ax
##ists
dem
capacitor
virt
given
wavelength
34
##oly
##uble
oxy
sever
results
database
ir
injection
##ibration
file
local
overl
puls
##osph
##ugh
spr
difference
retr
package
##acket
relatively
segment
avoid
##ographic
document
hydraulic
following
##jected
forward
crystal
##set
##ysis
directly
hollow
enables
constant
pos
estim
foc
##vision
activity
catalyst
removal
partially
rf
##hip
bag
certain
formation
analyz
bro
nan
available
selection
adjustment
##ances
increased
invol
action
reson
transform
accomm
preventing
absorb
maximum
accommod
hing
forms
##orm
##art
thereon
##ification
lamp
##ble
working
##rup
short
positioning
blood
levels
deriv
oxygen
##erc
carried
automatic
##tures
enable
tun
imm
potential
##board
simultaneously
lum
##ost
##oad
ray
##ilar
##ocket
decre
travel
points
operations
functional
anch
driver
torque
place
interp
class
##ave
##jecting
##etric
parameter
molec
elongated
##car
##hem
recover
brake
adjusting
functions
below
conduit
dynamic
operable
magnet
cause
limit
normal
##iciency
winding
converter
##hyd
panels
##az
##ings
enter
extension
defl
axial
dimensional
away
separated
even
blocks
pow
##ires
acceler
conductor
##ological
article
aperture
require
portable
conveyor
##iqu
engage
screw
##oyed
turbine
paper
##ded
construc
areas
food
identification
alignment
mirror
transduc
canc
contacts
##ified
reduction
##lock
cycle
insertion
medical
carrying
casing
sin
similar
changes
aspect
human
those
purp
stop
differential
objects
edges
operator
combined
barri
density
row
print
repe
advant
original
spray
hel
##ocol
grap
utilizing
joint
dise
protection
vapor
##lation
until
comprise
peripheral
construction
degre
##akes
anchor
grow
implant
upd
ear
users
##iform
analysis
ligh
moved
##ences
feedback
probe
does
retri
needle
admin
metall
signific
electromagnetic
relations
testing
substituted
administ
dc
##mos
stabil
chain
strength
neg
lab
waste
register
supplied
vary
##urity
contained
engaging
reques
word
##onic
##anding
transpar
terminals
mel
tension
proced
##ylene
generates
efficiency
compression
uniform
depend
telephone
responsive
fer
solvent
instrument
##lor
enti
lever
transmitter
protocol
bore
##ne
complex
acqu
sym
extended
##voir
##ropri
achieved
reservoir
significant
cab
held
##omp
included
expand
mixing
cathe
capacit
preparation
modified
##ging
##ton
##wise
thereto
exposed
##itude
barrier
fold
operated
printed
rotatable
virtual
tape
spe
decod
##ared
resil
##part
items
friction
##ucle
rein
##ceed
dispers
agents
##ression
appropri
phosph
##ology
##ished
select
oxid
annular
bal
success
##oper
correction
gap
plas
dry
selecting
diss
modules
passing
segments
floor
relationship
tab
disclosure
host
compart
fibers
positive
##pro
##table
##inc
connect
recip
receptac
spl
detect
dam
##unding
site
##eces
compared
optionally
preparing
emplo
##gn
trig
alumin
##uting
##uch
necess
reinfor
damp
rap
groove
profile
lid
##rete
elastic
fire
rapid
##izer
sear
previ
focus
projection
assign
variety
identifying
##oxide
articles
transparent
maintaining
resid
accum
reproduc
permit
enabling
game
sulf
vector
characterized
activated
susp
several
led
##pec
##ention
slide
guid
latch
resilient
vo
supplying
##ms
##ish
height
openings
permits
arms
timing
sources
catheter
interval
adjusted
separation
very
##ender
among
##queous
lateral
rib
bracket
airc
hot
##terior
ent
caused
index
concentration
safety
##read
##ishing
make
sn
##ones
locations
quick
causes
rotational
basis
reli
times
holes
cartr
wear
espec
existing
alloc
especially
gain
workpiece
accept
security
protr
create
skin
entire
bed
##load
transaction
unique
close
##ogn
retaining
aircraft
##ym
processed
aqueous
separating
conversion
independently
arc
protective
foot
hook
broad
powder
bur
##gor
predic
##aster
blad
compressed
ris
##arn
recogn
format
##ators
added
technique
pharmaceutical
bits
##head
store
receptacle
tel
total
sound
reduces
known
apart
##ern
ra
situ
wide
##zo
forces
circum
offset
feature
planar
##tivity
depl
diagn
remain
increasing
ev
infl
visual
condens
sliding
subsequent
constructed
nucle
##ret
structural
sheets
##valu
limited
proble
customer
scanning
hub
anim
exhib
exchang
lamin
engaged
amin
displayed
generation
authen
simple
exchange
surro
general
discharg
enclosure
negative
##lev
##ili
radially
drum
hydrox
clamping
authentic
bene
inver
##elding
photo
good
larg
cooper
utilized
retrie
evalu
feeding
utilizes
facilitate
appropriate
trigger
dom
phen
salt
plasma
vent
##go
interrup
effects
define
determines
steering
dispensing
shift
building
##iques
transducer
surrounding
blow
covering
represents
messages
techniques
##yr
tray
carb
ep
##gu
##hor
ens
##carbon
loss
indicating
smaller
##line
##verage
prevents
slots
enhanced
elev
interference
##andom
write
##ser
##ycl
outputs
protein
cartridge
dop
beh
frames
removable
ey
stim
shut
applic
displaying
tag
most
pulses
pick
heated
cath
ur
##epti
expans
specifically
synthes
pic
transistors
converting
causing
necessary
fing
random
wiring
contr
supports
axially
types
drug
sealed
break
charging
clut
sensitive
embed
##utes
sto
sets
tempor
jaw
acous
##atives
constit
equi
beams
##iv
##asc
next
whose
operational
installed
bound
##itation
exterior
improve
stress
additionally
facing
aligned
wo
##ear
##acy
intensity
die
radial
perman
insert
independent
au
##enu
stable
creating
plant
moves
smo
continuously
voice
fit
status
spac
comprised
atoms
##iliary
##ession
presented
loading
varying
suspension
nut
##mers
coord
amb
exposure
specified
ceramic
employed
advantage
bul
computing
installation
resol
closure
improving
vertically
changing
oscillator
##ulates
animal
fem
##jector
##itter
coated
heater
comparing
patterns
drop
##icular
contacting
therefore
correl
pivotally
bonding
aux
bone
clu
list
pay
##ison
shield
text
paths
molded
compartment
expansion
##encies
ultr
##anes
coe
stator
illumin
approxim
label
auxiliary
##lies
##from
##ites
##aph
operate
perpend
sched
consum
reading
downstream
perpendicular
deform
securing
exceed
therefrom
tubes
obtaining
manufacture
achieve
hardware
nodes
pen
circular
##ications
orientation
diagnos
domain
gri
nat
##ompl
##ather
##roc
prom
##ament
trail
##ffic
dest
##arily
ess
steam
##apeu
oriented
arch
able
flange
multipl
traffic
mus
relation
packets
##onal
displacement
substrates
wheels
easy
deposited
nitro
##ef
conj
proximal
metallic
factor
##ery
emission
scan
player
thermo
larger
ultras
vel
##sh
##iter
reactor
multiplex
threaded
derivatives
aluminum
clip
double
##tis
compact
##ended
pressur
conducting
molding
growth
##process
amino
lub
socket
til
remaining
pieces
yield
##gical
##sp
##oming
imped
remove
recon
electroly
defines
pairs
representing
subsc
aid
produces
therapeu
pixels
implemented
degree
cathode
##ively
##hol
##aches
alarm
grid
tracking
lubric
##ough
##here
detach
highly
depth
depending
partial
12
rack
##ilu
algor
modulation
switches
distributed
full
irr
algorith
failu
purpose
failure
20
bor
tow
rotated
mount
derived
hinge
manip
solder
treated
printer
coordin
veloc
leak
transition
rotate
##wall
##ised
thereb
accompl
assemblies
flowing
consists
partition
lighting
##dle
##bol
##hetic
transverse
suction
gases
conduct
substance
handling
maintained
resources
tight
##angular
special
compressor
procedure
found
##ps
##inary
##arrow
##odies
half
resource
acoustic
##ause
##organ
##arding
##atile
filled
chambers
##oxyl
capacity
graphic
clutch
vibration
once
adding
string
containers
particle
actual
calculating
minimum
sized
##uments
##ened
communicating
cup
##flow
##vement
modular
selective
identified
infr
quantity
embedded
fitting
send
##elf
##asting
hydrocarbon
instructions
acceptable
##uth
excess
detects
services
prepared
life
therebetween
aer
page
discloses
reflected
groo
stationary
recorded
eye
coefficient
bol
vers
vibr
##nel
##inally
chlor
closing
##ibility
amplitude
ambient
##mon
solar
start
dual
lip
##width
stem
spread
seed
integral
microprocess
divided
##mosp
picture
##ered
stri
##romatic
operates
abs
ability
otherwise
pie
grad
identifier
internet
towards
periphery
samples
eth
train
assist
deposition
rollers
opposing
complete
personal
gol
jet
##ert
impact
locked
releas
elongate
sampling
##olymer
fan
junction
pain
composed
surgical
##through
adapter
keep
would
how
##rors
contamin
##cep
cann
filling
velocity
fed
##lic
incl
atmosp
stra
furn
connections
created
lift
rotatably
##ising
uns
ports
cancer
sti
yarn
##ich
##osens
##umption
collection
because
programmable
##alkyl
involves
blades
mut
ow
orth
moist
relay
itself
loaded
bias
comparison
resistant
reciproc
essentially
heter
##itch
##atory
##portion
starting
fully
custom
impedance
piezo
ign
lea
effectively
temperatures
##lumination
illumination
symbol
narrow
session
term
##ming
stability
interest
angular
occup
bandwidth
fourth
##ero
##ild
##rif
valves
teeth
indication
matching
subsequently
gra
push
rub
##ged
##enz
stores
since
grooves
art
particulate
configur
foam
measurements
drilling
bet
sand
##cing
##tle
contents
##omes
##plastic
tubing
indicative
encry
steel
concentr
straight
##etry
reset
operatively
##oph
liner
improvement
typically
clear
calculated
encoding
##zing
##pass
##riber
clos
filtering
indicator
entry
subscriber
##band
##ench
proportion
##iger
alter
correct
search
mid
operative
refriger
pc
##adi
scale
capt
permanent
##jor
sum
therethrough
abut
insp
major
natural
##more
##icy
##ocy
diode
powered
curved
tree
increases
reflector
restric
pins
copper
##isf
author
furthermore
actuated
resistor
joined
introduced
running
affix
pressurized
therapeutic
task
##iers
coax
modes
directions
alkal
conveying
take
account
##aken
attrib
packaging
damage
rect
##ident
optic
interfer
##aker
bridge
consumption
basic
inhibit
requirements
fus
final
##pr
##king
insulation
##grad
requiring
converted
transferred
discon
reflective
polymeric
previously
broadc
resolution
cri
har
##atable
##ache
##ometer
dioxide
capability
assembled
identify
fixing
bonded
occurs
faces
mes
##ester
##ette
surround
porous
overall
##till
capacitance
phosphor
wound
zero
##rum
conductivity
calibration
destination
microprocessor
##amination
left
interaction
inputs
cellular
vehicles
frequencies
alloy
transferring
replacement
recovery
evapor
##acti
chrom
##ifying
engages
##anced
represented
wavegu
dispenser
apertures
master
##ex
stations
immedi
biological
property
longitudinally
etching
stud
transl
modulated
upstream
sidewall
actuating
opposed
geom
removably
##tes
constr
expl
concern
alternatively
leading
legs
cass
tire
##with
methyl
transce
schem
passes
floating
authentication
pus
##ride
##anted
placing
##ights
sense
##valent
determination
perme
delivering
priority
##cohol
ton
##ons
conven
str1
variations
##roscop
antib
makes
pepti
aryl
##gress
writing
simpl
norm
pads
disease
speech
exchanger
spacer
average
la
##iance
##lyc
reception
heart
photosens
button
quickly
female
##ders
##iness
cold
connectors
ester
ult
approximately
nitrogen
gun
interlock
many
barrel
released
##ography
dependent
fine
alcohol
spo
##ensive
valid
fastening
requests
circumfer
##atch
intended
pole
fluids
consist
concrete
representation
execution
archit
accomplished
normally
vi
##ever
##orph
##anch
##static
##ots
##ope
blank
braking
collecting
linked
rob
##ription
attaching
immun
dro
right
taken
##rag
##aling
revers
fill
regulator
neut
mixed
salts
routing
dial
que
##empl
stro
passed
coolant
molecular
conductors
golf
fail
weld
##inyl
offer
##ider
templ
count
leads
interconnected
piezoelectric
rectangular
sending
envelop
exit
intake
perfor
diaph
outputting
filters
##ways
compensation
fluores
##hydro
finger
moisture
rubber
transceiver
15
##zed
inters
respond
acids
introducing
peak
assigned
thermoplastic
architect
diaphrag
fat
sent
elast
outwardly
shock
suppress
transmits
instant
sequentially
technology
fastener
fraction
suspend
squ
##ster
apply
algorithm
events
iron
##atial
##ager
heav
attenu
permitting
automated
monitored
encoded
ultra
##icial
cook
##ulsion
therewith
emitted
pull
encaps
##brid
lifting
employing
binding
##ee
##anges
recognition
fib
tum
##arp
##luor
bypass
flows
ions
halogen
crystall
neck
earth
fact
projecting
strain
linkage
roof
etc
##ethyl
accuracy
diseases
##zym
codes
adver
cord
opened
ammon
blocking
fixture
activation
plun
incorporated
satisf
doped
cache
hybrid
keys
rails
accurate
absorbing
diaphragm
ped
welding
##tile
states
spin
obser
displays
mechanically
integer
##ounts
enhance
propell
depositing
bow
ic
map
pil
stret
tri
capture
flux
drives
performs
biom
room
fabricating
transformer
successive
benef
irradi
mac
##bal
##yn
##ulations
compati
training
cho
spatial
files
combin
tools
programming
isolation
establish
significantly
diagnostic
still
##after
##po
reverse
##amine
##ung
exerc
subjected
saw
manually
folded
render
touch
trad
connects
alternating
acceleration
mam
enzym
swing
switched
extraction
toner
refer
##rial
mouth
shi
pressing
voltages
identity
transporting
accommodate
wires
##als
tooth
manual
combining
readily
needed
logical
propag
employs
equipped
affixed
gel
gam
##hole
##onduc
adsor
appear
emitter
overla
cabin
electrolyte
bacter
ii
sensiti
shoe
##ascular
suspended
cush
mand
male
reacting
incoming
diseng
corros
slur
matter
absorption
infrared
plunger
cushion
duct
grip
taper
wet
anode
##rem
##imeter
flash
iden
covers
coils
completely
isolated
discharging
fash
##ude
##rot
child
spacing
extrem
variation
inserting
folding
addresses
visc
penet
fashion
gar
##ense
signature
insulator
slip
accordingly
actuation
links
rings
minimize
visible
communicate
facilitates
efficiently
repeated
wra
##water
##orting
##asive
prost
adher
phone
retention
repair
networks
alternate
thermally
spectrum
elastomer
mammal
30
lang
sink
##draw
iss
strap
brush
predef
substantial
analyzing
phenyl
50
aromatic
binary
cred
mill
##tally
##escop
withdraw
##herical
thereafter
relie
caps
collar
fields
indicates
indicia
join
medic
deflection
cassette
convenient
mating
stent
stages
static
orif
##ellent
manif
serial
biasing
errors
alternative
100
induced
dynam
safe
guiding
bulk
ultrasonic
releasably
orifice
hang
##amm
relating
pumping
sequences
dimensions
laterally
pharmaceutically
damper
synthesis
better
scheme
fall
ip
##ld
##link
chass
numer
grating
carriage
purch
frag
##neum
protrusion
telescop
promot
mandrel
predefined
chassis
mail
##ryl
##yond
##ental
beyond
##imen
preform
percent
hyper
distor
axle
covered
fabrication
documents
established
problem
problems
bodies
pneum
##osis
truck
emerg
corner
rolling
delivered
presc
washing
molecules
conjunction
identical
placement
serves
multic
branch
discrete
polarization
capacitors
balance
dissol
ensure
furnace
advertis
ice
##vation
##order
##anium
##oscop
modulator
##assemb
volatile
mechanisms
excellent
lumin
melt
smooth
gripping
##oxylic
template
18
taking
##aim
##eline
complement
polys
bars
waveform
stacked
etch
slurry
her
tit
##rate
coding
##ational
thr
##ulus
shared
pool
obj
polymers
great
supplies
synchronization
approach
eliminating
telec
waveguide
neutral
bump
reactive
show
soil
collaps
solids
incorporating
accurately
derivative
bolt
architecture
ga
gene
tail
##asp
##uture
exper
resis
notif
magnets
semi
risk
exceeds
own
broadcast
photosensitive
langu
pub
pitch
rates
##aff
##lay
##ats
##ables
regulating
directing
soluble
separator
corresponds
comparator
executing
television
viewing
drawing
synthetic
##eti
##bing
##edient
devi
##apy
scatter
collector
representative
##train
limiting
crank
commands
fault
diffusion
leakage
configurations
fitted
gen
rock
sil
fore
##ull
spind
dispos
##orders
gran
deck
##ancing
reader
slidably
shifting
charged
cables
rapidly
deploy
atmosphere
ignition
##exp
concerns
burn
duration
ether
##emp
##work
reag
##ands
photor
abr
bright
expression
boot
decision
collected
films
mapping
streams
business
cylinders
drawn
spool
lith
ter
toler
exempl
protecting
improves
query
keyboard
changed
becomes
refractive
lumen
rules
##bit
##uff
##wave
##herent
hair
particip
coup
reflecting
##greg
dispersion
version
disconn
critical
dynamically
distortion
rim
##arning
##urable
stat
reach
##iles
shown
flame
##ribed
criter
proximity
rows
drying
heavy
combinations
ingr
##iling
##aceable
shor
regard
regener
appliance
aggreg
care
sheath
extracting
copolymer
resonator
decoding
raised
trailer
ingredient
round
##ze
conform
##urated
provision
##osity
supplement
sensed
managing
electrostatic
amounts
decomp
##ressed
slider
sufficiently
schedul
inspection
immediately
envelope
thrust
dust
emp
wed
##icity
##actic
##irable
project
disorders
protect
individually
followed
moveable
retainer
proteins
bending
pocket
ram
##bin
##letion
react
provider
intr
subm
waves
numbers
machines
enabled
environmental
##ommun
administration
reliability
kit
wor
##ulder
trim
##omers
diver
controllable
mainten
bio
chips
nozzles
interconnection
should
shoulder
spectral
entering
hydroxy
manifold
maintenance
11
cd
hom
tet
ster
meter
outward
loads
integrally
match
fabricated
modifying
implementation
developing
eliminate
symm
previous
sulfur
behav
mer
mos
venti
yet
##sm
##bor
##fin
inv
##olar
acting
recycl
indust
##aneous
decor
accessible
shelf
development
retained
decoder
reliable
however
stiff
stroke
sensitivity
language
exemplary
cul
polyp
distinc
releasing
occurr
proximate
securely
decrease
degrees
telecommun
benz
glyc
sector
ta
##fts
##isition
stock
##ventive
claim
insulated
upwardly
##ancy
hydroph
influ
calculation
ballo
interconnect
dividing
purposes
administering
dissip
spindle
##ta
deformation
incident
entit
optically
translation
processors
heal
extract
precur
behind
applicable
bub
buck
go
last
py
##ley
##used
cand
specimen
utility
photoc
reflection
initially
resultant
developer
horizontally
polarity
retracted
accommodating
beneath
corrosion
tapered
##ground
##inity
##ano
##anol
restor
upward
cav
measures
book
grain
origin
immers
interposed
procedures
remains
sends
constrain
queue
25
dna
##rous
interactive
upr
electroc
indicate
job
##ethylene
resonance
hinged
oxidation
nucleic
evaluation
temporarily
bank
econ
latter
##bar
##upl
##ken
injected
##etary
cour
compl
intra
servo
protected
passageway
optimized
words
inverter
orthog
entity
econom
ap
hem
net
wood
inventive
acts
##rist
##ibly
radical
therapy
utilization
prevented
describes
proposed
remotely
developed
strips
interpol
updated
residual
health
oc
##ience
##uent
applies
weigh
exposing
biased
readable
microwave
molten
green
become
##oidal
shutter
dropl
##point
pig
tap
##ystem
ones
##ateg
##ries
rectif
filtered
carries
header
activating
minimal
dye
fract
optimal
holds
demod
retract
pneumatic
balloon
fund
gates
##igation
syring
signaling
assess
commerc
black
attr
sectional
cards
registration
concentric
programmed
paint
objective
nm
upl
##oti
##iac
degrad
spherical
perimeter
throughout
rotates
grinding
convert
cooled
polishing
rods
route
##abilities
acquisition
expanded
absence
robot
behavior
gase
mal
vit
var
##nor
##oalkyl
##ories
##reg
strong
##eller
division
amine
coupler
separately
longer
##ilicon
occurring
##versely
incorporates
split
damping
alkali
mesh
overlapping
gaseous
fet
##ext
progress
bead
exer
##fort
prep
mean
multimedi
##rest
party
additive
latching
executed
melting
guided
correlation
##ocyan
coaxial
multimedia
slow
tone
##aft
##enoid
beg
##elling
##ryst
magnitude
##ivers
cutter
bottle
##teb
joining
maintains
arrays
road
minimizing
playing
absorber
facilitating
inhibiting
estimated
reinforced
allocated
gravity
upright
cast
nick
ramp
##gl
##den
##tration
##fo
##urr
trench
tex
neu
whole
patterned
downward
periodically
turning
ribs
contrast
circumferential
aug
cp
dental
hose
raw
rather
were
##stit
reel
suited
undes
flight
directional
accessory
alkoxy
angles
communicates
establishing
focusing
ribbon
applicator
exercise
occurrence
candid
zones
spaces
##izable
intell
strut
##illary
discr
periods
fasten
##volution
columns
recipient
exhibit
takes
usage
interm
serving
calibr
correcting
##ugated
aligning
encoder
superc
compensating
eliminates
reinforcing
##organic
fluorescent
prescribed
binder
fuse
harm
lt
##ead
##ks
spir
unlock
##ucture
serve
curv
gluc
humid
help
graph
deployed
advantageously
syringe
nickel
past
##cence
##be
##esist
sharp
##iph
abnor
presentation
requires
princ
float
deposit
advantages
middle
industrial
abnormal
lic
pet
sizes
##uding
##idges
##urities
firing
phases
scr
branc
who
passive
grasp
accessing
conditioning
seals
designated
extracted
built
intervals
situated
boundary
gradient
polysilicon
bund
ol
uv
injecting
inorganic
##tible
##itten
##ises
##tered
context
pop
extent
overc
##isms
centrif
mixtures
crack
decreasing
deformable
curing
home
ole
##vant
##unch
##ify
##thal
selects
corn
flag
##hesis
lenses
springs
modification
marker
build
simultaneous
copy
##azine
connectable
accumulator
reproducing
burner
consumer
detachably
coordinate
cooking
precursor
ever
much
nam
sites
##word
reaches
debr
detail
##ipt
hex
##ogram
regarding
curve
subsystem
##avor
market
turned
aspects
##ogenic
speaker
compatible
credit
complementary
debris
bath
##mark
##we
priv
##ifier
emulsion
locating
hyp
allowed
passages
shapes
programs
movements
infection
precision
excitation
nitride
recesses
requested
expandable
discharged
square
couple
criteria
fif
hist
od
vic
##otive
##eral
##irection
lik
##ectivity
carriers
quad
microb
lengths
physi
replaced
enclosed
records
enhancing
receptor
satell
avoiding
functionality
##shaft
tilt
graphical
##icycle
dil
wing
##aled
##itors
##entric
coded
enough
acet
univers
seating
cargo
##encing
downwardly
finally
resonant
allocation
proportional
captured
factors
brightness
orthogonal
ded
stic
##fet
##ury
##osen
unc
sampled
costs
cannot
encryp
garment
cavities
40
jacket
##luent
prevention
colors
look
species
instance
pipes
alternately
catalytic
update
bill
ecc
pall
##get
##olet
contrib
interle
selector
diodes
attemp
boom
association
monitors
foil
pulling
mixer
description
patients
fastened
tracks
demand
elevated
elastomeric
distinct
jack
mot
must
put
##erior
toil
spot
moment
artif
saving
axes
electronically
periodic
pivoting
preset
manufactured
slidable
induction
tunnel
laminated
sandw
cabinet
emergency
##layer
bicycle
cement
dos
hier
mag
##uate
##etrical
sug
##och
unload
sole
receipt
layout
##rought
flip
solenoid
redund
radius
mono
adaptive
specification
facility
called
boards
introduction
completed
transactions
coefficients
viscosity
resistive
deployment
course
##stituted
hierar
bend
bra
lad
ps
##ampl
##cement
##esis
inwardly
##rob
beverage
contour
moreover
integration
smart
bands
calls
optimum
##going
stimulation
club
cluster
##activ
relief
photoresist
##rystall
every
bent
ble
den
sac
##icated
formulation
bring
##odium
depression
needs
sequential
presel
pipeline
externally
cardiac
transported
nanop
inflamm
schedule
inclined
titanium
deviation
wedge
toilet
brought
dose
nh
##bles
##wing
see
##ogene
filament
##ronic
passeng
boost
verification
implementing
profiles
scanner
checking
wavelengths
estimate
analyzed
tablet
jaws
symbols
encryption
closely
appearance
greatly
nav
##ipp
##orts
##tions
##othing
exist
interch
capabilities
metals
caller
environments
advanced
virus
returned
payment
explos
varied
universal
eccentric
ham
kind
pyr
##zone
##bag
##hest
##inning
##amide
transformation
##roll
##ipolar
throughput
expected
packages
converts
##ologically
detectors
##rown
exhibits
crystalline
60
ce
vinyl
##cd
##che
##ars
conical
##ided
##osit
firm
chuck
prem
perf
apparatuses
manager
capillary
movably
utilize
few
wash
stabilizing
retrieval
contaminants
geometry
interlocking
joints
public
fasteners
13
mis
yo
##light
##sis
injector
##standing
##iding
##ays
contamination
chair
##ife
unitary
dies
flanges
integrity
precise
tested
nano
##hemical
projections
##entioned
wearer
terms
capturing
pedal
preselected
fresh
tang
tend
##ian
##view
##tively
seam
circulation
impar
airflow
monomer
instead
root
properly
synchronous
anchoring
reciprocating
attribute
tumor
shielding
centrifug
zinc
##nas
##tin
could
##idirection
accep
restrain
unw
arri
modulating
emit
displaced
electroph
increment
guard
linking
preser
mobility
possess
loops
interconnecting
diffus
pickup
aeros
peptide
spiral
satellite
motors
fly
lig
mm
six
tong
##off
##xy
##els
##agon
entr
subtr
##ermost
meet
electricity
liquids
compares
microorgan
interfaces
creates
pivoted
convex
turns
screening
uniformly
snow
condenser
ultrasound
leaving
disposable
princip
bis
ozone
rich
##itic
##vis
tox
trace
cantile
##anging
impurities
##ubstituted
regular
slight
framework
characters
armature
knife
anne
posts
oscillation
recessed
cycles
overlap
fingers
animals
tasks
harves
dic
dut
##vable
prol
online
##ushing
##otrop
##itives
automotive
machining
flexibility
##inescent
employ
advance
execute
conveyed
optional
cyclic
focal
blower
mutually
ammonia
penetr
3d
ejection
gaps
mil
name
##bore
inexp
##ices
##artic
consequ
trap
chosen
##iper
regulation
##enced
flap
microscop
biop
microphone
glob
policy
ski
plants
diffr
dispersed
stopping
reagent
nanopartic
ease
pages
tens
##enyl
inert
##mpt
##ockets
##clus
polyester
heads
shafts
matches
electronics
wellbore
esc
pivotal
probability
servers
webs
written
protruding
arcuate
epit
sidewalls
adsorb
cage
sodium
inj
toy
asc
pressed
defects
magneti
pulley
hopper
guides
underlying
solutions
transportation
isolating
compensate
absorbent
circumference
##yclic
diagnosis
fatty
commercial
90
cig
cured
give
tv
##med
##fig
##arb
##isely
engines
attack
##iaz
substances
speeds
internally
subset
corrected
extrud
attachable
precip
shifted
##obic
highest
superior
helical
residue
reproduction
retrieved
temporary
illuminated
trailing
lubricant
detachable
decorative
cantilever
casting
soc
##iety
##uge
##ker
inves
thi
stap
stere
alph
metric
recom
und
consider
lowered
accessed
verteb
backing
concurr
physically
synchronizing
riser
vicinity
14
menu
##ious
ans
##aryl
enl
##heric
operably
curtain
share
bioc
fixedly
bearings
precisely
responses
eliminated
updating
##ymm
cannula
pilot
propagation
candidate
magazine
##idirectional
jud
##zation
##vascular
##enum
##icate
##olic
price
acryl
transversely
parking
clin
abstr
##dehy
overhead
airbag
lowering
##violet
actuators
fruit
registers
enclosing
charges
firearm
interrupt
equivalent
illuminating
ultraviolet
enzyme
curvature
quadr
interchange
dock
pure
rat
void
##cin
##imp
##oline
disab
plenum
arter
straps
filtration
assembling
##ept
currently
concave
divider
decreases
##etrically
acquired
compartments
inflatable
cooperating
ethyl
harness
consistent
##onductive
capsule
ventilation
amp
bask
his
lit
my
marg
##cher
##ives
throt
##veness
circulating
filler
timer
structured
polyc
defect
retard
weak
conduction
additives
backup
automob
pivotable
##ologies
amplified
coatings
sleep
reinforcement
goods
merch
retractable
centrifugal
best
don
mig
##zer
##gate
##ds
##uents
##ket
invent
cosm
##idine
##olith
##mentation
##rometer
shr
layered
defin
disturb
white
background
transfers
polymerization
calcium
arrangements
receivers
optimization
oscillating
##olymers
overlay
avoided
rfid
rays
lights
coaxially
attributes
##assembly
dosage
far
pse
sor
##bility
##kn
##irect
projected
##tering
##owled
asymm
metering
##cho
surve
##ackets
scene
##aries
brackets
conducted
boat
hydroly
feeder
colored
counting
ballast
antennas
##pieces
windows
instruments
peer
pulsed
tensioning
carboxylic
epoxy
occupant
tetra
telecommunications
encrypted
blu
crown
find
ju
tin
##down
##jecti
##ingu
##eding
##itt
##urf
##ason
projecti
##aments
attain
alert
impul
containment
confir
amorph
defective
couples
hands
limits
geographic
purity
planes
medication
dispensed
router
ferromagnetic
acquiring
selectable
elevator
unsubstituted
refrigerant
inhibitors
simplified
perforated
tolerance
##foil
olig
##weight
yoke
pseud
paw
tie
warm
##oor
##ertain
##ored
forced
##urs
unders
desirable
variables
neigh
currents
auto
##ancial
mini
gateway
##gery
esters
commonly
financial
printhead
evacu
promo
musical
stir
lithium
intellig
af
miss
nose
vac
##aque
ant
##ions
##urally
standing
deep
opens
import
scal
swe
differenti
varies
adapt
energized
simulation
calculates
minimized
players
inducing
cancell
retrieving
reconfig
surrounded
evaporator
issu
multicast
uplink
dedicated
ratche
bind
cases
future
oh
##ipping
##my
##fl
##onom
##anth
##ulative
trip
distingu
adjusts
doors
##aret
travers
simp
etched
marking
enhancement
transformed
classification
deflector
stabilized
vectors
laminate
unsat
alkaline
dissolved
interpolation
droplets
discrimin
physiological
cigaret
##dehyde
basket
brow
fro
gather
ner
tors
##tress
##fram
enters
recirc
formulations
##thane
##asses
pressures
blend
fluct
drag
termination
microc
indicated
resistors
poles
amplification
crosslink
halide
intermediates
bladder
cooperate
stopper
hydrocarbons
leaf
peptides
welded
abrasive
claimed
passenger
tensile
answ
cosmetic
22
##function
##warding
forth
##uss
sust
##adium
distil
alread
plating
transient
##plate
sharing
arbit
impeller
veget
computed
computation
computers
ques
download
induct
restriction
scanned
inverted
evaluating
manipulation
excessive
advertisement
bundle
aerosol
inexpensive
already
16
200
aim
cation
pa
sque
vascular
##net
##ata
coin
##tice
##imide
##astr
##oprop
twist
freely
##echanical
packing
reflect
trajector
calculate
extrusion
minimizes
replaceable
diffic
lamps
multiplicity
lubricating
tower
chloride
permeable
bowl
rendering
tradition
luminance
culture
influence
##iphatic
global
amorphous
simply
fig
fam
hence
nature
pd
paste
rope
wt
##bs
coinc
##eling
oral
exclus
##ifer
##ometric
clad
presenting
score
typical
pathway
##uplex
matched
mattress
rolls
angled
purification
cleaner
played
follower
clamped
adhesion
threads
saturation
tuning
windings
implantation
foldable
burst
buried
coordinates
absol
##onducting
purchase
##oscope
cpu
humidity
stick
torsion
fluctu
bat
duc
ef
fish
hull
ranges
vane
##box
##whe
coal
##utable
deactiv
tractor
surgery
imping
transmiss
solub
combines
expanding
ready
encomp
mineral
breast
recovered
retrieve
dependence
successful
resiliently
hydroxyl
photovol
ethylene
hetero
altered
authorization
ammonium
##ynchron
ingredients
worn
sandwic
hammer
enlarg
dum
merc
rank
tick
##ball
often
forwarding
##idin
##idal
styl
completion
practic
usable
##omy
paras
modem
pertain
endless
cores
effecting
airfoil
radar
idle
partly
shaping
terminating
pulled
rolled
wells
relevant
##tex
##cont
tanks
chemically
plugs
implanted
membranes
inhibitor
analyzer
spraying
vibrations
collapsible
shorter
polypepti
branched
private
redundant
##rystalline
unwanted
squee
000
bin
bipolar
##top
##bling
##elet
##idence
though
rech
memories
relate
flush
visually
achieving
pistons
gears
washer
estimation
stops
repeti
snap
restricted
prosthesis
experi
##taic
##ogeneous
entrance
photovoltaic
az
day
let
oven
rule
##ga
##ustr
coherent
cone
proof
##odet
##imination
resins
electrom
##actory
carton
controllers
polyethylene
report
boil
refresh
locks
journ
photograp
initiate
amplifiers
tester
enhances
finish
rigidly
constituent
smoke
infrastr
spreading
abutment
antibodies
hydrophilic
intermitt
interlea
sacrif
neighbor
ratchet
dummy
batch
race
ranging
wrap
warning
##rated
##mic
##hood
reus
##ript
learning
##ister
strateg
email
scroll
live
indirect
decry
workpieces
compressive
distributing
certif
individuals
induce
synchronized
immob
traveling
molecule
engageable
administered
oxidizing
raising
exhibiting
refrigeration
extremely
scheduling
glucose
navigation
tongue
automobile
pawl
cate
crop
duplex
mar
rise
sight
##ns
##dm
##cut
##ivel
concept
##ifies
diab
swivel
##eph
housed
identifies
simulated
photodet
creation
rough
coiled
potentially
platen
models
chemicals
involving
enterpr
##iquely
prediction
hanger
gauge
regardless
ladder
traditional
absolute
categor
casc
fence
nom
suture
##otic
##ault
##iable
##vd
##inated
tom
##ppers
contacted
acyl
aliphatic
mould
detent
heel
flue
serially
industr
shear
radiating
deceler
compressing
targeted
activate
batteries
dimensioned
planetary
installing
disks
reactions
decreased
conduits
ferr
decoded
tabs
nutri
muscle
multiplexed
atmospheric
concentrations
abutting
surrounds
exerted
shrink
industry
baff
kept
land
trough
iner
inward
##icing
stain
spark
unl
unf
asset
closes
dried
differing
effected
polyure
waiting
pulp
catch
targets
corrugated
modify
outlets
rearward
balls
buoy
personnel
polarized
actions
frictional
condensation
breaker
payload
keeping
pushed
permeability
trading
notification
degradation
##ocyanate
diesel
duty
little
unsaturated
done
ket
pell
sun
tether
win
##lip
##hz
##kes
##roelectric
token
conce
##agonal
orific
##ilized
alone
recorder
moiety
surfact
clo
##ube
adjo
mountable
flop
##itized
electrons
##time
collision
photographic
slee
cleaned
advancing
aspir
delayed
successively
multiplexer
algorithms
releasable
clearance
pushing
antibody
intersection
encapsulated
spinning
electrochemical
diffuser
impulse
photodetector
orifices
35
45
80
cmos
dip
pit
ply
slud
sorting
##aut
##bed
##enes
##ionic
stamp
##ols
review
exists
locate
what
removes
inserts
capacitive
##henyl
initiated
activities
ionic
diamond
wafers
returns
settings
affect
balancing
hooks
nuclear
graphics
improvements
optics
offers
gaming
bacteria
iii
protrusions
advertising
projects
invasive
license
olefin
corners
inflammatory
nanoparticles
alpha
throttle
infrastructure
cn
echo
lap
sender
ze
##gers
##bic
##bac
##wire
##enzo
antim
##tigu
projector
reached
##unk
sup
enric
transpond
##chlor
assum
scrap
grill
associating
##phal
feet
pivotably
easier
playback
executes
pointer
quantit
recovering
tables
accumulation
accumulated
remainder
elevation
stopped
permanently
drops
circumferentially
telescoping
promote
rectifier
unloading
##tinu
##frame
enterprise
24
dump
fusion
jam
kin
landing
rights
wid
##cs
contigu
throm
##uls
subjecting
positional
presents
blind
differences
multilayer
retail
baseband
combine
notch
adjustments
delet
handles
collim
purified
silica
communicated
annulus
buffers
cycloalkyl
involved
stabilizer
labor
situation
hydroxide
manipulated
benefits
wrapping
fragments
rocker
slightly
ascertain
abstract
definition
##wheel
inerti
fal
iter
ide
lug
lung
pacing
punch
##ycle
##ested
##acryl
fork
##istical
##uter
##lution
reform
disorder
##ift
parent
##roller
relax
five
##odyn
##illed
##itively
expose
discover
probes
bushing
replace
stacking
sales
viewed
vessels
boxes
linearly
availability
growing
registered
leds
ensures
repeatedly
empty
bucket
constraints
auger
antagon
difficult
sludge
dram
get
nr
ure
coag
##idaz
proceed
compan
retic
chute
shrou
arrow
lightweight
expressed
bob
##oxid
##upon
oxides
##titude
infusion
crypt
finished
estimating
repeating
phosphate
predicted
configurable
fusel
crankshaft
statistical
dissipation
assessment
##ipple
##otropic
important
trajectory
family
date
stit
##oupl
##gst
##then
##ital
##lustr
asynchron
##adata
metadata
##omen
seism
interact
shad
coron
configuring
slides
polyg
combust
coverage
hood
encoun
magnetically
messaging
amplifying
articulated
marks
illustr
quantities
retains
affected
rigidity
masking
requirement
screws
transducers
balanced
tags
deformed
authorized
chromat
falling
scattered
pallet
sandwiched
parasitic
false
afor
nip
pile
ske
vul
##equ
##sy
##atom
deb
exact
spi
spati
recl
##aching
##struct
##antum
regulated
directs
##enches
mounts
slit
indent
inputting
retro
house
brace
passiv
separates
consid
micron
quantum
##structed
designs
chest
downlink
discs
delivers
##electronic
inductor
tests
saturated
tungst
accelerator
constructing
borehole
complexity
searching
blowing
bulb
##amental
fused
fibrous
adhering
silver
##binant
bubbles
compli
extruded
recombinant
clinical
cloud
contiguous
dur
fits
lcd
pel
pockets
ue
##eu
##zard
##role
##ecu
##ulph
##olec
##oting
##ception
trif
spro
sput
##ensities
hazard
shun
ship
str2
living
displaceable
effluent
attaches
inputted
agit
watermark
consecu
drink
hydrochlor
belong
marked
##ician
spectrometer
requesting
##proof
yields
foundation
discontinu
wrapped
withdrawn
conveniently
fifth
browser
sacrificial
reusable
seismic
tungsten
500
dot
nas
vanes
zo
##oys
##chic
##si
##vinyl
##ont
##esium
##rost
comfort
pref
destr
outputted
cellul
emboss
reposition
housings
##ectiveness
##ressing
microm
pumps
simulate
alkenyl
needles
technical
modifications
diameters
conveyance
optimizing
routine
realized
holders
superimp
copolymers
demon
avoids
sinus
chains
focused
reproduced
urging
drugs
bores
chlorine
##print
immediate
adhered
180
recycling
stiffness
weighted
pigment
artificial
consequently
epitax
sustain
distillation
sleeves
01
70
fins
just
now
pw
rs
##rally
##ihood
##arse
cot
##ulant
##ocyclic
secures
hearing
clay
clothing
emits
director
curable
flavor
freed
##anning
monolith
actually
acidic
carbonate
calling
##botic
maximize
clients
checks
nanot
transforming
updates
ferroelectric
evaluated
interruption
losses
spacers
emissions
concentrated
vivo
scattering
burning
history
hierarchic
microorganisms
annealing
concurrently
shroud
ec
herm
law
mate
miti
ten
wrist
inherent
##rog
##elihood
##urance
##ilox
asphal
always
exam
uniquely
##inear
##plane
shank
strand
others
conflic
overlying
effectiveness
digitally
initiating
cere
achieves
clamps
stacks
annot
viewer
##olefin
finishing
implantable
##ompati
assignment
inverting
##yrene
altering
responding
instantaneous
irradiation
immersion
undesirable
cracking
likelihood
prolifer
social
cigarette
arbitr
polyurethane
spatially
demonstr
cf
late
tile
##ned
proxy
providers
sports
unaut
intervention
canister
therefor
strings
scram
senses
obstruction
slope
quer
volumes
possibility
##amino
replacing
posterior
mirrors
tunable
protocols
relationships
indexing
stripping
crimp
stretch
shorten
grasping
ceiling
toxic
vertebral
fuselage
destruc
unauthor
cum
categ
dog
graft
hos
hitch
mr
wick
wiper
##ov
##dr
##rant
##most
##yle
##athing
antic
cobal
##asis
##iled
dead
prac
alle
examination
spout
spinal
transc
cart
slab
slave
protects
weap
gray
packaged
integrating
downhole
compressible
rotationally
cyano
distribut
organization
activates
##volatile
##scre
executable
drainage
returning
wastewater
appropriately
stresses
domains
gripper
tightly
contaminated
broadcasting
immune
suppressing
granular
reaching
regeneration
beginning
mercury
baffle
asynchronous
hierarchical
unauthorized
category
cobalt
00
aber
aft
might
nail
san
tamp
walk
##af
##uk
##ffer
##wr
##held
##onium
##agen
disrup
exampl
ellip
assay
valu
##aked
tear
manage
distances
gasket
##engthen
magnesium
adjustably
nonvolatile
blocked
specifying
feeds
characterizing
microcont
implements
buy
routes
suscep
safely
options
fluorine
involve
deflecting
cooperates
interrupting
multiplication
music
vibrating
beneficial
compatibility
experience
foreign
population
namely
explosive
biopsy
interchangeable
transmissive
enlarged
bobbin
skew
examples
aver
dome
dark
gast
mg
ms
mother
mentioned
os
pent
pill
raster
ti
##ony
##atin
##oring
##allow
##regn
##stock
##ids
##isp
stow
##ote
ash
##adle
##addle
trenches
metab
methodology
subassembly
pouch
hash
impregn
extra
dihydro
respir
drift
solvents
reporting
wax
specially
##erged
backward
reads
readout
undergo
teleph
humans
