[PAD]
[UNK]
[CLS]
[SEP]
[MASK]
!
"
#
%
&
'
(
)
*
+
,
-
.
/
0
1
2
3
4
5
6
7
8
9
:
;
<
=
>
?
A
B
C
D
E
F
G
H
I
J
K
L
M
N
O
P
Q
R
S
T
U
V
W
X
Y
Z
[
]
a
b
c
d
e
f
g
h
i
j
k
l
m
n
o
p
q
r
s
t
u
v
w
x
y
z
##o
##l
##i
##p
##a
##x
##n
##r
##d
##c
##y
##e
##s
##t
##m
##g
##h
##L
##j
##b
##v
##u
##z
##A
##E
##3
##5
##Y
##P
##2
##D
##f
##S
##T
##I
##Q
##k
##1
##C
##4
##G
##F
##V
##R
##M
##9
##w
##N
##q
##K
##0
##X
##7
##6
##W
##U
##O
##8
##H
##J
##B
##Z
##ti
##er
##en
##on
##ed
##in
th
##al
##es
##th
in
of
##or
##ati
##at
an
##ent
##as
##is
##ar
##ic
the
##an
##re
##ro
and
re
##ith
with
##os
##om
##ve
##us
##ul
##ter
##ing
to
##ec
##ation
##ol
##ur
##id
##em
##ly
##it
##ac
##atient
##op
patient
##ap
##tion
##le
##ia
##oc
##tr
##tic
be
Th
##ated
##ver
was
##ut
##ment
##il
##ase
##am
##uc
is
tre
for
de
##si
##ine
##um
##ce
as
##ort
##ow
##rom
con
##erap
##el
##ir
##ph
##ot
##og
##ad
##res
##ig
##un
patients
##port
##erapy
wh
##tin
ch
The
dis
##se
##ug
com
##fter
##od
##atment
##ere
##ical
##ous
##ys
##ant
##pl
report
##im
pro
treatment
ad
##ff
after
##iti
##ear
res
##ate
ac
on
##ag
##yp
##vel
al
##ib
##ab
therapy
ex
##ect
case
se
##nd
inf
##ity
im
st
##ure
le
ne
by
or
##ay
that
sy
##ain
sh
ind
##ath
tr
##osis
##oth
##ep
##velop
##yc
##di
develop
were
##ess
year
##one
##ary
##oid
pres
##qu
li
ass
rec
##pt
cl
##ell
We
##ide
hyp
this
dr
##ular
per
##ion
eff
##ist
##igh
su
##iv
anti
##ial
are
##iz
##itis
induc
##ox
##oci
inc
##aus
##ans
##et
##ication
##st
associ
##ection
##est
##orm
drug
ol
##low
##anc
car
##if
##ence
##emia
##pp
developed
##ose
##ud
been
ha
induced
pre
##our
##olog
who
at
##ute
##ases
##min
mon
##tive
old
man
pos
associated
##cr
##act
##vi
##sion
##ting
ag
des
fol
may
##ch
not
oc
##ory
##mon
In
un
we
##gn
sever
##ym
##rome
follow
dia
had
dise
##ven
##sive
##urr
present
##ved
##atin
##ther
##ast
treated
synd
effect
intr
cases
ab
cor
##lo
##ative
ar
from
##yt
compl
##ne
caus
di
syndrome
have
##oma
##crib
##ON
disease
hyper
occ
##ally
##ign
clin
##wo
trans
dur
ser
##ult
acute
##yl
inter
##ple
rel
##enti
##mun
##ten
##ue
##enc
sp
us
rece
has
##az
##ip
use
##ptom
##ich
##ore
##minis
##ge
##oul
##ould
ph
##ese
##action
##atic
##enal
##ron
##age
during
severe
resp
month
##per
sym
describ
##oph
me
##oun
##rol
clinical
##ong
##ors
##tis
hep
adminis
##otherapy
reported
##ium
##ros
This
##ever
##ations
symptom
##yst
which
disc
par
pr
sub
##are
diagn
##teroid
##te
chem
##entr
##ond
##rop
infection
##ful
receiv
ev
high
##ew
en
##ormal
##romb
##sib
ob
suc
cons
##ail
##erm
##ugh
cell
incre
mg
immun
hem
two
##plant
my
##tinu
da
app
##usion
##tration
renal
months
dose
##ree
##ective
##uk
##ight
complication
##ome
following
##ance
##der
##ra
##ism
pl
##able
it
med
##ased
##icity
symptoms
##ies
but
intra
##ak
##cess
##eral
imp
##tiv
##he
##ub
show
##lud
thromb
##ding
effects
##ost
##athy
should
##atitis
##ane
reaction
und
sur
tox
##ild
neu
##ction
##ile
chemotherapy
##ement
##bin
leuk
ep
##all
transplant
mal
##ures
conc
##ymph
##ual
##ature
##erg
he
##hy
sug
##otic
can
sugg
##atory
##kin
lymph
##ating
other
all
##up
fl
##ici
pot
##ek
##ole
##ents
##out
sign
##ough
##ill
##ran
##sible
##SI
week
##ysis
##emic
sec
wom
no
these
rare
##vir
cont
##ons
level
##adi
fail
rem
##ized
##ronic
administration
##ted
##ite
inj
sc
##irst
##view
Al
##ocyt
first
##aneous
occurr
##dition
syst
bet
##ulmon
##ogen
obs
##ulmonary
days
##ard
##ency
ris
##ently
result
review
chronic
am
##ior
meth
liter
second
##00
##ren
##osp
##ected
used
hist
low
##ogr
one
due
##amin
literature
suggest
er
gl
##fer
##ific
over
impro
##ri
int
##verse
comple
liver
##ution
##SION
related
potenti
##ang
includ
showed
woman
child
##ological
day
##unction
peri
presented
##omy
##ression
diff
under
##etic
reg
years
inv
##ych
fact
normal
##gen
##ycl
diagnosis
dos
##ob
failure
well
##ulti
comp
bec
##ach
##order
ins
inh
met
##amine
##vious
##ound
cortic
nec
##lood
##now
three
end
##opathy
antib
pain
##ive
##ft
##CL
cardi
##cessful
##inal
##asm
her
##end
dec
##pos
combin
##ital
disorder
##tivity
##ancer
##cin
##and
##osteroid
##ressive
##ime
risk
mar
col
em
previous
##ater
##ech
##ress
##acter
surg
CON
##ontinu
##row
##rosis
blood
adverse
toxicity
##ame
cause
##USION
##CLUSION
CONCLUSION
cancer
receiving
el
corticosteroid
both
##so
multi
##amide
bl
pulmonary
##aled
drugs
side
##ptic
##ery
weeks
ps
##inding
initi
without
describe
flu
##oin
##ef
An
tum
also
##venous
##ograp
##sy
##owever
##ung
##ained
##alc
##ibit
post
serum
gen
##ens
##ates
##ause
know
our
##though
obser
##ider
resol
##iop
acid
##duc
##ensi
out
respon
long
##fe
##ulation
##we
##asc
when
leukemia
10
##ke
##enia
reve
cour
dys
##ening
discontinu
##ious
##peri
##ix
##vement
oral
##ologic
finding
##ax
##esion
levels
radi
##utaneous
dep
received
##form
experi
such
##ytic
##asis
##ardi
##tered
manag
hepatitis
##ES
##idence
infl
arter
injection
def
##yro
##apine
##fore
##sequ
common
described
red
transplantation
##ities
##CT
successful
revealed
##ritis
##eu
##ycin
signific
recurr
lesion
##erative
##ema
consider
increased
prob
spec
##ween
intravenous
inhibit
##ral
caused
##ler
##IV
##ulin
##amm
##over
##tine
between
dem
his
typ
str
It
To
more
vis
mic
complete
findings
##ll
##tim
prog
##ass
diagnos
significant
there
##itive
its
##ct
##alu
path
up
##med
##ers
##ish
##ade
phen
than
continu
myel
course
non
tak
##rh
##DS
##neum
appear
##ily
##arin
conf
infusion
##astic
systemic
min
##led
##arly
##ology
##cinoma
##ied
##thm
es
##udi
##quir
possible
decre
reports
control
sus
##tal
within
agents
medication
anal
##uss
##osph
##onstr
cycl
steroid
##anism
combination
##ov
##atal
##tinal
neuro
function
##normal
##ility
##udy
##opl
##ocal
only
##azole
time
##pha
abs
##iciency
potential
reduc
cyt
studi
occurred
Ac
##ric
effective
response
mus
most
##ness
##erc
##iotic
##icated
##roph
##ock
study
doses
management
pneum
##ural
discuss
malign
period
##yth
##terior
abnormal
##entric
Although
including
##ie
##upp
ang
##ange
vir
new
##tensive
complications
history
previously
observed
biop
fib
condition
four
##cop
##tern
children
19
After
ul
fe
concentr
br
bone
hy
test
##ulf
##iven
##dro
##TS
occur
pred
multiple
##requ
##osupp
##ereb
prol
alpha
skin
##tit
##apid
##eutic
aut
ret
secondary
ME
##esis
arth
invol
He
ey
##SE
rep
##ody
examin
agent
because
antibiotic
mech
##lor
##rem
care
later
var
##iss
##erapeutic
import
12
##zapine
##orrh
##ogn
seiz
demonstr
administered
tumor
##yroid
term
These
##phal
star
neph
##raw
However
##draw
##ts
##ascular
Two
op
##ission
she
##oxicity
diab
lesions
given
sim
tub
##rine
top
##ste
carcinoma
eryth
##ensitivity
hour
##ked
##lev
recover
##vention
##ography
considered
calc
##ually
development
reactions
##ospital
hear
##TH
withdraw
##lyc
##ilat
##otre
pol
rapid
##openia
del
pers
RES
##com
antic
##abol
corticosteroids
psych
inflamm
sa
##mit
##ving
##UL
RESUL
derm
##ps
##par
##tial
form
carb
##feron
##pite
surgery
##ram
##urther
##itor
perform
using
subsequ
RESULTS
co
##erv
##onia
produc
lead
factor
##iat
positive
biopsy
lung
##enced
evidence
evalu
There
addition
immunosupp
CONCLUSIONS
studies
##ition
##aemia
ref
requir
##ranul
cardiac
topical
found
frequ
##eter
##ale
##arm
arthritis
20
ble
##ian
det
expos
need
recom
val
METH
METHO
##entricular
She
id
##operative
before
while
like
sup
marrow
known
los
interferon
fever
hospital
##xate
##urn
##ants
##rolog
diagnosed
taking
hours
##otrexate
Cl
org
##ization
##ancy
manif
differ
mechanism
some
##ND
##ticular
##istent
plasm
prolong
##uth
##icin
##oxic
system
improved
av
##entral
heart
CA
cereb
early
##av
monitor
##AC
##orph
##atheter
male
##ergic
angi
##enic
##thal
left
##ilateral
manifest
sm
##til
##ont
##emat
chang
followed
##azep
improvement
loss
main
##ori
##ice
performed
prom
##arr
##arc
their
##lear
association
withdrawal
lim
##ood
##emb
##ace
##aph
resist
##ately
metabol
confir
any
contr
##set
resolved
ill
##nis
life
##ophil
successfully
micro
METHODS
On
ben
bre
cutaneous
##ges
##reat
serious
##tension
hemorrh
thrombosis
factors
necrosis
experienced
type
##iatric
##ract
##eding
##ack
several
##armac
catheter
elev
fem
##went
adv
tiss
therapeutic
##uted
recogn
increase
##hythm
hydro
##lish
##arge
prop
prim
signs
methotrexate
##isod
total
appro
##tig
##ised
##ithium
##olone
hypers
daily
doc
right
##rin
##omycin
##iratory
episod
mod
##of
##iqu
##xim
##tained
##ety
##icians
block
discontinuation
Ch
could
ed
panc
##ex
##asing
char
onset
15
fatal
##RO
##ialysis
##entif
hepatic
infections
visual
discussed
##umb
All
vit
##app
##aps
##tric
##abine
##heum
##ata
##olysis
##olytic
surgical
examination
central
mac
##ced
##tes
##gative
##PO
##use
##astro
##raft
toxic
potentially
susp
plasma
changes
coun
hum
sulf
rever
##odium
pregn
hypertension
lower
regim
seizures
ir
ker
##rogen
cells
musc
did
oste
rheum
##atus
##ental
##opr
##occ
##ocardi
neurolog
##ospor
abnormalities
prolonged
character
sin
##ument
##rect
epid
##ercul
##mitted
identif
One
five
##air
##vent
##arb
##ffer
exc
negative
##ronch
artery
range
ven
##onic
##atures
##lob
##ipi
resulted
demonstrated
##azepine
edema
OB
St
gr
sel
##fen
hepat
##ropathy
hemat
results
malignant
auth
lab
##ECT
##itu
##ilar
ext
recipi
supp
gluc
brain
hypersensitivity
lithium
po
##oh
##dom
##KG
##JECT
respiratory
underwent
virus
BAC
qu
##line
##pec
##red
##ury
chol
extr
possib
Acute
tissue
OBJECT
OBJECTIV
##UND
##actic
diss
lymphoma
insulin
radiation
recurrent
##ROUND
##KGROUND
BACKGROUND
##ok
##mend
##onitis
##esting
##reatment
##och
##aining
short
features
important
24
if
often
being
##ically
seen
infil
pharmac
##ledge
HIV
bilateral
large
sodium
##sure
##atoid
##ash
##ococc
status
respond
meas
into
disorders
inflammatory
document
authors
Wh
aw
aff
role
##lastic
##yr
##arg
eye
##ias
##fusion
corne
metast
recommend
Clin
pancre
further
sch
##onary
threat
##its
##amazepine
##ential
##tein
head
##ardia
medications
##thalm
small
11
horm
kg
mo
##aj
##son
##val
##inated
##asia
##leptic
##ists
##etes
##ropri
knowledge
ulc
##ves
decreased
As
data
##pro
##function
##ortic
##osin
##truc
increasing
suggests
confirmed
breast
threatening
Ad
granul
gastro
##rough
##acin
age
marked
fluor
exposure
##ajor
##oag
##ise
##ocl
acc
##uption
general
inhibitor
progressive
pathogen
diabetes
tubercul
rheumatoid
ful
local
muc
##zym
##oscop
##uria
##idine
##opath
##allen
discontinued
female
16
Patient
mild
major
##esia
##oral
##ick
##pheral
medical
##ograph
started
##aphyl
hemorrhage
50
Treatment
even
lup
##usual
toler
##olar
##ocytic
treat
infar
##ophosph
injury
similar
refract
resistant
do
prov
thrombocyt
resolution
continued
antibiotics
primary
##pir
##oratory
chlor
##ably
pressure
coronary
reviewed
psori
fluid
dysfunction
bleeding
##lished
corneal
lupus
25
however
very
##sti
##tid
##erb
abdom
inhibitors
nephro
CASE
##ropriate
refractory
rate
##AR
##istic
##ited
admitted
activity
clo
suffer
##anced
died
interaction
beta
elect
human
##trial
##und
##lovir
usually
##oblastic
recovery
calcium
required
OBJECTIVE
CD
Re
Sever
ap
cat
made
##ovir
those
##roup
##ulting
##amb
##sient
adult
unusual
weight
particular
immune
underg
##ressed
auto
extrem
##stitial
few
##lem
##acil
resulting
heal
suggested
overd
peripheral
pregnancy
regimen
##osinophil
bronch
##avi
##xy
##estig
anemia
Three
##cet
despite
complicated
investig
##medi
##ieved
safe
##ontaneous
based
numb
sol
##ert
##itone
##uct
##immun
##ially
##ectively
emerg
organ
14
Ph
pat
##oy
##ene
##acement
death
##otoxicity
whom
again
causes
remission
pneumonia
##testinal
clozapine
bacter
stim
ventricular
##avir
##II
##tiz
##odies
ach
##aging
stop
stage
tran
about
occurrence
eruption
problem
neuroleptic
prednis
erythemat
carbamazepine
documented
13
30
six
##auc
##upt
##ality
##ycardia
presence
antid
##urrent
heparin
##ocyte
##ameth
cyclospor
return
infarction
##itoneal
At
cr
cap
so
##fl
##rel
##omp
##eminated
protein
##ects
##ectomy
hypoth
combined
continuous
concentrations
cir
nod
##enting
##onate
##intestinal
##orb
##asal
##isting
##very
isch
##cept
neut
##other
noted
intrac
initial
initiation
fibrosis
subsequent
##pecially
ped
rash
##cit
thyroid
they
##phyl
##oton
##platin
Intr
presentation
enzym
##kinson
##illin
methyl
dosage
postoperative
deficiency
analysis
##arcoma
Des
clear
gas
sw
##ingle
##ache
##let
proced
##ances
intrav
##ychotic
especially
Am
No
eosinophil
wide
##vul
##TI
##ided
beg
##plication
##imal
##ages
##ypical
##ability
##ayed
##oxication
##azine
prior
intoxication
##axis
abscess
anticoag
##psychotic
stopp
acet
cis
est
single
tem
war
##ption
##come
##gal
##FN
##ML
##UR
##icac
beh
where
agg
epile
scler
cerebral
##ique
DI
rh
##anzapine
##omas
prost
altern
antipsychotic
haem
rarely
emb
arterial
recurrence
steroids
##rophy
concentration
monitoring
undergo
Both
Ig
cre
cult
less
##iod
##ded
##eth
##uff
through
##oglyc
prescrib
##ival
##ouracil
uncom
spontaneous
included
diffuse
##phalopathy
elevated
aware
gastrointestinal
Un
ca
grow
line
##thetic
##trates
##irl
lip
##ytoin
interstitial
spinal
occurring
##ocardial
##lobulin
number
200
ro
sal
##iting
##yn
##toxicity
##tib
##omer
##ecal
##iam
prot
immedi
##ize
ocular
##ake
depend
experience
tests
100
CS
vas
##ning
##rug
intensive
##ust
deter
adj
many
recept
##ermal
##rav
##viral
complex
diffic
commonly
specific
decrease
##titution
subsequently
hormone
##allenge
##ophosphamide
##immune
IFN
Par
Rec
mas
nerv
tach
##li
##ae
##farin
##US
retin
##ulating
##acerb
prof
stand
efficac
relative
depression
advanced
muscle
thrombocytopenia
graft
nit
##cutaneous
##ird
##imes
prophyl
sequ
prevent
mean
clinically
##rosp
impair
##ocytosis
outcome
##ventional
support
suspected
schiz
Patients
group
mm
mag
##den
##tro
##TX
##arone
##ither
##osus
##omat
##olol
##ured
##iaz
##ili
although
infant
olanzapine
prec
arr
colon
gener
reduced
reduction
must
mechanisms
transient
pediatric
embol
17
IV
dam
might
pap
##ines
repl
##idual
dex
##seud
##plasia
##imus
indic
assess
##ophren
surv
neuropathy
glomer
became
rapidly
evaluation
episodes
##appear
reversible
identified
abdominal
antidep
18
IN
##mission
##CA
##ension
##onazole
though
third
stem
atypical
describes
event
##ogenic
necess
199
autoimmune
health
behavi
schizophren
Com
Our
With
led
##hip
aden
active
exacerb
class
##isted
seroton
phot
phys
##ationship
shown
##ogram
insuff
##ungal
observ
appears
repe
laboratory
tuberculosis
##ographic
Despite
undergoing
tw
ter
##man
##EN
##MS
##NA
##onal
##ind
##lying
##itation
##atelet
imaging
##ains
incidence
##ymptom
##rolimus
cyclophosphamide
recovered
dermat
immunosuppressive
electro
Severe
standard
antidepress
pur
pop
tom
##var
##rec
reac
##itre
##pho
set
trial
##oxif
relationship
diabetic
venous
psoriasis
warfarin
##iodarone
dialysis
girl
ve
##lusion
##old
##trib
##agon
intrath
useful
phosph
##oung
obstruc
acidosis
avail
manifestations
overdose
cyclosporine
efficacy
Im
tech
young
##otr
##iety
##art
##iab
##ocular
white
disappear
exp
seem
lev
##azol
myocardial
conclud
completely
count
irr
recommended
##ovirus
cisplatin
damage
##photer
techn
body
boy
mit
##ling
##SC
##uring
expl
hypot
##pper
interval
##ences
respectively
##tivation
phenytoin
persistent
avoid
illus
erythematosus
uncommon
tachycardia
##photericin
PUR
eti
free
tac
upper
##light
##onvul
then
ant
retinal
##osed
##ull
dist
extensive
syn
##oxacin
unc
##roscop
##ogenous
probably
pneumonitis
recognized
##POSE
disseminated
metastatic
PURPOSE
CM
lam
pe
##af
anterior
##ict
##retion
##omal
##urb
##idne
##itant
##unt
##essation
recently
att
series
intervention
consistent
##omegal
##ranial
women
necro
antibody
herp
##oplasm
importance
different
benef
characterized
nephrotic
##orbid
nervous
21
Drug
bi
kidne
mass
##oe
##asone
##ison
##omen
##ides
##uccessful
alone
scan
method
colitis
occurs
polym
ulcer
available
CT
az
pub
##ational
##iagn
##oglo
##tention
events
compar
##ovascular
dermatitis
microg
Clinical
achieved
CSF
insufficiency
##oglobin
Hyp
cessation
dop
late
same
##assi
##roh
admission
##yclovir
##mong
diseases
appropriate
remained
viral
conditions
ultr
frequently
likely
neurologic
arrhythm
40
Ex
PD
hal
vin
##lu
##RI
##erve
deg
asthm
aspir
pros
recent
phenomen
controlled
valpro
keratitis
sinus
When
particularly
growth
schizophrenia
vein
intrathecal
Ne
each
mening
optic
te
wors
##les
##PA
##kal
##ositis
##ulitis
##ters
##amic
##umab
##otoxic
super
hemod
amiodarone
injections
repres
prompt
##ximab
possibility
##ococcus
tolerated
##aucoma
alternative
prescribed
massive
48
AI
amin
ovar
##iel
##nes
##PD
##esc
##icine
##osa
##ecti
##ysm
infected
trig
hypoglyc
sud
until
direct
transfusion
##derly
contact
underlying
diagnostic
absence
approach
epidural
recipients
pancreatitis
headache
enzyme
receptor
##itreal
eth
las
morph
urin
##domy
##ses
##br
##HD
##eric
##idone
##ments
##phen
##imab
##abdomy
presenting
subs
ence
platelet
lymphoblastic
antibodies
##iximab
##yroidism
contrib
##gestion
poor
##ochem
against
returned
estab
setting
hypotension
disturb
sudden
En
HC
et
here
##ioid
##renal
##LL
##till
##edema
##ined
##essive
##itus
##apse
bel
##igment
change
posterior
cord
enter
containing
##ocytes
amphotericin
glaucoma
elderly
inflammation
metabolic
recipient
responded
stopped
aggressive
antagon
CMV
Further
PC
gu
lens
vasc
##pred
##inase
##roduc
##emcit
##opic
##ocol
##amp
conventional
##otor
##iferative
partial
obtained
concom
##arditis
##obacter
endome
appeared
episode
kerat
##ohol
fluorouracil
circ
dependent
difficult
urinary
##emcitabine
AC
SU
atrial
either
m2
##otid
##50
##oside
##ocomp
deterior
##unc
developing
##ella
higher
appar
emph
strong
involvement
saf
immunosuppression
detected
neurological
since
##ituximab
cholest
emergency
relatively
population
##abdomyolysis
Croh
LA
Ser
Tr
cri
ox
##iated
##iasis
##cohol
##oper
##try
##tical
isol
immunod
##ieve
careful
seizure
illness
generalized
pattern
neutrop
replacement
tomography
concomitant
safety
Crohn
Four
Her
TN
among
every
mel
ple
pseud
vascular
##iver
##ision
##read
##trac
##amoxif
infants
induction
prepar
complic
##ophthalm
subj
##binant
##hyd
histological
neurotoxicity
eyes
leading
additional
frequency
##amethasone
temp
kidney
ovarian
##amoxifen
AML
CN
During
bow
hel
host
nerve
##yel
##MM
ingestion
##oration
##rog
##ithel
##oster
##trate
##imin
alcohol
implant
##uretic
##aryn
##ancies
artic
##ensitiz
taken
starting
poly
vitamin
generally
serotonin
SUMM
TNF
SUMMAR
Case
II
Neu
cyst
idi
times
ver
wor
##etine
##toxic
##SA
##MT
##ules
##ites
##tral
##romised
##phthalm
##ellular
##oxetine
duration
##ipr
allergic
endoc
##eficiency
##ixed
progression
predis
involving
delayed
valve
grade
prednisone
DISC
##USSION
DISCUSSION
60
His
don
myc
memb
##oqu
thor
##orn
another
##asion
##oprol
##amil
##ucle
septic
close
##chlor
##perg
immunocomp
failed
remov
include
##ycline
##imeth
tumors
infliximab
vision
requiring
grad
poison
pathogenesis
suffered
obstruction
Meth
QT
der
mut
penic
##gia
thyro
##esth
##rob
rele
##omide
##ident
##itch
##tions
consequ
##aden
acyclovir
allow
shunt
##ancomycin
concer
lymphocytic
typical
##rogenic
movement
##oscopic
problems
ischemic
intravitreal
widely
rhabdomyolysis
Parkinson
prophylaxis
thought
##ymptomatic
##omegalovirus
hemodialysis
##prednis
immunodeficiency
bowel
Hist
MTX
PT
air
mes
poin
site
valu
##oal
##ays
##utine
##ins
##asive
##anth
##retro
##osine
##omyc
treating
##ump
##oglobulin
chrom
##ystic
acu
##udine
##netic
symptomatic
enc
mediated
intraocular
leukaemia
remains
coll
radiotherapy
myeloid
analog
various
coag
monitored
characteristic
hepatotoxicity
methylprednis
gastric
repeated
published
phenomenon
SUMMARY
##pergill
##retroviral
23
35
dyst
good
ml
men
morbid
pac
sens
##less
##xt
##tent
##vant
##ened
##onance
##isc
refer
##ulated
dev
##inetic
##umin
conj
##otyp
process
rest
acquir
leg
indicated
##minant
part
region
dyskin
elevation
possibly
tacrolimus
##ophthalmitis
poisoning
methylprednisolone
Bec
FU
Here
fac
gre
gemcitabine
hand
lat
mort
pal
rituximab
situ
still
vol
##mine
##ida
##idal
##emph
##trum
chest
disch
resonance
exce
seven
having
##ageal
##ophageal
##ross
enh
myocl
therefore
exposed
limited
recognition
##opril
glucose
anticoagul
glomerul
healthy
##artment
disappeared
ultras
acuity
Because
##emphig
Myc
Successful
bac
ophthalm
sarcoma
vom
##oi
##ioma
##CG
##RT
##ator
anaphyl
##icial
##veolar
##ocar
##ocortic
##agic
##abil
antiretroviral
induce
##peridone
hemolytic
##adiation
scre
computed
initiated
tumour
anticonvul
Intra
necessary
purp
phosphate
##ield
complicating
predispos
removal
acquired
22
Hep
dil
duct
tamoxifen
will
##oz
##equ
##BV
##onat
##onec
inten
##ark
##aract
##roke
toge
##adder
##odg
tract
perit
peritoneal
##izing
##hea
##ospasm
##ressin
spectrum
significantly
psychiatric
##psis
formation
macular
##ertain
creatin
##assium
neutropenia
vomiting
together
Med
testing
vancomycin
##ire
##rill
##ysi
##sential
##AD
##RA
##round
##ule
##tri
asymptomatic
##romycin
##resp
##plastic
accom
neon
rech
##ividual
antigen
unit
##nea
subcutaneous
immunoglobulin
##ergy
suggesting
##rief
introduc
initially
specim
##remia
recombinant
organism
mainly
##ximately
revers
irre
##oscopy
application
cataract
eosinophilia
dexamethasone
technique
compared
asthma
##ectious
vasculitis
article
donor
anticonvuls
36
DNA
RA
eight
lo
mental
past
ra
##pan
##aine
##cor
##tre
##ger
##ues
##AT
##VHD
##asth
##ithromycin
##opulmonary
##mental
##amatic
##cep
adrenal
activ
sepsis
state
least
orig
##elling
dramatic
##stan
attrib
correl
occasion
thrombus
epithel
potassium
##ranolol
endophthalmitis
probable
appearance
involved
moder
affected
##opathic
adults
intracranial
epilep
routine
established
##unctiv
morbidity
##odgkin
28
Early
Five
Hodgkin
Post
SI
base
byp
field
mol
oper
pul
##oence
##last
##ty
##LD
##EPO
##olid
##urg
##urysm
##utol
whe
proper
individual
areas
##lofen
thrombolytic
amp
##alcemia
responsible
##ardive
suscep
##rophil
198
psychosis
##ranulocytosis
limb
quin
##ambutol
switch
procedure
##iliary
survival
twice
emphas
help
##oproliferative
peritonitis
bypass
susceptib
Sub
dig
pemphig
##uvant
##onus
##ising
##rept
##roid
##ectr
##lex
deep
##umed
##els
##otrop
comm
##plement
stent
hyponat
##ification
##cris
##urrently
relaps
##ipro
microscop
myeloma
minimal
essential
metabolism
epidermal
determin
seems
herpes
##ochemical
##ensitization
immunocompromised
mortality
##onecrosis
Fol
Pos
ur
would
##arding
##ics
##icillin
##usc
##itary
conver
##erapies
challenge
coma
##plicated
add
##earch
along
##oxin
attention
##crip
Inter
clinicians
relapse
##ministration
parent
parame
myasth
##omyopathy
cardiomyopathy
bladder
outp
cytomegalovirus
malignancy
evaluated
Therefore
##arrhythm
##arged
extreme
procedures
immediate
physicians
observation
antidepressant
conclude
illustrates
encephalopathy
##esthesia
release
dyskinesia
##ocarcinoma
epilepsy
##oencephalopathy
##cristine
AD
Diagn
Sin
back
brief
fet
fungal
gang
ile
mater
nor
nons
rif
##lit
##LS
##OP
##osc
##omin
##terol
##empt
##opressin
depos
##phrine
##rest
whose
cho
action
##ypt
shock
perf
effusion
##oxazole
hyperplasia
respons
practic
leukoencephalopathy
##hydro
##icient
##illary
secretion
institution
cytotoxic
studied
fibrill
frequent
needed
resistance
self
infiltration
pancreatic
began
caution
immediately
reactivation
laser
deterioration
deriv
values
responses
bull
current
dox
ear
mL
rib
uter
##afen
##nal
##ying
##famide
##eration
##enol
##ord
##aren
##arily
##osfamide
##uric
##acic
##opro
##ocellular
aspar
##iram
##tinib
seg
stroke
##quam
##ellitus
prem
weak
hyperg
##yloid
##ylline
##ubicin
sugges
remo
intes
compound
become
##ausea
courses
malignancies
bleomycin
approximately
vitro
selective
suppression
##okinetic
stimulating
prednisolone
sclerosis
impairment
assessment
exacerbation
vincristine
disturbances
parameters
fibrillation
000
27
37
IC
MM
NMS
SS
best
dental
focal
gold
ket
loc
last
mellitus
nausea
pel
urine
wall
##iant
##eti
##sity
##hood
##erous
therapies
##orption
them
##ann
##osarcoma
##ulatory
##sies
congen
added
infectious
##urea
triam
trimeth
##chicine
##atinib
occlusion
highlight
regarding
##cinolone
##oplatin
propranolol
suppor
##ococcal
granulomat
clearance
##TION
culture
protocol
profile
sequel
attempt
dopamine
trigger
ethambutol
morphine
##obacterium
isolated
CNS
idiopathic
##ocorticoid
accompan
hyponatremia
triamcinolone
26
Di
Ep
TM
max
oxy
port
slow
##topril
##most
##hibit
##utr
##face
##utes
adequ
##athiop
tric
peric
severity
##tenance
highly
risperidone
invasive
fluoxetine
managed
struct
sustained
##ternal
##odyn
variety
confirm
benz
infiltrates
measured
investigation
solution
anticoagulation
prostate
magnetic
termin
##rected
etiology
encoun
conjunctiv
anticoagulant
moderate
whether
Follow
Since
congenital
##athioprine
32
Pulmonary
aim
cent
ec
ech
tardive
##oic
##aum
##yan
##sis
##tle
##fact
##king
##VA
##ercept
##ones
##thromb
##orubicin
##anercept
requ
##veitis
##apan
##leep
##phosph
distr
treatments
sex
neur
##oneph
##ified
agranulocytosis
uns
arrest
causing
receive
##ichen
##ophylline
##rops
myopathy
median
##athyroid
##SIK
analges
examined
opioid
erythema
pharmacokinetic
measures
bacterial
##avirin
##floxacin
proteinuria
determine
##nesium
antagonist
LASIK
##traconazole
##hydr
##omycosis
facial
parenteral
extremely
ribavirin
oxygen
31
72
BMT
CY
Con
Japan
MRI
Res
Se
ST
bro
ce
fract
mat
rupt
sleep
ten
##vic
##PS
##know
##arabine
##tering
##ecular
##lysis
##ograft
progn
resection
almost
unique
phase
##tisol
##erma
thrombolysis
lymphocyte
##illamine
improve
normalized
neck
blind
dysp
##axel
##tity
persisted
psychotic
differential
angio
maintenance
hemorrhagic
macroph
##oprim
hematologic
glucocorticoid
fulminant
suffering
##plications
##oeb
rechallenge
choice
##areness
suggestive
supportive
45
70
AT
AND
De
GVHD
cystic
certain
dog
fam
grav
light
##lic
##bal
##focal
##IN
##onide
ane
##osing
##opa
##opsy
##otens
##ept
unknow
diarr
hyperc
chemoth
entity
increases
place
lymphaden
cardiovascular
electr
defects
##ervical
supplement
##embol
##appropriate
exclud
full
fully
##tizing
IgG
trials
##icture
meningitis
##igmentation
ACE
melan
endocarditis
creatinine
irrever
baseline
hyperglyc
sequelae
##odynamic
encountered
require
distress
##otensin
unknown
diarrhea
42
53
55
CB
Fatal
MA
Most
Pr
aortic
bip
equ
flow
face
lack
mig
motor
nine
zoster
##ivery
##pr
##path
##aemic
##way
##ways
##aria
##iclovir
##itating
##aper
##apar
##ume
orth
##othel
##oidal
clar
##ellar
antim
##oxamine
##anciclovir
##ologous
agon
presents
##geal
##kinase
flap
scale
##angi
##yclic
##oplastic
nephritis
##rams
products
contrast
benign
hydrox
ifosfamide
infiltrate
measure
While
Administration
granulocyte
does
stimulation
neutrophil
whereas
epileptic
precip
colony
paper
indicate
surviv
prosthetic
valproate
cholestasis
preparation
##aryngeal
glomeruloneph
Mycobacterium
##iprofloxacin
##cription
CYP
gravis
AR
REPO
Six
ak
burn
cyc
fav
lumb
lichen
mil
sul
uveitis
water
##oac
##lus
##land
##iol
##itic
##ief
##aw
##xiety
##yg
##mb
##jective
##utive
##tiapine
inappropriate
##teria
##ecutive
##olin
##olution
##ura
##idental
##itr
##iton
##amoeb
##uclear
##inephrine
##adver
##igine
traum
hypoc
area
##izumab
desensitization
##astatin
diet
##uetiapine
subc
enl
consecutive
concurrent
better
##ologically
cardiopulmonary
##oint
##ensitive
recurred
probability
autologous
varic
carboplatin
manifested
doub
extremities
swelling
cultures
##rospinal
magnesium
adenocarcinoma
antidepressants
##otrigine
peg
biochemical
azathioprine
hypoglycemia
guid
strongly
##oquine
gradually
thyrotoxic
origin
myasthenia
##ominant
##quamous
trimethoprim
aneurysm
chemotherapeutic
irreversible
glomerulonephritis
00
90
Cand
HD
Le
Multi
coin
cef
dl
fr
itraconazole
os
pyr
sensitivity
##yram
##LE
##inent
##alysis
##isia
##aran
##omon
##ush
##ecting
##itated
##erapamil
adren
restric
##ectable
lep
orally
order
##ather
percutaneous
carri
##asty
hyperkal
relief
spasm
##ophag
parkinson
genetic
department
cycles
retrosp
tubular
##lycer
delivery
produced
evaluate
angiotensin
hydrochlor
approved
sulfate
osteonecrosis
Clinicians
##aphylococcus
cirrh
begin
impaired
necrotizing
benefit
arrhythmias
half
worsening
AIDS
endometrial
apparent
pleural
penicillamine
##anthamoeb
determined
perforation
Candida
##yramidal
AN
Man
Other
Pro
basis
cav
cross
cyan
lin
lact
nasal
vac
warr
##pid
##rac
##rane
##event
##me
##uter
##EG
##fa
##kyl
##ward
##ties
thus
off
theophylline
##anol
reas
##ittle
aspergill
##romes
##otomy
residual
onc
##aginase
alb
alfa
exhibit
next
hair
haemat
monotherapy
agitation
unevent
syndromes
clinic
plan
leukopenia
allograft
weekly
erg
regard
colchicine
minim
demonstrates
detection
manifestation
##ophilia
sulfameth
regimens
shortly
Phys
lipid
electroc
lamotrigine
degree
valproic
represent
etanercept
believe
temporal
concern
chromos
coagulation
discharged
myoclonus
baclofen
##oietic
anticonvulsant
molecular
pulse
doxorubicin
weakness
##utrition
Following
REPORT
##anthamoeba
uneventful
39
43
AP
HBV
More
Sp
Wil
cm
cough
currently
gamm
ganciclovir
pene
rati
rig
tend
venti
##oembol
##lation
##loxacin
##ave
##aqu
##ry
##Cs
##HS
##inol
##ession
##thyroidism
##atis
anxiety
##osal
##ulate
##ulopathy
Thus
##ampl
##adox
inform
never
##athisia
antidi
aged
##ophysi
prur
lymphoproliferative
##obarb
inhib
##ishman
biopsies
brad
##tituted
mechan
##remic
##apsone
Staphylococcus
hepatocellular
markedly
solid
hypothyroidism
acetate
antipsychotics
IgA
observations
micrograms
represents
thoracic
device
##uminum
greater
Intravenous
outpatient
Diagnosis
earli
asparaginase
intestinal
pelvic
prognosis
dyspnea
lymphadenopathy
bipolar
sulfamethoxazole
##obarbital
57
BC
ECT
For
If
MDS
PR
Pre
bic
brom
den
fung
gest
hip
kinase
mul
mother
now
pust
pump
picture
rang
rather
vul
vess
vers
ventric
wound
##cious
##jection
##born
##zid
##SH
##iness
##inally
thi
##esterol
##ored
##idate
##tional
conduc
##oderma
proc
proven
once
stable
##ultaneous
paras
objective
##ostatic
cann
allergy
##ogene
rise
longer
progress
pathological
phenobarbital
Acanthamoeba
periods
abnormality
##erebral
delay
##oniazid
produce
cerebrospinal
##ontrol
hydroxy
metastases
mucosa
patch
captopril
nodules
adjuvant
retinoic
embolism
glomerular
Immun
##iable
concluded
mitral
necrolysis
##otide
screening
##ADH
attributed
SIADH
##otropic
removed
accompanied
adequate
echocardi
##lusive
beginning
versus
33
34
56
64
69
80
Ab
CP
Carb
Eff
HA
Lab
PV
Renal
SM
bile
basal
cur
cop
cervical
ciprofloxacin
date
ect
mid
mim
nutrition
oedema
pan
size
slight
ure
verapamil
##xine
##na
##rupt
##ez
##ms
##als
inadver
##atrogenic
##rection
##used
##ula
##ulative
##ecit
##opoietic
##apyramidal
Thromb
##uch
asp
chori
commun
##antoin
##ateg
alkal
existing
infer
implicated
imatinib
stabil
lethal
recall
##ansfer
##ologists
##ipine
sympath
##ount
hemoglobin
placement
lymphocytes
novel
childhood
inser
herbal
gene
##fetil
depressive
defic
stress
upon
infusions
reduce
newborn
open
##tility
prominent
Only
extraction
psoriatic
ischemia
cream
prophylactic
polymorph
worsened
##escent
Neuro
##traline
legs
##respon
load
digoxin
rifamp
bullous
granulomatous
tricyclic
##thrombin
cirrhosis
##amples
##ecitabine
29
44
400
61
Ar
ALL
DE
Naran
Over
TEN
aer
bis
lysis
mixed
pall
sum
sites
ty
table
yet
##tum
##jo
##enz
##onidine
##thi
##icrob
##uled
##ulsive
##urs
##itol
##amph
##imod
alveolar
external
strept
leishman
##oidosis
perman
##ivudine
antiviral
cortisol
hyperthyroidism
intermit
##plete
##oretin
consisting
surface
toxin
cand
##ician
histopath
##omyel
compulsive
elimin
influ
##times
pathophysi
minutes
simultaneous
##stein
erythrop
value
suprav
angiography
##arcoidosis
##rectomy
##arbonate
awareness
##arget
increasingly
Report
bacteremia
enzymes
Americ
stopping
prostag
INT
aspirin
aspiration
superior
apparently
Trans
work
##ipramine
membran
referred
neonates
Subsequ
Possible
deposits
practice
##afenone
premature
rupture
excluded
akathisia
favor
varicella
aspergillosis
antidiuretic
mechanical
earlier
Naranjo
supraventricular
51
500
End
EEG
High
IU
Ind
III
PE
Per
Str
TSH
UC
VII
aplasia
bot
caps
fil
glyc
great
home
iron
ng
nucle
ray
rhythm
sour
search
squamous
sarcoidosis
uremic
vi
vag
##oked
##ni
##ner
##vascular
##fort
##fection
##GN
thal
##atib
##icyl
##rof
relev
##aced
##apr
##apism
##aparin
##ocaine
##amycin
trem
##elines
##unct
##anted
adol
aluminum
##ible
antif
##stances
prevention
monocl
Initi
units
##atinum
diuretic
##teen
overall
regular
endothel
painful
multifocal
progressed
##ished
confusion
minor
##ulfiram
sometimes
##azepam
primarily
ques
sched
ulcers
tuberculous
tolerance
soft
haemorrh
vasopressin
INR
behavior
##ENT
irradiation
arrhythmia
##luor
verte
movements
PTLD
##otype
ultrasound
##arkable
introduction
quinine
pemphigus
relapsed
microscopy
family
lumbar
carried
bicarbonate
##ansferase
##icrobial
##omyelitis
prostagland
monoclonal
75
Dep
Diss
El
HS
MR
PA
Rever
SD
TD
cle
cum
ju
joint
mis
nat
rates
sensitive
viv
##ii
##rial
##de
##cent
##ged
##gth
##zolid
##ST
##titis
##ensive
##ength
##ina
insi
offer
##ording
##atemia
##icl
##rees
reupt
degen
##umerous
chann
##plied
resemb
activation
alter
exch
clos
mand
complained
hyperp
hypert
hypertensive
sertraline
spread
substan
##ropath
##raves
potent
##ogenetic
histor
##genase
dosages
compon
black
arteri
strateg
visc
myelogenous
predominant
autopsy
nephropathy
production
propyl
blockade
##ochrome
affect
provide
interactions
Several
investigations
nodular
behaviour
unclear
lamivudine
methods
##brid
tempor
mutations
dystonia
purpura
predisposing
##uscular
converting
##arrhythmic
Epstein
portal
sexual
melanoma
hyperglycemia
cycle
thyrotoxicosis
coinc
##omonas
hyperkalemia
hydrochloride
ratio
Laboratory
leishmaniasis
permanent
erythropo
reuptake
38
54
58
Barr
Cardi
Disc
Graves
HUS
My
Mar
Pl
Sc
SLE
aver
aort
aure
cogn
eas
none
ot
vig
##ool
##itinib
##pected
##noid
##fied
##kel
##wing
##tile
##esophageal
##thesis
##oroidal
##anding
##rotic
##oses
##itud
##trating
conges
##otal
##otopic
##ugment
##odone
##odopa
proxim
alert
implications
sten
leuc
##ainide
##epatic
presumed
drain
preval
##chol
unrespon
##veness
abuse
serial
##encing
discl
subac
##ropion
thrombotic
allogene
##ocytopenia
##ript
intake
##posed
blast
responsive
defect
defined
intravenously
absorption
angle
hyd
optim
simple
forms
##ervative
immunosuppressed
hospitalization
maintained
blocker
##existing
counts
excessive
CD4
applied
extremity
erythematous
soon
estrogen
spontaneously
Complete
classic
levodopa
attack
interventions
critical
closely
sensory
volume
specimens
##treated
epithelial
segment
##athyroidism
CYP2
double
guidelines
parkinsonism
##ciousness
##atible
antifungal
verteb
prostaglandin
cumulative
aureus
congestive
allogeneic
47
65
71
Af
AZ
Blood
Is
SE
Symptom
TP
Ten
Use
ax
around
aplastic
bas
bup
biliary
dapsone
fat
lactic
little
nas
numerous
quetiapine
ren
section
target
##ove
##okinase
##eal
##uting
##ficial
##tia
##tially
##ination
thick
##esthetic
ana
##arial
##omes
##idomide
##opur
##apular
##ucil
isoniazid
##ote
##ades
##adine
chain
They
##odys
##ploy
proved
##aged
##agia
##epile
desm
Inc
unex
unrel
corrected
##ytopenia
##ylated
##ronate
##ophenol
chemical
plaqu
platinum
shows
epinephrine
obsessive
##ferred
##achment
##achnoid
cortical
##formation
##ardial
##timately
pathologic
cytochrome
##ietin
demonstrate
calcification
hearing
withdrawn
delir
product
femoral
##ofovir
sulfon
muscles
##opramide
hematoma
extrapyramidal
mofetil
##oclopramide
localized
##ambucil
eruptions
##asalazine
intravascular
acetyl
United
##iamine
##iazide
##tribution
beneficial
Hyper
degrees
Eng
HCV
PCR
Serum
implantation
specimen
organisms
susceptible
material
##litaxel
triggered
hypercalcemia
sulph
ergot
electrocardi
rigid
##adoxical
inhibition
##thiouracil
intermittent
##rofur
Disseminated
proximal
disclosed
Afric
Symptoms
##ophenolate
41
46
66
CO
CLL
Es
ECG
Hem
Min
Oral
Ps
P4
Pneum
Pseud
Syst
augment
dL
ero
ging
giant
kne
list
lob
norm
spl
tes
##iative
##aund
##ration
##yositis
##eff
##hepatic
##LA
##voxamine
##AB
##19
##NU
##ats
anaemia
animal
##enter
##ises
##arn
##rod
rein
##osum
##idofovir
##opia
##apt
##apen
##ocr
iss
##umption
##cephal
##portun
##imazole
prothrombin
accept
altered
strom
neoplasm
index
tradi
##velopment
antih
##oxaparin
##etamine
##actoid
intram
arm
causal
occup
spe
##azodone
##rosy
consciousness
cellular
intraoperative
##aking
malaria
remain
gland
underst
inhaled
mark
fluvoxamine
postm
outcom
##ulinum
Its
##oplasty
fibrin
opportun
coh
reflex
detail
prolongation
promyel
contrac
catheters
##wenty
tissues
propafenone
Chronic
toxicities
selected
much
##ART
gastr
eosinophilic
mmol
##iazep
Within
electroly
disappearance
mitomycin
explan
uncontrol
##phenidate
subsided
believed
circulation
carefully
subject
consequence
concerning
##lastoma
individuals
switching
susceptibility
fetal
##oprost
broad
fracture
clarithromycin
Multiple
##ushing
retrospective
chromosome
bradycardia
HAART
insertion
elimination
question
haemorrhage
closure
propylthiouracil
stenosis
drainage
##epileptic
##rofurantoin
P450
outcomes
promyelocytic
52
68
AV
BO
Based
CH
Cutaneous
Del
DPD
DAT
FD
GI
None
Tran
Toxic
VPA
fo
fif
fixed
gyn
hall
iatrogenic
lid
nature
samples
tors
##oar
##laf
##yz
##sal
##tub
##LIN
##vac
##uod
##PE
##13
##wise
##ending
##onid
thym
##thel
ing
##orp
##atch
anesthesia
androgen
rejection
##osm
##omep
##omile
##oler
##acity
bevac
deb
dehydro
##resh
##tinoin
chamb
disulfiram
exist
except
sept
separ
tri
##eptic
assay
suff
inducing
##oxide
##ologies
atax
causative
internal
##ipar
##teroidal
plus
medias
##ostatin
amb
##rene
regression
compatible
color
colonic
##axine
defin
types
esophageal
retro
repair
start
option
options
##ramycin
hospitalized
differenti
limiting
hydrocephal
identify
excretion
OBJECTIVES
dissection
##okal
Aspergill
accum
provides
nephrotoxicity
bronchospasm
investigated
cyclosporin
crypt
hypothesis
vasospasm
profound
assessed
peak
superficial
aminotr
transfusions
lasting
contributed
criteria
##operfusion
cystoid
mutation
penicillin
pointes
paclitaxel
purpose
intensity
reversed
reversal
properties
ampicillin
compounds
TMP
matter
##aperitoneal
antimicrobial
epilepticus
##itonavir
enlarg
leprosy
lactate
warranted
##pidus
vessels
source
view
relevant
juven
vivo
insipidus
degeneration
visceral
erythropoietin
Discontinu
unrelated
##aundice
stromal
Transient
##lafaxine
bevacizumab
chamber
Aspergillus
67
78
Ag
AB
Bronch
Central
Dec
Em
Ev
Fl
HT
Long
MS
Mag
Met
Noc
Of
Prop
foc
fall
mood
pigment
sun
tonic
yr
##lin
##iter
##aec
##nec
##diagn
##gue
##LT
##but
##ION
##12
##GF
##BD
##BC
##ores
##atives
##atur
##atosis
antine
##asmin
##istry
##aris
##arachnoid
##icion
##omic
##usis
##uscit
##ulations
##term
##terone
tob
tool
##idase
##openic
##oposide
##ocys
##ocycline
##utamine
##ucin
dele
##irth
##tinue
##imer
prote
resuscit
actin
acting
acne
##agen
alle
##abin
##abapen
infrequ
neural
neovascular
prescription
antiarrhythmic
antiepileptic
carotid
##iform
##actable
octre
able
arabin
dip
relation
##entia
spine
##opharyngeal
administering
enti
consisted
##raine
##aker
impact
##ludarabine
thromboembol
surve
neuropath
##SIGN
contamin
score
histologic
##aches
inhal
decomp
employ
resolve
radiological
special
typically
microm
myelodys
fourth
ultimately
feeding
##otretinoin
antich
##abolic
producing
detachment
CAPD
##iquimod
suspicion
lowering
States
label
##ohn
extrac
##oking
pharmacological
hormonal
provided
chlorambucil
##tidine
abdomen
capecitabine
temper
##rophysi
receptors
sequence
embolization
serotonergic
dermatologic
##onvulsive
promptly
##brile
encephal
keratomile
ophthalmic
Medical
neonatal
ileus
##oscler
unsuccessful
cephal
angioedema
macrophages
Development
migraine
survived
reason
exhibited
Physicians
gamma
ventilation
information
cannot
Carbamazepine
inadvertent
inferior
rifampicin
DESIGN
favorable
tremor
histories
average
cognitive
unresponsive
vertebral
English
Systemic
knee
dehydrogenase
ataxia
enlargement
juvenile
Discontinuation
Nocardia
##ocystis
##abapentin
octreotide
keratomileusis
49
BP
BCG
CI
Col
Cap
Eight
Hb
Hospital
Nine
New
Sim
fer
fati
lapar
mir
porph
sed
sil
via
##oat
##iosis
##iance
##irolimus
##iapism
##pation
##pective
##cal
##yle
##tain
##taining
##mol
##bl
##bound
##uz
##HL
##erase
##entical
##inic
thiamine
##org
##oric
##atology
antin
##icc
##reous
##rox
##osyn
##ecia
##urate
##idol
##acillin
##leb
##oct
##tries
##uten
##uction
debrid
##celer
conn
distin
distribution
##odiazep
##agnes
always
alkyl
imiquimod
##ainamide
##oides
hypom
hypox
hypophosph
##oxy
##oxysm
##acted
##vium
intraperitoneal
##azone
priapism
evident
conservative
play
plasmin
medicine
thrombin
conclusion
otherwise
remarkable
scal
##ogenesis
metoclopramide
endoscopic
Anti
##yroxine
demyel
pathology
myelosupp
##rophic
periodic
197
feature
##titute
##loroquine
METHOD
##orphine
##ember
advant
propose
humans
pregnant
hematopoietic
ulcerative
accidental
majority
chloride
healing
safely
deaths
neuroleptics
prescribing
linezolid
retinopathy
dextro
indicates
photos
reactivity
expression
intervals
synthetic
ulceration
azithromycin
asthmatic
meningioma
##escence
contribute
subjects
Neurolog
Methotrexate
consequences
characteristics
anaphylaxis
raised
activator
##standing
occasionally
urtic
gangl
maternal
##oscarn
maxim
pericardial
benzodiazep
Japanese
Prim
burns
##olinergic
hypocalcemia
pegylated
ANCA
Moreover
conduction
SMX
deficit
Neuroleptic
American
botulinum
clearly
hyperpigmentation
prevalence
subacute
##riptan
delirium
African
testicular
hydrocephalus
tobramycin
anticholinergic
fatigue
debridement
plasminogen
##oscarnet
59
74
82
Aut
ACT
Co
CK
Cor
Dop
FM
Hg
John
Lithium
Oc
PS
Prol
Rh
Ris
Top
atri
bul
bodies
birth
cranial
drops
far
final
fludarabine
gon
junction
jaundice
lav
mE
py
ruled
##pread
##riam
##gi
##habil
##AS
##ER
##20
##VII
##NG
##onography
##inavir
##inii
##alim
ineff
offen
##ortion
##orting
##entan
##isis
##anine
##antib
##rous
reach
##ostic
##omfort
tol
##emide
##emotherapy
##emoglobin
##itate
##opram
##leuk
##letal
##lets
##ocial
##trans
##tically
Therapy
isotretinoin
deple
##romazine
conte
convul
##elf
##unomide
choroidal
distal
exten
exists
trimes
##othor
##othyroxine
record
percent
##ications
olig
carinii
##encephal
preoperative
preexisting
atrophy
untreated
unnec
diaz
correct
severely
##tisone
discomfort
parac
subarachnoid
enoxaparin
obese
consti
myal
##rand
remaining
scans
amyloid
histology
endogenous
##italopram
##imetidine
##rown
##keletal
discontinuing
managing
arteries
##CTION
significance
specif
dementia
cytosine
effectively
##ieving
prolif
retard
examinations
120
person
psychotropic
lungs
refl
identical
differences
cerebellar
limits
microb
blockers
pancytopenia
vitreous
macul
osteop
osteomyelitis
venlafaxine
##lobal
headaches
Addition
hypothes
postoperatively
acetonide
##ethyl
growing
adjust
Recently
##like
profession
##omatostatin
##iazine
eventually
physician
repeat
terat
dermatosis
levothyroxine
##azoline
##azolamide
##oplasmosis
##idespread
Neut
disturbance
difficulty
pseudo
##iversity
histologically
membrane
##amilial
allowed
airway
##oalveolar
analogue
myoclonic
dilated
introduced
activated
operation
nonsteroidal
blindness
ATRA
dogs
traumatic
penetrating
pustular
procainamide
bisphosph
endothelial
natural
optimal
TPN
Pneumocystis
erosion
traditional
intramuscular
opportunistic
uncontrolled
ambulatory
aminotransferase
arabinoside
micromol
alkylating
Primary
lavage
mEq
##riamycin
ineffective
context
unnecess
76
95
By
Bone
Cal
DR
EBV
Gl
Gen
IT
Liver
Or
Ob
PU
RPE
Twenty
aeti
bol
binding
cas
citalopram
dang
fist
fasc
foscarnet
gain
gram
hr
how
just
ke
lor
noct
pil
uro
umb
wear
wave
##iar
##pine
##rain
##eine
##mia
##gr
##bar
##uary
##urop
##GE
##eresis
##onates
##inc
##inating
##ali
##alapr
##ators
anth
##entam
##roc
rehabil
##omod
##terase
##ecul
##olamine
##emp
##acti
##acaine
##oconstr
##uture
##ilical
##igm
##unk
##tinence
challen
resc
acceler
##aglobulin
stenting
stool
assisted
clot
classi
hypokal
##ivacaine
antitub
carcin
preterm
monon
Infl
unable
unilateral
intractable
##lotinib
diphen
occlusive
transformation
##rolene
##rosine
paradoxical
paroxysm
evol
immunomod
##ukast
##uresis
##onstitution
##adily
amount
err
erlotinib
intoler
completion
perioperative
normalization
##obutamine
compression
decline
decision
multiform
minocycline
##oventricular
Accor
##phalan
delusion
systems
angiosarcoma
smear
metabolites
##ofluor
##osporin
##ohist
cholesterol
pharmacologic
##yria
Adverse
according
pathogenic
chlorp
organic
Pharmac
cry
crisis
capacity
eosinophils
aggrav
scleroderma
##omastia
throughout
linear
nitr
supported
groups
obstructive
expected
polymyositis
##ectiveness
substitution
establish
guided
##operidol
gradual
regional
excell
tumours
Hepat
##respond
##cortisone
correlated
##urgical
emphasize
microscopic
derivative
highlights
##TIONS
slowly
conjunctival
Seven
electron
agonist
linked
gestation
ventricul
hydroxyurea
panic
aspects
palliative
tyrosine
tablets
candid
pathophysiology
membranes
adolescent
Reversible
channel
strategy
predominantly
attacks
Incre
gingival
contracep
DATA
fifth
Emerg
protease
myelodysplastic
antinuclear
maximum
FMF
Prolong
##emoglobinemia
constipation
unnecessary
bolus
umbilical
According
2b
300
63
62
600
73
77
99
Bef
Calc
CML
Due
Hy
HI
HB
IL
Kap
MP
NE
Pol
Panc
Prog
PSA
Sy
Some
TA
TB
Vis
cer
cyp
cran
cidofovir
duod
dobutamine
length
nif
nail
pron
punct
swe
sirolimus
upt
widespread
##oon
##lig
##pon
##aution
##rad
##razole
##damycin
##carb
##taz
##mar
##more
##ging
##bo
##bital
##vo
##utin
##uropathy
##Ds
##D6
##DU
##ICA
##11
##RS
##RH
##MD
##tiaz
##editary
##inary
##astine
##astric
##arter
##reg
readily
##osi
##osulf
##osomal
took
##olic
##idov
##itamin
##acia
##opaus
##opapular
##opecia
##leven
##iltration
##amol
##ample
fore
displ
##odilat
##ystitis
##antrolene
##imine
proposed
access
exud
neonate
trache
trunk
##epam
clonidine
effort
##izole
##ify
preced
atten
position
##chym
Ins
abrupt
complain
hyperther
##encies
##ounced
paralysis
chemor
obli
showing
surge
##ranous
novo
injected
amn
completed
##ychloroquine
risks
##rowth
Anaphyl
reveal
radiographic
species
esophag
analys
##oplasia
cytarabine
MED
reporting
variable
carbonate
leads
detect
needle
##ematous
##arcoal
limit
##embranous
breath
##RODU
labor
##ituitary
##pecific
affective
recommendations
mouth
##truction
mucositis
electrophysi
CD20
Review
autoantib
Phen
achieve
cryst
methylphenidate
saline
protamine
1000
difficile
Recent
nitrofurantoin
Combin
##azolam
irrit
explain
illustrate
##omalacia
##omegaly
polymerase
PDT
haloperidol
directly
suddenly
HCC
etoposide
enterocol
antagonists
Furthermore
cholestatic
melphalan
mycophenolate
coagulopathy
pacing
exception
enhanc
enhanced
##oiter
anaphylactoid
intense
anticonvulsants
correlation
amput
switched
pemphigoid
fetus
##litazone
uterine
MMF
attempted
center
analgesic
Seiz
CBZ
orthotopic
measurements
ARF
lichenoid
##iolitis
trauma
pyrid
adrenergic
planus
community
sympathetic
streptokinase
INTRODU
Strong
capsule
Initial
Elect
misdiagn
resembling
exchange
component
easily
simplex
bupivacaine
nasopharyngeal
##opurinol
electrocardiogram
lobe
hallucin
lidocaine
sunitinib
resuscitation
entire
employed
mirtaz
demyelinating
myelosuppression
ACTH
atrioventricular
trimester
diazepam
PUVA
anthrac
rescue
excellent
Before
Kaposi
uptake
##tiazem
##idovudine
##opausal
obliter
enterocolitis
INTRODUCTION
mirtazapine
Bilateral
CF
Care
Cons
Cauc
Cushing
Gy
HLA
LM
Me
MI
Mon
Mic
National
OC
Prom
Rep
Rapid
Sal
Steroid
Ste
Typ
TLS
UV
avium
bal
bur
border
call
dro
done
dimin
fal
fast
fund
finally
future
goiter
ran
som
sem
sib
sick
social
yiel
##ld
##ik
##piratory
##after
##nitol
##ruption
##sA
##juvant
##uti
##ufact
##PH
##fac
##IG
##Hg
##inosa
##align
##thral
##thyroid
##tharg
instances
##orous
##atriptan
##asian
##icular
##ussion
##idog
##idronate
##eminal
##acr
##ople
##opidine
##opidog
##aple
##aptic
##ocation
##trated
##ticul
##version
##utane
##amidronate
##ower
##romise
##adr
##ported
whole
##uginosa
##odine
adh
research
act
##yps
exogenous
images
standing
leak
letharg
##aind
##epa
##eptid
living
reconstitution
clom
clopidog
draw
##anch
haz
preven
mannitol
manufact
follic
folinic
Inf
##vens
correspond
##load
arg
##neuropathy
hyperpar
clindamycin
transverse
##ylate
##encement
spir
spond
spite
##peritoneal
##rolide
partic
subm
evolution
enalapr
consumption
##hex
##heimer
leukem
##uality
heter
healed
signal
##illance
contained
instituted
##ressant
cancers
dysph
##formin
considering
##ersensitivity
phenol
mineral
controls
functional
reducing
Acc
tested
proliferative
eyel
##stead
polyc
persons
requires
plasmaph
##enicol
promising
contraind
hydrocortisone
##ofib
##iques
150
suspect
osteomalacia
##oprazole
identification
excision
veno
extra
##ochond
##zyme
chloramph
catat
cleared
cauti
vasoconstr
prevented
mmHg
behavioral
physical
twin
tomographic
##artan
##iabetic
tachy
##roscopic
herpetic
##oea
Hypersensitivity
Enter
endometr
circulating
deteriorated
preparations
##osterone
alcoholic
##aryng
polyneuropathy
idiosyn
endocrine
##oquinol
allowing
PTU
grew
hands
latent
discharge
bacill
anaphylactic
diltiazem
##ozyg
##iramate
##yloides
terminal
analgesia
placebo
agonists
fraction
restricted
Many
vaccin
oncology
APL
pruritus
ranging
echocardiography
mimic
slightly
polymorphism
aeruginosa
PATI
##iclopidine
Cardiac
desmopressin
unexpected
sulfonamide
Pseudomonas
augmentation
speech
gastritis
electrolyte
accumulation
antineoplastic
neovascularization
temperature
##osclerosis
##blastine
##agnesemia
offending
maculopapular
professionals
##aliplatin
rehabilitation
antitubercul
multiforme
Visual
crani
hyperthermia
Caucasian
Stevens
clopidogrel
hyperparathyroidism
chloramphenicol
cautious
83
AA
Cyt
DL
FK
Fever
GH
Hum
KS
Line
Nor
NHL
OCT
PP
Path
Pers
RS
Ret
Radiation
Sh
SC
Such
WE
aid
bab
cost
cimetidine
div
dial
diz
fell
fusion
familial
gabapentin
global
je
mill
notic
om
pH
pituitary
rub
ritonavir
ster
somatostatin
tim
taper
ves
##oad
##lined
##iomas
##xia
##dle
##dural
##tte
##tently
##mus
##ground
##garis
##haps
##bup
##vage
##vasive
##uation
##uros
##ziness
##AL
##DD
##fication
##TA
##TTI
##ks
##HA
##int
##aline
##alities
##esir
##esias
##orr
##orafen
anomal
##asation
##assive
##isole
##iction
##icidal
##anin
##rover
##rofen
read
rebound
##econd
##oll
##idrosis
##emaker
##activity
##opar
##opyr
##apl
##tioners
##ocrine
##tra
##tronid
##tracted
below
##amisole
##umably
##ortem
continue
##adic
##tinent
comorbid
##antadine
##pler
##imeric
onych
##agement
##abutin
exerc
##ndrome
imm
ste
stom
##urette
trypt
develops
presumably
lipos
assist
##ideo
perfusion
##ionate
effectiveness
##izes
##etal
##etaxel
mono
manic
description
ocul
##romegal
compliance
causality
spect
##azimine
discover
paral
partially
practi
myopia
plate
##aken
thrombi
##ostasis
##ergistic
canal
lymphoid
allopurinol
##viron
##virapine
methicillin
##aminergic
gluten
##ferri
##anges
##angioma
diffusion
dosing
##obil
compromise
hereditary
##endazole
empir
elective
Angi
continuation
nonc
take
cytogenetic
##ythemia
newer
feas
febrile
involve
Heal
##ognized
deliver
persist
organs
##avasation
changed
metabolite
catheterization
modalities
Chol
Chest
surgically
sulfasalazine
pregnancies
muscular
vena
Strept
hematological
affecting
##yramine
granulocytopenia
accident
accurate
progressively
##icking
CD3
catech
undergone
stimul
transi
node
intracerebral
DIHS
prostatic
uncomplicated
University
salvage
Recom
Recurrent
supports
mm3
irrig
techniques
mitochond
etiologic
##oplasmic
dopaminergic
vinblastine
trigeminal
lenses
endometri
keratoplasty
circum
oxaliplatin
CNV
##iminary
world
Methyl
Histopath
point
chromat
restless
latter
ultrasonography
Hepatic
##ozol
operative
commencement
ADR
pericarditis
##factory
##ropsych
opioids
pharmacokinetics
##hydramine
macrophage
electroretin
supplementation
##prazolam
hydroxychloroquine
milk
001
frag
osmol
hairy
tendon
pruritic
PRES
vulgaris
copper
middle
mimicking
chorioretin
stabilized
loading
Subsequent
Subsequently
##icylic
diuretics
HSCT
temporary
aorta
SETTI
rigidity
foot
##theless
debil
separate
retroperitoneal
Magnetic
focus
infrequent
encephalitis
##uzumab
distinct
hypophosphatemia
ganglion
Johnson
Topical
##alimumab
##othorax
records
osteopor
Neutrop
fistula
paroxysmal
chlorpromazine
Hydro
Syndrome
pronounced
puncture
amnesia
Strongyloides
hallucinations
obliterans
yielded
##alignant
manufactur
eyelid
plasmapheresis
tachyarrhythm
dizziness
##buprofen
##urosemide
##orafenib
##tronidazole
practitioners
endometriosis
osmolality
SETTING
86
88
A1
BK
CR
Car
Clo
Continu
Cont
Cortic
Cerebral
DG
ED
ER
Finally
Group
Gold
HR
IOP
RF
Rif
RNA
SJ
SMS
Second
Us
bo
born
dan
ef
facil
gast
globulin
gross
gave
lig
merc
making
near
night
oil
oint
rit
rad
rose
sided
util
vital
zon
##lam
##lip
##iph
##iate
##iitis
##pre
##rap
##ces
##ture
##gl
##gular
##LP
##jun
##A4
##for
##FVII
##MP
##OD
##OR
##erence
##enes
##onol
##edipine
##inese
##orded
anesthetic
anabolic
##enteric
##isamide
##aring
##ico
##icat
##antr
##reported
##roz
##rovascular
retention
##ithiasis
##omotor
##omembranous
toc
tooth
##ecainide
##urally
##ope
Thir
##utable
##amyl
iso
##own
##elior
charcoal
chimeric
##odrine
adriamycin
reser
acromegal
alread
alanine
lefl
syph
true
##eprazole
##quid
##quine
liquid
reconstr
clonic
periv
perhaps
incon
##ested
atopic
mania
##cratic
##actam
desferri
##monemia
unres
intrad
above
articular
##nex
diver
transamin
interest
interfer
##tenosis
spastic
##iptine
##ipipr
physi
symme
symptomatology
discussion
##ropine
ens
eng
constric
immunological
immunohist
hemodynamic
myoglobin
##ometh
played
placed
##ubation
thromboc
neuropsych
others
flut
##virus
##adiotherapy
remed
scin
ampl
amantadine
amelior
intact
##omyositis
cardiotoxicity
multid
psoral
postpar
##timulation
nonin
confined
mind
decreasing
timely
newly
retrog
involves
reproduc
erythrod
calculated
calciton
dermal
formulation
performance
##iatr
bleb
detectable
##urnal
CAP
angiogram
break
modified
Chinese
counter
suppressed
glucur
quick
quadr
cholec
extravasation
White
metastasis
mucosal
##ographically
infarct
chloroquine
weighted
thyroiditis
Intrav
begun
scleritis
rhin
haemolytic
room
grafts
sequential
precurs
emboli
papular
replaced
indicating
1991
behaviors
schizophrenic
populations
##recognized
levamisole
synergistic
##roscopy
##oplasma
azot
dopa
prospective
phenomena
approaches
poorly
PCP
##506
emphasis
patterns
Histological
mesenteric
##omyces
dystrophy
pacemaker
sensor
Herein
exceed
Heparin
creatine
dramatically
attributable
occasions
epithelium
routinely
emphasized
helpful
herpesvirus
output
background
gangrene
rifabutin
ketoac
located
locally
Differ
hypocalc
Management
cava
##wards
albumin
Spontaneous
Wilms
BCNU
bromocr
dense
ectopic
##amphetamine
Department
MRSA
mandatory
March
Plasm
##itude
plaque
accepted
neoplasms
understood
explanation
##osmetic
septal
sufficient
##iparesis
December
neuralgia
